{"version":"1.0","truncation":{"max_length":256,"strategy":"LongestFirst","stride":0},"padding":{"strategy":{"Fixed":256},"direction":"Right","pad_to_multiple_of":null,"pad_id":0,"pad_type_id":0,"pad_token":"[PAD]"},"added_tokens":[{"id":0,"special":true,"content":"[PAD]","single_word":false,"lstrip":false,"rstrip":false,"normalized":false},{"id":1,"special":true,"content":"[CLS]","single_word":false,"lstrip":false,"rstrip":false,"normalized":false},{"id":2,"special":true,"content":"[SEP]","single_word":false,"lstrip":false,"rstrip":false,"normalized":false},{"id":3,"special":true,"content":"[EOS]","single_word":false,"lstrip":false,"rstrip":false,"normalized":false},{"id":4,"special":true,"content":"[UNK]","single_word":false,"lstrip":false,"rstrip":false,"normalized":false},{"id":5,"special":true,"content":"[MASK]","single_word":false,"lstrip":false,"rstrip":false,"normalized":false}],"normalizer":{"type":"Sequence","normalizers":[{"type":"NFKD"},{"type":"Lowercase"}]},"pre_tokenizer":{"type":"Sequence","pretokenizers":[{"type":"Whitespace"},{"type":"Metaspace","replacement":"▁","str_rep":"▁","add_prefix_space":true},{"type":"Digits","individual_digits":false}]},"post_processor":{"type":"TemplateProcessing","single":[{"SpecialToken":{"id":"[CLS]","type_id":0}},{"Sequence":{"id":"A","type_id":0}},{"SpecialToken":{"id":"[EOS]","type_id":0}}],"pair":[{"SpecialToken":{"id":"[CLS]","type_id":0}},{"Sequence":{"id":"A","type_id":0}},{"SpecialToken":{"id":"[SEP]","type_id":0}},{"Sequence":{"id":"B","type_id":1}},{"SpecialToken":{"id":"[EOS]","type_id":1}}],"special_tokens":{"[SEP]":{"id":"[SEP]","ids":[2],"tokens":["[SEP]"]},"[CLS]":{"id":"[CLS]","ids":[1],"tokens":["[CLS]"]},"[EOS]":{"id":"[EOS]","ids":[3],"tokens":["[EOS]"]}}},"decoder":{"type":"Metaspace","replacement":"▁","str_rep":"▁","add_prefix_space":true},"model":{"dropout":null,"unk_token":null,"continuing_subword_prefix":null,"end_of_word_suffix":null,"fuse_unk":false,"vocab":{"[PAD]":0,"[CLS]":1,"[SEP]":2,"[EOS]":3,"[UNK]":4,"[MASK]":5,"!":6,"\"":7,"#":8,"$":9,"%":10,"&":11,"'":12,"(":13,")":14,"*":15,"+":16,",":17,"-":18,".":19,"/":20,"0":21,"1":22,"2":23,"3":24,"4":25,"5":26,"6":27,"7":28,"8":29,"9":30,":":31,";":32,"<":33,"=":34,">":35,"?":36,"@":37,"[":38,"\\":39,"]":40,"^":41,"_":42,"`":43,"a":44,"b":45,"c":46,"d":47,"e":48,"f":49,"g":50,"h":51,"i":52,"j":53,"k":54,"l":55,"m":56,"n":57,"o":58,"p":59,"q":60,"r":61,"s":62,"t":63,"u":64,"v":65,"w":66,"x":67,"y":68,"z":69,"{":70,"|":71,"}":72,"~":73,"":74,"":75,"":76,"":77,"":78,"":79,"¡":80,"¢":81,"£":82,"¤":83,"¥":84,"§":85,"©":86,"«":87,"­":88,"®":89,"°":90,"±":91,"¶":92,"·":93,"»":94,"¿":95,"×":96,"ß":97,"æ":98,"ð":99,"÷":100,"ø":101,"þ":102,"đ":103,"ħ":104,"ı":105,"ĸ":106,"ł":107,"ŋ":108,"œ":109,"ŧ":110,"ƀ":111,"ƈ":112,"ƍ":113,"ƒ":114,"ƙ":115,"ƛ":116,"ƣ":117,"ƥ":118,"ƭ":119,"ƿ":120,"ǀ":121,"ǁ":122,"ǂ":123,"ǃ":124,"ǝ":125,"ȝ":126,"ȷ":127,"ȼ":128,"ɉ":129,"ɐ":130,"ɑ":131,"ɒ":132,"ɓ":133,"ɔ":134,"ɕ":135,"ɖ":136,"ɗ":137,"ɘ":138,"ə":139,"ɚ":140,"ɛ":141,"ɜ":142,"ɞ":143,"ɟ":144,"ɠ":145,"ɡ":146,"ɢ":147,"ɣ":148,"ɤ":149,"ɥ":150,"ɦ":151,"ɧ":152,"ɨ":153,"ɪ":154,"ɫ":155,"ɬ":156,"ɭ":157,"ɮ":158,"ɯ":159,"ɰ":160,"ɱ":161,"ɲ":162,"ɳ":163,"ɴ":164,"ɵ":165,"ɶ":166,"ɷ":167,"ɸ":168,"ɹ":169,"ɺ":170,"ɻ":171,"ɽ":172,"ɾ":173,"ʀ":174,"ʁ":175,"ʂ":176,"ʃ":177,"ʄ":178,"ʇ":179,"ʈ":180,"ʉ":181,"ʊ":182,"ʋ":183,"ʌ":184,"ʍ":185,"ʎ":186,"ʏ":187,"ʐ":188,"ʑ":189,"ʒ":190,"ʔ":191,"ʕ":192,"ʖ":193,"ʗ":194,"ʘ":195,"ʙ":196,"ʛ":197,"ʝ":198,"ʞ":199,"ʟ":200,"ʠ":201,"ʡ":202,"ʢ":203,"ʹ":204,"ʻ":205,"ʼ":206,"ʽ":207,"ʾ":208,"ʿ":209,"ˀ":210,"ˁ":211,"ˆ":212,"ˇ":213,"ˈ":214,"ˌ":215,"ː":216,"ˑ":217,"˔":218,"˕":219,"˖":220,"˞":221,"˥":222,"˦":223,"˧":224,"˨":225,"˩":226,"̀":227,"́":228,"̂":229,"̃":230,"̄":231,"̆":232,"̇":233,"̈":234,"̉":235,"̊":236,"̋":237,"̌":238,"̍":239,"̏":240,"̐":241,"̑":242,"̓":243,"̔":244,"̖":245,"̗":246,"̚":247,"̛":248,"̝":249,"̞":250,"̟":251,"̠":252,"̣":253,"̤":254,"̥":255,"̦":256,"̧":257,"̨":258,"̩":259,"̪":260,"̬":261,"̮":262,"̯":263,"̰":264,"̱":265,"̲":266,"̳":267,"̸":268,"̺":269,"̽":270,"͂":271,"ͅ":272,"͌":273,"͍":274,"͘":275,"͜":276,"͡":277,"α":278,"β":279,"γ":280,"δ":281,"ε":282,"ζ":283,"η":284,"θ":285,"ι":286,"κ":287,"λ":288,"μ":289,"ν":290,"ξ":291,"ο":292,"π":293,"ρ":294,"ς":295,"σ":296,"τ":297,"υ":298,"φ":299,"χ":300,"ψ":301,"ω":302,"ϝ":303,"ϟ":304,"а":305,"б":306,"в":307,"г":308,"д":309,"е":310,"ж":311,"з":312,"и":313,"к":314,"л":315,"м":316,"н":317,"о":318,"п":319,"р":320,"с":321,"т":322,"у":323,"ф":324,"х":325,"ц":326,"ч":327,"ш":328,"щ":329,"ъ":330,"ы":331,"ь":332,"э":333,"ю":334,"я":335,"ђ":336,"є":337,"і":338,"ј":339,"љ":340,"њ":341,"ћ":342,"ѡ":343,"ѣ":344,"ѥ":345,"ѧ":346,"ѯ":347,"ѹ":348,"҆":349,"ғ":350,"қ":351,"ү":352,"ҳ":353,"ҷ":354,"ө":355,"ӷ":356,"ա":357,"բ":358,"գ":359,"դ":360,"ե":361,"զ":362,"է":363,"ը":364,"թ":365,"ժ":366,"ի":367,"լ":368,"խ":369,"ծ":370,"կ":371,"հ":372,"ձ":373,"ղ":374,"ճ":375,"մ":376,"յ":377,"ն":378,"շ":379,"ո":380,"չ":381,"պ":382,"ջ":383,"ռ":384,"ս":385,"վ":386,"տ":387,"ր":388,"ց":389,"ւ":390,"փ":391,"ք":392,"օ":393,"֤":394,"֫":395,"ְ":396,"ֱ":397,"ֲ":398,"ֳ":399,"ִ":400,"ֵ":401,"ֶ":402,"ַ":403,"ָ":404,"ֹ":405,"ֻ":406,"ּ":407,"ֽ":408,"ֿ":409,"ׁ":410,"ׂ":411,"א":412,"ב":413,"ג":414,"ד":415,"ה":416,"ו":417,"ז":418,"ח":419,"ט":420,"י":421,"ך":422,"כ":423,"ל":424,"ם":425,"מ":426,"ן":427,"נ":428,"ס":429,"ע":430,"ף":431,"פ":432,"ץ":433,"צ":434,"ק":435,"ר":436,"ש":437,"ת":438,"ױ":439,"׳":440,"،":441,"ء":442,"ا":443,"ب":444,"ة":445,"ت":446,"ث":447,"ج":448,"ح":449,"خ":450,"د":451,"ذ":452,"ر":453,"ز":454,"س":455,"ش":456,"ص":457,"ض":458,"ط":459,"ظ":460,"ع":461,"غ":462,"ـ":463,"ف":464,"ق":465,"ك":466,"ل":467,"م":468,"ن":469,"ه":470,"و":471,"ى":472,"ي":473,"ً":474,"ٌ":475,"ٍ":476,"َ":477,"ُ":478,"ِ":479,"ّ":480,"ْ":481,"ٓ":482,"ٔ":483,"ٕ":484,"١":485,"٧":486,"ٰ":487,"پ":488,"چ":489,"ڈ":490,"ڠ":491,"ک":492,"ڬ":493,"گ":494,"ں":495,"ھ":496,"ہ":497,"ی":498,"ۍ":499,"ے":500,"ە":501,"ܐ":502,"ܒ":503,"ܔ":504,"ܕ":505,"ܗ":506,"ܘ":507,"ܙ":508,"ܚ":509,"ܛ":510,"ܝ":511,"ܠ":512,"ܡ":513,"ܢ":514,"ܣ":515,"ܥ":516,"ܦ":517,"ܪ":518,"ܬ":519,"ܲ":520,"ܵ":521,"ܼ":522,"݂":523,"ँ":524,"ं":525,"ः":526,"अ":527,"आ":528,"इ":529,"ई":530,"उ":531,"ऋ":532,"ए":533,"ऐ":534,"औ":535,"क":536,"ख":537,"ग":538,"घ":539,"ङ":540,"च":541,"छ":542,"ज":543,"ञ":544,"ट":545,"ठ":546,"ड":547,"ण":548,"त":549,"थ":550,"द":551,"ध":552,"न":553,"प":554,"फ":555,"ब":556,"भ":557,"म":558,"य":559,"र":560,"ल":561,"व":562,"श":563,"ष":564,"स":565,"ह":566,"़":567,"ऽ":568,"ा":569,"ि":570,"ी":571,"ु":572,"ू":573,"ृ":574,"ॆ":575,"े":576,"ै":577,"ॉ":578,"ॊ":579,"ो":580,"ौ":581,"्":582,"ॐ":583,"।":584,"॥":585,"१":586,"२":587,"३":588,"ং":589,"অ":590,"আ":591,"ই":592,"এ":593,"ক":594,"খ":595,"গ":596,"ঙ":597,"চ":598,"জ":599,"ট":600,"ড":601,"ঢ":602,"ণ":603,"ত":604,"থ":605,"দ":606,"ন":607,"প":608,"ব":609,"ভ":610,"ম":611,"য":612,"র":613,"ল":614,"শ":615,"ষ":616,"স":617,"হ":618,"়":619,"া":620,"ি":621,"ী":622,"ু":623,"ূ":624,"ে":625,"ৈ":626,"্":627,"ৰ":628,"ਂ":629,"ਅ":630,"ਉ":631,"ਖ":632,"ਘ":633,"ਜ":634,"ਝ":635,"ਦ":636,"ਲ":637,"ਵ":638,"ਸ":639,"ਹ":640,"਼":641,"ਾ":642,"ਿ":643,"ੁ":644,"ੇ":645,"ੰ":646,"ੱ":647,"ખ":648,"ફ":649,"બ":650,"ર":651,"લ":652,"સ":653,"ા":654,"ો":655,"ପ":656,"ର":657,"ୀ":658,"ୁ":659,"ஃ":660,"அ":661,"ஆ":662,"இ":663,"ஈ":664,"எ":665,"ஒ":666,"க":667,"ங":668,"ச":669,"ட":670,"ண":671,"த":672,"ந":673,"ன":674,"ப":675,"ம":676,"ய":677,"ர":678,"ற":679,"ல":680,"ள":681,"ழ":682,"வ":683,"ஸ":684,"ா":685,"ி":686,"ீ":687,"ு":688,"ூ":689,"ெ":690,"ே":691,"ை":692,"்":693,"ం":694,"క":695,"ఖ":696,"గ":697,"జ":698,"ట":699,"ఠ":700,"డ":701,"త":702,"థ":703,"ద":704,"న":705,"ప":706,"బ":707,"భ":708,"మ":709,"య":710,"ర":711,"ల":712,"వ":713,"ష":714,"స":715,"ా":716,"ి":717,"ీ":718,"ు":719,"ె":720,"ో":721,"్":722,"ౖ":723,"ಂ":724,"ಃ":725,"ಕ":726,"ಖ":727,"ಗ":728,"ಚ":729,"ಟ":730,"ಠ":731,"ಡ":732,"ತ":733,"ದ":734,"ನ":735,"ಪ":736,"ಬ":737,"ಭ":738,"ಮ":739,"ಯ":740,"ರ":741,"ಱ":742,"ಲ":743,"ಳ":744,"ವ":745,"ಶ":746,"ಸ":747,"ಹ":748,"ಾ":749,"ಿ":750,"ು":751,"ೂ":752,"ೆ":753,"್":754,"ೕ":755,"ೞ":756,"അ":757,"ങ":758,"ദ":759,"ന":760,"പ":761,"മ":762,"യ":763,"ര":764,"ള":765,"വ":766,"ശ":767,"സ":768,"ഹ":769,"ാ":770,"ി":771,"്":772,"අ":773,"එ":774,"ක":775,"ග":776,"ජ":777,"ත":778,"ධ":779,"න":780,"ප":781,"ම":782,"ය":783,"ර":784,"ල":785,"ව":786,"ශ":787,"හ":788,"ළ":789,"්":790,"ා":791,"ැ":792,"ි":793,"ු":794,"ෙ":795,"ก":796,"ข":797,"ค":798,"ฆ":799,"ง":800,"จ":801,"ฉ":802,"ช":803,"ซ":804,"ญ":805,"ฎ":806,"ฏ":807,"ฐ":808,"ฑ":809,"ณ":810,"ด":811,"ต":812,"ถ":813,"ท":814,"ธ":815,"น":816,"บ":817,"ป":818,"ผ":819,"ฝ":820,"พ":821,"ฟ":822,"ภ":823,"ม":824,"ย":825,"ร":826,"ฤ":827,"ล":828,"ว":829,"ศ":830,"ษ":831,"ส":832,"ห":833,"ฬ":834,"อ":835,"ฮ":836,"ะ":837,"ั":838,"า":839,"ิ":840,"ี":841,"ึ":842,"ื":843,"ุ":844,"ู":845,"฿":846,"เ":847,"แ":848,"โ":849,"ใ":850,"ไ":851,"็":852,"่":853,"้":854,"๊":855,"์":856,"ํ":857,"་":858,"།":859,"ཀ":860,"ཁ":861,"ག":862,"ང":863,"ཆ":864,"ཇ":865,"ཐ":866,"ད":867,"ན":868,"པ":869,"བ":870,"མ":871,"ཙ":872,"ཚ":873,"ཛ":874,"འ":875,"ཡ":876,"ར":877,"ལ":878,"ས":879,"ཧ":880,"ི":881,"ུ":882,"ེ":883,"ོ":884,"ྟ":885,"ྡ":886,"ྣ":887,"ྤ":888,"ྥ":889,"ྱ":890,"ྲ":891,"က":892,"ဂ":893,"င":894,"စ":895,"ဆ":896,"ဇ":897,"တ":898,"န":899,"ပ":900,"ဗ":901,"ဘ":902,"မ":903,"ယ":904,"ရ":905,"လ":906,"ဝ":907,"ဟ":908,"အ":909,"ာ":910,"ိ":911,"ီ":912,"ု":913,"ူ":914,"ဲ":915,"း":916,"္":917,"်":918,"ျ":919,"ြ":920,"ွ":921,"ှ":922,"၁":923,"၂":924,"၇":925,"၈":926,"ა":927,"ბ":928,"გ":929,"დ":930,"ე":931,"ვ":932,"ზ":933,"თ":934,"ი":935,"კ":936,"ლ":937,"მ":938,"ნ":939,"ო":940,"პ":941,"ჟ":942,"რ":943,"ს":944,"ტ":945,"უ":946,"ფ":947,"ქ":948,"ღ":949,"ყ":950,"შ":951,"ჩ":952,"ც":953,"ძ":954,"წ":955,"ჭ":956,"ხ":957,"ჯ":958,"ჰ":959,"ჱ":960,"ჲ":961,"ჳ":962,"ჴ":963,"ჵ":964,"ჶ":965,"ჷ":966,"ჸ":967,"ჹ":968,"ჺ":969,"჻":970,"ᄀ":971,"ᄁ":972,"ᄂ":973,"ᄃ":974,"ᄄ":975,"ᄅ":976,"ᄆ":977,"ᄇ":978,"ᄈ":979,"ᄉ":980,"ᄊ":981,"ᄋ":982,"ᄌ":983,"ᄎ":984,"ᄏ":985,"ᄐ":986,"ᄑ":987,"ᄒ":988,"ᅡ":989,"ᅢ":990,"ᅣ":991,"ᅥ":992,"ᅦ":993,"ᅧ":994,"ᅨ":995,"ᅩ":996,"ᅪ":997,"ᅫ":998,"ᅬ":999,"ᅭ":1000,"ᅮ":1001,"ᅯ":1002,"ᅱ":1003,"ᅲ":1004,"ᅳ":1005,"ᅴ":1006,"ᅵ":1007,"ᆨ":1008,"ᆫ":1009,"ᆮ":1010,"ᆯ":1011,"ᆰ":1012,"ᆷ":1013,"ᆸ":1014,"ᆺ":1015,"ᆻ":1016,"ᆼ":1017,"ᇂ":1018,"ሀ":1019,"ለ":1020,"ሐ":1021,"ሓ":1022,"ሕ":1023,"መ":1024,"ማ":1025,"ሥ":1026,"ረ":1027,"ር":1028,"ሰ":1029,"ስ":1030,"ቆ":1031,"ቈ":1032,"በ":1033,"ብ":1034,"ቲ":1035,"ታ":1036,"ት":1037,"ነ":1038,"ና":1039,"ን":1040,"ኖ":1041,"አ":1042,"ኢ":1043,"እ":1044,"ከ":1045,"ኲ":1046,"ዕ":1047,"ዘ":1048,"ዛ":1049,"የ":1050,"ያ":1051,"ይ":1052,"ዮ":1053,"ደ":1054,"ድ":1055,"ጅ":1056,"ገ":1057,"ጉ":1058,"ጵ":1059,"ፈ":1060,"ፍ":1061,"፡":1062,"ᏹ":1063,"ᐊ":1064,"ᑲ":1065,"ᒡ":1066,"ᓘ":1067,"ᚢ":1068,"ᚣ":1069,"ᚦ":1070,"ᚨ":1071,"ᚩ":1072,"ᚬ":1073,"ᚱ":1074,"ᚷ":1075,"ᚹ":1076,"ᚺ":1077,"ᚻ":1078,"ᚼ":1079,"ᚾ":1080,"ᛁ":1081,"ᛃ":1082,"ᛄ":1083,"ᛇ":1084,"ᛋ":1085,"ᛏ":1086,"ᛒ":1087,"ᛗ":1088,"ᛚ":1089,"ᛝ":1090,"ᛞ":1091,"ᛟ":1092,"ᛠ":1093,"ក":1094,"ខ":1095,"គ":1096,"ង":1097,"ច":1098,"ឆ":1099,"ជ":1100,"ញ":1101,"ដ":1102,"ឋ":1103,"ណ":1104,"ត":1105,"ថ":1106,"ទ":1107,"ធ":1108,"ន":1109,"ប":1110,"ព":1111,"ភ":1112,"ម":1113,"យ":1114,"រ":1115,"ល":1116,"វ":1117,"ស":1118,"ហ":1119,"អ":1120,"ឥ":1121,"ឪ":1122,"ឫ":1123,"ឯ":1124,"឵":1125,"ា":1126,"ិ":1127,"ី":1128,"ឹ":1129,"ឺ":1130,"ុ":1131,"ូ":1132,"ួ":1133,"ៀ":1134,"េ":1135,"ែ":1136,"ៃ":1137,"ោ":1138,"ៅ":1139,"ំ":1140,"ះ":1141,"ៈ":1142,"៉":1143,"់":1144,"្":1145,"ᠠ":1146,"ᠣ":1147,"ᠨ":1148,"ᠪ":1149,"ᠮ":1150,"ᠯ":1151,"ᠰ":1152,"ᠴ":1153,"ᠵ":1154,"ᠸ":1155,"ᡝ":1156,"ᡠ":1157,"ᡥ":1158,"ᡨ":1159,"ᡳ":1160,"ᡴ":1161,"ᡵ":1162,"ᵻ":1163,"ᵿ":1164,"ᶑ":1165,"᷄":1166,"᷅":1167,"᷆":1168,"᷇":1169,"᷈":1170,"᷉":1171,"᷽":1172,"​":1173,"‌":1174,"‍":1175,"‐":1176,"‒":1177,"–":1178,"—":1179,"―":1180,"‖":1181,"‘":1182,"’":1183,"‚":1184,"‛":1185,"“":1186,"”":1187,"„":1188,"‟":1189,"†":1190,"‡":1191,"•":1192,"‰":1193,"′":1194,"※":1195,"‿":1196,"⁄":1197,"⁊":1198,"⁠":1199,"⁡":1200,"₡":1201,"₣":1202,"₤":1203,"₦":1204,"₧":1205,"₩":1206,"₫":1207,"€":1208,"₱":1209,"₴":1210,"₹":1211,"℞":1212,"℥":1213,"←":1214,"↑":1215,"→":1216,"↓":1217,"↔":1218,"↗":1219,"↘":1220,"↦":1221,"↪":1222,"↵":1223,"⇄":1224,"⇌":1225,"⇒":1226,"⇪":1227,"∀":1228,"∂":1229,"∅":1230,"∆":1231,"∇":1232,"∈":1233,"∊":1234,"∑":1235,"−":1236,"∕":1237,"∖":1238,"∗":1239,"∘":1240,"√":1241,"∝":1242,"∞":1243,"∣":1244,"∩":1245,"∪":1246,"∫":1247,"∴":1248,"∼":1249,"≈":1250,"≡":1251,"≤":1252,"≥":1253,"≪":1254,"≫":1255,"≲":1256,"⊂":1257,"⊕":1258,"⊗":1259,"⊙":1260,"⊞":1261,"⊢":1262,"⊣":1263,"⊥":1264,"⋅":1265,"⋆":1266,"⋯":1267,"⌊":1268,"⌋":1269,"⌘":1270,"─":1271,"▁":1272,"█":1273,"▢":1274,"▲":1275,"▼":1276,"○":1277,"●":1278,"◦":1279,"☄":1280,"★":1281,"☆":1282,"☉":1283,"☧":1284,"☫":1285,"☭":1286,"☽":1287,"☾":1288,"♀":1289,"♂":1290,"♄":1291,"♅":1292,"♆":1293,"♇":1294,"♈":1295,"♉":1296,"♠":1297,"♣":1298,"♥":1299,"♦":1300,"♩":1301,"♪":1302,"♭":1303,"♮":1304,"♯":1305,"⚳":1306,"⚴":1307,"⚵":1308,"⛢":1309,"✡":1310,"✱":1311,"❄":1312,"❅":1313,"❆":1314,"❤":1315,"⟦":1316,"⟧":1317,"⟨":1318,"⟩":1319,"⥇":1320,"⩽":1321,"⫶":1322,"ⱱ":1323,"ⲁ":1324,"ⲛ":1325,"ⲥ":1326,"ⲧ":1327,"ⲩ":1328,"ⲫ":1329,"ⲱ":1330,"ⴀ":1331,"ⴂ":1332,"ⴃ":1333,"ⴈ":1334,"ⴌ":1335,"ⴕ":1336,"ⴟ":1337,"ⴰ":1338,"ⴳ":1339,"ⴷ":1340,"ⴻ":1341,"ⴼ":1342,"ⴽ":1343,"ⵃ":1344,"ⵇ":1345,"ⵉ":1346,"ⵍ":1347,"ⵎ":1348,"ⵏ":1349,"ⵓ":1350,"ⵔ":1351,"ⵕ":1352,"ⵖ":1353,"ⵙ":1354,"ⵛ":1355,"ⵜ":1356,"ⵡ":1357,"ⵢ":1358,"ⵣ":1359,"⸨":1360,"⸩":1361,"、":1362,"。":1363,"々":1364,"〈":1365,"〉":1366,"《":1367,"》":1368,"「":1369,"」":1370,"『":1371,"』":1372,"【":1373,"】":1374,"〒":1375,"〜":1376,"あ":1377,"ぃ":1378,"い":1379,"ぅ":1380,"う":1381,"ぇ":1382,"え":1383,"ぉ":1384,"お":1385,"か":1386,"き":1387,"く":1388,"け":1389,"こ":1390,"さ":1391,"し":1392,"す":1393,"せ":1394,"そ":1395,"た":1396,"ち":1397,"っ":1398,"つ":1399,"て":1400,"と":1401,"な":1402,"に":1403,"ぬ":1404,"ね":1405,"の":1406,"は":1407,"ひ":1408,"ふ":1409,"へ":1410,"ほ":1411,"ま":1412,"み":1413,"む":1414,"め":1415,"も":1416,"ゃ":1417,"や":1418,"ゅ":1419,"ゆ":1420,"ょ":1421,"よ":1422,"ら":1423,"り":1424,"る":1425,"れ":1426,"ろ":1427,"わ":1428,"ゑ":1429,"を":1430,"ん":1431,"゙":1432,"゚":1433,"ァ":1434,"ア":1435,"ィ":1436,"イ":1437,"ゥ":1438,"ウ":1439,"ェ":1440,"エ":1441,"ォ":1442,"オ":1443,"カ":1444,"キ":1445,"ク":1446,"ケ":1447,"コ":1448,"サ":1449,"シ":1450,"ス":1451,"セ":1452,"ソ":1453,"タ":1454,"チ":1455,"ッ":1456,"ツ":1457,"テ":1458,"ト":1459,"ナ":1460,"ニ":1461,"ヌ":1462,"ネ":1463,"ノ":1464,"ハ":1465,"ヒ":1466,"フ":1467,"ヘ":1468,"ホ":1469,"マ":1470,"ミ":1471,"ム":1472,"メ":1473,"モ":1474,"ャ":1475,"ヤ":1476,"ュ":1477,"ユ":1478,"ョ":1479,"ヨ":1480,"ラ":1481,"リ":1482,"ル":1483,"レ":1484,"ロ":1485,"ワ":1486,"ヲ":1487,"ン":1488,"ヶ":1489,"・":1490,"ー":1491,"一":1492,"丁":1493,"七":1494,"万":1495,"丈":1496,"三":1497,"上":1498,"下":1499,"不":1500,"与":1501,"丑":1502,"且":1503,"世":1504,"丘":1505,"丙":1506,"东":1507,"丝":1508,"丞":1509,"両":1510,"丨":1511,"个":1512,"中":1513,"丶":1514,"丸":1515,"丹":1516,"为":1517,"主":1518,"丽":1519,"丿":1520,"乃":1521,"久":1522,"么":1523,"义":1524,"之":1525,"乌":1526,"乎":1527,"乐":1528,"乘":1529,"乙":1530,"乚":1531,"乛":1532,"九":1533,"也":1534,"习":1535,"书":1536,"乩":1537,"买":1538,"乱":1539,"乳":1540,"乾":1541,"亀":1542,"亅":1543,"了":1544,"予":1545,"争":1546,"事":1547,"二":1548,"云":1549,"五":1550,"井":1551,"亚":1552,"些":1553,"亜":1554,"亞":1555,"亡":1556,"交":1557,"亦":1558,"亨":1559,"京":1560,"亮":1561,"亰":1562,"人":1563,"什":1564,"仁":1565,"仇":1566,"今":1567,"介":1568,"仔":1569,"仕":1570,"他":1571,"付":1572,"仙":1573,"代":1574,"令":1575,"以":1576,"仪":1577,"们":1578,"仮":1579,"仰":1580,"仲":1581,"件":1582,"任":1583,"份":1584,"伊":1585,"伏":1586,"伐":1587,"休":1588,"会":1589,"伝":1590,"伟":1591,"传":1592,"伪":1593,"伯":1594,"伴":1595,"伸":1596,"似":1597,"佃":1598,"但":1599,"位":1600,"住":1601,"佐":1602,"佑":1603,"体":1604,"何":1605,"余":1606,"佛":1607,"作":1608,"你":1609,"佳":1610,"併":1611,"使":1612,"來":1613,"例":1614,"侍":1615,"侗":1616,"供":1617,"依":1618,"侠":1619,"侨":1620,"侬":1621,"侯":1622,"係":1623,"促":1624,"俄":1625,"俊":1626,"保":1627,"信":1628,"俭":1629,"修":1630,"俱":1631,"俳":1632,"倉":1633,"個":1634,"們":1635,"候":1636,"借":1637,"倪":1638,"倫":1639,"倭":1640,"偃":1641,"假":1642,"偏":1643,"健":1644,"側":1645,"偵":1646,"偽":1647,"傀":1648,"傅":1649,"傑":1650,"傘":1651,"備":1652,"催":1653,"傭":1654,"傳":1655,"傷":1656,"像":1657,"僑":1658,"僕":1659,"僧":1660,"儀":1661,"億":1662,"儒":1663,"儚":1664,"儡":1665,"優":1666,"儿":1667,"允":1668,"元":1669,"充":1670,"兆":1671,"先":1672,"光":1673,"克":1674,"免":1675,"兒":1676,"兔":1677,"兜":1678,"入":1679,"內":1680,"全":1681,"兩":1682,"八":1683,"公":1684,"六":1685,"兰":1686,"共":1687,"关":1688,"兵":1689,"其":1690,"具":1691,"典":1692,"养":1693,"冀":1694,"内":1695,"円":1696,"冉":1697,"册":1698,"再":1699,"冒":1700,"写":1701,"军":1702,"冠":1703,"冥":1704,"冫":1705,"冬":1706,"冯":1707,"决":1708,"冴":1709,"冶":1710,"冷":1711,"净":1712,"准":1713,"凌":1714,"凤":1715,"処":1716,"凪":1717,"凯":1718,"凰":1719,"凱":1720,"凶":1721,"凹":1722,"出":1723,"刀":1724,"刃":1725,"分":1726,"切":1727,"刊":1728,"划":1729,"列":1730,"刘":1731,"初":1732,"判":1733,"別":1734,"利":1735,"别":1736,"到":1737,"制":1738,"刷":1739,"券":1740,"刹":1741,"刺":1742,"刻":1743,"則":1744,"前":1745,"剑":1746,"剛":1747,"剣":1748,"剧":1749,"剩":1750,"副":1751,"割":1752,"創":1753,"劃":1754,"劇":1755,"劉":1756,"劍":1757,"力":1758,"办":1759,"功":1760,"加":1761,"劣":1762,"动":1763,"助":1764,"劳":1765,"勃":1766,"勅":1767,"勇":1768,"勒":1769,"動":1770,"勘":1771,"務":1772,"勝":1773,"勞":1774,"勢":1775,"勳":1776,"勾":1777,"包":1778,"化":1779,"北":1780,"匠":1781,"匹":1782,"区":1783,"医":1784,"區":1785,"十":1786,"千":1787,"升":1788,"午":1789,"半":1790,"华":1791,"协":1792,"卐":1793,"卒":1794,"卓":1795,"協":1796,"单":1797,"卖":1798,"南":1799,"博":1800,"卜":1801,"占":1802,"卡":1803,"卢":1804,"卦":1805,"卫":1806,"印":1807,"危":1808,"即":1809,"却":1810,"卸":1811,"卿":1812,"厂":1813,"厄":1814,"历":1815,"厘":1816,"厚":1817,"原":1818,"厥":1819,"厦":1820,"厩":1821,"去":1822,"县":1823,"参":1824,"參":1825,"叉":1826,"及":1827,"友":1828,"双":1829,"反":1830,"収":1831,"发":1832,"叔":1833,"取":1834,"受":1835,"变":1836,"叛":1837,"叠":1838,"叡":1839,"叢":1840,"口":1841,"古":1842,"句":1843,"只":1844,"叫":1845,"召":1846,"可":1847,"台":1848,"史":1849,"右":1850,"叶":1851,"号":1852,"司":1853,"合":1854,"吉":1855,"同":1856,"名":1857,"后":1858,"向":1859,"吕":1860,"君":1861,"吞":1862,"吟":1863,"吧":1864,"启":1865,"吳":1866,"吴":1867,"吸":1868,"吹":1869,"吾":1870,"呂":1871,"呉":1872,"告":1873,"周":1874,"呪":1875,"味":1876,"呼":1877,"命":1878,"咆":1879,"和":1880,"咖":1881,"咙":1882,"咫":1883,"咲":1884,"咸":1885,"哀":1886,"品":1887,"哈":1888,"哉":1889,"响":1890,"員":1891,"哥":1892,"哮":1893,"哲":1894,"唄":1895,"唐":1896,"唯":1897,"唱":1898,"商":1899,"問":1900,"啓":1901,"啟":1902,"啡":1903,"善":1904,"喇":1905,"喋":1906,"喚":1907,"喜":1908,"喝":1909,"喬":1910,"嘉":1911,"嘘":1912,"噛":1913,"器":1914,"嚣":1915,"嚴":1916,"囁":1917,"囂":1918,"囃":1919,"囚":1920,"四":1921,"回":1922,"因":1923,"团":1924,"団":1925,"図":1926,"国":1927,"图":1928,"圈":1929,"國":1930,"圍":1931,"圏":1932,"園":1933,"圓":1934,"圖":1935,"土":1936,"圣":1937,"圧":1938,"在":1939,"地":1940,"圻":1941,"坂":1942,"均":1943,"坊":1944,"坑":1945,"块":1946,"坚":1947,"坝":1948,"坡":1949,"坤":1950,"坪":1951,"型":1952,"垣":1953,"城":1954,"埔":1955,"域":1956,"執":1957,"培":1958,"基":1959,"堀":1960,"堂":1961,"堅":1962,"堆":1963,"堡":1964,"堤":1965,"堯":1966,"報":1967,"場":1968,"塊":1969,"塔":1970,"塘":1971,"塚":1972,"塞":1973,"塩":1974,"填":1975,"塵":1976,"境":1977,"墓":1978,"墙":1979,"增":1980,"壁":1981,"壌":1982,"壓":1983,"壟":1984,"壤":1985,"士":1986,"壬":1987,"壮":1988,"壯":1989,"声":1990,"壱":1991,"売":1992,"壳":1993,"壷":1994,"壽":1995,"处":1996,"备":1997,"変":1998,"复":1999,"夏":2000,"夕":2001,"外":2002,"多":2003,"夜":2004,"够":2005,"夢":2006,"夤":2007,"大":2008,"天":2009,"太":2010,"夫":2011,"央":2012,"失":2013,"头":2014,"夷":2015,"奇":2016,"奈":2017,"奉":2018,"奎":2019,"奏":2020,"奐":2021,"契":2022,"奔":2023,"套":2024,"奥":2025,"奧":2026,"奪":2027,"女":2028,"奴":2029,"好":2030,"如":2031,"妃":2032,"妇":2033,"妍":2034,"妖":2035,"妙":2036,"妮":2037,"妹":2038,"妻":2039,"姉":2040,"姊":2041,"始":2042,"姑":2043,"委":2044,"姚":2045,"姥":2046,"姦":2047,"姫":2048,"姬":2049,"姿":2050,"威":2051,"娘":2052,"娜":2053,"婁":2054,"婆":2055,"婚":2056,"婷":2057,"嫁":2058,"嬢":2059,"嬴":2060,"子":2061,"孔":2062,"字":2063,"存":2064,"孙":2065,"孛":2066,"孝":2067,"孟":2068,"季":2069,"孤":2070,"学":2071,"孩":2072,"孫":2073,"孵":2074,"學":2075,"宁":2076,"宅":2077,"宇":2078,"守":2079,"安":2080,"宋":2081,"完":2082,"宏":2083,"宗":2084,"官":2085,"宙":2086,"定":2087,"宜":2088,"宝":2089,"实":2090,"実":2091,"客":2092,"宣":2093,"室":2094,"宫":2095,"宮":2096,"宴":2097,"宵":2098,"家":2099,"宸":2100,"容":2101,"宿":2102,"寂":2103,"寄":2104,"密":2105,"寇":2106,"富":2107,"寔":2108,"寗":2109,"寛":2110,"寝":2111,"寞":2112,"察":2113,"寧":2114,"寨":2115,"審":2116,"寬":2117,"寵":2118,"寶":2119,"寸":2120,"对":2121,"寺":2122,"寻":2123,"対":2124,"寿":2125,"封":2126,"射":2127,"将":2128,"將":2129,"尉":2130,"尊":2131,"尋":2132,"對":2133,"導":2134,"小":2135,"少":2136,"尔":2137,"尚":2138,"尧":2139,"就":2140,"尸":2141,"尹":2142,"尺":2143,"尼":2144,"尽":2145,"尾":2146,"局":2147,"居":2148,"届":2149,"屋":2150,"屍":2151,"屑":2152,"展":2153,"屠":2154,"層":2155,"屬":2156,"屯":2157,"山":2158,"屿":2159,"岐":2160,"岑":2161,"岚":2162,"岛":2163,"岡":2164,"岩":2165,"岬":2166,"岭":2167,"岳":2168,"岸":2169,"峰":2170,"島":2171,"崇":2172,"崎":2173,"崔":2174,"崖":2175,"嵐":2176,"嶋":2177,"嶺":2178,"嶼":2179,"巂":2180,"巖":2181,"川":2182,"州":2183,"巡":2184,"工":2185,"左":2186,"巨":2187,"巫":2188,"差":2189,"己":2190,"巳":2191,"巴":2192,"巻":2193,"币":2194,"市":2195,"布":2196,"帆":2197,"师":2198,"希":2199,"帕":2200,"帖":2201,"帝":2202,"帥":2203,"带":2204,"師":2205,"帮":2206,"帰":2207,"帶":2208,"常":2209,"幕":2210,"幡":2211,"幣":2212,"干":2213,"平":2214,"年":2215,"幸":2216,"幻":2217,"幽":2218,"广":2219,"庁":2220,"広":2221,"庄":2222,"庆":2223,"庇":2224,"序":2225,"库":2226,"底":2227,"庖":2228,"店":2229,"庙":2230,"庚":2231,"府":2232,"度":2233,"座":2234,"庫":2235,"庭":2236,"庵":2237,"康":2238,"廉":2239,"廊":2240,"廖":2241,"廟":2242,"廣":2243,"廬":2244,"延":2245,"廷":2246,"建":2247,"廻":2248,"廿":2249,"开":2250,"弁":2251,"式":2252,"弐":2253,"弓":2254,"弔":2255,"引":2256,"弘":2257,"弟":2258,"张":2259,"弥":2260,"弦":2261,"弧":2262,"弱":2263,"張":2264,"強":2265,"弹":2266,"强":2267,"弾":2268,"彌":2269,"当":2270,"录":2271,"彖":2272,"彙":2273,"形":2274,"彦":2275,"彩":2276,"彪":2277,"彬":2278,"彭":2279,"影":2280,"役":2281,"彼":2282,"征":2283,"径":2284,"待":2285,"律":2286,"後":2287,"徐":2288,"徒":2289,"得":2290,"從":2291,"御":2292,"復":2293,"微":2294,"徳":2295,"德":2296,"徹":2297,"徽":2298,"心":2299,"必":2300,"忍":2301,"志":2302,"忘":2303,"応":2304,"忠":2305,"快":2306,"念":2307,"怀":2308,"怎":2309,"怒":2310,"怖":2311,"思":2312,"怡":2313,"急":2314,"性":2315,"怨":2316,"怪":2317,"总":2318,"恆":2319,"恋":2320,"恐":2321,"恒":2322,"恢":2323,"恥":2324,"恩":2325,"恭":2326,"息":2327,"恵":2328,"恼":2329,"悔":2330,"悟":2331,"悠":2332,"悦":2333,"悪":2334,"悫":2335,"悲":2336,"悼":2337,"情":2338,"惑":2339,"惟":2340,"惠":2341,"惡":2342,"想":2343,"愁":2344,"愍":2345,"意":2346,"愚":2347,"愛":2348,"感":2349,"愽":2350,"慈":2351,"態":2352,"慎":2353,"慧":2354,"慰":2355,"慶":2356,"憂":2357,"憎":2358,"憑":2359,"憲":2360,"憶":2361,"應":2362,"懍":2363,"懷":2364,"戈":2365,"戊":2366,"戎":2367,"成":2368,"我":2369,"战":2370,"戦":2371,"戯":2372,"戰":2373,"戴":2374,"户":2375,"戸":2376,"房":2377,"所":2378,"扁":2379,"扇":2380,"扈":2381,"扉":2382,"手":2383,"才":2384,"打":2385,"托":2386,"扶":2387,"找":2388,"承":2389,"技":2390,"抄":2391,"抓":2392,"投":2393,"抜":2394,"択":2395,"护":2396,"报":2397,"披":2398,"抱":2399,"抵":2400,"担":2401,"拉":2402,"拍":2403,"拏":2404,"拐":2405,"拖":2406,"拘":2407,"招":2408,"拜":2409,"拟":2410,"拥":2411,"括":2412,"拱":2413,"拳":2414,"拾":2415,"持":2416,"挂":2417,"指":2418,"挑":2419,"挥":2420,"振":2421,"据":2422,"捷":2423,"授":2424,"掛":2425,"採":2426,"探":2427,"控":2428,"掲":2429,"描":2430,"提":2431,"揚":2432,"換":2433,"援":2434,"揺":2435,"摂":2436,"摩":2437,"摸":2438,"撃":2439,"撒":2440,"撞":2441,"播":2442,"撲":2443,"操":2444,"攝":2445,"支":2446,"收":2447,"改":2448,"攻":2449,"放":2450,"政":2451,"故":2452,"敏":2453,"救":2454,"教":2455,"敢":2456,"散":2457,"敦":2458,"敬":2459,"数":2460,"敵":2461,"敷":2462,"數":2463,"文":2464,"斉":2465,"斎":2466,"斗":2467,"料":2468,"斜":2469,"斤":2470,"斩":2471,"斬":2472,"断":2473,"斯":2474,"新":2475,"方":2476,"於":2477,"施":2478,"旅":2479,"旋":2480,"族":2481,"旗":2482,"无":2483,"日":2484,"旦":2485,"旧":2486,"早":2487,"旭":2488,"时":2489,"旺":2490,"昂":2491,"昇":2492,"昌":2493,"明":2494,"昏":2495,"易":2496,"昔":2497,"星":2498,"映":2499,"春":2500,"昭":2501,"是":2502,"昼":2503,"時":2504,"晉":2505,"晋":2506,"晒":2507,"普":2508,"景":2509,"晴":2510,"晶":2511,"智":2512,"暁":2513,"暂":2514,"暖":2515,"暗":2516,"暦":2517,"暮":2518,"暴":2519,"曆":2520,"曜":2521,"曦":2522,"曲":2523,"更":2524,"書":2525,"曹":2526,"曼":2527,"曾":2528,"最":2529,"會":2530,"月":2531,"有":2532,"朋":2533,"服":2534,"朏":2535,"朔":2536,"朗":2537,"望":2538,"朝":2539,"期":2540,"朧":2541,"木":2542,"未":2543,"末":2544,"本":2545,"札":2546,"朱":2547,"朴":2548,"朵":2549,"机":2550,"朽":2551,"杀":2552,"杂":2553,"权":2554,"李":2555,"杏":2556,"材":2557,"村":2558,"杖":2559,"杜":2560,"束":2561,"条":2562,"来":2563,"杨":2564,"杯":2565,"東":2566,"杲":2567,"松":2568,"板":2569,"极":2570,"析":2571,"林":2572,"枚":2573,"果":2574,"枝":2575,"枭":2576,"枯":2577,"架":2578,"柆":2579,"柏":2580,"柔":2581,"柚":2582,"柩":2583,"柱":2584,"柳":2585,"柴":2586,"査":2587,"栄":2588,"标":2589,"栈":2590,"树":2591,"栖":2592,"栗":2593,"栞":2594,"校":2595,"株":2596,"样":2597,"核":2598,"根":2599,"格":2600,"栽":2601,"栾":2602,"桀":2603,"桂":2604,"桃":2605,"案":2606,"桎":2607,"桐":2608,"桑":2609,"桓":2610,"桜":2611,"桥":2612,"桧":2613,"梁":2614,"梅":2615,"梏":2616,"梓":2617,"條":2618,"梦":2619,"梨":2620,"梭":2621,"梯":2622,"械":2623,"梵":2624,"梶":2625,"棋":2626,"棍":2627,"棗":2628,"棘":2629,"棚":2630,"棟":2631,"森":2632,"棲":2633,"棵":2634,"棺":2635,"椅":2636,"植":2637,"椎":2638,"椒":2639,"椛":2640,"検":2641,"椰":2642,"椿":2643,"楊":2644,"楚":2645,"楠":2646,"業":2647,"楯":2648,"極":2649,"楼":2650,"楽":2651,"概":2652,"榆":2653,"榊":2654,"榔":2655,"榛":2656,"榮":2657,"榴":2658,"槐":2659,"様":2660,"槤":2661,"槻":2662,"樂":2663,"樉":2664,"樊":2665,"樓":2666,"樗":2667,"標":2668,"樛":2669,"模":2670,"権":2671,"横":2672,"樱":2673,"樸":2674,"樹":2675,"橋":2676,"橘":2677,"橚":2678,"機":2679,"橫":2680,"橿":2681,"檀":2682,"檜":2683,"檳":2684,"檻":2685,"櫓":2686,"櫻":2687,"權":2688,"欒":2689,"欠":2690,"次":2691,"欣":2692,"欲":2693,"欽":2694,"歌":2695,"歓":2696,"歡":2697,"止":2698,"正":2699,"步":2700,"武":2701,"歩":2702,"歪":2703,"歲":2704,"歳":2705,"歴":2706,"歷":2707,"歸":2708,"死":2709,"殊":2710,"残":2711,"段":2712,"殺":2713,"殻":2714,"殿":2715,"毅":2716,"母":2717,"毎":2718,"每":2719,"比":2720,"毕":2721,"毘":2722,"毛":2723,"毫":2724,"毬":2725,"氏":2726,"民":2727,"气":2728,"気":2729,"氣":2730,"水":2731,"氷":2732,"永":2733,"氾":2734,"汇":2735,"汉":2736,"汐":2737,"汗":2738,"汝":2739,"江":2740,"池":2741,"汤":2742,"汪":2743,"汰":2744,"汶":2745,"決":2746,"汽":2747,"沂":2748,"沃":2749,"沈":2750,"沉":2751,"沌":2752,"沐":2753,"沒":2754,"沖":2755,"沙":2756,"沛":2757,"没":2758,"沢":2759,"沫":2760,"河":2761,"沸":2762,"油":2763,"治":2764,"沼":2765,"沽":2766,"泉":2767,"泊":2768,"法":2769,"泗":2770,"泡":2771,"波":2772,"泣":2773,"泥":2774,"注":2775,"泰":2776,"泾":2777,"洁":2778,"洋":2779,"洛":2780,"洞":2781,"津":2782,"洪":2783,"洲":2784,"活":2785,"派":2786,"流":2787,"浅":2788,"浙":2789,"浚":2790,"浜":2791,"浦":2792,"浩":2793,"浪":2794,"浮":2795,"海":2796,"消":2797,"涙":2798,"润":2799,"涵":2800,"涼":2801,"淇":2802,"淑":2803,"淘":2804,"淡":2805,"淨":2806,"深":2807,"淳":2808,"淵":2809,"淹":2810,"添":2811,"清":2812,"渊":2813,"渚":2814,"減":2815,"渠":2816,"渡":2817,"渣":2818,"渥":2819,"渦":2820,"温":2821,"測":2822,"港":2823,"游":2824,"渾":2825,"湊":2826,"湖":2827,"湯":2828,"湾":2829,"満":2830,"源":2831,"準":2832,"溜":2833,"溢":2834,"溪":2835,"溫":2836,"溶":2837,"滅":2838,"滋":2839,"滑":2840,"滨":2841,"滿":2842,"漁":2843,"漂":2844,"漆":2845,"漏":2846,"漠":2847,"漢":2848,"漫":2849,"漳":2850,"漸":2851,"潘":2852,"潜":2853,"潤":2854,"澄":2855,"澤":2856,"澪":2857,"激":2858,"濃":2859,"濞":2860,"濟":2861,"瀛":2862,"瀬":2863,"灣":2864,"火":2865,"灯":2866,"灰":2867,"灵":2868,"灶":2869,"灼":2870,"災":2871,"灾":2872,"炎":2873,"炬":2874,"炮":2875,"炯":2876,"炷":2877,"炸":2878,"点":2879,"為":2880,"炼":2881,"烈":2882,"烏":2883,"烙":2884,"烟":2885,"烦":2886,"烧":2887,"焉":2888,"焔":2889,"無":2890,"焦":2891,"然":2892,"焼":2893,"煌":2894,"煙":2895,"煜":2896,"照":2897,"煩":2898,"煮":2899,"熊":2900,"熔":2901,"熙":2902,"熟":2903,"熱":2904,"燃":2905,"燈":2906,"燕":2907,"營":2908,"爆":2909,"爪":2910,"爭":2911,"爱":2912,"爲":2913,"爵":2914,"父":2915,"爺":2916,"爻":2917,"爽":2918,"爾":2919,"片":2920,"版":2921,"牌":2922,"牙":2923,"牛":2924,"牡":2925,"牢":2926,"牧":2927,"物":2928,"牵":2929,"特":2930,"犖":2931,"犬":2932,"犯":2933,"狀":2934,"狂":2935,"狐":2936,"狗":2937,"狛":2938,"狡":2939,"狩":2940,"独":2941,"狭":2942,"狱":2943,"狸":2944,"狼":2945,"猛":2946,"猩":2947,"猪":2948,"猫":2949,"献":2950,"猿":2951,"獄":2952,"獅":2953,"獣":2954,"獵":2955,"獻":2956,"玄":2957,"玉":2958,"王":2959,"玖":2960,"玩":2961,"玲":2962,"珂":2963,"珍":2964,"珙":2965,"珠":2966,"現":2967,"球":2968,"理":2969,"琦":2970,"琪":2971,"琬":2972,"琮":2973,"琴":2974,"瑋":2975,"瑙":2976,"瑜":2977,"瑞":2978,"瑠":2979,"瑣":2980,"瑪":2981,"瑾":2982,"璉":2983,"環":2984,"璽":2985,"瓊":2986,"瓜":2987,"瓢":2988,"瓦":2989,"瓩":2990,"瓷":2991,"甘":2992,"甜":2993,"生":2994,"產":2995,"産":2996,"用":2997,"甫":2998,"田":2999,"由":3000,"甲":3001,"申":3002,"男":3003,"町":3004,"画":3005,"甽":3006,"界":3007,"畑":3008,"留":3009,"畜":3010,"畢":3011,"略":3012,"番":3013,"畫":3014,"異":3015,"疆":3016,"疾":3017,"病":3018,"症":3019,"痘":3020,"痛":3021,"痴":3022,"瘡":3023,"瘤":3024,"発":3025,"登":3026,"發":3027,"白":3028,"百":3029,"的":3030,"皇":3031,"皙":3032,"皮":3033,"皿":3034,"盆":3035,"盈":3036,"益":3037,"盏":3038,"盐":3039,"监":3040,"盒":3041,"盗":3042,"盘":3043,"盛":3044,"盟":3045,"監":3046,"盤":3047,"盧":3048,"目":3049,"直":3050,"相":3051,"盼":3052,"省":3053,"看":3054,"県":3055,"眞":3056,"真":3057,"眼":3058,"着":3059,"督":3060,"瞬":3061,"瞳":3062,"矢":3063,"知":3064,"矩":3065,"短":3066,"矮":3067,"矯":3068,"石":3069,"砂":3070,"砍":3071,"研":3072,"砖":3073,"砲":3074,"破":3075,"硕":3076,"硝":3077,"硨":3078,"碍":3079,"碗":3080,"碩":3081,"確":3082,"碼":3083,"磁":3084,"磅":3085,"磐":3086,"磨":3087,"磯":3088,"磲":3089,"礁":3090,"礎":3091,"礮":3092,"示":3093,"礼":3094,"社":3095,"祀":3096,"祈":3097,"祐":3098,"祖":3099,"祚":3100,"神":3101,"祠":3102,"祥":3103,"票":3104,"祭":3105,"祺":3106,"祿":3107,"禁":3108,"禄":3109,"禎":3110,"福":3111,"禦":3112,"禮":3113,"禰":3114,"禺":3115,"禾":3116,"秀":3117,"私":3118,"秋":3119,"科":3120,"秒":3121,"秘":3122,"租":3123,"秤":3124,"秦":3125,"移":3126,"程":3127,"稔":3128,"稚":3129,"種":3130,"稲":3131,"稷":3132,"稽":3133,"穂":3134,"穌":3135,"積":3136,"穎":3137,"穗":3138,"穢":3139,"究":3140,"空":3141,"突":3142,"窓":3143,"窗":3144,"窟":3145,"竇":3146,"立":3147,"站":3148,"竜":3149,"章":3150,"童":3151,"端":3152,"竹":3153,"竺":3154,"笑":3155,"笔":3156,"笛":3157,"笠":3158,"符":3159,"笨":3160,"第":3161,"笹":3162,"筆":3163,"等":3164,"筋":3165,"筍":3166,"筐":3167,"筑":3168,"答":3169,"策":3170,"筹":3171,"箇":3172,"箋":3173,"算":3174,"管":3175,"箪":3176,"箭":3177,"箱":3178,"節":3179,"範":3180,"篇":3181,"篋":3182,"篚":3183,"篤":3184,"簡":3185,"簿":3186,"籃":3187,"籌":3188,"籍":3189,"籠":3190,"米":3191,"籵":3192,"粁":3193,"粉":3194,"粍":3195,"粟":3196,"粥":3197,"粨":3198,"精":3199,"糊":3200,"糎":3201,"糖":3202,"糸":3203,"系":3204,"紀":3205,"約":3206,"紅":3207,"紋":3208,"納":3209,"純":3210,"紘":3211,"紙":3212,"級":3213,"素":3214,"紡":3215,"紫":3216,"細":3217,"紹":3218,"紺":3219,"終":3220,"組":3221,"絆":3222,"経":3223,"結":3224,"絡":3225,"給":3226,"統":3227,"絵":3228,"絶":3229,"綁":3230,"經":3231,"継":3232,"続":3233,"綜":3234,"綠":3235,"維":3236,"綯":3237,"綱":3238,"網":3239,"綸":3240,"綺":3241,"綾":3242,"緋":3243,"総":3244,"緑":3245,"緒":3246,"線":3247,"締":3248,"編":3249,"緩":3250,"緬":3251,"緯":3252,"縄":3253,"縊":3254,"縣":3255,"總":3256,"繋":3257,"織":3258,"繹":3259,"繼":3260,"續":3261,"红":3262,"级":3263,"纪":3264,"纯":3265,"纲":3266,"纵":3267,"线":3268,"组":3269,"绅":3270,"细":3271,"终":3272,"绍":3273,"经":3274,"给":3275,"统":3276,"继":3277,"绮":3278,"维":3279,"综":3280,"缽":3281,"网":3282,"罗":3283,"罠":3284,"罪":3285,"置":3286,"罰":3287,"罸":3288,"羅":3289,"羊":3290,"美":3291,"群":3292,"義":3293,"羽":3294,"翁":3295,"習":3296,"翔":3297,"翘":3298,"翠":3299,"翡":3300,"翱":3301,"翹":3302,"翻":3303,"翼":3304,"老":3305,"考":3306,"者":3307,"耆":3308,"而":3309,"耕":3310,"耳":3311,"耶":3312,"耿":3313,"聃":3314,"联":3315,"聖":3316,"聘":3317,"聚":3318,"聞":3319,"聡":3320,"聯":3321,"聰":3322,"聲":3323,"職":3324,"肃":3325,"肉":3326,"肖":3327,"肚":3328,"股":3329,"肥":3330,"肩":3331,"育":3332,"背":3333,"胞":3334,"胠":3335,"胡":3336,"胤":3337,"胴":3338,"胸":3339,"能":3340,"脂":3341,"脇":3342,"脈":3343,"脉":3344,"脚":3345,"脩":3346,"脱":3347,"脳":3348,"腎":3349,"腐":3350,"腰":3351,"腹":3352,"腿":3353,"膀":3354,"膺":3355,"臂":3356,"臘":3357,"臚":3358,"臣":3359,"臨":3360,"自":3361,"臭":3362,"至":3363,"致":3364,"臺":3365,"與":3366,"興":3367,"舍":3368,"舎":3369,"舞":3370,"舟":3371,"航":3372,"船":3373,"艦":3374,"良":3375,"色":3376,"艳":3377,"艶":3378,"艺":3379,"节":3380,"芒":3381,"芙":3382,"芝":3383,"芥":3384,"芦":3385,"芬":3386,"芭":3387,"芮":3388,"芯":3389,"花":3390,"芳":3391,"芸":3392,"芹":3393,"芽":3394,"苏":3395,"苑":3396,"苗":3397,"苣":3398,"若":3399,"英":3400,"苺":3401,"茂":3402,"范":3403,"茅":3404,"茜":3405,"茶":3406,"茸":3407,"草":3408,"荊":3409,"荒":3410,"荔":3411,"荘":3412,"荥":3413,"荪":3414,"荫":3415,"药":3416,"荷":3417,"荻":3418,"荼":3419,"莉":3420,"莊":3421,"莎":3422,"莘":3423,"莞":3424,"莫":3425,"莱":3426,"莲":3427,"莴":3428,"菇":3429,"菉":3430,"菊":3431,"菜":3432,"華":3433,"菱":3434,"菲":3435,"萌":3436,"萍":3437,"萝":3438,"营":3439,"萧":3440,"萨":3441,"萬":3442,"落":3443,"葆":3444,"葉":3445,"著":3446,"葛":3447,"董":3448,"葦":3449,"葫":3450,"葵":3451,"蒙":3452,"蒭":3453,"蒲":3454,"蒼":3455,"蒿":3456,"蓀":3457,"蓑":3458,"蓝":3459,"蓮":3460,"蔡":3461,"蔭":3462,"蔵":3463,"蕃":3464,"蕉":3465,"蕨":3466,"蕩":3467,"蕭":3468,"薇":3469,"薊":3470,"薔":3471,"薙":3472,"薛":3473,"薩":3474,"薫":3475,"薯":3476,"藍":3477,"藏":3478,"藕":3479,"藝":3480,"藤":3481,"藥":3482,"藩":3483,"藻":3484,"蘄":3485,"蘅":3486,"蘇":3487,"蘑":3488,"蘭":3489,"蘿":3490,"虎":3491,"虐":3492,"虔":3493,"處":3494,"虚":3495,"虛":3496,"號":3497,"虫":3498,"虹":3499,"蛇":3500,"蛍":3501,"蛙":3502,"蛭":3503,"蜃":3504,"蜡":3505,"蝉":3506,"蝕":3507,"蝴":3508,"蝶":3509,"融":3510,"螺":3511,"蟲":3512,"蠕":3513,"蠻":3514,"血":3515,"衆":3516,"行":3517,"術":3518,"街":3519,"衙":3520,"衛":3521,"衝":3522,"衡":3523,"衢":3524,"衣":3525,"补":3526,"表":3527,"袁":3528,"袈":3529,"袖":3530,"被":3531,"裁":3532,"裂":3533,"装":3534,"裏":3535,"裔":3536,"裕":3537,"補":3538,"裝":3539,"裟":3540,"裳":3541,"裸":3542,"製":3543,"褒":3544,"襄":3545,"襟":3546,"襲":3547,"西":3548,"要":3549,"覇":3550,"見":3551,"規":3552,"視":3553,"覚":3554,"親":3555,"観":3556,"覺":3557,"觀":3558,"观":3559,"角":3560,"解":3561,"触":3562,"觳":3563,"言":3564,"計":3565,"記":3566,"設":3567,"許":3568,"訳":3569,"証":3570,"詔":3571,"詞":3572,"詠":3573,"試":3574,"詩":3575,"話":3576,"誌":3577,"誐":3578,"誒":3579,"誓":3580,"誕":3581,"誘":3582,"語":3583,"誠":3584,"誡":3585,"誦":3586,"說":3587,"説":3588,"読":3589,"誰":3590,"課":3591,"調":3592,"談":3593,"論":3594,"諭":3595,"諷":3596,"諸":3597,"謀":3598,"謁":3599,"謎":3600,"謙":3601,"講":3602,"謝":3603,"謡":3604,"譌":3605,"識":3606,"譚":3607,"譜":3608,"警":3609,"議":3610,"護":3611,"讀":3612,"變":3613,"讐":3614,"讓":3615,"计":3616,"让":3617,"议":3618,"许":3619,"论":3620,"讼":3621,"诉":3622,"词":3623,"诗":3624,"诚":3625,"话":3626,"语":3627,"诶":3628,"请":3629,"诺":3630,"读":3631,"课":3632,"谁":3633,"谦":3634,"谭":3635,"谷":3636,"豆":3637,"豊":3638,"豌":3639,"豐":3640,"豚":3641,"象":3642,"豪":3643,"豫":3644,"豬":3645,"豹":3646,"貓":3647,"貝":3648,"貞":3649,"負":3650,"財":3651,"貫":3652,"貴":3653,"費":3654,"賀":3655,"資":3656,"賈":3657,"賊":3658,"賓":3659,"賞":3660,"賢":3661,"賦":3662,"質":3663,"購":3664,"贈":3665,"贝":3666,"贞":3667,"财":3668,"贤":3669,"质":3670,"贵":3671,"贺":3672,"贼":3673,"资":3674,"赤":3675,"赭":3676,"走":3677,"赵":3678,"起":3679,"超":3680,"越":3681,"趙":3682,"足":3683,"跆":3684,"跑":3685,"跖":3686,"跟":3687,"跡":3688,"路":3689,"跳":3690,"踊":3691,"踏":3692,"踢":3693,"蹴":3694,"身":3695,"車":3696,"軌":3697,"軍":3698,"軒":3699,"転":3700,"軽":3701,"載":3702,"輔":3703,"輛":3704,"輝":3705,"輪":3706,"輿":3707,"轉":3708,"车":3709,"轩":3710,"转":3711,"辆":3712,"辉":3713,"辛":3714,"辣":3715,"辨":3716,"辭":3717,"辯":3718,"辰":3719,"農":3720,"边":3721,"辺":3722,"辽":3723,"达":3724,"辿":3725,"迄":3726,"迅":3727,"过":3728,"迈":3729,"运":3730,"近":3731,"返":3732,"这":3733,"进":3734,"远":3735,"迦":3736,"迪":3737,"述":3738,"迷":3739,"追":3740,"送":3741,"适":3742,"逆":3743,"选":3744,"這":3745,"通":3746,"造":3747,"逢":3748,"連":3749,"逯":3750,"週":3751,"進":3752,"遁":3753,"遇":3754,"遊":3755,"運":3756,"遍":3757,"過":3758,"道":3759,"達":3760,"遗":3761,"遙":3762,"遜":3763,"遠":3764,"遥":3765,"遮":3766,"選":3767,"遺":3768,"遼":3769,"避":3770,"邁":3771,"還":3772,"邊":3773,"邑":3774,"邓":3775,"那":3776,"邦":3777,"邪":3778,"邱":3779,"邵":3780,"郁":3781,"郊":3782,"郎":3783,"郑":3784,"郛":3785,"郝":3786,"郡":3787,"部":3788,"郭":3789,"郷":3790,"都":3791,"鄧":3792,"鄭":3793,"酈":3794,"酉":3795,"酒":3796,"酔":3797,"酥":3798,"酱":3799,"酷":3800,"酸":3801,"醋":3802,"醒":3803,"醫":3804,"采":3805,"釈":3806,"釋":3807,"里":3808,"重":3809,"野":3810,"量":3811,"金":3812,"釗":3813,"釣":3814,"鈍":3815,"鈴":3816,"鉄":3817,"鉢":3818,"鉦":3819,"鉱":3820,"鉴":3821,"銀":3822,"銃":3823,"銅":3824,"銓":3825,"銖":3826,"銘":3827,"銳":3828,"鋒":3829,"鋪":3830,"鋼":3831,"錄":3832,"錡":3833,"錦":3834,"錬":3835,"録":3836,"鍋":3837,"鍵":3838,"鎖":3839,"鎧":3840,"鎮":3841,"鏡":3842,"鐘":3843,"鐵":3844,"鐸":3845,"鑒":3846,"钊":3847,"钢":3848,"钦":3849,"钱":3850,"铁":3851,"铎":3852,"铜":3853,"铭":3854,"铺":3855,"锡":3856,"键":3857,"镇":3858,"镗":3859,"镜":3860,"長":3861,"长":3862,"門":3863,"閃":3864,"開":3865,"閏":3866,"閒":3867,"間":3868,"関":3869,"閣":3870,"閨":3871,"闇":3872,"闍":3873,"闕":3874,"闘":3875,"關":3876,"门":3877,"问":3878,"闯":3879,"阁":3880,"阪":3881,"防":3882,"阳":3883,"阿":3884,"陀":3885,"附":3886,"际":3887,"陈":3888,"降":3889,"限":3890,"陛":3891,"院":3892,"陣":3893,"除":3894,"陪":3895,"陳":3896,"陵":3897,"陶":3898,"陸":3899,"険":3900,"陽":3901,"隆":3902,"隊":3903,"階":3904,"隔":3905,"隗":3906,"隠":3907,"隣":3908,"隱":3909,"隴":3910,"隸":3911,"隻":3912,"隼":3913,"雀":3914,"雁":3915,"雄":3916,"雅":3917,"集":3918,"雇":3919,"雉":3920,"雎":3921,"雕":3922,"雙":3923,"雛":3924,"雜":3925,"雞":3926,"離":3927,"難":3928,"雨":3929,"雪":3930,"雲":3931,"雳":3932,"零":3933,"雷":3934,"電":3935,"雾":3936,"需":3937,"霆":3938,"震":3939,"霊":3940,"霍":3941,"霖":3942,"霜":3943,"霞":3944,"霧":3945,"霰":3946,"露":3947,"霸":3948,"霹":3949,"靂":3950,"靈":3951,"青":3952,"靖":3953,"静":3954,"非":3955,"靠":3956,"面":3957,"革":3958,"靴":3959,"靼":3960,"鞋":3961,"鞍":3962,"鞠":3963,"韃":3964,"韋":3965,"韓":3966,"韦":3967,"韩":3968,"韭":3969,"音":3970,"韶":3971,"響":3972,"頃":3973,"項":3974,"順":3975,"須":3976,"頌":3977,"頒":3978,"領":3979,"頭":3980,"顆":3981,"題":3982,"額":3983,"顏":3984,"顔":3985,"願":3986,"類":3987,"顯":3988,"项":3989,"顾":3990,"颂":3991,"颊":3992,"颖":3993,"颗":3994,"颜":3995,"風":3996,"颪":3997,"颱":3998,"飄":3999,"风":4000,"飛":4001,"飞":4002,"食":4003,"飯":4004,"飾":4005,"餅":4006,"養":4007,"餓":4008,"館":4009,"饼":4010,"饾":4011,"馆":4012,"馒":4013,"首":4014,"香":4015,"馬":4016,"馮":4017,"駆":4018,"駐":4019,"駒":4020,"駙":4021,"駢":4022,"駿":4023,"騎":4024,"騒":4025,"験":4026,"騭":4027,"騰":4028,"騷":4029,"驁":4030,"驗":4031,"驚":4032,"驤":4033,"马":4034,"驰":4035,"骨":4036,"骸":4037,"髀":4038,"體":4039,"高":4040,"髪":4041,"鬘":4042,"鬥":4043,"鬪":4044,"鬼":4045,"魂":4046,"魄":4047,"魔":4048,"魚":4049,"魯":4050,"鮑":4051,"鮫":4052,"鮮":4053,"鯖":4054,"鯵":4055,"鰐":4056,"鱀":4057,"鱼":4058,"鲁":4059,"鲤":4060,"鳥":4061,"鳩":4062,"鳳":4063,"鳴":4064,"鳶":4065,"鴉":4066,"鴣":4067,"鴨":4068,"鴻":4069,"鵡":4070,"鵩":4071,"鵬":4072,"鶍":4073,"鶴":4074,"鷓":4075,"鷹":4076,"鷺":4077,"鸚":4078,"鸟":4079,"鸡":4080,"鸭":4081,"鸿":4082,"鹅":4083,"鹹":4084,"鹼":4085,"鹽":4086,"鹿":4087,"麗":4088,"麥":4089,"麵":4090,"麻":4091,"麼":4092,"麾":4093,"黃":4094,"黄":4095,"黎":4096,"黑":4097,"黒":4098,"黙":4099,"黛":4100,"黨":4101,"鼉":4102,"鼎":4103,"鼓":4104,"鼠":4105,"鼻":4106,"齉":4107,"齊":4108,"齋":4109,"齐":4110,"龍":4111,"龙":4112,"ꜛ":4113,"ꜜ":4114,"ꜣ":4115,"ꜩ":4116,"ꜫ":4117,"ꜭ":4118,"ꞅ":4119,"ꞎ":4120,"ꞵ":4121,"ꦂ":4122,"ꦠ":4123,"ꦯ":4124,"ꦲ":4125,"ꦸ":4126,"ꭓ":4127,"ꭰ":4128,"ꭳ":4129,"ꭶ":4130,"ꭸ":4131,"ꭹ":4132,"ꮀ":4133,"ꮃ":4134,"ꮉ":4135,"ꮝ":4136,"ꮿ":4137,"️":4138,"︠":4139,"︡":4140,"﻿":4141,"�":4142,"𐀁":4143,"𐀈":4144,"𐀫":4145,"𐎠":4146,"𐎢":4147,"𐎭":4148,"𐎰":4149,"𐎹":4150,"𐎺":4151,"𐎼":4152,"𐏁":4153,"𐭃":4154,"𐭉":4155,"𐭓":4156,"𐭕":4157,"𒀯":4158,"𒀳":4159,"🖕":4160,"▁t":4161,"▁a":4162,"he":4163,"in":4164,"▁the":4165,"▁s":4166,"er":4167,"on":4168,"▁,":4169,"re":4170,"▁w":4171,"▁c":4172,"▁o":4173,"ed":4174,"▁b":4175,"▁.":4176,"nd":4177,"▁f":4178,"at":4179,"or":4180,"it":4181,"en":4182,"▁p":4183,"▁in":4184,"▁m":4185,"is":4186,"es":4187,"ar":4188,"▁of":4189,"an":4190,"al":4191,"ing":4192,"▁d":4193,"as":4194,"▁and":4195,"▁h":4196,"▁to":4197,"ro":4198,"ic":4199,"▁l":4200,"ion":4201,"ou":4202,"▁n":4203,"▁re":4204,"il":4205,"▁e":4206,"▁g":4207,"▁th":4208,"▁=":4209,"le":4210,"ent":4211,"▁\"":4212,"st":4213,"▁@":4214,"el":4215,"am":4216,"om":4217,"▁on":4218,"ac":4219,"ad":4220,"▁was":4221,"▁st":4222,"▁be":4223,"▁he":4224,"ur":4225,"ly":4226,"▁'":4227,"▁for":4228,"▁u":4229,"id":4230,"im":4231,"ol":4232,"ter":4233,"▁as":4234,"ir":4235,"-@":4236,"▁@-@":4237,"iv":4238,"ig":4239,"ct":4240,"ot":4241,"ut":4242,"▁r":4243,"et":4244,"ith":4245,"ay":4246,"ow":4247,"▁al":4248,"ver":4249,"▁with":4250,"ce":4251,"ation":4252,"▁that":4253,"▁wh":4254,"▁it":4255,"ch":4256,"▁con":4257,"▁at":4258,"▁j":4259,"▁an":4260,"▁by":4261,"▁de":4262,"▁se":4263,"▁is":4264,"us":4265,"▁v":4266,"▁k":4267,"▁)":4268,"th":4269,"▁(":4270,"ul":4271,"ers":4272,"19":4273,"▁ch":4274,"and":4275,"ain":4276,"em":4277,"rom":4278,"▁his":4279,"os":4280,"her":4281,"ag":4282,"av":4283,"um":4284,"▁com":4285,"est":4286,"00":4287,"ri":4288,"▁su":4289,"▁from":4290,"▁pro":4291,"pe":4292,"od":4293,"▁ne":4294,"ist":4295,"if":4296,"un":4297,"ill":4298,"ore":4299,"ld":4300,"ap":4301,"▁sh":4302,"se":4303,"▁y":4304,"ere":4305,"res":4306,"igh":4307,"op":4308,"ies":4309,"▁ro":4310,"qu":4311,"art":4312,"ber":4313,"ard":4314,"▁or":4315,"▁ex":4316,"▁pl":4317,"▁were":4318,"ak":4319,"ich":4320,"ate":4321,"ort":4322,"all":4323,"▁un":4324,"ab":4325,"▁le":4326,"ant":4327,"ud":4328,"oc":4329,"gh":4330,"ong":4331,"ated":4332,"ip":4333,"ity":4334,"ess":4335,"▁ar":4336,"ame":4337,"ive":4338,"ie":4339,"▁tr":4340,"▁had":4341,"ack":4342,"ast":4343,"red":4344,"rou":4345,"▁which":4346,"our":4347,"ge":4348,"▁are":4349,"ment":4350,"▁not":4351,"ian":4352,"ov":4353,"▁af":4354,"ial":4355,"pt":4356,"ost":4357,"ell":4358,"ia":4359,"ight":4360,"▁cl":4361,"ust":4362,"ary":4363,"▁wor":4364,"ine":4365,"▁whe":4366,"pp":4367,"rit":4368,"cl":4369,"ther":4370,"oun":4371,"▁ad":4372,"ical":4373,"ave":4374,"▁sc":4375,"cc":4376,"▁comp":4377,"▁but":4378,"▁en":4379,"20":4380,"ction":4381,"ord":4382,"▁this":4383,"200":4384,"▁fir":4385,"▁her":4386,"te":4387,"ould":4388,"▁tw":4389,"▁ab":4390,"ish":4391,"▁after":4392,"▁cont":4393,"▁first":4394,"ous":4395,"so":4396,"▁te":4397,"ide":4398,"▁sp":4399,"ure":4400,"▁its":4401,"▁new":4402,"ign":4403,"▁their":4404,"▁am":4405,"▁all":4406,"▁;":4407,"▁man":4408,"per":4409,"▁one":4410,"ra":4411,"ition":4412,"▁int":4413,"▁per":4414,"ass":4415,"▁i":4416,"▁–":4417,"▁also":4418,"ru":4419,"▁us":4420,"▁mar":4421,"og":4422,"ok":4423,"▁she":4424,"ub":4425,"ear":4426,"▁:":4427,"ater":4428,"ome":4429,"▁tim":4430,"▁res":4431,"out":4432,"age":4433,"▁rec":4434,"ond":4435,"▁they":4436,"orm":4437,"ire":4438,"ry":4439,"▁ser":4440,"hed":4441,"▁fe":4442,"▁two":4443,"ue":4444,"▁part":4445,"▁ag":4446,"18":4447,"▁who":4448,"▁comm":4449,"du":4450,"▁des":4451,"ans":4452,"▁have":4453,"ree":4454,"▁bec":4455,"ally":4456,"ff":4457,"▁dis":4458,"▁go":4459,"ance":4460,"ile":4461,"▁we":4462,".@":4463,"▁@.@":4464,"pl":4465,"▁over":4466,"▁year":4467,"own":4468,"ted":4469,"ice":4470,"▁off":4471,"iz":4472,"▁has":4473,"▁play":4474,"uring":4475,"▁been":4476,"ence":4477,"▁co":4478,"▁other":4479,"ect":4480,",@":4481,"▁@,@":4482,"201":4483,"▁im":4484,"ough":4485,"ke":4486,"▁me":4487,"are":4488,"ory":4489,"▁col":4490,"ely":4491,"ts":4492,"▁out":4493,"ations":4494,"clud":4495,"▁up":4496,"ach":4497,"ace":4498,"▁pre":4499,"▁inter":4500,"ound":4501,"land":4502,"▁ev":4503,"▁fin":4504,"▁pr":4505,"wn":4506,"▁when":4507,"▁bo":4508,"ade":4509,"ib":4510,"act":4511,"ions":4512,"▁spe":4513,"▁time":4514,"▁during":4515,"▁can":4516,"ail":4517,"urn":4518,"▁includ":4519,"ress":4520,"ced":4521,"▁ap":4522,"▁fl":4523,"ric":4524,"ens":4525,"▁would":4526,"ks":4527,"▁sec":4528,"man":4529,"▁fil":4530,"one":4531,"▁ind":4532,"we":4533,"ward":4534,"nder":4535,"▁into":4536,"ang":4537,"▁br":4538,"▁him":4539,"▁att":4540,"▁bl":4541,"ite":4542,"ult":4543,"▁ear":4544,"oll":4545,"ates":4546,"▁qu":4547,"▁more":4548,"▁jo":4549,"able":4550,"▁war":4551,"▁pe":4552,"ces":4553,"ased":4554,"ren":4555,"▁char":4556,"ited":4557,"▁cent":4558,"amp":4559,"ied":4560,"▁rep":4561,"▁form":4562,"ase":4563,"▁bet":4564,"▁film":4565,"rough":4566,"way":4567,"ount":4568,"les":4569,"▁gr":4570,"ors":4571,"ose":4572,"ason":4573,"form":4574,"▁po":4575,"aw":4576,"ember":4577,"ings":4578,"▁while":4579,"▁acc":4580,"▁mus":4581,"vel":4582,"▁game":4583,"ild":4584,"▁most":4585,"ne":4586,"ered":4587,"▁there":4588,"▁rem":4589,"▁car":4590,"▁nor":4591,"ind":4592,"▁so":4593,"ck":4594,"▁fr":4595,"▁par":4596,"▁gen":4597,"▁sou":4598,"▁ass":4599,"ake":4600,"ious":4601,"att":4602,"old":4603,"▁cons":4604,"▁how":4605,"ents":4606,"aus":4607,"fer":4608,"▁em":4609,"▁bu":4610,"ve":4611,"reat":4612,"▁no":4613,"iss":4614,"▁later":4615,"▁song":4616,"ick":4617,"round":4618,"▁reg":4619,"▁produ":4620,"▁again":4621,"ft":4622,"▁only":4623,"gan":4624,"▁act":4625,"rib":4626,"ved":4627,"▁under":4628,"▁work":4629,"ood":4630,"▁sy":4631,"▁may":4632,"▁them":4633,"▁kn":4634,"▁than":4635,"▁some":4636,"▁ret":4637,"ters":4638,"▁three":4639,"als":4640,"▁about":4641,"ubl":4642,"199":4643,"ix":4644,"ween":4645,"▁ver":4646,"ath":4647,"▁between":4648,"ollow":4649,"ph":4650,"▁day":4651,"ons":4652,"hip":4653,"▁high":4654,"▁bro":4655,"▁ma":4656,"▁rele":4657,"▁eng":4658,"▁through":4659,"▁mon":4660,"oth":4661,"▁record":4662,"▁follow":4663,"▁min":4664,"eric":4665,"fore":4666,"ational":4667,"▁app":4668,"▁second":4669,"▁rel":4670,"▁end":4671,"10":4672,"▁li":4673,"▁ph":4674,"▁num":4675,"ict":4676,"▁sub":4677,"▁ac":4678,"ton":4679,"▁ele":4680,"▁sa":4681,"ug":4682,"▁pres":4683,"▁imp":4684,"iew":4685,"▁ed":4686,"▁air":4687,"▁alb":4688,"▁season":4689,"▁four":4690,"▁ep":4691,"▁def":4692,"▁do":4693,"▁pos":4694,"▁world":4695,"▁americ":4696,"▁north":4697,"▁inc":4698,"▁ent":4699,"▁where":4700,"cted":4701,"ral":4702,"▁before":4703,"▁team":4704,"ning":4705,"▁mov":4706,"000":4707,"ular":4708,"ating":4709,"ames":4710,"▁spec":4711,"▁writ":4712,"▁arm":4713,"▁made":4714,"▁sm":4715,"▁lar":4716,"▁sch":4717,"▁gu":4718,"ision":4719,"▁loc":4720,"▁will":4721,"ived":4722,"▁such":4723,"hes":4724,"▁pol":4725,"▁sur":4726,"▁cap":4727,"▁dr":4728,"▁sing":4729,"son":4730,"▁album":4731,"▁publ":4732,"17":4733,"io":4734,"ished":4735,"▁sever":4736,"▁years":4737,"ained":4738,"ics":4739,"15":4740,"▁supp":4741,"ode":4742,"iel":4743,"▁call":4744,"ever":4745,"▁south":4746,"▁back":4747,"▁show":4748,"ident":4749,"ros":4750,"▁add":4751,"▁rev":4752,"▁/":4753,"▁gener":4754,"▁both":4755,"ual":4756,"tern":4757,"ily":4758,"▁inv":4759,"▁then":4760,"▁however":4761,"▁appe":4762,"▁epis":4763,"▁count":4764,"▁used":4765,"▁dec":4766,"ale":4767,"ute":4768,"▁rece":4769,"▁mill":4770,"ific":4771,"▁being":4772,"▁these":4773,"▁well":4774,"ll":4775,"ury":4776,"▁met":4777,"▁z":4778,"▁set":4779,"▁stud":4780,"▁series":4781,"▁against":4782,"▁batt":4783,"ten":4784,"ank":4785,"▁charac":4786,"▁inst":4787,"ife":4788,"▁found":4789,"▁number":4790,"▁ste":4791,"velop":4792,"▁bel":4793,"▁lead":4794,"▁many":4795,"▁sim":4796,"▁music":4797,"▁mat":4798,"orn":4799,"▁perform":4800,"ane":4801,"▁main":4802,"▁long":4803,"other":4804,"▁city":4805,"16":4806,"▁op":4807,"▁ter":4808,"▁cre":4809,"12":4810,"int":4811,"ool":4812,"▁brit":4813,"ause":4814,"ince":4815,"oy":4816,"end":4817,"▁develop":4818,"▁became":4819,"ert":4820,"▁united":4821,"▁sl":4822,"▁dire":4823,"igin":4824,"▁hist":4825,"▁art":4826,"▁several":4827,"▁including":4828,"▁ship":4829,"▁—":4830,"au":4831,"hn":4832,"▁dep":4833,"ather":4834,"air":4835,"▁state":4836,"ise":4837,"▁mil":4838,"▁exp":4839,"▁inf":4840,"▁early":4841,"▁div":4842,"ier":4843,"▁origin":4844,"ised":4845,"ower":4846,"▁ob":4847,"vern":4848,"198":4849,"▁pop":4850,"▁trans":4851,"▁did":4852,"ars":4853,"its":4854,"▁dist":4855,"ired":4856,"ement":4857,"ject":4858,"ures":4859,"ork":4860,"ley":4861,"194":4862,"ines":4863,"▁nov":4864,"rop":4865,"und":4866,"iet":4867,"▁contin":4868,"▁govern":4869,"anc":4870,"olog":4871,"▁win":4872,"▁pers":4873,"ities":4874,"30":4875,"der":4876,"roup":4877,"az":4878,"▁prov":4879,"led":4880,"▁episode":4881,"til":4882,"▁states":4883,"elf":4884,"ross":4885,"ared":4886,"▁ke":4887,"▁crit":4888,"▁said":4889,"▁est":4890,"▁john":4891,"▁following":4892,"ful":4893,"ird":4894,"▁const":4895,"▁design":4896,"▁group":4897,"▁could":4898,"▁dif":4899,"na":4900,"ys":4901,"▁str":4902,"ative":4903,"iver":4904,"▁return":4905,"▁med":4906,"▁run":4907,"▁oper":4908,"▁american":4909,"ock":4910,"▁desc":4911,"ouse":4912,"▁alth":4913,"▁known":4914,"▁comple":4915,"tend":4916,"▁although":4917,"▁lo":4918,"ield":4919,"▁aust":4920,"14":4921,"▁any":4922,"ivers":4923,"▁ger":4924,"▁west":4925,"197":4926,"▁sign":4927,"▁king":4928,"▁jun":4929,"ron":4930,"▁serv":4931,"▁mod":4932,"▁pass":4933,"emb":4934,"▁down":4935,"196":4936,"ually":4937,"▁land":4938,"uch":4939,"ty":4940,"▁fam":4941,"▁near":4942,"ued":4943,"▁began":4944,"ting":4945,"▁like":4946,"13":4947,"▁feat":4948,"▁offic":4949,"ined":4950,"▁eff":4951,"▁until":4952,"row":4953,"ople":4954,"gr":4955,"ism":4956,"▁disc":4957,"▁har":4958,"ange":4959,"▁bar":4960,"aking":4961,"▁along":4962,"▁school":4963,"▁because":4964,"▁own":4965,"ided":4966,"▁released":4967,"ern":4968,"▁open":4969,"▁port":4970,"ccess":4971,"ized":4972,"ins":4973,"▁called":4974,"▁national":4975,"▁prev":4976,"▁el":4977,"ger":4978,"uc":4979,"▁though":4980,"▁maj":4981,"ists":4982,"▁wee":4983,"▁cr":4984,"iam":4985,"▁people":4986,"ured":4987,"stem":4988,"▁you":4989,"▁gre":4990,"▁ju":4991,"▁ins":4992,"ially":4993,"ution":4994,"▁ann":4995,"▁class":4996,"▁colle":4997,"50":4998,"ments":4999,"▁ge":5000,"▁million":5001,"osed":5002,"▁just":5003,"ium":5004,"▁cour":5005,"▁ever":5006,"▁system":5007,"cept":5008,"▁la":5009,"▁british":5010,"ull":5011,"▁since":5012,"▁head":5013,"▁six":5014,"ner":5015,"▁adv":5016,"▁aut":5017,"▁best":5018,"▁around":5019,"▁aug":5020,"up":5021,"ark":5022,"▁award":5023,"▁major":5024,"▁life":5025,"▁cor":5026,"▁$":5027,"▁if":5028,"▁each":5029,"▁bre":5030,"▁success":5031,"ains":5032,"▁attack":5033,"▁sept":5034,"any":5035,"xt":5036,"gest":5037,"ah":5038,"▁var":5039,"▁character":5040,"▁av":5041,"oot":5042,"▁use":5043,"▁september":5044,"▁describ":5045,"▁august":5046,"▁start":5047,"amed":5048,"▁conf":5049,"rap":5050,"get":5051,"ible":5052,"▁same":5053,"▁road":5054,"▁tri":5055,"▁hel":5056,"ont":5057,"▁east":5058,"aced":5059,"ik":5060,"▁final":5061,"▁line":5062,"11":5063,"▁support":5064,"▁occ":5065,"▁oct":5066,"▁another":5067,"▁dem":5068,"ris":5069,"▁five":5070,"▁ra":5071,"▁care":5072,"▁public":5073,"aining":5074,"▁prom":5075,"▁sw":5076,"▁km":5077,"▁ty":5078,"▁great":5079,"▁build":5080,"▁lit":5081,"▁old":5082,"▁conc":5083,"▁austral":5084,"els":5085,"aving":5086,"▁my":5087,"▁ext":5088,"▁gl":5089,"▁took":5090,"▁camp":5091,"▁band":5092,"▁german":5093,"ues":5094,"enn":5095,"▁book":5096,"▁area":5097,"▁mid":5098,"▁house":5099,"▁small":5100,"ob":5101,"ove":5102,"ann":5103,"▁report":5104,"ep":5105,"▁consid":5106,"▁century":5107,"ober":5108,"▁turn":5109,"ped":5110,"▁received":5111,"uss":5112,"▁october":5113,"▁contro":5114,"ets":5115,"ants":5116,"ives":5117,"ble":5118,"▁stre":5119,"▁univers":5120,"ically":5121,"▁sk":5122,"hing":5123,"▁what":5124,"▁due":5125,"▁games":5126,"▁partic":5127,"▁short":5128,"▁last":5129,"▁government":5130,"▁direct":5131,"ility":5132,"▁ref":5133,"▁hal":5134,"ina":5135,"▁rest":5136,"ene":5137,"▁march":5138,"ately":5139,"▁es":5140,"cess":5141,"▁command":5142,"▁leg":5143,"▁person":5144,"▁home":5145,"gin":5146,"▁]":5147,"▁[":5148,"ians":5149,"ored":5150,"▁way":5151,"ink":5152,"▁jan":5153,"▁june":5154,"tle":5155,"▁mag":5156,"ril":5157,"▁single":5158,"▁third":5159,"▁mark":5160,"▁general":5161,"over":5162,"ime":5163,"▁men":5164,"▁squ":5165,"▁tit":5166,"25":5167,"ission":5168,"▁july":5169,"▁child":5170,"▁%":5171,"▁capt":5172,"iving":5173,"pect":5174,"▁november":5175,"urch":5176,"▁track":5177,"▁death":5178,"▁del":5179,"▁review":5180,"▁much":5181,"▁event":5182,"ash":5183,"▁island":5184,"▁arr":5185,"raft":5186,"▁eu":5187,"▁york":5188,"▁april":5189,"▁fur":5190,"che":5191,"▁dam":5192,"▁large":5193,"▁top":5194,"uary":5195,"▁battle":5196,"▁accord":5197,"▁power":5198,"lish":5199,"▁vers":5200,"▁even":5201,"▁left":5202,"▁soc":5203,"▁dece":5204,"▁town":5205,"ural":5206,"▁che":5207,"ctions":5208,"▁cast":5209,"ional":5210,"..":5211,"▁vide":5212,"▁allow":5213,"ient":5214,"ively":5215,"▁intern":5216,"▁gun":5217,"▁differ":5218,"▁month":5219,"▁pat":5220,"idge":5221,"▁star":5222,"bo":5223,"ilt":5224,"▁kill":5225,"▁story":5226,"▁appro":5227,"▁vis":5228,"▁based":5229,"aim":5230,"ms":5231,"▁family":5232,"▁place":5233,"ague":5234,"▁cur":5235,"▁addition":5236,"▁now":5237,"mber":5238,"▁vict":5239,"min":5240,"ven":5241,"▁incre":5242,"▁cal":5243,"ales":5244,"▁park":5245,"▁expl":5246,"▁black":5247,"ified":5248,"▁ant":5249,"▁right":5250,"▁...":5251,"▁law":5252,"▁company":5253,"▁army":5254,"avy":5255,"empt":5256,"rote":5257,"▁december":5258,"▁history":5259,"eng":5260,"▁club":5261,"▁played":5262,"▁mor":5263,"▁storm":5264,"▁according":5265,"▁river":5266,"▁post":5267,"by":5268,"ling":5269,"▁included":5270,"ps":5271,"▁name":5272,"ats":5273,"▁los":5274,"▁led":5275,"▁january":5276,"▁water":5277,"▁red":5278,"▁ir":5279,"195":5280,"rist":5281,"ograp":5282,"omet":5283,"▁hand":5284,"aged":5285,"▁wind":5286,"bert":5287,"ball":5288,"193":5289,"24":5290,"ony":5291,"apan":5292,"▁ang":5293,"▁wom":5294,"▁ii":5295,"▁wrote":5296,"inc":5297,"▁won":5298,"▁hum":5299,"ently":5300,"erg":5301,"▁resp":5302,"▁japan":5303,"▁times":5304,"ages":5305,"▁stru":5306,"▁organ":5307,"▁opp":5308,"ience":5309,"▁val":5310,"▁requ":5311,"▁previous":5312,"▁position":5313,"▁within":5314,"port":5315,"▁appear":5316,"ody":5317,"▁make":5318,"▁described":5319,"▁init":5320,"▁rad":5321,"med":5322,"ital":5323,"▁euro":5324,"▁those":5325,"▁deb":5326,"▁fore":5327,"▁still":5328,"▁video":5329,"▁champ":5330,"▁far":5331,"▁bill":5332,"ides":5333,"▁next":5334,"▁late":5335,"ott":5336,"▁memb":5337,"▁stand":5338,"▁named":5339,"omin":5340,"ney":5341,"▁belie":5342,"▁bus":5343,"▁original":5344,"▁among":5345,"▁release":5346,"▁attempt":5347,"▁effect":5348,"por":5349,"▁further":5350,"iven":5351,"▁repl":5352,"▁list":5353,"ster":5354,"▁league":5355,"ilar":5356,"▁force":5357,"▁very":5358,"▁x":5359,"▁dest":5360,"▁tele":5361,"▁poss":5362,"▁bas":5363,"▁foot":5364,"cy":5365,"▁view":5366,"▁iss":5367,"ister":5368,"▁route":5369,"mer":5370,"iod":5371,"bru":5372,"▁rom":5373,"▁real":5374,"ention":5375,"▁cy":5376,"ret":5377,"aff":5378,"▁commun":5379,"▁production":5380,"▁exper":5381,"▁species":5382,"rench":5383,"erv":5384,"ness":5385,"ior":5386,"ption":5387,"▁members":5388,"ached":5389,"ival":5390,"▁constru":5391,"▁sound":5392,"▁polit":5393,"pend":5394,"▁white":5395,"▁milit":5396,"▁former":5397,"▁christ":5398,"▁fle":5399,"▁pa":5400,"▁coun":5401,"▁er":5402,"▁tour":5403,"▁febru":5404,"▁february":5405,"▁similar":5406,"▁infl":5407,"▁tak":5408,"arch":5409,"ances":5410,"▁nort":5411,"▁sold":5412,"22":5413,"▁period":5414,"riend":5415,"▁division":5416,"▁days":5417,"▁built":5418,"100":5419,"▁match":5420,"br":5421,"▁tem":5422,"ences":5423,"▁nat":5424,"▁side":5425,"ched":5426,"▁roy":5427,"vers":5428,"▁plan":5429,"▁super":5430,"▁prop":5431,"▁held":5432,"▁europe":5433,"▁mo":5434,"▁ve":5435,"21":5436,"ple":5437,"▁youn":5438,"▁cle":5439,"▁university":5440,"▁rock":5441,"▁light":5442,"▁french":5443,"▁good":5444,"▁point":5445,"ried":5446,"2010":5447,"▁say":5448,"▁service":5449,"hen":5450,"▁auth":5451,"▁president":5452,"▁fre":5453,"▁local":5454,"▁role":5455,"▁estab":5456,"▁desp":5457,"augh":5458,"uted":5459,"wards":5460,"▁present":5461,"23":5462,"▁equ":5463,"tended":5464,"▁order":5465,"ec":5466,"▁det":5467,"▁came":5468,"ropical":5469,"▁every":5470,"▁tot":5471,"▁never":5472,"▁caus":5473,"▁eas":5474,"hy":5475,"▁beh":5476,"▁sol":5477,"▁having":5478,"ham":5479,"oci":5480,"▁week":5481,"▁william":5482,"self":5483,"▁cross":5484,"27":5485,"▁result":5486,"▁je":5487,"▁sen":5488,"▁few":5489,"▁sum":5490,"ford":5491,"▁sug":5492,"40":5493,"ulation":5494,"▁tro":5495,"▁test":5496,"▁associ":5497,"▁prof":5498,"▁player":5499,"▁chart":5500,"me":5501,"▁see":5502,"▁take":5503,"2008":5504,"ax":5505,"28":5506,"▁often":5507,"▁common":5508,"ices":5509,"app":5510,"sh":5511,"▁stat":5512,"ards":5513,"▁half":5514,"2009":5515,"▁career":5516,"▁hur":5517,"ler":5518,"▁geor":5519,"▁continued":5520,"▁wat":5521,"▁tech":5522,"bs":5523,"▁ten":5524,"▁low":5525,"ots":5526,"▁pri":5527,"▁fire":5528,"▁sty":5529,"▁claim":5530,"▁histor":5531,"craft":5532,"26":5533,"2011":5534,"ring":5535,"▁level":5536,"▁sent":5537,"▁mich":5538,"ator":5539,"▁different":5540,"▁without":5541,"▁press":5542,"▁fun":5543,"▁elect":5544,"estern":5545,"ese":5546,"▁despite":5547,"atic":5548,"▁cover":5549,"▁england":5550,"▁&":5551,"ology":5552,"gram":5553,"▁less":5554,"▁mer":5555,"▁court":5556,"▁party":5557,"read":5558,"▁considered":5559,"▁contr":5560,"af":5561,"ops":5562,"▁ec":5563,"gress":5564,"▁dav":5565,"▁development":5566,"▁church":5567,"let":5568,"2007":5569,"▁arch":5570,"▁tre":5571,"▁repres":5572,"aster":5573,"par":5574,"▁ly":5575,"▁don":5576,"▁night":5577,"▁country":5578,"ves":5579,"▁county":5580,"▁comb":5581,"▁influ":5582,"▁champions":5583,"▁field":5584,"▁royal":5585,"▁songs":5586,"▁friend":5587,"▁hy":5588,"▁version":5589,"▁hig":5590,"▁english":5591,"▁military":5592,"▁moved":5593,"▁highway":5594,"▁prote":5595,"▁written":5596,"▁trad":5597,"▁want":5598,"▁strong":5599,"ones":5600,"▁defe":5601,"rodu":5602,"co":5603,"▁mi":5604,"▁conv":5605,"vision":5606,"2012":5607,"▁program":5608,"▁vol":5609,"▁become":5610,"▁lim":5611,"▁forces":5612,"▁anim":5613,"▁little":5614,"▁chang":5615,"alk":5616,"29":5617,"side":5618,"▁fact":5619,"▁lost":5620,"▁project":5621,"ertain":5622,"ches":5623,"ize":5624,"▁international":5625,"▁lond":5626,"line":5627,"▁building":5628,"▁son":5629,"▁given":5630,"urs":5631,"▁miss":5632,"▁ho":5633,"ai":5634,"▁tropical":5635,"▁control":5636,"▁london":5637,"▁total":5638,"▁aff":5639,"▁invol":5640,"▁author":5641,"▁suggest":5642,"190":5643,"▁ord":5644,"elt":5645,"▁refer":5646,"be":5647,"▁hit":5648,"▁bur":5649,"ison":5650,"utes":5651,"▁phil":5652,"▁announ":5653,"hel":5654,"▁vir":5655,"▁let":5656,"ged":5657,"atter":5658,"▁lab":5659,"▁hour":5660,"▁read":5661,"▁street":5662,"▁import":5663,"▁free":5664,"ald":5665,"iment":5666,"que":5667,"ened":5668,"▁decl":5669,"iety":5670,"ery":5671,"▁get":5672,"roy":5673,"▁canad":5674,"▁eight":5675,"sequ":5676,"▁vi":5677,"ille":5678,"▁rail":5679,"▁performance":5680,"▁gold":5681,"ae":5682,"▁sit":5683,"▁sal":5684,"▁station":5685,"▁gave":5686,"▁earl":5687,"▁went":5688,"ering":5689,"▁find":5690,"▁represent":5691,"rent":5692,"▁cir":5693,"▁returned":5694,"▁somet":5695,"ailed":5696,"▁using":5697,"▁du":5698,"▁broad":5699,"▁jack":5700,"▁need":5701,"▁father":5702,"▁published":5703,"▁coast":5704,"▁produced":5705,"▁hen":5706,"▁arg":5707,"▁western":5708,"▁compet":5709,"▁news":5710,"▁obs":5711,"▁reported":5712,"ead":5713,"xim":5714,"▁hun":5715,"▁popular":5716,"ably":5717,"▁particular":5718,"▁recorded":5719,"▁children":5720,"ape":5721,"▁inde":5722,"▁television":5723,"▁mass":5724,"2006":5725,"ories":5726,"▁stated":5727,"ama":5728,"▁aircraft":5729,"aign":5730,"▁special":5731,"▁cult":5732,"▁ships":5733,"▁interest":5734,"itions":5735,"▁ground":5736,"▁campaign":5737,"60":5738,"▁should":5739,"▁include":5740,"▁live":5741,"▁love":5742,"▁vo":5743,"▁making":5744,"▁ide":5745,"▁dev":5746,"used":5747,"▁dou":5748,"▁critic":5749,"▁age":5750,"omb":5751,"yl":5752,"mit":5753,"ief":5754,"▁front":5755,"▁women":5756,"ument":5757,"▁hurric":5758,"day":5759,"▁central":5760,"▁cop":5761,"aren":5762,"▁throughout":5763,"▁coll":5764,"▁prim":5765,"▁fac":5766,"ints":5767,"▁upon":5768,"▁once":5769,"▁hom":5770,"▁young":5771,"osp":5772,"iness":5773,"ploy":5774,"raw":5775,"▁suff":5776,"onom":5777,"▁himself":5778,"▁official":5779,"▁australia":5780,"2013":5781,"▁championship":5782,"▁destroy":5783,"▁techn":5784,"▁aud":5785,"ying":5786,"▁depart":5787,"▁mot":5788,"▁rich":5789,"▁wall":5790,"▁characters":5791,"ned":5792,"▁non":5793,"▁souther":5794,"cer":5795,"▁vill":5796,"▁ball":5797,"ensive":5798,"▁trav":5799,"rest":5800,"▁sea":5801,"▁cas":5802,"▁hor":5803,"rew":5804,"play":5805,"lo":5806,"alth":5807,"▁fav":5808,"▁players":5809,"▁squad":5810,"▁relations":5811,"189":5812,"itive":5813,"▁ft":5814,"▁pra":5815,"▁ce":5816,"▁cam":5817,"▁circ":5818,"▁instead":5819,"▁fall":5820,"eder":5821,"▁tur":5822,"▁commit":5823,"▁southern":5824,"ither":5825,"▁base":5826,"▁title":5827,"▁seven":5828,"akes":5829,"▁james":5830,"▁writing":5831,"▁away":5832,"▁cost":5833,"ges":5834,"▁mad":5835,"acy":5836,"▁begin":5837,"▁across":5838,"▁introdu":5839,"▁fem":5840,"▁died":5841,"▁remained":5842,"▁months":5843,"▁center":5844,"ense":5845,"▁signific":5846,"▁developed":5847,"▁fort":5848,"▁grand":5849,"▁promot":5850,"dom":5851,"▁full":5852,"▁hall":5853,"▁political":5854,"▁look":5855,"▁mount":5856,"▁net":5857,"▁various":5858,"ries":5859,"▁manag":5860,"▁fif":5861,"▁too":5862,"▁modern":5863,"▁hurricane":5864,"▁wood":5865,"uck":5866,"▁race":5867,"ration":5868,"▁mc":5869,"▁put":5870,"▁aver":5871,"▁hill":5872,"ency":5873,"▁hon":5874,"fic":5875,"▁hol":5876,"▁ham":5877,"▁ill":5878,"▁fight":5879,"▁cond":5880,"▁cat":5881,"rie":5882,"▁office":5883,"hern":5884,"▁big":5885,"isted":5886,"▁pal":5887,"▁pit":5888,"inted":5889,"▁hard":5890,"▁bow":5891,"most":5892,"ael":5893,"▁works":5894,"▁felt":5895,"▁areas":5896,"▁sil":5897,"▁mal":5898,"▁noted":5899,"ked":5900,"▁indust":5901,"orts":5902,"▁america":5903,"▁eventually":5904,"▁style":5905,"80":5906,"▁russ":5907,"erc":5908,"▁announced":5909,"▁created":5910,"▁miles":5911,"▁enc":5912,"▁reached":5913,"▁brother":5914,"▁college":5915,"▁discover":5916,"▁hot":5917,"▁cro":5918,"▁construction":5919,"▁japanese":5920,"▁engine":5921,"ming":5922,"▁stri":5923,"▁san":5924,"▁sun":5925,"▁successful":5926,"▁northern":5927,"▁hold":5928,"2005":5929,"▁body":5930,"▁seen":5931,"▁pain":5932,"▁sele":5933,"▁heavy":5934,"▁struct":5935,"ising":5936,"cast":5937,"▁cut":5938,"▁’":5939,"▁agre":5940,"ze":5941,"▁followed":5942,"▁range":5943,"gether":5944,"▁together":5945,"▁sym":5946,"field":5947,"▁meet":5948,"▁process":5949,"▁mem":5950,"▁performed":5951,"▁civ":5952,"ization":5953,"iting":5954,"▁brown":5955,"▁served":5956,"▁help":5957,"▁di":5958,"▁member":5959,"ana":5960,"▁activ":5961,"work":5962,"2014":5963,"▁know":5964,"▁bridge":5965,"▁george":5966,"ality":5967,"▁mix":5968,"▁football":5969,"▁esc":5970,"▁prot":5971,"▁que":5972,"▁tor":5973,"▁killed":5974,"▁mur":5975,"▁significant":5976,"▁god":5977,"idence":5978,"▁profess":5979,"ids":5980,"▁able":5981,"▁taken":5982,"▁saw":5983,"olution":5984,"cent":5985,"▁mm":5986,"▁establ":5987,"ature":5988,"▁ident":5989,"▁impro":5990,"rict":5991,"elling":5992,"▁sat":5993,"▁becom":5994,"▁action":5995,"▁round":5996,"▁human":5997,"▁points":5998,"▁born":5999,"▁does":6000,"▁thought":6001,"▁established":6002,"▁mean":6003,"oss":6004,"▁originally":6005,"▁invest":6006,"ius":6007,"bor":6008,"▁thom":6009,"▁gar":6010,"▁australian":6011,"ds":6012,"▁subsequ":6013,"▁grow":6014,"enth":6015,"aval":6016,"▁others":6017,"▁stage":6018,"ament":6019,"enced":6020,"irl":6021,"▁entire":6022,"▁appeared":6023,"ression":6024,"70":6025,"▁!":6026,"▁david":6027,"▁sn":6028,"▁located":6029,"▁director":6030,"cil":6031,"▁surv":6032,"▁redu":6033,"▁features":6034,"ctor":6035,"▁voc":6036,"▁den":6037,"ma":6038,"ray":6039,"ara":6040,"▁crew":6041,"ox":6042,"yn":6043,"oon":6044,"iers":6045,"▁commission":6046,"ett":6047,"ground":6048,"▁business":6049,"▁started":6050,"rick":6051,"▁afric":6052,"▁playing":6053,"▁pot":6054,"▁pen":6055,"▁mother":6056,"bur":6057,"odes":6058,"aves":6059,"▁caused":6060,"less":6061,"ought":6062,"▁decided":6063,"▁civil":6064,"▁critics":6065,"▁ur":6066,"ressed":6067,"ript":6068,"▁kingdom":6069,"▁feet":6070,"▁rather":6071,"▁rank":6072,"ators":6073,"ship":6074,"▁fourth":6075,"▁mater":6076,"▁fell":6077,"▁reb":6078,"ata":6079,"▁inform":6080,"▁rese":6081,"▁econom":6082,"▁behind":6083,"▁independ":6084,"▁formed":6085,"den":6086,"▁site":6087,"▁ital":6088,"ogn":6089,"▁magaz":6090,"▁added":6091,"▁fleet":6092,"▁bi":6093,"▁case":6094,"▁ru":6095,"▁important":6096,"▁soon":6097,"gg":6098,"▁pred":6099,"ample":6100,"reek":6101,"▁comment":6102,"ivid":6103,"ateg":6104,"▁jud":6105,"▁mart":6106,"wood":6107,"rought":6108,"go":6109,"▁eastern":6110,"cing":6111,"▁damage":6112,"▁educ":6113,"▁completed":6114,"▁green":6115,"▁population":6116,"ades":6117,"▁unc":6118,"▁neg":6119,"▁sam":6120,"▁guns":6121,"▁mult":6122,"▁almost":6123,"▁conn":6124,"▁sex":6125,"head":6126,"dle":6127,"▁peak":6128,"aces":6129,"▁-":6130,"▁exec":6131,"▁close":6132,"▁cup":6133,"ination":6134,"▁interv":6135,"▁lang":6136,"▁indian":6137,"▁jour":6138,"emy":6139,"▁initially":6140,"▁awards":6141,"▁region":6142,"▁loss":6143,"▁inj":6144,"▁treat":6145,"lin":6146,"▁tom":6147,"2004":6148,"oney":6149,"▁occur":6150,"ways":6151,"itar":6152,"▁opened":6153,"▁lack":6154,"▁creat":6155,"▁social":6156,"31":6157,"▁host":6158,"aps":6159,"▁pract":6160,"▁michael":6161,"▁proble":6162,"▁scre":6163,"▁girl":6164,"▁relationship":6165,"▁individ":6166,"▁ul":6167,"ceed":6168,"▁fund":6169,"▁pur":6170,"▁lou":6171,"▁sus":6172,"ino":6173,"ements":6174,"▁leading":6175,"▁typ":6176,"cher":6177,"▁weeks":6178,"▁tradition":6179,"hic":6180,"to":6181,"2015":6182,"omm":6183,"▁working":6184,"▁radio":6185,"▁bay":6186,"▁separ":6187,"▁clos":6188,"▁worked":6189,"▁france":6190,"▁diffic":6191,"▁current":6192,"▁nar":6193,"▁sour":6194,"▁difficult":6195,"▁prem":6196,"▁ale":6197,"▁recording":6198,"▁fa":6199,"ula":6200,"▁secret":6201,"▁towards":6202,"▁mac":6203,"medi":6204,"▁appo":6205,"▁bomb":6206,"35":6207,"▁mel":6208,"ica":6209,"▁bal":6210,"▁union":6211,"▁council":6212,"▁laun":6213,"▁scene":6214,"▁rain":6215,"umb":6216,"istic":6217,"rison":6218,"ki":6219,"imes":6220,"▁rap":6221,"▁goal":6222,"ky":6223,"▁wid":6224,"asing":6225,"▁respect":6226,"▁republ":6227,"▁ren":6228,"▁room":6229,"▁henry":6230,"▁resul":6231,"igned":6232,"▁quick":6233,"▁norm":6234,"anch":6235,"▁reve":6236,"eth":6237,"▁robert":6238,"2000":6239,"▁break":6240,"▁material":6241,"▁records":6242,"▁navy":6243,"▁accept":6244,"▁vot":6245,"▁training":6246,"▁washing":6247,"▁least":6248,"▁scored":6249,"▁angel":6250,"pec":6251,"▁provided":6252,"▁reach":6253,"▁wanted":6254,"▁must":6255,"▁ey":6256,"▁fig":6257,"▁troops":6258,"▁cru":6259,"▁brought":6260,"▁average":6261,"hest":6262,"▁brig":6263,"▁dut":6264,"▁space":6265,"▁recogn":6266,"board":6267,"500":6268,"▁featured":6269,"▁earth":6270,"iding":6271,"ological":6272,"ows":6273,"osition":6274,"▁colon":6275,"▁either":6276,"▁foc":6277,"▁nomin":6278,"▁quar":6279,"▁proper":6280,"▁allowed":6281,"▁rob":6282,"ected":6283,"▁past":6284,"▁estim":6285,"▁fut":6286,"▁tar":6287,"▁cho":6288,"▁feder":6289,"▁wife":6290,"ams":6291,"▁victory":6292,"▁studio":6293,"▁placed":6294,"▁generally":6295,"▁avail":6296,"▁washington":6297,"▁inn":6298,"▁rul":6299,"iff":6300,"ico":6301,"▁cycl":6302,"▁priv":6303,"here":6304,"▁ach":6305,"▁runs":6306,"▁phys":6307,"▁example":6308,"▁dark":6309,"▁events":6310,"▁magazine":6311,"aut":6312,"▁chief":6313,"▁battal":6314,"aur":6315,"mp":6316,"▁republic":6317,"▁der":6318,"▁leng":6319,"▁board":6320,"▁summer":6321,"antic":6322,"oke":6323,"ville":6324,"▁grad":6325,"▁insp":6326,"▁paul":6327,"▁staff":6328,"2003":6329,"▁cred":6330,"▁dro":6331,"▁particip":6332,"▁wil":6333,"ential":6334,"ka":6335,"▁joined":6336,"▁designed":6337,"▁squadron":6338,"uel":6339,"▁surf":6340,"▁dan":6341,"▁hours":6342,"ha":6343,"▁pie":6344,"omp":6345,"▁regular":6346,"▁span":6347,"▁middle":6348,"▁employ":6349,"▁quest":6350,"ike":6351,"▁speed":6352,"▁nine":6353,"▁shot":6354,"▁operation":6355,"▁condu":6356,"188":6357,"ving":6358,"▁come":6359,"▁threat":6360,"▁opening":6361,"ells":6362,"▁relig":6363,"▁media":6364,"▁believed":6365,"ude":6366,"▁score":6367,"90":6368,"▁regard":6369,"▁cou":6370,"men":6371,"anks":6372,"▁winds":6373,"▁ox":6374,"▁bir":6375,"▁mary":6376,"tim":6377,"▁flight":6378,"▁transport":6379,"aper":6380,"▁replaced":6381,"ugh":6382,"▁mph":6383,"han":6384,"45":6385,"▁prior":6386,"▁stone":6387,"75":6388,"▁scen":6389,"186":6390,"iction":6391,"▁ber":6392,"▁infant":6393,"▁pay":6394,"▁ben":6395,"▁emp":6396,"oring":6397,"imin":6398,"▁deter":6399,"▁sequ":6400,"▁captain":6401,"▁police":6402,"▁involved":6403,"▁stop":6404,"▁european":6405,"ification":6406,"▁langu":6407,"▁minutes":6408,"erous":6409,"▁earlier":6410,"west":6411,"fall":6412,"▁finished":6413,"ago":6414,"▁research":6415,"▁society":6416,"asion":6417,"aled":6418,"▁hop":6419,"▁contrib":6420,"utive":6421,"▁length":6422,"lic":6423,"▁possible":6424,"▁saying":6425,"▁indic":6426,"▁roman":6427,"off":6428,"▁immedi":6429,"▁commerc":6430,"▁change":6431,"▁ny":6432,"▁association":6433,"▁pil":6434,"▁trib":6435,"▁keep":6436,"reg":6437,"▁admin":6438,"▁remov":6439,"▁largest":6440,"▁highest":6441,"▁particularly":6442,"▁lower":6443,"▁boy":6444,"▁films":6445,"▁bad":6446,"▁fly":6447,"▁scott":6448,"▁beginning":6449,"▁exist":6450,"▁key":6451,"▁adm":6452,"▁available":6453,"ishing":6454,"▁respons":6455,"▁uk":6456,"▁percent":6457,"▁plat":6458,"▁virgin":6459,"▁forced":6460,"pected":6461,"▁section":6462,"2001":6463,"▁assist":6464,"▁better":6465,"▁atl":6466,"▁nin":6467,"wer":6468,"oph":6469,"▁weak":6470,"▁achie":6471,"▁disp":6472,"hib":6473,"▁outside":6474,"▁deal":6475,"anned":6476,"▁taking":6477,"rian":6478,"▁lear":6479,"▁anti":6480,"▁meas":6481,"aring":6482,"▁charles":6483,"▁committe":6484,"mar":6485,"▁heart":6486,"▁grant":6487,"▁ha":6488,"ography":6489,"▁thomas":6490,"▁novel":6491,"▁°":6492,"▁maint":6493,"▁turned":6494,"▁increased":6495,"▁ended":6496,"▁reason":6497,"ipp":6498,"▁units":6499,"ida":6500,"of":6501,"ems":6502,"▁feel":6503,"▁community":6504,"▁reviews":6505,"▁calif":6506,"sel":6507,"ases":6508,"▁future":6509,"▁passed":6510,"▁praised":6511,"▁californ":6512,"heast":6513,"▁move":6514,"▁hous":6515,"▁acad":6516,"▁going":6517,"▁beat":6518,"▁above":6519,"▁mcc":6520,"▁additional":6521,"2002":6522,"▁tex":6523,"▁appearance":6524,"su":6525,"▁pan":6526,"iation":6527,"key":6528,"▁phot":6529,"▁type":6530,"for":6531,"▁thus":6532,"▁guitar":6533,"▁bird":6534,"action":6535,"ios":6536,"▁canada":6537,"aded":6538,"itor":6539,"▁ps":6540,"▁lik":6541,"▁enough":6542,"▁liter":6543,"▁castle":6544,"▁infantry":6545,"ership":6546,"▁ordered":6547,"▁lake":6548,"▁smith":6549,"▁plot":6550,"▁daugh":6551,"▁previously":6552,"▁pun":6553,"▁lat":6554,"▁personal":6555,"▁lu":6556,"▁signed":6557,"▁musical":6558,"ocr":6559,"▁minor":6560,"ey":6561,"tt":6562,"▁doc":6563,"▁territ":6564,"▁richard":6565,"nal":6566,"ston":6567,"ga":6568,"▁alex":6569,"▁elements":6570,"▁instit":6571,"▁rights":6572,"▁market":6573,"arily":6574,"▁pac":6575,"▁dig":6576,"▁theat":6577,"▁viol":6578,"▁abs":6579,"▁california":6580,"tr":6581,"pped":6582,"ush":6583,"▁positive":6584,"str":6585,"▁franc":6586,"agon":6587,"▁prob":6588,"▁critical":6589,"▁dead":6590,"ference":6591,"▁parts":6592,"my":6593,"▁access":6594,"▁food":6595,"ique":6596,"▁lord":6597,"▁background":6598,"▁lines":6599,"▁give":6600,"erson":6601,"pper":6602,"▁bat":6603,"▁exc":6604,"▁travel":6605,"▁pow":6606,"sen":6607,"gen":6608,"▁money":6609,"▁female":6610,"▁spent":6611,"▁overall":6612,"▁told":6613,"▁beg":6614,"́n":6615,"itz":6616,"▁princ":6617,"cts":6618,"▁subject":6619,"▁mic":6620,"ilities":6621,"clus":6622,"▁scient":6623,"▁tax":6624,"▁directed":6625,"▁flood":6626,"uation":6627,"▁blue":6628,"▁committee":6629,"back":6630,"▁victor":6631,"uter":6632,"▁deep":6633,"elled":6634,"▁interview":6635,"▁failed":6636,"1990":6637,"▁pet":6638,"nel":6639,"▁domin":6640,"▁chap":6641,"▁square":6642,"▁corn":6643,"▁required":6644,"▁poor":6645,"▁debut":6646,"▁groups":6647,"reng":6648,"sc":6649,"▁mach":6650,"▁germany":6651,"▁roll":6652,"ume":6653,"▁clear":6654,"▁happ":6655,"▁kil":6656,"▁broadcast":6657,"▁object":6658,"bers":6659,"▁term":6660,"nes":6661,"▁district":6662,"▁constit":6663,"▁peter":6664,"▁env":6665,"ening":6666,"▁anal":6667,"▁itself":6668,"▁health":6669,"▁india":6670,"▁battalion":6671,"▁christian":6672,"▁evidence":6673,"▁wal":6674,"▁sometimes":6675,"▁step":6676,"isl":6677,"▁frank":6678,"ibility":6679,"▁prison":6680,"▁bank":6681,"▁occup":6682,"▁reception":6683,"▁contract":6684,"▁election":6685,"▁investig":6686,"berg":6687,"▁commercial":6688,"▁asked":6689,"▁ze":6690,"▁stars":6691,"▁transfer":6692,"▁except":6693,"▁£":6694,"▁?":6695,"ready":6696,"▁defend":6697,"stand":6698,"erved":6699,"▁parl":6700,"▁streng":6701,"ability":6702,"▁living":6703,"▁administ":6704,"▁our":6705,"▁sov":6706,"▁mex":6707,"ays":6708,"▁whose":6709,"edy":6710,"aker":6711,"apt":6712,"ii":6713,"gar":6714,"onse":6715,"▁natural":6716,"▁study":6717,"airs":6718,"▁complete":6719,"▁already":6720,"▁claimed":6721,"onna":6722,"▁governor":6723,"▁approxim":6724,"▁muse":6725,"▁clim":6726,"ream":6727,"▁chic":6728,"▁bey":6729,"▁soviet":6730,"igan":6731,"rief":6732,"▁introduced":6733,"▁flor":6734,"▁frequ":6735,"▁whom":6736,"▁forest":6737,"▁minister":6738,"▁amb":6739,"▁think":6740,"▁usually":6741,"bc":6742,"▁burn":6743,"▁woman":6744,"▁fer":6745,"▁students":6746,"enue":6747,"▁education":6748,"▁quickly":6749,"acted":6750,"▁idea":6751,"▁limited":6752,"▁gro":6753,"▁wild":6754,"wor":6755,"▁bud":6756,"▁bul":6757,"▁rh":6758,"▁lie":6759,"▁anc":6760,"33":6761,"▁might":6762,"▁guard":6763,"▁effects":6764,"▁movement":6765,"▁concern":6766,"▁response":6767,"▁prevent":6768,"▁lib":6769,"▁syn":6770,"▁issue":6771,"▁certain":6772,"▁commander":6773,"▁centre":6774,"▁slow":6775,"▁tun":6776,"▁queen":6777,"▁ol":6778,"atory":6779,"1970":6780,"▁plant":6781,"▁polic":6782,"▁surface":6783,"▁your":6784,"▁self":6785,"▁lay":6786,"187":6787,"▁department":6788,"aint":6789,"▁espec":6790,"▁fifth":6791,"▁arrived":6792,"▁hosp":6793,"bour":6794,"1980":6795,"▁sand":6796,"▁britain":6797,"de":6798,"▁especially":6799,"▁face":6800,"▁decision":6801,"▁services":6802,"mon":6803,"sec":6804,"ergy":6805,"ba":6806,"▁operations":6807,"▁village":6808,"▁rac":6809,"▁teams":6810,"▁voice":6811,"▁parliam":6812,"ties":6813,"▁structure":6814,"▁box":6815,"▁ran":6816,"▁shows":6817,"pr":6818,"ump":6819,"▁gard":6820,"▁museum":6821,"anded":6822,"▁congress":6823,"▁industry":6824,"▁walk":6825,"▁larger":6826,"▁fest":6827,"▁writer":6828,"▁science":6829,"36":6830,"▁lyric":6831,"▁becoming":6832,"▁remaining":6833,"▁estimated":6834,"▁latter":6835,"▁episodes":6836,"▁remain":6837,"▁defeated":6838,"▁carried":6839,"▁heav":6840,"▁got":6841,"▁parliament":6842,"wh":6843,"ises":6844,"aph":6845,"▁multip":6846,"▁mas":6847,"▁ultim":6848,"fl":6849,"▁network":6850,"▁draw":6851,"▁discuss":6852,"aries":6853,"▁pressure":6854,"▁blood":6855,"1999":6856,"37":6857,"▁flag":6858,"oor":6859,"▁progress":6860,"▁surround":6861,"ully":6862,"iron":6863,"▁scenes":6864,"▁cm":6865,"▁consider":6866,"▁brief":6867,"ites":6868,"▁leaving":6869,"▁running":6870,"▁changes":6871,"ta":6872,"ulf":6873,"▁acqu":6874,"▁virginia":6875,"▁cand":6876,"▁jew":6877,"▁complet":6878,"pre":6879,"ession":6880,"▁naval":6881,"porary":6882,"▁suggested":6883,"ror":6884,"outh":6885,"▁entered":6886,"▁nearly":6887,"val":6888,"▁depression":6889,"orial":6890,"ining":6891,"▁quarter":6892,"▁appointed":6893,"▁winning":6894,"▁bra":6895,"▁influence":6896,"▁date":6897,"▁approximately":6898,"▁dom":6899,"▁fail":6900,"▁chall":6901,"ift":6902,"▁twent":6903,"▁size":6904,"▁emb":6905,"erve":6906,"▁capital":6907,"▁leader":6908,"▁language":6909,"▁fant":6910,"▁shortly":6911,"▁empire":6912,"▁islands":6913,"▁regiment":6914,"▁establish":6915,"▁script":6916,"▁meth":6917,"▁equip":6918,"▁federal":6919,"▁favor":6920,"▁course":6921,"▁screen":6922,"▁wide":6923,"▁today":6924,"▁jackson":6925,"▁finally":6926,"ania":6927,"▁thr":6928,"▁ros":6929,"38":6930,"change":6931,"▁upper":6932,"ander":6933,"▁unl":6934,"▁tracks":6935,"▁mission":6936,"▁oly":6937,"▁cann":6938,"▁louis":6939,"▁destroyed":6940,"▁proposed":6941,"▁daughter":6942,"▁aw":6943,"▁purch":6944,"32":6945,"ulated":6946,"49":6947,"▁olymp":6948,"▁higher":6949,"▁wing":6950,"▁producer":6951,"▁manager":6952,"burg":6953,"▁arrang":6954,"▁spanish":6955,"▁corps":6956,"king":6957,"abor":6958,"▁lad":6959,"▁experience":6960,"▁van":6961,"▁nature":6962,"▁distrib":6963,"▁environ":6964,"▁cer":6965,"▁princip":6966,"▁horse":6967,"▁provide":6968,"▁subsequently":6969,"▁brigade":6970,"▁battles":6971,"idents":6972,"▁railway":6973,"▁professional":6974,"ires":6975,"▁altern":6976,"mitted":6977,"▁diss":6978,"ension":6979,"▁compared":6980,"▁breed":6981,"iser":6982,"oid":6983,"▁complex":6984,"▁paren":6985,"▁concept":6986,"▁hero":6987,"▁intended":6988,"▁immediately":6989,"▁emerg":6990,"▁married":6991,"inese":6992,"1960":6993,"▁democr":6994,"▁private":6995,"▁fans":6996,"▁saf":6997,"▁cele":6998,"▁temper":6999,"▁journal":7000,"▁supported":7001,"▁pict":7002,"▁agreed":7003,"▁liber":7004,"▁stay":7005,"▁ca":7006,"▁spir":7007,"▁entertain":7008,"▁mr":7009,"▁compan":7010,"▁shoot":7011,"▁intens":7012,"▁archit":7013,"alled":7014,"▁bord":7015,"ria":7016,"▁done":7017,"▁edward":7018,"▁model":7019,"▁feature":7020,"▁jose":7021,"▁increasing":7022,"ns":7023,"▁initial":7024,"▁awarded":7025,"gy":7026,"▁weap":7027,"▁architect":7028,"▁display":7029,"▁chicago":7030,"▁mont":7031,"▁chinese":7032,"▁whether":7033,"▁bor":7034,"▁helped":7035,"▁related":7036,"com":7037,"▁q":7038,"▁legisl":7039,"▁planned":7040,"▁card":7041,"down":7042,"▁books":7043,"▁imm":7044,"▁gi":7045,"▁officer":7046,"ching":7047,"1998":7048,"▁soldiers":7049,"▁create":7050,"▁bring":7051,"▁longer":7052,"▁trade":7053,"▁artic":7054,"▁fair":7055,"hem":7056,"185":7057,"▁here":7058,"▁wit":7059,"atively":7060,"▁attr":7061,"ban":7062,"▁ple":7063,"▁mom":7064,"ores":7065,"▁cause":7066,"▁kore":7067,"▁gal":7068,"thing":7069,"▁captured":7070,"teen":7071,"▁valley":7072,"▁yet":7073,"▁plans":7074,"▁iron":7075,"34":7076,"▁buildings":7077,"300":7078,"▁conserv":7079,"▁unit":7080,"▁color":7081,"▁block":7082,"▁forward":7083,"inct":7084,"▁changed":7085,"▁conclud":7086,"▁winter":7087,"▁withd":7088,"▁penn":7089,"▁coach":7090,"asy":7091,"▁associated":7092,"▁subst":7093,"▁friends":7094,"▁dance":7095,"chester":7096,"▁something":7097,"▁pu":7098,"▁officers":7099,"ien":7100,"▁instr":7101,"▁spring":7102,"▁remains":7103,"▁mostly":7104,"selves":7105,"▁pacific":7106,"▁singles":7107,"▁billboard":7108,"▁sev":7109,"▁johnson":7110,"▁themselves":7111,"▁standard":7112,"abit":7113,"▁rat":7114,"ronic":7115,"ken":7116,"▁target":7117,"▁countries":7118,"▁lyrics":7119,"oms":7120,"▁exam":7121,"▁mixed":7122,"▁probably":7123,"48":7124,"riage":7125,"▁really":7126,"ny":7127,"▁method":7128,"▁extended":7129,"hl":7130,"well":7131,"▁ray":7132,"▁moving":7133,"▁numerous":7134,"▁financ":7135,"▁fit":7136,"▁attend":7137,"ena":7138,"▁oce":7139,"▁information":7140,"▁portray":7141,"▁contem":7142,"▁copies":7143,"▁always":7144,"▁request":7145,"leg":7146,"▁nation":7147,"▁visit":7148,"▁scot":7149,"▁location":7150,"▁tas":7151,"▁goals":7152,"▁rid":7153,"isions":7154,"▁individual":7155,"▁birth":7156,"▁sales":7157,"▁cit":7158,"1997":7159,"▁focus":7160,"▁issued":7161,"rated":7162,"▁counter":7163,"▁status":7164,"olic":7165,"▁mess":7166,"▁leave":7167,"▁energy":7168,"▁atlantic":7169,"▁artist":7170,"▁includes":7171,"andon":7172,"rd":7173,"▁male":7174,"can":7175,"▁conference":7176,"▁suffered":7177,"▁singer":7178,"▁admir":7179,"39":7180,"▁hospital":7181,"▁via":7182,"▁traff":7183,"▁tal":7184,"▁impact":7185,"uk":7186,"ands":7187,"▁jim":7188,"▁martin":7189,"▁florida":7190,"▁edition":7191,"▁problems":7192,"▁termin":7193,"▁albums":7194,"▁maxim":7195,"▁meeting":7196,"▁bene":7197,"hood":7198,"ili":7199,"▁gall":7200,"▁double":7201,"▁likely":7202,"47":7203,"▁china":7204,"▁increase":7205,"▁carry":7206,"▁assemb":7207,"▁independent":7208,"▁removed":7209,"▁approach":7210,"bury":7211,"▁celebr":7212,"▁movie":7213,"▁bond":7214,"▁dog":7215,"bed":7216,"▁texas":7217,"vin":7218,"▁revolution":7219,"▁inspired":7220,"▁wa":7221,"▁foreign":7222,"atives":7223,"chan":7224,"▁rang":7225,"▁refle":7226,"▁master":7227,"▁die":7228,"▁terms":7229,"▁primary":7230,"▁creek":7231,"▁majority":7232,"isc":7233,"▁ast":7234,"lands":7235,"▁sir":7236,"▁compos":7237,"▁kind":7238,"▁dv":7239,"▁offered":7240,"ole":7241,"▁ice":7242,"▁interse":7243,"▁consist":7244,"▁takes":7245,"▁minute":7246,"▁qual":7247,"▁vehic":7248,"ograph":7249,"▁tons":7250,"vey":7251,"▁stad":7252,"▁ut":7253,"aily":7254,"▁drum":7255,"ously":7256,"▁ens":7257,"▁adop":7258,"iter":7259,"▁attacks":7260,"ounted":7261,"▁sar":7262,"▁fox":7263,"▁entertainment":7264,"▁makes":7265,"▁ign":7266,"▁confir":7267,"etic":7268,"▁oil":7269,"▁word":7270,"▁composed":7271,"▁damaged":7272,"▁raised":7273,"▁combat":7274,"uth":7275,"▁canadian":7276,"▁ranked":7277,"▁environment":7278,"▁prec":7279,"ounds":7280,"▁africa":7281,"▁log":7282,"▁concert":7283,"icted":7284,"▁carol":7285,"aches":7286,"▁shar":7287,"▁cyclone":7288,"▁wrest":7289,"▁letter":7290,"▁daily":7291,"het":7292,"▁und":7293,"▁appears":7294,"▁fighting":7295,"▁selected":7296,"▁mountain":7297,"oo":7298,"light":7299,"▁revealed":7300,"▁categ":7301,"▁discovered":7302,"▁era":7303,"▁simp":7304,"▁train":7305,"▁active":7306,"▁metal":7307,"▁determ":7308,"▁russian":7309,"▁deg":7310,"ify":7311,"ucle":7312,"use":7313,"▁morning":7314,"ari":7315,"ails":7316,"▁inside":7317,"▁sports":7318,"▁conditions":7319,"46":7320,"ste":7321,"▁twenty":7322,"▁kent":7323,"aland":7324,"▁demon":7325,"▁tv":7326,"▁unable":7327,"▁schol":7328,"▁launched":7329,"uries":7330,"ung":7331,"▁accomp":7332,"▁ath":7333,"era":7334,"▁greater":7335,"umed":7336,"▁respectively":7337,"▁ven":7338,"zz":7339,"▁os":7340,"▁wr":7341,"ado":7342,"▁incor":7343,"▁sched":7344,"1995":7345,"▁whole":7346,"▁numbers":7347,"▁issues":7348,"▁needed":7349,"▁sister":7350,"▁smaller":7351,"▁below":7352,"▁angeles":7353,"▁thir":7354,"▁lived":7355,"▁connect":7356,"▁advance":7357,"ee":7358,"▁touch":7359,"▁contains":7360,"▁yard":7361,"▁attempted":7362,"▁slight":7363,"▁attacked":7364,"▁traditional":7365,"▁iv":7366,"▁yards":7367,"▁stra":7368,"▁shown":7369,"ription":7370,"▁bed":7371,"lor":7372,"▁culture":7373,"▁occurred":7374,"▁newsp":7375,"▁religious":7376,"uments":7377,"▁iii":7378,"▁pick":7379,"▁cart":7380,"uals":7381,"▁nick":7382,"aj":7383,"▁silver":7384,"aging":7385,"iest":7386,"▁rein":7387,"▁ring":7388,"▁defeat":7389,"▁cab":7390,"▁tourn":7391,"ortun":7392,"joy":7393,"▁actor":7394,"▁recover":7395,"▁annual":7396,"▁larg":7397,"anced":7398,"ech":7399,"▁rare":7400,"▁constant":7401,"▁elected":7402,"▁festival":7403,"2016":7404,"▁peace":7405,"1996":7406,"▁referred":7407,"aught":7408,"1950":7409,"▁reform":7410,"new":7411,"izing":7412,"uing":7413,"▁mun":7414,"▁dra":7415,"cting":7416,"▁francis":7417,"▁bon":7418,"▁mind":7419,"▁neigh":7420,"rial":7421,"urity":7422,"▁bab":7423,"vert":7424,"▁mu":7425,"olk":7426,"▁audience":7427,"▁theme":7428,"▁schools":7429,"▁sav":7430,"amb":7431,"▁resulted":7432,"ya":7433,"▁ban":7434,"▁psy":7435,"▁largely":7436,"▁dar":7437,"▁prince":7438,"▁assigned":7439,"▁ris":7440,"▁magn":7441,"▁covered":7442,"▁dun":7443,"▁express":7444,"▁ocean":7445,"enant":7446,"▁fast":7447,"▁link":7448,"asc":7449,"▁italian":7450,"▁listed":7451,"▁variety":7452,"▁collection":7453,"▁purp":7454,"1994":7455,"uated":7456,"▁guest":7457,"▁glob":7458,"▁competition":7459,"hold":7460,"▁cath":7461,"▁ash":7462,"la":7463,"▁names":7464,"▁earned":7465,"▁stadium":7466,"▁controvers":7467,"▁expected":7468,"▁commented":7469,"ls":7470,"▁haw":7471,"tered":7472,"55":7473,"▁sout":7474,"▁starting":7475,"itude":7476,"▁rapid":7477,"▁closed":7478,"mi":7479,"quar":7480,"▁performances":7481,"▁nucle":7482,"▁attention":7483,"▁document":7484,"▁imper":7485,"▁question":7486,"▁enter":7487,"▁airport":7488,"▁da":7489,"▁michigan":7490,"▁giving":7491,"ental":7492,"▁extre":7493,"180":7494,"▁kar":7495,"▁legal":7496,"▁account":7497,"▁refused":7498,"▁viet":7499,"▁cham":7500,"▁economic":7501,"▁figh":7502,"▁repe":7503,"▁crow":7504,"ij":7505,"▁mir":7506,"▁cust":7507,"ounts":7508,"▁greatest":7509,"▁waters":7510,"▁sett":7511,"aped":7512,"▁compl":7513,"▁enjoy":7514,"ples":7515,"▁electric":7516,"▁tower":7517,"▁wales":7518,"utions":7519,"▁ability":7520,"▁serious":7521,"▁direction":7522,"nding":7523,"▁notes":7524,"▁stories":7525,"▁stan":7526,"▁native":7527,"▁hund":7528,"1940":7529,"▁promin":7530,"▁declared":7531,"▁rate":7532,"▁meant":7533,"▁matches":7534,"▁od":7535,"▁vocals":7536,"bridge":7537,"bre":7538,"▁things":7539,"▁poll":7540,"pted":7541,"▁spl":7542,"▁hundred":7543,"44":7544,"isher":7545,"▁mention":7546,"▁hus":7547,"▁abandon":7548,"▁levels":7549,"▁words":7550,"▁swe":7551,"ona":7552,"▁nearby":7553,"ims":7554,"▁chann":7555,"▁marriage":7556,"▁produce":7557,"▁text":7558,"▁doctor":7559,"▁necess":7560,"▁constitution":7561,"ker":7562,"▁cry":7563,"▁practice":7564,"gl":7565,"▁defense":7566,"▁prep":7567,"▁constructed":7568,"win":7569,"▁fill":7570,"▁emper":7571,"▁source":7572,"odies":7573,"▁lot":7574,"ols":7575,"▁fantasy":7576,"ette":7577,"iences":7578,"icient":7579,"1992":7580,"▁candid":7581,"▁matt":7582,"road":7583,"gs":7584,"▁dvd":7585,"▁vocal":7586,"▁separate":7587,"65":7588,"wide":7589,"uff":7590,"uf":7591,"▁highly":7592,"ram":7593,"▁labor":7594,"▁ess":7595,"edic":7596,"▁means":7597,"▁eth":7598,"▁oh":7599,"▁farm":7600,"▁writers":7601,"▁les":7602,"▁row":7603,"umn":7604,"▁medical":7605,"itation":7606,"▁spot":7607,"▁controll":7608,"▁zealand":7609,"▁executive":7610,"ging":7611,"▁exhib":7612,"▁directly":7613,"ishop":7614,"▁positions":7615,"▁ultimately":7616,"▁purs":7617,"▁observ":7618,"ellow":7619,"▁northwest":7620,"▁weather":7621,"▁sle":7622,"▁continue":7623,"▁presented":7624,"▁reduced":7625,"▁effort":7626,"mas":7627,"▁african":7628,"▁mexico":7629,"kin":7630,"▁cub":7631,"▁multiple":7632,"▁admiral":7633,"▁jer":7634,"▁bound":7635,"▁chem":7636,"writ":7637,"▁flow":7638,"▁efforts":7639,"▁brad":7640,"▁dism":7641,"ibly":7642,"▁animals":7643,"▁mechan":7644,"1930":7645,"▁formation":7646,"▁dyn":7647,"▁lieut":7648,"▁houses":7649,"▁chris":7650,"jo":7651,"ding":7652,"ogue":7653,"▁strateg":7654,"ping":7655,"rier":7656,"▁gas":7657,"▁settle":7658,"band":7659,"▁tried":7660,"rical":7661,"▁lin":7662,"▁memorial":7663,"▁attended":7664,"▁batter":7665,"▁studies":7666,"▁accepted":7667,"▁stating":7668,"▁financial":7669,"▁paral":7670,"▁wear":7671,"▁kh":7672,"▁talk":7673,"▁rule":7674,"kn":7675,"▁libr":7676,"▁madonna":7677,"vement":7678,"acher":7679,"▁pair":7680,"400":7681,"▁seem":7682,"▁specific":7683,"▁symb":7684,"▁depend":7685,"1993":7686,"ani":7687,"1991":7688,"▁bob":7689,"▁thick":7690,"▁advent":7691,"▁inch":7692,"▁incorpor":7693,"track":7694,"▁ending":7695,"isation":7696,"▁begins":7697,"▁recomm":7698,"▁saint":7699,"▁cerem":7700,"▁organization":7701,"▁ram":7702,"▁pilot":7703,"▁lif":7704,"anes":7705,"▁true":7706,"▁theatre":7707,"▁traffic":7708,"ruction":7709,"▁sides":7710,"▁enemy":7711,"▁cases":7712,"95":7713,"▁scotland":7714,"▁luc":7715,"▁jones":7716,"ita":7717,"▁rough":7718,"▁drive":7719,"illery":7720,"▁arrest":7721,"ners":7722,"rey":7723,"house":7724,"▁pack":7725,"42":7726,"▁flying":7727,"oper":7728,"▁mob":7729,"▁responsible":7730,"▁eye":7731,"▁confl":7732,"▁bell":7733,"iance":7734,"▁managed":7735,"▁honor":7736,"▁forms":7737,"▁wound":7738,"▁meaning":7739,"▁+":7740,"▁uses":7741,"▁arab":7742,"▁resulting":7743,"▁greek":7744,"▁kenn":7745,"▁tournament":7746,"▁kept":7747,"▁rose":7748,"une":7749,"▁lieutenant":7750,"▁soundtrack":7751,"▁academy":7752,"▁dropped":7753,"▁protest":7754,"▁mos":7755,"▁showed":7756,"41":7757,"▁authority":7758,"▁policy":7759,"▁edge":7760,"▁bost":7761,"▁prime":7762,"▁quality":7763,"▁path":7764,"▁strugg":7765,"▁emperor":7766,"▁dru":7767,"▁fat":7768,"▁wick":7769,"▁artillery":7770,"▁exped":7771,"▁apart":7772,"▁combined":7773,"▁hors":7774,"claim":7775,"▁boat":7776,"ceeded":7777,"▁acting":7778,"▁founded":7779,"▁secretary":7780,"▁ell":7781,"▁spirit":7782,"▁continues":7783,"▁trial":7784,"▁administration":7785,"▁marked":7786,"uit":7787,"▁ic":7788,"ada":7789,"▁inches":7790,"▁property":7791,"ips":7792,"▁williams":7793,"▁systems":7794,"▁encoun":7795,"▁subsequent":7796,"▁propos":7797,"ero":7798,"▁artists":7799,"▁bit":7800,"▁contemporary":7801,"▁attempts":7802,"▁ll":7803,"▁search":7804,"▁extr":7805,"▁territory":7806,"▁paris":7807,"iated":7808,"gypt":7809,"▁draft":7810,"▁northeast":7811,"▁rear":7812,"▁steam":7813,"uge":7814,"▁companies":7815,"thel":7816,"▁potential":7817,"▁marsh":7818,"▁perf":7819,"▁seg":7820,"▁presence":7821,"nam":7822,"▁metres":7823,"▁viewers":7824,"▁planet":7825,"icip":7826,"▁allowing":7827,"▁thous":7828,"▁studios":7829,"▁sixth":7830,"ulations":7831,"▁prepar":7832,"▁recent":7833,"je":7834,"▁scale":7835,"▁communic":7836,"▁coal":7837,"▁officials":7838,"▁conducted":7839,"1942":7840,"▁suppl":7841,"78":7842,"▁egypt":7843,"ket":7844,"▁behav":7845,"thur":7846,"▁obt":7847,"▁hyd":7848,"ex":7849,"za":7850,"▁job":7851,"▁respond":7852,"oe":7853,"▁piece":7854,"▁digital":7855,"▁filming":7856,"▁lee":7857,"▁machine":7858,"▁defence":7859,"▁headquar":7860,"▁contrast":7861,"▁amount":7862,"▁temple":7863,"olf":7864,"▁transferred":7865,"▁collabor":7866,"standing":7867,"ingu":7868,"▁latin":7869,"▁parents":7870,"▁yellow":7871,"▁scoring":7872,"▁opportun":7873,"▁maximum":7874,"▁senior":7875,"▁figure":7876,"rain":7877,"▁corpor":7878,"▁sac":7879,"ef":7880,"▁coming":7881,"▁stephen":7882,"aga":7883,"▁dise":7884,"don":7885,"▁allied":7886,"enge":7887,"▁featuring":7888,"inem":7889,"▁beaut":7890,"▁torped":7891,"cle":7892,"▁therefore":7893,"▁primarily":7894,"▁relatively":7895,"▁oxford":7896,"▁georg":7897,"▁owned":7898,"▁theory":7899,"▁elev":7900,"▁peaked":7901,"▁student":7902,"▁becomes":7903,"76":7904,"▁cold":7905,"▁titled":7906,"▁joseph":7907,"▁torpedo":7908,"▁mort":7909,"▁actually":7910,"▁recommend":7911,"▁portion":7912,"ca":7913,"▁distance":7914,"▁battleship":7915,"▁cert":7916,"▁citiz":7917,"▁concluded":7918,"ersey":7919,"▁stock":7920,"▁boston":7921,"▁conver":7922,"orter":7923,"▁manchester":7924,"▁mut":7925,"▁invasion":7926,"▁harrison":7927,"▁situation":7928,"▁strength":7929,"▁write":7930,"▁chair":7931,"▁bass":7932,"▁jeff":7933,"▁transl":7934,"▁psych":7935,"▁han":7936,"▁broke":7937,"43":7938,"osh":7939,"▁function":7940,"▁share":7941,"▁observed":7942,"▁selling":7943,"▁physical":7944,"▁security":7945,"▁alongside":7946,"arent":7947,"▁ton":7948,"▁distinct":7949,"▁tree":7950,"▁swed":7951,"ented":7952,"▁inh":7953,"▁plays":7954,"▁personnel":7955,"▁results":7956,"▁concent":7957,"▁liver":7958,"▁sources":7959,"▁divided":7960,"▁doll":7961,"▁paid":7962,"istics":7963,"stein":7964,"▁seconds":7965,"▁resist":7966,"▁calling":7967,"▁rating":7968,"▁cities":7969,"1944":7970,"▁slightly":7971,"▁shell":7972,"▁border":7973,"▁returning":7974,"▁powerful":7975,"▁columb":7976,"▁fred":7977,"85":7978,"150":7979,"▁management":7980,"▁contest":7981,"▁arts":7982,"ini":7983,"▁reject":7984,"▁historian":7985,"▁ba":7986,"▁ott":7987,"▁historical":7988,"▁kg":7989,"▁imperial":7990,"po":7991,"▁minim":7992,"▁mile":7993,"▁onto":7994,"▁actions":7995,"▁sust":7996,"▁else":7997,"▁vess":7998,"▁platform":7999,"aming":8000,"▁fear":8001,"▁nothing":8002,"▁birds":8003,"ider":8004,"▁beach":8005,"▁influenced":8006,"astic":8007,"▁freed":8008,"▁ow":8009,"▁canc":8010,"▁activity":8011,"▁innings":8012,"ctive":8013,"▁fan":8014,"▁trust":8015,"ils":8016,"▁ire":8017,"▁bru":8018,"▁suc":8019,"unt":8020,"▁residents":8021,"▁athlet":8022,"▁comedy":8023,"ellig":8024,"▁poet":8025,"force":8026,"▁bbc":8027,"▁designated":8028,"▁promoted":8029,"osaur":8030,"▁nominated":8031,"▁passing":8032,"▁cultural":8033,"▁resc":8034,"▁rod":8035,"▁crown":8036,"mond":8037,"▁completely":8038,"stone":8039,"▁croat":8040,"▁conflict":8041,"▁lane":8042,"▁premi":8043,"▁problem":8044,"▁orche":8045,"▁avenue":8046,"▁lov":8047,"▁weight":8048,"▁height":8049,"▁mainly":8050,"▁subs":8051,"phy":8052,"▁sexual":8053,"▁trail":8054,"ault":8055,"▁struck":8056,"▁charts":8057,"istry":8058,"▁arms":8059,"▁paper":8060,"iced":8061,"▁sought":8062,"▁replac":8063,"1920":8064,"▁charge":8065,"▁encour":8066,"▁rot":8067,"▁hands":8068,"▁ancient":8069,"1945":8070,"▁sense":8071,"▁seasons":8072,"nds":8073,"▁content":8074,"▁webs":8075,"lement":8076,"1941":8077,"64":8078,"▁vari":8079,"▁pul":8080,"▁doub":8081,"▁consec":8082,"▁feed":8083,"▁wars":8084,"▁fish":8085,"▁image":8086,"▁reaching":8087,"▁mis":8088,"while":8089,"▁spect":8090,"▁fellow":8091,"▁ry":8092,"ills":8093,"▁weapons":8094,"yer":8095,"iano":8096,"▁cell":8097,"▁italy":8098,"▁instrument":8099,"olved":8100,"▁dang":8101,"▁americans":8102,"▁channel":8103,"▁widely":8104,"ota":8105,"▁favour":8106,"▁mit":8107,"acts":8108,"▁gra":8109,"▁medal":8110,"▁gil":8111,"ura":8112,"▁baseball":8113,"▁sr":8114,"▁appearances":8115,"▁habit":8116,"▁intellig":8117,"▁alone":8118,"▁emot":8119,"▁jersey":8120,"ques":8121,"▁confirmed":8122,"▁fres":8123,"iber":8124,"99":8125,"▁gained":8126,"▁shel":8127,"ylv":8128,"▁beyond":8129,"pass":8130,"▁ri":8131,"▁fiction":8132,"▁ireland":8133,"▁choice":8134,"adel":8135,"▁brothers":8136,"▁join":8137,"▁murder":8138,"▁reign":8139,"▁older":8140,"rative":8141,"▁element":8142,"zy":8143,"▁proved":8144,"▁steel":8145,"▁analys":8146,"▁versions":8147,"▁crick":8148,"▁library":8149,"▁carl":8150,"uled":8151,"▁headquarters":8152,"▁floor":8153,"oration":8154,"▁explained":8155,"▁dw":8156,"▁says":8157,"mans":8158,"cers":8159,"▁offer":8160,"▁ahead":8161,"oman":8162,"aling":8163,"▁alt":8164,"▁kr":8165,"▁expans":8166,"▁negot":8167,"known":8168,"1989":8169,"▁serve":8170,"▁rainfall":8171,"▁sens":8172,"roll":8173,"bon":8174,"▁causing":8175,"▁comes":8176,"town":8177,"▁speech":8178,"ule":8179,"▁dedic":8180,"▁sant":8181,"1943":8182,"▁opt":8183,"▁hotel":8184,"▁victoria":8185,"▁charl":8186,"ican":8187,"▁suit":8188,"▁recon":8189,"▁require":8190,"dy":8191,"▁fal":8192,"▁expressed":8193,"▁catholic":8194,"▁equipment":8195,"▁workers":8196,"▁split":8197,"gu":8198,"▁horses":8199,"▁article":8200,"▁apparent":8201,"ety":8202,"▁roads":8203,"ares":8204,"▁reports":8205,"ees":8206,"▁growth":8207,"▁pap":8208,"mark":8209,"▁occasion":8210,"▁prominent":8211,"600":8212,"▁offensive":8213,"▁branch":8214,"▁gross":8215,"▁drama":8216,"▁advanced":8217,"▁bowl":8218,"▁experiment":8219,"ancy":8220,"ko":8221,"▁capture":8222,"▁identified":8223,"▁officially":8224,"oured":8225,"▁setting":8226,"▁husband":8227,"▁worldwide":8228,"▁pin":8229,"▁armed":8230,"ufact":8231,"usion":8232,"▁pattern":8233,"▁soft":8234,"▁category":8235,"▁snow":8236,"77":8237,"ić":8238,"ighth":8239,"▁manufact":8240,"▁surre":8241,"▁tells":8242,"▁heavily":8243,"▁reserve":8244,"▁senate":8245,"▁sport":8246,"▁justice":8247,"ube":8248,"▁bott":8249,"▁matter":8250,"▁computer":8251,"▁represented":8252,"▁escape":8253,"▁trees":8254,"▁activities":8255,"iring":8256,"▁spread":8257,"▁extra":8258,"▁cricket":8259,"▁unf":8260,"▁places":8261,"▁meanwhile":8262,"▁adapt":8263,"▁treatment":8264,"▁pieces":8265,"▁leaves":8266,"bit":8267,"▁ta":8268,"▁tay":8269,"▁actress":8270,"▁leaders":8271,"▁figures":8272,"▁jul":8273,"▁avoid":8274,"▁fired":8275,"▁why":8276,"▁injury":8277,"▁believe":8278,"▁toward":8279,"▁duke":8280,"▁agreement":8281,"▁supply":8282,"▁expedition":8283,"▁dutch":8284,"bi":8285,"▁lives":8286,"ylvania":8287,"where":8288,"abeth":8289,"▁unknown":8290,"▁illust":8291,"▁albert":8292,"▁anth":8293,"▁doing":8294,"▁id":8295,"▁casual":8296,"▁data":8297,"▁couple":8298,"▁kilomet":8299,"▁unlike":8300,"▁prin":8301,"▁imag":8302,"▁eliz":8303,"▁laid":8304,"▁bart":8305,"▁editor":8306,"▁strike":8307,"▁consisted":8308,"▁debuted":8309,"hire":8310,"essions":8311,"acity":8312,"▁din":8313,"▁walls":8314,"ours":8315,"ads":8316,"pool":8317,"▁ko":8318,"▁adj":8319,"▁mig":8320,"66":8321,"▁dream":8322,"▁aired":8323,"▁argued":8324,"▁opin":8325,"ushed":8326,"▁stations":8327,"rol":8328,"▁watch":8329,"▁typically":8330,"▁opposition":8331,"▁severe":8332,"▁spin":8333,"more":8334,"▁moment":8335,"▁store":8336,"▁reference":8337,"▁homer":8338,"▁mounted":8339,"osen":8340,"▁formula":8341,"iles":8342,"▁twice":8343,"▁claims":8344,"▁affected":8345,"▁nations":8346,"▁polish":8347,"▁description":8348,"bn":8349,"▁actors":8350,"▁cra":8351,"▁animal":8352,"oty":8353,"▁aspect":8354,"elle":8355,"▁faced":8356,"▁industrial":8357,"inson":8358,"▁powers":8359,"lines":8360,"▁jon":8361,"▁supre":8362,"▁emph":8363,"ano":8364,"▁notable":8365,"▁sky":8366,"▁sher":8367,"▁maintained":8368,"▁accident":8369,"▁technology":8370,"▁trying":8371,"▁protection":8372,"▁daniel":8373,"▁value":8374,"gers":8375,"va":8376,"▁knight":8377,"▁visited":8378,"▁table":8379,"ifying":8380,"▁orders":8381,"▁convers":8382,"▁flu":8383,"▁criticized":8384,"▁conne":8385,"▁landing":8386,"▁et":8387,"▁som":8388,"▁delay":8389,"▁fuel":8390,"▁tra":8391,"▁motor":8392,"▁carolina":8393,"▁broken":8394,"▁holly":8395,"▁sail":8396,"ala":8397,"▁fully":8398,"▁resident":8399,"ola":8400,"emic":8401,"▁growing":8402,"worth":8403,"▁chosen":8404,"▁motion":8405,"ockey":8406,"▁bac":8407,"▁twel":8408,"1987":8409,"ruit":8410,"▁institute":8411,"estic":8412,"▁mul":8413,"▁cooper":8414,"ocks":8415,"▁scottish":8416,"enger":8417,"▁hat":8418,"▁label":8419,"▁twelve":8420,"▁demonstr":8421,"gian":8422,"1988":8423,"▁criticism":8424,"har":8425,"▁producers":8426,"▁youth":8427,"▁solo":8428,"▁frequently":8429,"▁compar":8430,"▁dur":8431,"▁urban":8432,"▁seventh":8433,"▁philos":8434,"▁joint":8435,"clusion":8436,"▁inte":8437,"▁condition":8438,"▁wounded":8439,"▁lands":8440,"ayer":8441,"96":8442,"▁md":8443,"▁looking":8444,"▁penns":8445,"▁accompan":8446,"▁vice":8447,"▁benef":8448,"▁nest":8449,"▁golden":8450,"▁newspaper":8451,"▁entr":8452,"▁oppos":8453,"▁surrounding":8454,"▁billion":8455,"▁chor":8456,"▁independence":8457,"▁bol":8458,"▁degree":8459,"▁lew":8460,"▁operated":8461,"▁moon":8462,"▁composition":8463,"rael":8464,"▁register":8465,"▁assembly":8466,"▁nuclear":8467,"▁barb":8468,"▁champion":8469,"▁republican":8470,"▁budget":8471,"izes":8472,"ordin":8473,"▁comic":8474,"agn":8475,"▁perfect":8476,"▁serving":8477,"▁grew":8478,"▁dry":8479,"▁creation":8480,"▁southeast":8481,"uous":8482,"▁simply":8483,"▁bc":8484,"▁hip":8485,"▁follows":8486,"▁rival":8487,"▁incident":8488,"▁vote":8489,"▁expansion":8490,"▁losing":8491,"▁cool":8492,"▁famous":8493,"▁killing":8494,"▁contained":8495,"▁risk":8496,"▁newly":8497,"▁agric":8498,"under":8499,"wise":8500,"▁contact":8501,"▁herself":8502,"▁gh":8503,"▁passes":8504,"▁oppon":8505,"▁andrew":8506,"▁weekly":8507,"▁ends":8508,"▁individuals":8509,"▁caval":8510,"▁pros":8511,"▁christmas":8512,"▁cinem":8513,"urb":8514,"ivity":8515,"▁tam":8516,"hew":8517,"▁applic":8518,"▁normal":8519,"wall":8520,"52":8521,"mission":8522,"▁jac":8523,"yle":8524,"ote":8525,"▁heard":8526,"í":8527,"▁eyes":8528,"▁homes":8529,"▁attrib":8530,"▁consecutive":8531,"▁wilson":8532,"ias":8533,"cul":8534,"isters":8535,"▁emphas":8536,"▁nav":8537,"▁taylor":8538,"rid":8539,"▁chronic":8540,"▁crossing":8541,"ucky":8542,"56":8543,"▁aer":8544,"▁orchest":8545,"▁measure":8546,"▁cannot":8547,"▁thing":8548,"▁website":8549,"▁sin":8550,"▁narrow":8551,"▁evac":8552,"1986":8553,"▁supporting":8554,"▁joe":8555,"▁consequ":8556,"▁perman":8557,"▁chose":8558,"pton":8559,"fully":8560,"▁elizabeth":8561,"ults":8562,"▁opposed":8563,"▁note":8564,"illy":8565,"ographer":8566,"▁sequence":8567,"▁alexander":8568,"▁volume":8569,"▁participated":8570,"▁agricult":8571,"▁poly":8572,"ja":8573,"▁historic":8574,"▁themes":8575,"▁von":8576,"▁rise":8577,"▁wave":8578,"cend":8579,"▁leadership":8580,"▁skin":8581,"water":8582,"▁adopted":8583,"▁colonel":8584,"▁hair":8585,"▁eld":8586,"▁fresh":8587,"▁capacity":8588,"▁try":8589,"▁abandoned":8590,"yr":8591,"▁disease":8592,"prise":8593,"▁advant":8594,"ancing":8595,"▁standing":8596,"▁extend":8597,"▁filmed":8598,"▁famil":8599,"▁dub":8600,"▁tall":8601,"▁defin":8602,"▁plants":8603,"▁max":8604,"▁democratic":8605,"▁visual":8606,"▁arc":8607,"imens":8608,"▁basis":8609,"▁straight":8610,"uting":8611,"▁negative":8612,"▁pennsylvania":8613,"▁egg":8614,"▁lic":8615,"▁deploy":8616,"▁pier":8617,"greg":8618,"▁rand":8619,"58":8620,"iled":8621,"ato":8622,"▁failure":8623,"tery":8624,"▁creating":8625,"▁mike":8626,"▁challeng":8627,"▁drop":8628,"▁gameplay":8629,"▁appl":8630,"▁regarded":8631,"▁possibly":8632,"rane":8633,"▁sund":8634,"▁clin":8635,"uses":8636,"▁tank":8637,"kins":8638,"▁harry":8639,"▁ga":8640,"▁treaty":8641,"▁irish":8642,"isers":8643,"anda":8644,"▁bodies":8645,"▁lap":8646,"▁palace":8647,"lam":8648,"▁trip":8649,"▁core":8650,"98":8651,"▁distingu":8652,"▁canal":8653,"▁girls":8654,"▁foundation":8655,"▁lady":8656,"▁lege":8657,"▁interchange":8658,"▁tend":8659,"▁kid":8660,"▁spain":8661,"ux":8662,"▁adult":8663,"▁merch":8664,"▁paralle":8665,"▁kick":8666,"▁react":8667,"▁ideas":8668,"amm":8669,"▁zone":8670,"▁eag":8671,"▁ridge":8672,"▁retired":8673,"▁advert":8674,"▁dismiss":8675,"▁sel":8676,"▁surrender":8677,"▁lind":8678,"▁wel":8679,"▁mist":8680,"▁extensive":8681,"▁deliver":8682,"▁deck":8683,"▁tell":8684,"ruct":8685,"▁seat":8686,"gal":8687,"▁aid":8688,"▁younger":8689,"▁hockey":8690,"▁scholars":8691,"▁roles":8692,"▁explos":8693,"▁nob":8694,"▁garden":8695,"▁basket":8696,"▁dial":8697,"▁atm":8698,"▁railroad":8699,"ledge":8700,"▁hope":8701,"▁analysis":8702,"▁bishop":8703,"▁classic":8704,"1939":8705,"▁franch":8706,"▁worth":8707,"▁opera":8708,"azz":8709,"▁gate":8710,"▁drew":8711,"▁repeated":8712,"▁improved":8713,"▁achieved":8714,"uls":8715,"▁economy":8716,"▁aim":8717,"▁effective":8718,"icks":8719,"▁lem":8720,"▁sche":8721,"▁israel":8722,"▁briefly":8723,"▁glass":8724,"51":8725,"▁fro":8726,"▁banks":8727,"▁hay":8728,"▁piano":8729,"▁thor":8730,"▁dip":8731,"ienced":8732,"▁soul":8733,"▁unsu":8734,"▁chamber":8735,"mes":8736,"▁wed":8737,"iana":8738,"▁currently":8739,"orters":8740,"▁southwest":8741,"▁trou":8742,"▁household":8743,"▁necessary":8744,"rich":8745,"▁ka":8746,"▁sud":8747,"▁vehicles":8748,"▁arthur":8749,"▁granted":8750,"▁defensive":8751,"▁roof":8752,"1985":8753,"▁purpose":8754,"▁regional":8755,"▁fame":8756,"▁turns":8757,"▁citizens":8758,"▁rejected":8759,"▁caught":8760,"▁ped":8761,"arked":8762,"hol":8763,"1968":8764,"▁organized":8765,"▁recently":8766,"▁types":8767,"▁corre":8768,"▁bom":8769,"▁genus":8770,"▁kilometres":8771,"▁ble":8772,"▁kir":8773,"▁speak":8774,"▁marine":8775,"▁province":8776,"▁atmosp":8777,"▁receive":8778,"▁expanded":8779,"▁secondary":8780,"resp":8781,"▁authorities":8782,"▁flooding":8783,"▁commissioned":8784,"▁sell":8785,"▁online":8786,"▁rhy":8787,"▁didn":8788,"lers":8789,"tv":8790,"▁ori":8791,"▁braz":8792,"▁cavalry":8793,"iments":8794,"▁jes":8795,"▁ohio":8796,"▁alle":8797,"station":8798,"▁transform":8799,"▁families":8800,"onic":8801,"▁successfully":8802,"▁performing":8803,"▁divers":8804,"▁letters":8805,"▁determined":8806,"▁freedom":8807,"▁literature":8808,"▁hydro":8809,"▁describes":8810,"▁fought":8811,"▁agent":8812,"▁assistant":8813,"▁whit":8814,"utation":8815,"▁towns":8816,"1984":8817,"uate":8818,"▁dram":8819,"▁safety":8820,"▁unus":8821,"▁picture":8822,"iday":8823,"adelph":8824,"▁tail":8825,"illa":8826,"▁upgr":8827,"▁goes":8828,"▁custom":8829,"▁singing":8830,"▁prefer":8831,"iate":8832,"▁horn":8833,"▁freeway":8834,"umber":8835,"▁acquired":8836,"▁ron":8837,"▁philadelph":8838,"▁titles":8839,"▁sie":8840,"▁suggests":8841,"set":8842,"stream":8843,"▁commonly":8844,"rif":8845,"▁planning":8846,"▁gives":8847,"ading":8848,"800":8849,"ü":8850,"▁centuries":8851,"alty":8852,"▁supreme":8853,"▁vac":8854,"▁clou":8855,"▁micro":8856,"oted":8857,"ifications":8858,"▁mentioned":8859,"▁revol":8860,"▁georgia":8861,"▁distribution":8862,"▁cambridge":8863,"ope":8864,"▁controlled":8865,"hi":8866,"▁scheduled":8867,"▁contain":8868,"▁kel":8869,"▁trains":8870,"oln":8871,"▁web":8872,"▁withdraw":8873,"inn":8874,"▁convention":8875,"aven":8876,"▁alternative":8877,"88":8878,"▁decre":8879,"▁myth":8880,"▁protect":8881,"▁philadelphia":8882,"▁sets":8883,"▁shooting":8884,"isf":8885,"▁simple":8886,"120":8887,"tic":8888,"▁cook":8889,"attle":8890,"▁ss":8891,"haps":8892,"▁chance":8893,"▁principal":8894,"▁unique":8895,"▁reaction":8896,"▁virt":8897,"▁perhaps":8898,"▁regarding":8899,"▁graph":8900,"▁fix":8901,"▁clar":8902,"▁az":8903,"▁wrestling":8904,"▁finds":8905,"1967":8906,"▁save":8907,"▁moder":8908,"▁witness":8909,"▁russia":8910,"▁submar":8911,"▁estate":8912,"▁medic":8913,"▁crime":8914,"▁rules":8915,"▁facilities":8916,"een":8917,"umes":8918,"▁demand":8919,"▁reading":8920,"97":8921,"▁tag":8922,"▁arrival":8923,"ua":8924,"▁scientific":8925,"▁anne":8926,"▁korean":8927,"once":8928,"▁kit":8929,"▁gain":8930,"▁scout":8931,"▁containing":8932,"▁session":8933,"▁exchange":8934,"▁publication":8935,"▁accompanied":8936,"▁rated":8937,"amin":8938,"▁uns":8939,"▁py":8940,"▁teach":8941,"▁lis":8942,"▁tact":8943,"▁nintend":8944,"▁mouth":8945,"▁price":8946,"▁domestic":8947,"▁locations":8948,"▁belong":8949,"▁fighter":8950,"▁finish":8951,"▁touchdown":8952,"▁ceremony":8953,"▁liverpool":8954,"mouth":8955,"▁brid":8956,"▁boats":8957,"▁quite":8958,"▁selection":8959,"▁map":8960,"▁hits":8961,"▁brook":8962,"▁evening":8963,"▁nintendo":8964,"pa":8965,"▁entirely":8966,"▁linc":8967,"▁asia":8968,"▁cd":8969,"▁mand":8970,"▁concer":8971,"▁columbia":8972,"unk":8973,"▁existing":8974,"ington":8975,"▁firm":8976,"▁rum":8977,"▁dedicated":8978,"▁crowd":8979,"oul":8980,"▁intensity":8981,"▁rub":8982,"▁singap":8983,"shire":8984,"▁contributed":8985,"53":8986,"agan":8987,"rupt":8988,"▁fash":8989,"▁jean":8990,"▁legacy":8991,"▁jewish":8992,"57":8993,"oma":8994,"▁remix":8995,"▁grey":8996,"▁provides":8997,"▁brand":8998,"▁purchased":8999,"etts":9000,"▁ax":9001,"▁casualties":9002,"▁kings":9003,"▁adap":9004,"▁ken":9005,"1983":9006,"▁page":9007,"▁windows":9008,"▁brazil":9009,"▁resemb":9010,"rising":9011,"▁campus":9012,"kes":9013,"inger":9014,"▁throw":9015,"▁battery":9016,"da":9017,"room":9018,"▁advantage":9019,"▁ok":9020,"ables":9021,"▁resistance":9022,"▁bes":9023,"▁product":9024,"inity":9025,"▁sites":9026,"▁occupied":9027,"▁carey":9028,"▁boys":9029,"▁singapore":9030,"sey":9031,"1969":9032,"▁francisco":9033,"▁eighth":9034,"respond":9035,"▁correspond":9036,"▁basketball":9037,"▁heads":9038,"1964":9039,"▁holding":9040,"▁gib":9041,"▁lincoln":9042,"▁bron":9043,"▁code":9044,"oses":9045,"▁gulf":9046,"▁promotion":9047,"▁structures":9048,"▁bright":9049,"▁gay":9050,"▁elimin":9051,"▁miller":9052,"54":9053,"▁protected":9054,"▁nap":9055,"▁drawn":9056,"▁regions":9057,"▁resour":9058,"▁marc":9059,"▁merc":9060,"1914":9061,"▁coastal":9062,"▁gill":9063,"1918":9064,"▁hms":9065,"▁receiving":9066,"▁closely":9067,"rons":9068,"ection":9069,"fort":9070,"▁playstation":9071,"▁spr":9072,"▁cars":9073,"▁laws":9074,"▁conqu":9075,"▁disney":9076,"cript":9077,"▁judge":9078,"itled":9079,"▁opportunity":9080,"▁turning":9081,"1971":9082,"1982":9083,"▁lewis":9084,"▁generation":9085,"▁brian":9086,"▁calls":9087,"▁consists":9088,"▁roughly":9089,"gn":9090,"iger":9091,"1966":9092,"1972":9093,"1979":9094,"▁steve":9095,"iny":9096,"▁grade":9097,"▁corner":9098,"▁defined":9099,"▁reserv":9100,"▁acts":9101,"▁anderson":9102,"▁byz":9103,"ware":9104,"burgh":9105,"68":9106,"▁symbol":9107,"wick":9108,"▁strengt":9109,"▁jr":9110,"▁experienced":9111,"▁anything":9112,"▁extrem":9113,"▁neighbor":9114,"▁tenn":9115,"▁olympic":9116,"▁losses":9117,"▁rolling":9118,"▁fashion":9119,"▁task":9120,"▁heat":9121,"garian":9122,"▁hyp":9123,"verse":9124,"▁assault":9125,"otic":9126,"awa":9127,"ocated":9128,"box":9129,"▁byzant":9130,"▁survey":9131,"1965":9132,"▁bands":9133,"▁focused":9134,"▁retire":9135,"▁religion":9136,"▁viewed":9137,"▁engaged":9138,"▁hind":9139,"▁politics":9140,"▁intelligence":9141,"▁providing":9142,"▁#":9143,"enc":9144,"▁flat":9145,"rate":9146,"mann":9147,"▁relief":9148,"▁developing":9149,"engers":9150,"1975":9151,"▁nhl":9152,"▁appeal":9153,"▁phase":9154,"▁uncle":9155,"▁rapidly":9156,"▁semi":9157,"▁investigation":9158,"▁shared":9159,"94":9160,"▁bottom":9161,"rant":9162,"▁oak":9163,"▁wond":9164,"▁shall":9165,"▁males":9166,"▁hired":9167,"▁enl":9168,"▁disapp":9169,"▁walter":9170,"▁tow":9171,"▁hollywood":9172,"▁myster":9173,"▁temperature":9174,"▁highlight":9175,"▁guy":9176,"▁credits":9177,"▁gram":9178,"▁germans":9179,"▁solid":9180,"▁introduction":9181,"▁mountains":9182,"▁everything":9183,"▁ans":9184,"▁faith":9185,"▁launch":9186,"▁missing":9187,"▁recognized":9188,"cles":9189,"1974":9190,"ek":9191,"▁painting":9192,"ifically":9193,"▁rome":9194,"▁davis":9195,"▁vent":9196,"▁junior":9197,"▁belief":9198,"opher":9199,"▁journey":9200,"ev":9201,"▁hart":9202,"1973":9203,"bound":9204,"▁appoint":9205,"▁hell":9206,"▁isol":9207,"▁getting":9208,"▁gord":9209,"heim":9210,"▁shape":9211,"▁falls":9212,"▁substant":9213,"▁typh":9214,"▁prepared":9215,"iat":9216,"▁conve":9217,"active":9218,"▁folk":9219,"essed":9220,"▁tick":9221,"▁franchise":9222,"ilton":9223,"▁knew":9224,"67":9225,"▁serb":9226,"▁naz":9227,"▁thin":9228,"1976":9229,"▁opinion":9230,"▁cens":9231,"▁global":9232,"▁amend":9233,"▁significantly":9234,"▁projects":9235,"▁intersection":9236,"▁approved":9237,"▁las":9238,"▁exact":9239,"▁sort":9240,"▁lb":9241,"▁beyonce":9242,"tar":9243,"▁literary":9244,"▁adding":9245,"250":9246,"▁archae":9247,"▁penins":9248,"▁hung":9249,"friend":9250,"eper":9251,"▁knowledge":9252,"▁confeder":9253,"▁reasons":9254,"▁wings":9255,"▁wheel":9256,"wart":9257,"ographic":9258,"▁unsuccess":9259,"▁raid":9260,"ishes":9261,"ologist":9262,"▁sab":9263,"▁challenge":9264,"▁playoff":9265,"87":9266,"▁ward":9267,"▁vic":9268,"iful":9269,"ava":9270,"rence":9271,"▁musl":9272,"eme":9273,"▁cris":9274,"▁syd":9275,"▁autom":9276,"erted":9277,"▁shaped":9278,"▁views":9279,"▁stages":9280,"▁settlement":9281,"▁cabin":9282,"ulate":9283,"achus":9284,"▁poem":9285,"▁escort":9286,"▁evolution":9287,"160":9288,"eman":9289,"▁operating":9290,"▁storyline":9291,"asty":9292,"▁exerc":9293,"ira":9294,"ocked":9295,"▁equal":9296,"unte":9297,"▁shut":9298,"break":9299,"▁internal":9300,"▁renamed":9301,"eds":9302,"▁expect":9303,"▁mode":9304,"▁scul":9305,"▁reputation":9306,"▁rebu":9307,"▁beyoncé":9308,"▁watched":9309,"ador":9310,"▁baby":9311,"▁neverthel":9312,"▁employed":9313,"▁nevertheless":9314,"▁sed":9315,"▁proceed":9316,"▁volunte":9317,"▁allies":9318,"ients":9319,"▁popularity":9320,"▁fine":9321,"iro":9322,"▁limit":9323,"▁injured":9324,"▁cape":9325,"▁thirty":9326,"́s":9327,"▁shore":9328,"itan":9329,"▁professor":9330,"▁triple":9331,"▁humans":9332,"▁paint":9333,"▁guide":9334,"▁females":9335,"▁bull":9336,"▁neut":9337,"▁blues":9338,"zen":9339,"▁increasingly":9340,"▁cited":9341,"▁kentucky":9342,"▁headed":9343,"och":9344,"59":9345,"61":9346,"▁neither":9347,"1946":9348,"hens":9349,"aver":9350,"▁bern":9351,"▁models":9352,"see":9353,"▁wealth":9354,"1981":9355,"▁declined":9356,"aka":9357,"▁raf":9358,"▁hills":9359,"appe":9360,"▁finding":9361,"▁connected":9362,"antly":9363,"▁collected":9364,"▁violence":9365,"▁details":9366,"▁grav":9367,"istan":9368,"▁jam":9369,"▁existence":9370,"▁converted":9371,"▁labour":9372,"▁diam":9373,"▁depth":9374,"▁sustained":9375,"▁−":9376,"▁enjoyed":9377,"inum":9378,"▁controversy":9379,"▁learned":9380,"1917":9381,"▁norway":9382,"▁entry":9383,"▁gri":9384,"rec":9385,"onym":9386,"▁torn":9387,"▁consum":9388,"▁impl":9389,"▁volcan":9390,"lav":9391,"▁massachus":9392,"nic":9393,"▁olympics":9394,"▁outer":9395,"▁vel":9396,"ella":9397,"▁championships":9398,"▁applied":9399,"▁massachusetts":9400,"▁synt":9401,"▁sad":9402,"▁crimin":9403,"iform":9404,"▁allows":9405,"▁camera":9406,"istol":9407,"▁interp":9408,"▁ari":9409,"▁teacher":9410,"▁pear":9411,"▁swim":9412,"▁gang":9413,"▁ways":9414,"▁occas":9415,"▁cells":9416,"▁clark":9417,"▁entrance":9418,"hr":9419,"wa":9420,"▁approached":9421,"▁arsen":9422,"▁premier":9423,"▁aware":9424,"▁mine":9425,"apes":9426,"▁decade":9427,"▁carrying":9428,"▁easily":9429,"bl":9430,"osis":9431,"ropri":9432,"▁designs":9433,"▁tests":9434,"▁gree":9435,"▁responded":9436,"ō":9437,"▁loy":9438,"▁confron":9439,"93":9440,"▁indu":9441,"▁gray":9442,"▁downlo":9443,"atures":9444,"▁foss":9445,"ima":9446,"▁discovery":9447,"62":9448,"1948":9449,"▁technical":9450,"▁nas":9451,"▁nic":9452,"▁prize":9453,"▁pitch":9454,"▁chairman":9455,"▁buried":9456,"▁duty":9457,"▁hang":9458,"▁extension":9459,"psons":9460,"ceived":9461,"▁convoy":9462,"▁gradually":9463,"▁sax":9464,"▁succeeded":9465,"eral":9466,"omy":9467,"▁sections":9468,"▁mayor":9469,"▁specifically":9470,"aine":9471,"▁breeding":9472,"▁hull":9473,"▁acres":9474,"▁ts":9475,"▁showing":9476,"▁programs":9477,"▁hug":9478,"▁simpsons":9479,"▁raw":9480,"▁astron":9481,"▁jay":9482,"ignment":9483,"▁bush":9484,"▁municip":9485,"▁sons":9486,"▁door":9487,"arm":9488,"▁install":9489,"ati":9490,"▁stret":9491,"una":9492,"tical":9493,"▁sha":9494,"▁items":9495,"▁prisoners":9496,"▁exclus":9497,"1978":9498,"72":9499,"▁lev":9500,"▁arranged":9501,"▁none":9502,"▁shop":9503,"▁credited":9504,"▁gone":9505,"▁genre":9506,"▁legend":9507,"▁address":9508,"▁similarly":9509,"▁vietnam":9510,"itors":9511,"▁util":9512,"700":9513,"▁statement":9514,"rel":9515,"▁teen":9516,"▁weakened":9517,"▁seems":9518,"▁producing":9519,"▁winner":9520,"▁additionally":9521,"▁improve":9522,"▁cad":9523,"▁earliest":9524,"▁parties":9525,"▁cryst":9526,"▁landfall":9527,"▁na":9528,"▁ross":9529,"▁plac":9530,"come":9531,"▁rural":9532,"▁warning":9533,"▁routes":9534,"▁presidential":9535,"1915":9536,"▁threatened":9537,"▁divisions":9538,"▁candidate":9539,"ogen":9540,"▁fields":9541,"▁engineer":9542,"92":9543,"put":9544,"▁retained":9545,"▁sounds":9546,"▁ottoman":9547,"▁inner":9548,"entions":9549,"▁combination":9550,"▁bear":9551,"▁cha":9552,"▁adam":9553,"▁sydney":9554,"▁ot":9555,"▁moore":9556,"▁lasted":9557,"▁products":9558,"1977":9559,"▁spok":9560,"▁poland":9561,"▁hear":9562,"▁brain":9563,"ipe":9564,"▁instru":9565,"▁mtv":9566,"▁kim":9567,"now":9568,"ss":9569,"▁maryland":9570,"issance":9571,"inking":9572,"▁replace":9573,"▁ones":9574,"▁supplies":9575,"ivered":9576,"onia":9577,"▁dress":9578,"▁chemical":9579,"▁adapted":9580,"ctors":9581,"met":9582,"▁interior":9583,"▁evil":9584,"▁animated":9585,"▁downtown":9586,"▁basic":9587,"▁integr":9588,"eless":9589,"▁peninsula":9590,"▁afterwards":9591,"▁frag":9592,"athan":9593,"▁grounds":9594,"▁engines":9595,"▁delivered":9596,"▁inspir":9597,"▁speaking":9598,"▁kur":9599,"1963":9600,"▁agency":9601,"▁cul":9602,"63":9603,"▁magic":9604,"▁filled":9605,"▁maintain":9606,"▁message":9607,"▁surviv":9608,"▁rhodes":9609,"▁crash":9610,"rets":9611,"▁calc":9612,"▁equival":9613,"▁stopped":9614,"▁entitled":9615,"1916":9616,"▁permanent":9617,"▁affairs":9618,"▁architecture":9619,"▁cow":9620,"math":9621,"▁supporters":9622,"▁clean":9623,"▁indicated":9624,"aly":9625,"▁susp":9626,"▁climate":9627,"▁extremely":9628,"▁wides":9629,"izations":9630,"▁engineering":9631,"ora":9632,"▁sole":9633,"▁deaths":9634,"▁affect":9635,"▁causes":9636,"▁diamond":9637,"▁philipp":9638,"▁bath":9639,"ushing":9640,"▁alien":9641,"▁buff":9642,"▁greg":9643,"▁fruit":9644,"▁secure":9645,"▁drug":9646,"apped":9647,"▁importance":9648,"▁proposal":9649,"▁restaur":9650,"ali":9651,"▁mars":9652,"▁returns":9653,"▁gordon":9654,"oli":9655,"▁mulder":9656,"time":9657,"91":9658,"▁deleg":9659,"lee":9660,"▁spons":9661,"1919":9662,"▁bos":9663,"▁ratings":9664,"othes":9665,"▁typhoon":9666,"cks":9667,"▁knots":9668,"▁streets":9669,"▁philip":9670,"▁composer":9671,"▁acid":9672,"▁implement":9673,"▁harv":9674,"leton":9675,"1962":9676,"▁ches":9677,"emies":9678,"▁pig":9679,"▁ak":9680,"▁mans":9681,"book":9682,"▁tel":9683,"▁tanks":9684,"ropol":9685,"iversary":9686,"▁survived":9687,"ante":9688,"▁consc":9689,"▁jur":9690,"▁ira":9691,"▁classical":9692,"itt":9693,"pective":9694,"▁bure":9695,"▁swit":9696,"▁aftermath":9697,"sp":9698,"▁mes":9699,"▁describing":9700,"▁compon":9701,"▁references":9702,"▁colour":9703,"▁writes":9704,"bourne":9705,"▁convin":9706,"▁giant":9707,"▁print":9708,"chers":9709,"▁fict":9710,"oles":9711,"osa":9712,"▁flo":9713,"▁classification":9714,"▁bought":9715,"ela":9716,"▁concerns":9717,"▁images":9718,"▁songwrit":9719,"1938":9720,"▁holy":9721,"▁alf":9722,"▁kat":9723,"inois":9724,"▁eric":9725,"▁rab":9726,"▁vul":9727,"▁ruled":9728,"▁ack":9729,"▁gy":9730,"▁someone":9731,"▁sale":9732,"▁typical":9733,"▁medie":9734,"▁entering":9735,"▁rivers":9736,"▁armor":9737,"▁jane":9738,"▁environmental":9739,"▁remember":9740,"▁studied":9741,"▁arrested":9742,"▁decline":9743,"▁portrayed":9744,"entially":9745,"▁ker":9746,"▁cruiser":9747,"▁voted":9748,"▁preced":9749,"▁retreat":9750,"▁universe":9751,"mus":9752,"▁reduce":9753,"▁recalled":9754,"▁scar":9755,"▁eleven":9756,"▁ago":9757,"▁siege":9758,"▁purchase":9759,"▁corporation":9760,"▁sculpt":9761,"130":9762,"ansas":9763,"▁quant":9764,"▁actual":9765,"aki":9766,"▁capable":9767,"▁feeling":9768,"▁medieval":9769,"▁bang":9770,"cop":9771,"▁academic":9772,"adow":9773,"▁alliance":9774,"zer":9775,"▁alan":9776,"81":9777,"▁owner":9778,"▁objects":9779,"▁nomination":9780,"▁colonial":9781,"▁liberal":9782,"lying":9783,"▁recognition":9784,"▁sessions":9785,"▁bry":9786,"▁obl":9787,"▁driving":9788,"▁sufficient":9789,"▁chapter":9790,"▁tony":9791,"▁equipped":9792,"▁nel":9793,"▁kong":9794,"▁thousands":9795,"▁marg":9796,"▁offers":9797,"▁identity":9798,"▁hunting":9799,"▁funds":9800,"▁pav":9801,"▁historians":9802,"▁passage":9803,"▁camer":9804,"▁noting":9805,"▁concerned":9806,"▁connection":9807,"▁anniversary":9808,"▁finals":9809,"▁mah":9810,"▁meters":9811,"1956":9812,"▁decades":9813,"▁debate":9814,"▁crossed":9815,"▁consisting":9816,"79":9817,"89":9818,"▁undert":9819,"▁recommended":9820,"▁admitted":9821,"hus":9822,"▁princess":9823,"▁gam":9824,"▁plate":9825,"▁programme":9826,"▁detect":9827,"▁interested":9828,"▁thunder":9829,"right":9830,"▁invited":9831,"▁dipl":9832,"eller":9833,"▁arsenal":9834,"▁sight":9835,"▁installed":9836,"▁dougl":9837,"▁adams":9838,"▁breaking":9839,"86":9840,"inal":9841,"▁bou":9842,"▁hou":9843,"▁considerable":9844,"▁pound":9845,"▁starts":9846,"▁universal":9847,"▁jord":9848,"▁pure":9849,"▁maria":9850,"▁monument":9851,"▁establishment":9852,"▁warm":9853,"▁courts":9854,"1936":9855,"▁dates":9856,"▁colony":9857,"▁decor":9858,"▁eat":9859,"aked":9860,"▁sequel":9861,"oir":9862,"▁hamilton":9863,"74":9864,"wich":9865,"▁enemies":9866,"▁simon":9867,"▁styles":9868,"iques":9869,"acks":9870,"▁charged":9871,"▁improv":9872,"▁duties":9873,"uct":9874,"▁remainder":9875,"ranean":9876,"▁veter":9877,"▁parallel":9878,"▁tu":9879,"heas":9880,"pread":9881,"oked":9882,"▁utc":9883,"▁manner":9884,"▁truth":9885,"▁widespread":9886,"▁alleg":9887,"▁jump":9888,"▁ready":9889,"▁shield":9890,"▁sharp":9891,"▁negoti":9892,"▁communist":9893,"▁promote":9894,"▁pictures":9895,"eland":9896,"▁salt":9897,"▁conservative":9898,"82":9899,"1961":9900,"ilation":9901,"▁nether":9902,"osaurus":9903,"▁pad":9904,"▁indones":9905,"▁thro":9906,"▁continuing":9907,"▁bid":9908,"▁mole":9909,"▁slowly":9910,"▁dean":9911,"uan":9912,"▁herit":9913,"ingly":9914,"igation":9915,"▁argent":9916,"▁departure":9917,"▁behavior":9918,"▁aspects":9919,"▁diet":9920,"▁occasionally":9921,"▁classes":9922,"▁transition":9923,"▁cos":9924,"▁nba":9925,"▁wwe":9926,"▁electronic":9927,"▁animation":9928,"110":9929,"1953":9930,"eb":9931,"▁beautiful":9932,"▁resources":9933,"▁romantic":9934,"▁hitler":9935,"iling":9936,"▁destruction":9937,"▁happy":9938,"▁orchestra":9939,"▁rug":9940,"▁kennedy":9941,"▁rhyth":9942,"▁wearing":9943,"▁posted":9944,"▁emergency":9945,"▁acclaim":9946,"▁sunday":9947,"▁howard":9948,"▁transportation":9949,"▁assistance":9950,"▁disappo":9951,"akers":9952,"▁lam":9953,"▁treas":9954,"▁senator":9955,"▁sweet":9956,"▁ride":9957,"▁superior":9958,"▁indiana":9959,"▁carbon":9960,"atch":9961,"outs":9962,"▁formal":9963,"ione":9964,"▁vessels":9965,"▁leon":9966,"▁occurs":9967,"̈n":9968,"aken":9969,"ashed":9970,"▁>":9971,"▁accur":9972,"▁bot":9973,"hetic":9974,"▁certified":9975,"▁norwe":9976,"▁dated":9977,"▁income":9978,"▁credit":9979,"▁memory":9980,"▁populations":9981,"▁scully":9982,"▁attached":9983,"69":9984,"1947":9985,"▁ancest":9986,"▁properties":9987,"▁demol":9988,"▁chorus":9989,"▁passengers":9990,"1937":9991,"1958":9992,"bey":9993,"▁conservation":9994,"▁ryan":9995,"▁shots":9996,"▁equivalent":9997,"aware":9998,"▁portug":9999,"▁chapel":10000,"▁mathem":10001,"▁oldest":10002,"▁involving":10003,"▁terminus":10004,"1910":10005,"▁turk":10006,"regon":10007,"icide":10008,"ophy":10009,"▁circum":10010,"oard":10011,"▁tunnel":10012,"▁acknow":10013,"▁heritage":10014,"1957":10015,"▁cant":10016,"▁oregon":10017,"▁adventure":10018,"▁priest":10019,"after":10020,"▁gene":10021,"▁expand":10022,"▁settled":10023,"▁catch":10024,"▁rig":10025,"▁wins":10026,"pir":10027,"veland":10028,"▁obtained":10029,"▁pink":10030,"▁belt":10031,"▁bombard":10032,"▁sleep":10033,"▁pope":10034,"▁junction":10035,"▁fisher":10036,"▁rescue":10037,"▁column":10038,"▁dynasty":10039,"▁accused":10040,"▁authors":10041,"▁finishing":10042,"▁worst":10043,"▁derived":10044,"rus":10045,"▁charges":10046,"icit":10047,"▁ninth":10048,"agues":10049,"▁incorporated":10050,"ivals":10051,"▁reviewers":10052,"▁favorite":10053,"wan":10054,"▁douglas":10055,"▁circuit":10056,"▁replacement":10057,"▁prede":10058,"▁crisis":10059,"▁cleveland":10060,"heastern":10061,"▁illinois":10062,"▁committed":10063,"▁hosted":10064,"▁missions":10065,"hered":10066,"▁mol":10067,"▁prey":10068,"▁sword":10069,"▁moves":10070,"▁<":10071,"▁segment":10072,"etime":10073,"▁rebell":10074,"▁bringing":10075,"▁vehicle":10076,"▁shear":10077,"▁grass":10078,"▁supposed":10079,"▁audio":10080,"▁andy":10081,"▁lenn":10082,"bar":10083,"▁assumed":10084,"▁mediter":10085,"▁denied":10086,"1959":10087,"aret":10088,"▁weeke":10089,"▁stanley":10090,"▁”":10091,"inary":10092,"▁interpret":10093,"western":10094,"▁circulation":10095,"▁rooms":10096,"ommod":10097,"▁clubs":10098,"▁recre":10099,"▁representatives":10100,"▁jordan":10101,"▁unusual":10102,"oes":10103,"no":10104,"▁unp":10105,"▁dens":10106,"▁theater":10107,"▁fictional":10108,"▁mediterranean":10109,"▁musicians":10110,"▁commanded":10111,"▁deem":10112,"▁strongly":10113,"▁roger":10114,"▁kevin":10115,"▁seeing":10116,"▁beatles":10117,"eline":10118,"agonist":10119,"▁outstanding":10120,"▁begun":10121,"▁mexican":10122,"▁intercept":10123,"▁deput":10124,"▁conte":10125,"1954":10126,"▁completion":10127,"▁surviving":10128,"▁bruce":10129,"71":10130,"73":10131,"▁characteristics":10132,"1955":10133,"▁bristol":10134,"▁materials":10135,"▁rif":10136,"▁reality":10137,"▁solar":10138,"ji":10139,"▁“":10140,"▁cathed":10141,"▁gust":10142,"▁isbn":10143,"▁norwegian":10144,"▁alleged":10145,"▁persu":10146,"ran":10147,"ician":10148,"▁attor":10149,"▁monarch":10150,"▁costs":10151,"ooth":10152,"▁exception":10153,"▁wickets":10154,"▁lanc":10155,"▁descend":10156,"▁tied":10157,"▁possibility":10158,"▁methods":10159,"▁sailed":10160,"▁wet":10161,"▁responsibility":10162,"borne":10163,"▁bah":10164,"▁haz":10165,"▁vision":10166,"▁reconst":10167,"▁praise":10168,"▁passenger":10169,"▁everyone":10170,"▁cancer":10171,"works":10172,"▁driven":10173,"▁ford":10174,"▁aggress":10175,"84":10176,"lets":10177,"▁opposite":10178,"state":10179,"▁differences":10180,"▁eru":10181,"▁carrier":10182,"▁representative":10183,"▁missed":10184,"ager":10185,"▁intention":10186,"▁atmosphere":10187,"▁scheme":10188,"▁habitat":10189,"▁lisa":10190,"▁korea":10191,"▁desire":10192,"▁buy":10193,"weight":10194,"▁thereafter":10195,"ami":10196,"▁voy":10197,"aza":10198,"▁vary":10199,"char":10200,"▁×":10201,"▁recovered":10202,"▁otherwise":10203,"▁orange":10204,"▁massive":10205,"onto":10206,"▁throne":10207,"▁funding":10208,"▁wrong":10209,"fe":10210,"▁nich":10211,"▁platinum":10212,"▁dragon":10213,"▁strategy":10214,"burn":10215,"organ":10216,"▁attributed":10217,"▁reinforce":10218,"itable":10219,"▁ske":10220,"▁warri":10221,"▁phill":10222,"▁serves":10223,"ucks":10224,"erged":10225,"▁shif":10226,"▁stayed":10227,"▁twin":10228,"▁disappe":10229,"1952":10230,"▁emerged":10231,"▁retirement":10232,"▁effectively":10233,"▁cla":10234,"▁communities":10235,"▁classified":10236,"▁morris":10237,"▁punk":10238,"▁anton":10239,"▁outbreak":10240,"▁township":10241,"▁ille":10242,"iva":10243,"▁ministry":10244,"▁ceme":10245,"riers":10246,"▁adults":10247,"▁weapon":10248,"▁aboard":10249,"▁robinson":10250,"▁inse":10251,"▁accommod":10252,"▁morgan":10253,"arian":10254,"▁mobile":10255,"elsh":10256,"▁regularly":10257,"▁norman":10258,"ez":10259,"▁crosses":10260,"▁dissip":10261,"▁lun":10262,"bell":10263,"rell":10264,"▁documentary":10265,"▁elections":10266,"▁nelson":10267,"▁toll":10268,"▁accounts":10269,"▁partn":10270,"▁premiere":10271,"▁lies":10272,"▁hawai":10273,"▁underground":10274,"▁circle":10275,"▁falling":10276,"▁strengthen":10277,"mo":10278,"1933":10279,"▁wonder":10280,"▁pleas":10281,"▁stead":10282,"▁attracted":10283,"▁angle":10284,"▁cu":10285,"▁crop":10286,"▁neck":10287,"▁inspiration":10288,"▁stood":10289,"▁submarine":10290,"▁forming":10291,"▁trials":10292,"▁satisf":10293,"isms":10294,"enses":10295,"▁factor":10296,"oslav":10297,"▁races":10298,"▁racing":10299,"▁pret":10300,"▁criminal":10301,"▁lith":10302,"▁parks":10303,"▁movements":10304,"▁renew":10305,"▁commem":10306,"▁jenn":10307,"sole":10308,"▁advis":10309,"▁lyn":10310,"rett":10311,"▁injuries":10312,"▁votes":10313,"▁battleships":10314,"pping":10315,"▁batting":10316,"▁immig":10317,"▁sid":10318,"▁pull":10319,"anth":10320,"ompl":10321,"▁needs":10322,"▁raise":10323,"▁om":10324,"▁mck":10325,"abled":10326,"1935":10327,"▁conduct":10328,"▁separated":10329,"▁sweden":10330,"▁bag":10331,"oking":10332,"▁patrick":10333,"▁relative":10334,"▁pale":10335,"▁allen":10336,"1949":10337,"▁garrison":10338,"▁photograph":10339,"▁predecess":10340,"▁wy":10341,"▁chain":10342,"▁symph":10343,"▁sudden":10344,"▁plane":10345,"▁recru":10346,"▁shark":10347,"▁orb":10348,"▁publisher":10349,"ila":10350,"1951":10351,"rad":10352,"▁welsh":10353,"▁nom":10354,"▁earn":10355,"▁ah":10356,"idden":10357,"▁temporary":10358,"▁queens":10359,"uts":10360,"▁remn":10361,"▁desert":10362,"rim":10363,"▁flank":10364,"▁difficulty":10365,"▁dor":10366,"▁ech":10367,"▁distinguished":10368,"▁partner":10369,"bing":10370,"▁soph":10371,"▁seemed":10372,"83":10373,"▁ports":10374,"▁uss":10375,"▁requested":10376,"▁delayed":10377,"teenth":10378,"▁toronto":10379,"▁facility":10380,"aug":10381,"▁depict":10382,"▁restored":10383,"▁matthew":10384,"▁surrounded":10385,"▁elder":10386,"▁eggs":10387,"▁gets":10388,"▁standards":10389,"▁ye":10390,"▁atom":10391,"▁curt":10392,"▁byzantine":10393,"▁fu":10394,"▁hoped":10395,"coming":10396,"ogy":10397,"imate":10398,"▁claiming":10399,"▁elsewhere":10400,"▁bridges":10401,"▁netherlands":10402,"oral":10403,"▁send":10404,"bro":10405,"▁amaz":10406,"▁childhood":10407,"▁hin":10408,"▁ali":10409,"▁metropol":10410,"▁penalty":10411,"▁convection":10412,"▁pir":10413,"▁reviewer":10414,"▁harm":10415,"▁murd":10416,"▁ere":10417,"▁frame":10418,"oyd":10419,"▁temperatures":10420,"▁internet":10421,"▁meets":10422,"▁rud":10423,"▁stands":10424,"▁kiss":10425,"▁convinced":10426,"▁ages":10427,"▁examples":10428,"▁iraq":10429,"▁greatly":10430,"▁hem":10431,"▁shir":10432,"▁jews":10433,"▁moderate":10434,"▁cathedral":10435,"▁lock":10436,"▁jacob":10437,"▁publishing":10438,"▁wolf":10439,"▁jazz":10440,"rations":10441,"▁dangerous":10442,"▁involvement":10443,"▁cycle":10444,"▁painted":10445,"▁appropri":10446,"▁easy":10447,"bra":10448,"1900":10449,"▁tub":10450,"▁rick":10451,"▁accompl":10452,"▁wooden":10453,"yard":10454,"▁rit":10455,"▁alco":10456,"▁adaptation":10457,"▁satell":10458,"▁wright":10459,"▁hundreds":10460,"▁spoke":10461,"▁barr":10462,"▁tries":10463,"▁attract":10464,"iley":10465,"▁immediate":10466,"▁learn":10467,"▁fled":10468,"▁drag":10469,"▁summ":10470,"▁arn":10471,"▁recordings":10472,"▁insur":10473,"oz":10474,"▁anyone":10475,"▁excell":10476,"uro":10477,"erto":10478,"pson":10479,"abil":10480,"▁leaf":10481,"▁parish":10482,"▁assass":10483,"▁techniques":10484,"▁check":10485,"▁strip":10486,"▁dod":10487,"▁salv":10488,"▁bureau":10489,"▁coin":10490,"▁appearing":10491,"▁learning":10492,"▁synthes":10493,"imet":10494,"uther":10495,"▁encouraged":10496,"reck":10497,"omot":10498,"▁somewh":10499,"▁somewhat":10500,"war":10501,"berts":10502,"▁suffering":10503,"▁chur":10504,"▁displ":10505,"▁armen":10506,"▁safe":10507,"▁prohib":10508,"▁measures":10509,"▁croatian":10510,"▁ip":10511,"▁tan":10512,"▁patri":10513,"▁poetry":10514,"▁graphics":10515,"▁veget":10516,"▁gor":10517,"agement":10518,"▁russell":10519,"▁kelly":10520,"▁legislation":10521,"▁bears":10522,"▁determine":10523,"▁usa":10524,"▁horror":10525,"▁journalist":10526,"▁dismissed":10527,"▁thompson":10528,"sex":10529,"▁dating":10530,"▁hub":10531,"▁hud":10532,"▁islam":10533,"going":10534,"▁flash":10535,"▁interests":10536,"▁ensure":10537,"▁facing":10538,"▁pak":10539,"▁hend":10540,"▁whereas":10541,"▁attempting":10542,"▁margin":10543,"▁nickn":10544,"▁absor":10545,"▁upd":10546,"▁fighters":10547,"▁nfl":10548,"▁buck":10549,"alf":10550,"▁fitted":10551,"▁carter":10552,"agre":10553,"▁holds":10554,"▁commonwe":10555,"▁thousand":10556,"▁tip":10557,"▁trophy":10558,"▁starred":10559,"▁puerto":10560,"body":10561,"▁bypass":10562,"▁attacking":10563,"▁depos":10564,"▁formerly":10565,"▁gent":10566,"▁scrap":10567,"▁visible":10568,"▁commonwealth":10569,"▁wes":10570,"▁questions":10571,"eld":10572,"▁closer":10573,"▁conclusion":10574,"▁biggest":10575,"encies":10576,"sa":10577,"▁spears":10578,"▁mete":10579,"iant":10580,"▁bats":10581,"ito":10582,"apping":10583,"▁absence":10584,"itzer":10585,"ache":10586,"▁extreme":10587,"▁kl":10588,"ighter":10589,"▁productions":10590,"▁hungarian":10591,"▁influences":10592,"▁modified":10593,"▁niel":10594,"real":10595,"▁prosec":10596,"alo":10597,"igg":10598,"1913":10599,"▁reprodu":10600,"▁deemed":10601,"▁honour":10602,"▁batman":10603,"▁cloth":10604,"▁instruments":10605,"▁lion":10606,"▁overse":10607,"uv":10608,"▁diplom":10609,"▁premiered":10610,"▁apparently":10611,"▁parker":10612,"rine":10613,"▁bronze":10614,"night":10615,"▁controversial":10616,"▁landed":10617,"▁landsc":10618,"▁laboratory":10619,"▁scand":10620,"▁novels":10621,"▁harris":10622,"▁harbor":10623,"▁dre":10624,"▁narrative":10625,"rete":10626,"1926":10627,"▁murray":10628,"▁distributed":10629,"▁pel":10630,"▁longest":10631,"1927":10632,"▁gather":10633,"▁territories":10634,"▁leads":10635,"900":10636,"▁locomot":10637,"▁operate":10638,"▁gallery":10639,"▁files":10640,"▁understand":10641,"▁restoration":10642,"▁trained":10643,"▁alph":10644,"ameter":10645,"▁victims":10646,"▁attorney":10647,"▁arrangement":10648,"▁joy":10649,"▁laure":10650,"▁discip":10651,"140":10652,"▁creative":10653,"▁acknowled":10654,"chang":10655,"▁rhythm":10656,"1934":10657,"▁cloud":10658,"▁stor":10659,"1921":10660,"▁visitors":10661,"▁uniform":10662,"▁mainstream":10663,"▁unsuccessful":10664,"▁mamm":10665,"▁weekend":10666,"▁substit":10667,"vis":10668,"owa":10669,"▁releases":10670,"▁concur":10671,"▁refuge":10672,"▁kw":10673,"▁tone":10674,"▁sor":10675,"▁sees":10676,"▁representing":10677,"▁believes":10678,"▁dynam":10679,"▁dna":10680,"▁excess":10681,"▁yan":10682,"▁depicted":10683,"▁influential":10684,"▁berlin":10685,"ivan":10686,"▁resolution":10687,"▁owners":10688,"▁coins":10689,"▁liqu":10690,"▁basin":10691,"entional":10692,"▁dominated":10693,"▁exit":10694,"▁looked":10695,"agu":10696,"▁houston":10697,"apers":10698,"▁raaf":10699,"hanna":10700,"dd":10701,"▁secured":10702,"▁santa":10703,"▁churches":10704,"ixon":10705,"▁videos":10706,"tz":10707,"▁tie":10708,"▁wol":10709,"▁wag":10710,"eler":10711,"▁finn":10712,"▁notably":10713,"roit":10714,"▁yug":10715,"▁informed":10716,"▁comics":10717,"1912":10718,"▁casting":10719,"▁andre":10720,"aya":10721,"pan":10722,"▁au":10723,"aws":10724,"▁watching":10725,"▁legs":10726,"illing":10727,"▁reun":10728,"▁driver":10729,"chen":10730,"▁giants":10731,"▁lod":10732,"▁indians":10733,"▁offices":10734,"using":10735,"▁ay":10736,"▁cemetery":10737,"ture":10738,"▁roberts":10739,"▁swedish":10740,"▁sull":10741,"▁deployed":10742,"▁hut":10743,"▁imposs":10744,"▁languages":10745,"▁guardian":10746,"▁simpson":10747,"atically":10748,"▁terror":10749,"▁relationships":10750,"▁behavi":10751,"oster":10752,"ultane":10753,"▁dick":10754,"▁simultane":10755,"▁resear":10756,"á":10757,"1932":10758,"▁neighbour":10759,"▁housing":10760,"aska":10761,"eenth":10762,"vens":10763,"illed":10764,"▁dies":10765,"170":10766,"▁hearing":10767,"▁testing":10768,"▁device":10769,"acent":10770,"▁opponents":10771,"▁cabinet":10772,"▁meteor":10773,"lie":10774,"▁cov":10775,"▁skills":10776,"▁diagn":10777,"▁kne":10778,"▁achieve":10779,"▁pregn":10780,"apse":10781,"▁warner":10782,"▁operational":10783,"▁sang":10784,"▁cock":10785,"▁detail":10786,"▁drums":10787,"▁freder":10788,"▁impressed":10789,"▁generated":10790,"ructure":10791,"rig":10792,"▁intense":10793,"▁emotional":10794,"▁jason":10795,"▁liz":10796,"▁factors":10797,"▁reportedly":10798,"ici":10799,"▁mainten":10800,"▁dialogue":10801,"osure":10802,"▁agents":10803,"▁happened":10804,"▁maintenance":10805,"▁bapt":10806,"fare":10807,"ternal":10808,"▁window":10809,"▁download":10810,"▁commemor":10811,"▁bh":10812,"▁render":10813,"iously":10814,"▁nbc":10815,"▁ku":10816,"▁yugoslav":10817,"▁format":10818,"▁successor":10819,"▁anthony":10820,"▁agricultural":10821,"▁bun":10822,"▁firing":10823,"▁footage":10824,"▁employees":10825,"▁experiences":10826,"▁mud":10827,"▁abd":10828,"▁satur":10829,"▁somers":10830,"▁bri":10831,"▁abbey":10832,"▁trek":10833,"olph":10834,"▁clay":10835,"▁gaga":10836,"▁rising":10837,"udes":10838,"otype":10839,"▁raj":10840,"▁detroit":10841,"▁fishing":10842,"arts":10843,"▁croatia":10844,"▁lose":10845,"▁teeth":10846,"▁defended":10847,"▁negotiations":10848,"▁lowest":10849,"▁scientists":10850,"ih":10851,"1929":10852,"▁zero":10853,"fire":10854,"1911":10855,"▁revolutionary":10856,"▁sure":10857,"▁stem":10858,"icial":10859,"▁executed":10860,"▁belg":10861,"▁ark":10862,"▁fried":10863,"▁medium":10864,"▁discussed":10865,"▁collect":10866,"▁cod":10867,"▁gilbert":10868,"ctic":10869,"▁personality":10870,"▁feud":10871,"▁normally":10872,"▁recur":10873,"▁treated":10874,"tw":10875,"▁seas":10876,"▁sic":10877,"igen":10878,"noon":10879,"aints":10880,"▁portra":10881,"▁hu":10882,"▁enters":10883,"▁tribute":10884,"anny":10885,"▁asian":10886,"▁afternoon":10887,"▁interstate":10888,"▁tenth":10889,"▁sympt":10890,"▁stewart":10891,"1931":10892,"▁radar":10893,"1922":10894,"▁resign":10895,"▁lob":10896,"▁drawing":10897,"▁clinton":10898,"▁carib":10899,"▁residential":10900,"achment":10901,"▁melbourne":10902,"ontin":10903,"▁storms":10904,"▁jesus":10905,"▁flew":10906,"▁resigned":10907,"▁accompany":10908,"▁cher":10909,"▁dj":10910,"▁goods":10911,"▁difference":10912,"▁vessel":10913,"▁advoc":10914,"▁detailed":10915,"iliar":10916,"▁ethnic":10917,"▁inhabit":10918,"▁tornado":10919,"▁breat":10920,"▁boil":10921,"▁origins":10922,"▁budd":10923,"▁tru":10924,"▁aged":10925,"▁evans":10926,"▁formally":10927,"▁pointed":10928,"▁innov":10929,"▁nielsen":10930,"▁partnership":10931,"mun":10932,"▁technique":10933,"ois":10934,"▁militia":10935,"▁reveals":10936,"▁prevented":10937,"▁synd":10938,"▁preferred":10939,"▁loop":10940,"▁xbox":10941,"li":10942,"▁pushed":10943,"▁stable":10944,"▁glac":10945,"▁directors":10946,"▁tempor":10947,"▁huge":10948,"▁forb":10949,"▁keeping":10950,"anta":10951,"▁arriving":10952,"▁announce":10953,"▁apprec":10954,"arf":10955,"▁exposed":10956,"▁organizations":10957,"▁isolated":10958,"▁institution":10959,"▁neighborhood":10960,"▁sisters":10961,"orous":10962,"▁substantial":10963,"▁disturb":10964,"▁partly":10965,"▁handed":10966,"▁sevent":10967,"▁metro":10968,"▁moments":10969,"▁forty":10970,"▁muslim":10971,"▁marshall":10972,"arn":10973,"▁linked":10974,"▁founder":10975,"▁samuel":10976,"▁oxy":10977,"▁turkish":10978,"mat":10979,"iner":10980,"▁phen":10981,"otes":10982,"▁imprison":10983,"▁enthus":10984,"▁analy":10985,"▁sarah":10986,"▁departed":10987,"▁mack":10988,"▁hans":10989,"▁austria":10990,"rees":10991,"vere":10992,"▁herald":10993,"▁continental":10994,"▁designer":10995,"▁factory":10996,"▁complic":10997,"▁correct":10998,"rose":10999,"▁colorado":11000,"▁suspend":11001,"▁lennon":11002,"▁existed":11003,"▁assess":11004,"▁fifteen":11005,"▁frequent":11006,"▁pione":11007,"▁avo":11008,"▁dramatic":11009,"mad":11010,"▁greece":11011,"▁impossible":11012,"▁benn":11013,"ologists":11014,"▁periods":11015,"bean":11016,"▁ranking":11017,"▁instrumental":11018,"▁proced":11019,"▁manh":11020,"▁extent":11021,"▁occupation":11022,"▁wedding":11023,"▁symp":11024,"▁baltim":11025,"▁participate":11026,"▁concerts":11027,"▁moral":11028,"rome":11029,"▁instance":11030,"▁patrol":11031,"▁baltimore":11032,"▁inher":11033,"▁load":11034,"▁shock":11035,"▁armament":11036,"▁aqu":11037,"olis":11038,"▁seeking":11039,"▁initi":11040,"usted":11041,"▁cruisers":11042,"▁catal":11043,"▁scholar":11044,"inder":11045,"▁apple":11046,"▁anticip":11047,"stic":11048,"▁alter":11049,"▁malays":11050,"imb":11051,"▁deputy":11052,"▁mail":11053,"▁teamm":11054,"▁specimens":11055,"▁grace":11056,"▁taught":11057,"▁turb":11058,"▁sullivan":11059,"▁helic":11060,"▁finale":11061,"▁verse":11062,"▁ghost":11063,"▁seek":11064,"▁impress":11065,"die":11066,"lyn":11067,"▁fab":11068,"▁ern":11069,"▁sem":11070,"▁hunt":11071,"▁stro":11072,"▁manus":11073,"music":11074,"▁rarely":11075,"ras":11076,"▁gates":11077,"▁repair":11078,"▁smooth":11079,"▁amendment":11080,"́e":11081,"▁newspapers":11082,"gate":11083,"▁friendly":11084,"▁creator":11085,"▁dave":11086,"▁spending":11087,"▁diameter":11088,"osing":11089,"▁dir":11090,"▁upgraded":11091,"▁alab":11092,"▁metropolitan":11093,"▁obser":11094,"▁nag":11095,"▁doesn":11096,"▁withdrew":11097,"▁relie":11098,"▁arena":11099,"▁precip":11100,"▁absol":11101,"1928":11102,"▁chase":11103,"cope":11104,"▁pip":11105,"▁divor":11106,"▁poison":11107,"▁diff":11108,"▁listen":11109,"▁timber":11110,"▁meg":11111,"▁uncertain":11112,"▁exhibition":11113,"▁covers":11114,"▁picked":11115,"▁encountered":11116,"iami":11117,"▁mathemat":11118,"▁frederick":11119,"▁permission":11120,"idae":11121,"▁pounds":11122,"▁lect":11123,"▁joining":11124,"iller":11125,"obi":11126,"▁va":11127,"▁chanc":11128,"rum":11129,"▁boss":11130,"▁mario":11131,"▁refere":11132,"▁anna":11133,"▁plus":11134,"umin":11135,"icians":11136,"▁collaps":11137,"▁difficulties":11138,"▁policies":11139,"▁rates":11140,"▁changing":11141,"▁schedule":11142,"▁pc":11143,"1925":11144,"▁skull":11145,"▁somerset":11146,"boy":11147,"▁gab":11148,"▁legislature":11149,"▁consult":11150,"▁inaug":11151,"▁mississ":11152,"▁multi":11153,"▁cous":11154,"▁suicide":11155,"▁partially":11156,"1890":11157,"▁inqu":11158,"borough":11159,"sea":11160,"▁æ":11161,"▁anch":11162,"▁restrict":11163,"▁turrets":11164,"▁napole":11165,"▁merchant":11166,"▁ric":11167,"▁overs":11168,"▁advice":11169,"▁sank":11170,"anium":11171,"olas":11172,"▁anglo":11173,"▁federation":11174,"▁bombers":11175,"▁athletic":11176,"▁miami":11177,"aria":11178,"chell":11179,"▁seed":11180,"▁loan":11181,"▁pilots":11182,"lev":11183,"▁disaster":11184,"▁restric":11185,"▁adjacent":11186,"▁traveled":11187,"▁sector":11188,"1924":11189,"▁refers":11190,"▁gap":11191,"▁seattle":11192,"▁comments":11193,"▁mines":11194,"▁rebellion":11195,"▁benefit":11196,"▁joh":11197,"▁agree":11198,"▁explo":11199,"▁affair":11200,"col":11201,"▁waves":11202,"▁pref":11203,"▁soldier":11204,"▁philosophy":11205,"ci":11206,"▁dal":11207,"▁seats":11208,"▁gardens":11209,"▁plain":11210,"▁signs":11211,"▁proport":11212,"▁marry":11213,"▁worship":11214,"amese":11215,"▁ian":11216,"▁pitched":11217,"▁minimum":11218,"▁shakes":11219,"▁criticised":11220,"▁eagle":11221,"▁iowa":11222,"▁meat":11223,"▁municipal":11224,"▁coordin":11225,"▁phr":11226,"▁bases":11227,"▁alabama":11228,"▁soil":11229,"esis":11230,"sters":11231,"enh":11232,"▁australians":11233,"▁destroyers":11234,"▁prompted":11235,"▁mint":11236,"▁compete":11237,"▁struggle":11238,"▁danc":11239,"▁remove":11240,"gery":11241,"▁missou":11242,"▁surprise":11243,"▁swift":11244,"▁overl":11245,"usal":11246,"▁indicate":11247,"oen":11248,"iot":11249,"▁ion":11250,"▁whil":11251,"attan":11252,"▁helicop":11253,"▁collapse":11254,"▁communication":11255,"▁rav":11256,"▁parent":11257,"inction":11258,"▁neutral":11259,"▁caribbean":11260,"power":11261,"▁medicine":11262,"▁charlie":11263,"▁kal":11264,"uster":11265,"▁bros":11266,"▁lawrence":11267,"▁spiritual":11268,"▁manuscript":11269,"▁forcing":11270,"▁indeed":11271,"▁designation":11272,"▁string":11273,"▁halo":11274,"▁grown":11275,"▁minnes":11276,"▁satellite":11277,"gi":11278,"1923":11279,"▁carp":11280,"▁armored":11281,"▁enterprise":11282,"▁blow":11283,"pie":11284,"▁powered":11285,"▁gat":11286,"▁walker":11287,"▁um":11288,"attered":11289,"▁⁄":11290,"▁copy":11291,"▁teaching":11292,"▁paintings":11293,"▁whilst":11294,"▁stream":11295,"▁collaboration":11296,"isd":11297,"nings":11298,"▁citing":11299,"▁electron":11300,"▁survivors":11301,"▁restaurant":11302,"▁yanke":11303,"▁values":11304,"▁protagonist":11305,"gas":11306,"▁khan":11307,"▁wreck":11308,"▁fifty":11309,"▁marketing":11310,"▁yor":11311,"▁branc":11312,"▁possession":11313,"▁covering":11314,"▁appointment":11315,"▁harbour":11316,"oren":11317,"▁describe":11318,"mont":11319,"▁approval":11320,"▁rounds":11321,"esh":11322,"▁capit":11323,"▁provinc":11324,"ika":11325,"▁encounter":11326,"▁nazi":11327,"▁si":11328,"▁mane":11329,"▁candidates":11330,"▁travelled":11331,"▁depending":11332,"ascar":11333,"▁pretty":11334,"▁charter":11335,"▁jen":11336,"▁understanding":11337,"▁poems":11338,"▁fortress":11339,"▁balance":11340,"con":11341,"▁nam":11342,"▁reconna":11343,"▁dispute":11344,"▁hungary":11345,"▁brill":11346,"▁pine":11347,"▁orbit":11348,"▁oxygen":11349,"▁dim":11350,"▁victories":11351,"▁benj":11352,"imeter":11353,"▁cyl":11354,"▁dollars":11355,"▁mall":11356,"▁prompt":11357,"▁listing":11358,"▁situated":11359,"▁bowling":11360,"▁displayed":11361,"▁battalions":11362,"▁pic":11363,"▁villages":11364,"▁pole":11365,"▁articles":11366,"▁minimal":11367,"ception":11368,"▁christopher":11369,"▁abb":11370,"▁fel":11371,"▁survive":11372,"▁violent":11373,"▁wake":11374,"▁belgium":11375,"▁hamp":11376,"▁rugby":11377,"▁legislative":11378,"nie":11379,"▁cot":11380,"▁reconnaissance":11381,"▁earthqu":11382,"▁alive":11383,"▁serial":11384,"▁option":11385,"▁dock":11386,"▁femin":11387,"▁assisted":11388,"▁closing":11389,"▁telling":11390,"▁degrees":11391,"▁playoffs":11392,"▁publications":11393,"▁cargo":11394,"▁forests":11395,"▁diego":11396,"▁prol":11397,"▁software":11398,"▁dancing":11399,"▁interpre":11400,"▁amongst":11401,"▁funeral":11402,"▁helping":11403,"lan":11404,"▁symptoms":11405,"▁marks":11406,"▁ski":11407,"▁colonies":11408,"▁shakespe":11409,"▁clock":11410,"▁guil":11411,"▁eliminated":11412,"▁tomb":11413,"▁acted":11414,"▁asks":11415,"▁monster":11416,"▁brun":11417,"▁jar":11418,"▁sugar":11419,"▁riders":11420,"▁mys":11421,"▁administrative":11422,"▁*":11423,"▁purposes":11424,"▁michel":11425,"▁nad":11426,"phone":11427,"▁disl":11428,"▁drivers":11429,"▁alfred":11430,"velt":11431,"1908":11432,"ti":11433,"▁pron":11434,"▁circumst":11435,"▁repairs":11436,"1905":11437,"▁compilation":11438,"▁simpl":11439,"▁trouble":11440,"▁occasions":11441,"1909":11442,"▁fatal":11443,"▁mississipp":11444,"sk":11445,"anna":11446,"▁benjamin":11447,"▁mason":11448,"▁roose":11449,"▁blind":11450,"▁concrete":11451,"▁jok":11452,"▁pant":11453,"▁statue":11454,"▁hong":11455,"▁rout":11456,"▁alcohol":11457,"▁inland":11458,"orted":11459,"▁minnesota":11460,"▁vietn":11461,"rm":11462,"▁crus":11463,"▁vietnamese":11464,"▁lists":11465,"▁interact":11466,"▁anime":11467,"▁attendance":11468,"fr":11469,"▁horiz":11470,"▁cannon":11471,"atus":11472,"▁preserved":11473,"▁preparation":11474,"▁publicly":11475,"▁grammy":11476,"▁console":11477,"▁organisation":11478,"▁businesses":11479,"rupted":11480,"inals":11481,"▁mental":11482,"▁stevens":11483,"▁manhattan":11484,"▁sick":11485,"▁pool":11486,"leman":11487,"▁abilities":11488,"▁voiced":11489,"▁tang":11490,"▁communications":11491,"▁il":11492,"▁highways":11493,"▁wider":11494,"▁defeating":11495,"▁illness":11496,"fted":11497,"▁ramp":11498,"uda":11499,"▁argument":11500,"forced":11501,"▁franklin":11502,"ographical":11503,"jan":11504,"eing":11505,"iac":11506,"▁touring":11507,"▁elabor":11508,"▁signal":11509,"▁vs":11510,"▁ammun":11511,"▁roosevelt":11512,"▁sas":11513,"▁jet":11514,"▁resumed":11515,"▁kansas":11516,"aste":11517,"▁residence":11518,"▁prel":11519,"▁competed":11520,"▁believing":11521,"1907":11522,"▁intensified":11523,"ivated":11524,"agen":11525,"▁surge":11526,"▁ing":11527,"atherine":11528,"▁ammunition":11529,"▁alignment":11530,"opes":11531,"▁crews":11532,"▁coff":11533,"▁archb":11534,"▁excav":11535,"▁thinking":11536,"▁dollar":11537,"xic":11538,"▁flights":11539,"▁rib":11540,"uman":11541,"▁counties":11542,"▁portland":11543,"▁airborne":11544,"▁backing":11545,"▁fallen":11546,"▁nit":11547,"▁opponent":11548,"▁strategic":11549,"ounced":11550,"▁underst":11551,"▁documents":11552,"acle":11553,"ishment":11554,"▁signing":11555,"▁subjects":11556,"▁nash":11557,"▁deliber":11558,"▁amate":11559,"iable":11560,"▁usd":11561,"▁assists":11562,"▁walking":11563,"▁friendship":11564,"▁willing":11565,"▁audiences":11566,"▁stu":11567,"▁alternate":11568,"▁usual":11569,"▁ceremon":11570,"din":11571,"▁biographer":11572,"▁philippines":11573,"▁suitable":11574,"▁sib":11575,"▁genetic":11576,"▁interesting":11577,"orph":11578,"▁doubt":11579,"1880":11580,"▁engineers":11581,"▁rush":11582,"▁noble":11583,"▁spar":11584,"▁atomic":11585,"▁mississippi":11586,"ensions":11587,"▁feelings":11588,"▁abol":11589,"▁radical":11590,"▁saturday":11591,"▁peters":11592,"▁chand":11593,"▁warren":11594,"▁loyal":11595,"▁provincial":11596,"▁dc":11597,"▁guards":11598,"▁tribes":11599,"▁underw":11600,"▁submitted":11601,"▁percentage":11602,"▁completing":11603,"▁woods":11604,"▁waiting":11605,"▁vinc":11606,"▁ownership":11607,"▁explosion":11608,"▁functions":11609,"▁adopt":11610,"sky":11611,"▁esp":11612,"▁tab":11613,"▁charity":11614,"▁behalf":11615,"itated":11616,"▁por":11617,"▁alexand":11618,"donald":11619,"▁asking":11620,"▁autobi":11621,"▁fra":11622,"iveness":11623,"▁hook":11624,"utor":11625,"ige":11626,"odore":11627,"▁disord":11628,"▁guer":11629,"▁rip":11630,"▁polar":11631,"▁tennes":11632,"▁retail":11633,"▁campbell":11634,"▁shakespeare":11635,"ods":11636,"▁cob":11637,"▁evolved":11638,"▁artistic":11639,"▁stick":11640,"▁hindu":11641,"dale":11642,"▁cinema":11643,"▁chronicle":11644,"▁frust":11645,"▁targets":11646,"▁false":11647,"▁revenue":11648,"▁wire":11649,"ifer":11650,"oga":11651,"▁steven":11652,"▁obv":11653,"▁quad":11654,"▁é":11655,"▁registered":11656,"▁ted":11657,"▁remark":11658,"▁frig":11659,"▁chest":11660,"360":11661,"oto":11662,"▁birthday":11663,"▁astronom":11664,"▁dimens":11665,"▁lakes":11666,"cular":11667,"▁hole":11668,"onymous":11669,"▁suspended":11670,"▁rice":11671,"▁nep":11672,"▁cartoon":11673,"▁goth":11674,"▁favorable":11675,"▁cass":11676,"ader":11677,"▁scr":11678,"▁josh":11679,"▁movies":11680,"▁reluct":11681,"ses":11682,"▁kin":11683,"▁civilian":11684,"▁lucas":11685,"▁beauty":11686,"▁poorly":11687,"▁borough":11688,"icts":11689,"▁provision":11690,"▁heading":11691,"▁guilty":11692,"father":11693,"pecies":11694,"▁egyptian":11695,"hu":11696,"▁replacing":11697,"▁hob":11698,"▁forth":11699,"eston":11700,"icate":11701,"▁comfort":11702,"▁liked":11703,"▁pace":11704,"▁pup":11705,"▁recip":11706,"1870":11707,"▁cliff":11708,"▁quiet":11709,"▁armies":11710,"▁armour":11711,"▁ideal":11712,"▁shells":11713,"▁aimed":11714,"aro":11715,"cel":11716,"▁offering":11717,"▁solution":11718,"▁measured":11719,"▁missouri":11720,"▁tennessee":11721,"inea":11722,"▁boundary":11723,"▁engagement":11724,"▁clearly":11725,"▁prospect":11726,"1906":11727,"pes":11728,"▁acceler":11729,"▁retrie":11730,"▁louisiana":11731,"▁margaret":11732,"▁rocks":11733,"inations":11734,"▁expensive":11735,"̈r":11736,"▁cze":11737,"▁temporarily":11738,"▁palest":11739,"▁aviation":11740,"▁recognised":11741,"1904":11742,"lah":11743,"▁montreal":11744,"▁simultaneously":11745,"▁shipping":11746,"▁bare":11747,"▁gear":11748,"▁filed":11749,"▁vulner":11750,"▁sequences":11751,"uable":11752,"▁brick":11753,"▁behaviour":11754,"▁subt":11755,"▁remnants":11756,"▁fo":11757,"▁butter":11758,"▁gran":11759,"▁repr":11760,"▁storage":11761,"▁billy":11762,"▁represents":11763,"▁galax":11764,"▁agriculture":11765,"▁blocks":11766,"▁craw":11767,"▁monaster":11768,"crib":11769,"▁wore":11770,"▁context":11771,"▁conspir":11772,"▁readers":11773,"▁essential":11774,"wned":11775,"▁mush":11776,"▁wants":11777,"▁saved":11778,"▁coverage":11779,"▁stores":11780,"▁mitchell":11781,"▁talent":11782,"▁amph":11783,"▁sket":11784,"▁err":11785,"▁comparison":11786,"▁kirk":11787,"▁coc":11788,"▁mining":11789,"▁patterns":11790,"▁coinc":11791,"▁phone":11792,"▁cancelled":11793,"▁czech":11794,"▁pars":11795,"▁phoen":11796,"▁propag":11797,"▁tight":11798,"▁aside":11799,"▁carn":11800,"▁surgery":11801,"▁institutions":11802,"ng":11803,"▁continu":11804,"▁perspective":11805,"▁suggesting":11806,"▁overseas":11807,"rix":11808,"▁faster":11809,"▁thirteen":11810,"▁spotted":11811,"▁familiar":11812,"▁graham":11813,"▁matters":11814,"▁reflected":11815,"▁maneu":11816,"▁wasn":11817,"▁practices":11818,"▁contributions":11819,"▁rebuilt":11820,"▁notice":11821,"▁furn":11822,"▁protein":11823,"ylan":11824,"issions":11825,"▁dogs":11826,"▁lesser":11827,"▁fastest":11828,"▁hunter":11829,"▁globe":11830,"life":11831,"▁predomin":11832,"▁application":11833,"mn":11834,"▁furthermore":11835,"▁shadow":11836,"▁destroyer":11837,"▁pulled":11838,"▁vertical":11839,"▁archbishop":11840,"rator":11841,"▁ranks":11842,"▁crystal":11843,"▁escaped":11844,"tha":11845,"▁roots":11846,"▁flagship":11847,"ori":11848,"▁badly":11849,"▁ariz":11850,"▁drugs":11851,"▁sult":11852,"▁strict":11853,"▁summit":11854,"▁oliv":11855,"▁subspecies":11856,"yon":11857,"unes":11858,"▁amounts":11859,"▁jobs":11860,"storm":11861,"▁lacked":11862,"▁cuba":11863,"rants":11864,"▁sq":11865,"▁drove":11866,"▁cave":11867,"▁forg":11868,"▁allmusic":11869,"▁exclud":11870,"▁decides":11871,"08":11872,"▁intelle":11873,"▁slaves":11874,"▁panel":11875,"▁bombs":11876,"▁empt":11877,"▁confederate":11878,"▁osc":11879,"▁marie":11880,"▁autumn":11881,"▁argues":11882,"▁wicket":11883,"▁intellect":11884,"▁bulk":11885,"▁toky":11886,"▁unex":11887,"▁subur":11888,"▁portions":11889,"▁triang":11890,"vereign":11891,"kshire":11892,"▁indies":11893,"▁sovereign":11894,"▁expression":11895,"▁controls":11896,"artney":11897,"▁squadrons":11898,"▁quarterback":11899,"▁spider":11900,"▁severely":11901,"▁ml":11902,"▁inhabitants":11903,"▁tale":11904,"▁earning":11905,"▁tamil":11906,"́l":11907,"▁striking":11908,"▁biography":11909,"▁persian":11910,"▁tort":11911,"urally":11912,"▁printed":11913,"▁starring":11914,"▁distinctive":11915,"▁warship":11916,"▁crest":11917,"▁ambass":11918,"▁toy":11919,"▁condem":11920,"▁tack":11921,"▁mainland":11922,"▁guitarist":11923,"▁sony":11924,"▁ferry":11925,"▁observations":11926,"▁stern":11927,"▁arizona":11928,"▁chick":11929,"ni":11930,"▁coron":11931,"▁godd":11932,"▁bonus":11933,"▁restricted":11934,"▁wish":11935,"▁characterized":11936,"▁orth":11937,"▁constitutional":11938,"▁stere":11939,"▁planets":11940,"▁mik":11941,"▁vast":11942,"lings":11943,"urer":11944,"▁liberty":11945,"▁excellent":11946,"▁ranging":11947,"ski":11948,"▁bald":11949,"▁dylan":11950,"▁visiting":11951,"▁spend":11952,"ieties":11953,"▁commanding":11954,"▁sitting":11955,"▁flower":11956,"fa":11957,"rog":11958,"▁jury":11959,"▁revival":11960,"▁definition":11961,"▁phenom":11962,"▁pearl":11963,"▁fixed":11964,"vo":11965,"▁curren":11966,"▁rings":11967,"▁wilhel":11968,"▁wait":11969,"▁vib":11970,"▁plut":11971,"athy":11972,"▁wine":11973,"idency":11974,"▁meetings":11975,"▁nominations":11976,"▁lt":11977,"▁holiday":11978,"▁tiss":11979,"▁sig":11980,"▁threw":11981,"▁explain":11982,"▁explains":11983,"▁bombing":11984,"▁athletes":11985,"▁ultimate":11986,"▁dominant":11987,"ract":11988,"▁acou":11989,"▁carriers":11990,"▁statistics":11991,"▁demonstrated":11992,"▁amateur":11993,"fish":11994,"▁bone":11995,"▁arrive":11996,"iy":11997,"▁dy":11998,"▁oklah":11999,"▁illegal":12000,"▁broadway":12001,"▁tig":12002,"▁danger":12003,"09":12004,"▁multipl":12005,"▁educational":12006,"▁parliamentary":12007,"▁nik":12008,"eton":12009,"unction":12010,"▁artific":12011,"▁pill":12012,"▁austrian":12013,"cru":12014,"▁mate":12015,"▁marvel":12016,"▁metall":12017,"▁founding":12018,"▁hidden":12019,"▁yield":12020,"▁mrs":12021,"▁switzer":12022,"▁ticket":12023,"owed":12024,"uma":12025,"▁lex":12026,"▁dust":12027,"▁orn":12028,"▁consol":12029,"▁maur":12030,"▁forecast":12031,"▁len":12032,"▁rook":12033,"▁artwork":12034,"▁coat":12035,"▁grave":12036,"▁northward":12037,"▁prepare":12038,"▁harvey":12039,"estone":12040,"▁arist":12041,"1901":12042,"▁aerial":12043,"equ":12044,"thy":12045,"▁census":12046,"▁abund":12047,"▁switzerland":12048,"anian":12049,"▁murphy":12050,"▁predicted":12051,"▁talking":12052,"▁beam":12053,"▁amy":12054,"▁vii":12055,"▁push":12056,"▁rever":12057,"ested":12058,"▁experimental":12059,"▁pm":12060,"▁declar":12061,"▁reaches":12062,"▁anat":12063,"▁peaking":12064,"elli":12065,"▁barry":12066,"▁conversion":12067,"car":12068,"▁slave":12069,"away":12070,"▁dread":12071,"▁delaware":12072,"emen":12073,"▁overt":12074,"ulating":12075,"asts":12076,"▁feeding":12077,"▁conscious":12078,"115":12079,"orer":12080,"▁lanes":12081,"▁steps":12082,"▁abc":12083,"▁households":12084,"▁disagre":12085,"▁symphony":12086,"▁overw":12087,"▁apartment":12088,"▁nut":12089,"▁chel":12090,"▁oklahoma":12091,"uations":12092,"▁accum":12093,"▁cruc":12094,"▁innoc":12095,"▁westward":12096,"▁feels":12097,"▁liquid":12098,"▁baker":12099,"orship":12100,"▁seriously":12101,"▁obtain":12102,"▁lon":12103,"▁laugh":12104,"▁backed":12105,"▁repeatedly":12106,"▁bach":12107,"▁useful":12108,"▁membership":12109,"▁audition":12110,"▁predecessor":12111,"▁swimming":12112,"▁considering":12113,"▁choose":12114,"▁copper":12115,"▁layer":12116,"bec":12117,"1903":12118,"▁congreg":12119,"▁patron":12120,"1902":12121,"▁bones":12122,"▁wells":12123,"▁ninet":12124,"▁consequently":12125,"▁circumstances":12126,"▁attained":12127,"▁thanks":12128,"▁gw":12129,"▁preserv":12130,"▁perry":12131,"▁kurt":12132,"▁fasc":12133,"▁berg":12134,"▁delivery":12135,"▁melody":12136,"▁physics":12137,"▁todd":12138,"▁feather":12139,"imen":12140,"▁revolt":12141,"▁rico":12142,"▁perceived":12143,"▁mong":12144,"umps":12145,"▁eve":12146,"▁looks":12147,"▁millenn":12148,"▁memor":12149,"▁leslie":12150,"▁bod":12151,"icut":12152,"▁vig":12153,"▁shaw":12154,"▁madag":12155,"▁revers":12156,"▁stones":12157,"iders":12158,"▁pages":12159,"isp":12160,"▁hav":12161,"▁flowers":12162,"ridge":12163,"▁bour":12164,"▁valuable":12165,"▁bernard":12166,"▁μ":12167,"▁sunk":12168,"▁subsid":12169,"▁ballad":12170,"▁improvements":12171,"▁tokyo":12172,"▁mini":12173,"oned":12174,"▁interf":12175,"▁remarked":12176,"▁ask":12177,"▁duo":12178,"▁possess":12179,"▁tactics":12180,"di":12181,"▁retain":12182,"▁compens":12183,"▁engage":12184,"▁denmark":12185,"▁turret":12186,"▁jonathan":12187,"ym":12188,"▁towers":12189,"▁guar":12190,"▁promised":12191,"▁personally":12192,"▁renov":12193,"▁airlines":12194,"▁juan":12195,"▁battlecru":12196,"▁landscape":12197,"▁johnny":12198,"▁atlanta":12199,"▁edwards":12200,"▁musician":12201,"▁theatrical":12202,"▁ment":12203,"rating":12204,"▁execution":12205,"▁dawn":12206,"▁enlisted":12207,"▁airfield":12208,"▁obst":12209,"▁rihanna":12210,"asa":12211,"▁hog":12212,"▁gru":12213,"▁kids":12214,"▁spart":12215,"▁barn":12216,"▁compound":12217,"▁spa":12218,"▁manga":12219,"apolis":12220,"▁demands":12221,"▁kam":12222,"▁sixteen":12223,"▁strengthened":12224,"▁nixon":12225,"▁travels":12226,"▁campaigns":12227,"onomy":12228,"▁profile":12229,"▁sung":12230,"itter":12231,"uded":12232,"mingham":12233,"▁qualified":12234,"▁explan":12235,"▁ms":12236,"▁rede":12237,"▁elevation":12238,"▁raising":12239,"▁funny":12240,"▁mechanical":12241,"cs":12242,"▁patt":12243,"▁ral":12244,"▁isa":12245,"▁demanded":12246,"▁papers":12247,"inian":12248,"ruption":12249,"▁illustrated":12250,"▁arnold":12251,"▁succession":12252,"bard":12253,"estyle":12254,"abs":12255,"▁burns":12256,"▁aggreg":12257,"▁pitts":12258,"rast":12259,"▁waste":12260,"▁interpretation":12261,"low":12262,"▁insisted":12263,"▁clothing":12264,"mith":12265,"▁keith":12266,"▁stress":12267,"ele":12268,"ó":12269,"▁enroll":12270,"▁garn":12271,"rows":12272,"▁compounds":12273,"▁jimmy":12274,"▁canter":12275,"▁ruling":12276,"▁electricity":12277,"bird":12278,"kh":12279,"▁beats":12280,"▁settlers":12281,"▁baron":12282,"▁mirror":12283,"▁dressed":12284,"grad":12285,"▁lying":12286,"▁judg":12287,"▁sak":12288,"▁bak":12289,"ghan":12290,"▁phoenix":12291,"▁hood":12292,"▁fewer":12293,"▁meter":12294,"▁struggled":12295,"yt":12296,"▁glee":12297,"▁ruth":12298,"▁tales":12299,"▁vik":12300,"▁prost":12301,"▁hybr":12302,"▁rachel":12303,"▁encl":12304,"▁demolished":12305,"▁succeed":12306,"▁erected":12307,"▁persons":12308,"▁trading":12309,"▁stronger":12310,"▁fis":12311,"esty":12312,"▁fourteen":12313,"▁passion":12314,"ulty":12315,"▁decisions":12316,"▁conquest":12317,"cha":12318,"▁increases":12319,"▁riding":12320,"▁paras":12321,"nik":12322,"uki":12323,"▁shift":12324,"ensis":12325,"▁insects":12326,"acked":12327,"▁cutting":12328,"▁yankees":12329,"odox":12330,"▁tracy":12331,"▁removal":12332,"▁hugh":12333,"▁bog":12334,"utt":12335,"▁external":12336,"▁blu":12337,"▁objective":12338,"▁watershed":12339,"▁surpass":12340,"▁mills":12341,"▁birmingham":12342,"▁daughters":12343,"▁compliment":12344,"▁pursue":12345,"ova":12346,"jection":12347,"▁advertising":12348,"▁culmin":12349,"acre":12350,"05":12351,"▁defences":12352,"▁superst":12353,"▁lights":12354,"xual":12355,"▁warfare":12356,"▁burial":12357,"gie":12358,"▁wis":12359,"▁deterior":12360,"▁bobby":12361,"▁developers":12362,"avery":12363,"▁obama":12364,"▁wayne":12365,"▁coup":12366,"▁exactly":12367,"▁resol":12368,"▁killer":12369,"▁overwhel":12370,"folk":12371,"▁concentration":12372,"oh":12373,"▁denn":12374,"eled":12375,"▁comprom":12376,"▁discovers":12377,"▁mercury":12378,"▁griff":12379,"▁lip":12380,"▁organised":12381,"▁magazines":12382,"▁fate":12383,"▁bacter":12384,"▁fossil":12385,"▁buddh":12386,"fts":12387,"▁altered":12388,"▁spur":12389,"▁defending":12390,"▁ranges":12391,"lock":12392,"▁venue":12393,"105":12394,"▁hydrogen":12395,"▁wealthy":12396,"▁employment":12397,"nat":12398,"erb":12399,"▁hudson":12400,"▁fold":12401,"▁electrical":12402,"▁gosp":12403,"▁loved":12404,"▁approaching":12405,"▁karl":12406,"▁dall":12407,"▁eval":12408,"▁debt":12409,"▁exercise":12410,"▁kon":12411,"▁armoured":12412,"▁ced":12413,"season":12414,"▁adventures":12415,"▁raids":12416,"zzle":12417,"▁select":12418,"▁establishing":12419,"▁exposure":12420,"▁nu":12421,"▁investment":12422,"▁commentary":12423,"▁limits":12424,"▁hearts":12425,"▁mccartney":12426,"▁madagascar":12427,"▁tong":12428,"▁profit":12429,"▁mood":12430,"▁shak":12431,"▁jup":12432,"▁connecticut":12433,"▁jurisd":12434,"rises":12435,"▁connecting":12436,"▁aggressive":12437,"▁vanc":12438,"▁hence":12439,"mund":12440,"iph":12441,"▁centers":12442,"▁epic":12443,"▁mature":12444,"▁gods":12445,"▁ontar":12446,"▁partial":12447,"▁architectural":12448,"▁qualifying":12449,"rams":12450,"07":12451,"▁parach":12452,"▁canterbury":12453,"▁ontario":12454,"iden":12455,"▁outd":12456,"▁prove":12457,"▁friday":12458,"▁morrison":12459,"▁slip":12460,"▁liv":12461,"▁trick":12462,"ensively":12463,"▁indicating":12464,"▁dwarf":12465,"▁gren":12466,"06":12467,"▁ongoing":12468,"▁exter":12469,"▁edited":12470,"▁markets":12471,"▁determin":12472,"▁traveling":12473,"▁napoleon":12474,"ardo":12475,"▁arrangements":12476,"oming":12477,"▁isot":12478,"▁extrat":12479,"ouver":12480,"▁shorter":12481,"▁radiation":12482,"▁improvement":12483,"▁withdrawal":12484,"▁announcement":12485,"▁lor":12486,"▁sultan":12487,"▁unless":12488,"▁volumes":12489,"▁celebrated":12490,"▁appropriate":12491,"▁acoustic":12492,"py":12493,"▁theore":12494,"aux":12495,"▁stationed":12496,"▁evacuated":12497,"▁pruss":12498,"▁dissipated":12499,"▁acknowledged":12500,"▁precipitation":12501,"▁extratropical":12502,"▁honey":12503,"▁putting":12504,"▁predict":12505,"▁bomber":12506,"▁tube":12507,"rous":12508,"▁cler":12509,"▁sciences":12510,"▁permitted":12511,"▁slavery":12512,"▁survival":12513,"▁dict":12514,"▁preparations":12515,"ifies":12516,"▁discussion":12517,"▁realized":12518,"▁silent":12519,"▁nurs":12520,"▁rend":12521,"▁youngest":12522,"▁tna":12523,"▁initiated":12524,"▁dubbed":12525,"▁placing":12526,"▁graduated":12527,"caa":12528,"lain":12529,"oons":12530,"▁kills":12531,"rac":12532,"▁hosts":12533,"anger":12534,"▁potter":12535,"▁recovery":12536,"▁photographs":12537,"bow":12538,"▁cort":12539,"▁voices":12540,"▁mcm":12541,"▁disappoint":12542,"▁hardy":12543,"▁industries":12544,"efa":12545,"▁stol":12546,"▁param":12547,"▁fleming":12548,"▁translation":12549,"arr":12550,"▁graduate":12551,"▁gary":12552,"▁truck":12553,"▁hypothes":12554,"▁uefa":12555,"adi":12556,"shore":12557,"itis":12558,"ulous":12559,"▁attitude":12560,"uese":12561,"▁climb":12562,"▁rehe":12563,"▁vancouver":12564,"125":12565,"▁requires":12566,"▁strongest":12567,"▁burning":12568,"▁conventional":12569,"▁affili":12570,"▁confront":12571,"▁originated":12572,"▁voyage":12573,"▁estimates":12574,"350":12575,"é":12576,"itudes":12577,"▁vamp":12578,"▁jupiter":12579,"aser":12580,"unc":12581,"▁reporter":12582,"▁harmon":12583,"pled":12584,"▁monte":12585,"▁transit":12586,"amental":12587,"hips":12588,"▁doct":12589,"▁referring":12590,"▁echo":12591,"▁tubes":12592,"▁trough":12593,"▁knock":12594,"▁sonic":12595,"hard":12596,"▁donated":12597,"▁exclusive":12598,"▁exha":12599,"▁mend":12600,"▁nerv":12601,"▁rus":12602,"▁edin":12603,"▁devast":12604,"▁endors":12605,"▁expert":12606,"▁tours":12607,"▁supplement":12608,"▁specimen":12609,"▁signature":12610,"▁rp":12611,"▁colleagues":12612,"▁closest":12613,"autical":12614,"hous":12615,"itively":12616,"▁parody":12617,"▁guinea":12618,"▁minority":12619,"▁pakistan":12620,"▁southeastern":12621,"▁promotional":12622,"▁axis":12623,"́r":12624,"ingham":12625,"▁bearing":12626,"▁indicates":12627,"oven":12628,"1860":12629,"▁decide":12630,"▁cord":12631,"▁hey":12632,"▁mant":12633,"▁kap":12634,"▁drinking":12635,"▁earthquake":12636,"▁ov":12637,"▁recall":12638,"▁æthel":12639,"▁tai":12640,"▁scattered":12641,"▁portuguese":12642,"▁wool":12643,"▁manor":12644,"▁visits":12645,"▁bradman":12646,"▁outf":12647,"▁legit":12648,"▁challenged":12649,"▁luke":12650,"▁attending":12651,"▁density":12652,"hor":12653,"▁craft":12654,"▁pam":12655,"ivation":12656,"▁heaven":12657,"inces":12658,"▁alice":12659,"▁lawyer":12660,"▁merely":12661,"▁concentrated":12662,"▁gathered":12663,"▁supplied":12664,"▁users":12665,"▁programming":12666,"▁emphasis":12667,"▁collapsed":12668,"▁identify":12669,"▁cruise":12670,"▁dwight":12671,"rep":12672,"▁morph":12673,"▁traditionally":12674,"▁coalition":12675,"▁dale":12676,"▁overlo":12677,"▁territorial":12678,"▁hanna":12679,"▁ncaa":12680,"▁governments":12681,"▁annually":12682,"▁screenplay":12683,"▁democrats":12684,"▁cotton":12685,"ulted":12686,"1893":12687,"pers":12688,"▁heir":12689,"uration":12690,"▁indigen":12691,"▁principles":12692,"▁artificial":12693,"▁beng":12694,"adier":12695,"▁electro":12696,"▁achievement":12697,"▁cousin":12698,"mers":12699,"▁devil":12700,"▁photography":12701,"1896":12702,"▁sacrif":12703,"ello":12704,"▁cash":12705,"▁ni":12706,"graph":12707,"claimed":12708,"▁celt":12709,"▁lac":12710,"vi":12711,"▁portrait":12712,"bal":12713,"▁provinces":12714,"▁lawsu":12715,"▁optim":12716,"▁alpha":12717,"▁stal":12718,"soft":12719,"▁prisoner":12720,"case":12721,"anz":12722,"▁prices":12723,"▁predators":12724,"▁ig":12725,"▁fed":12726,"▁afghan":12727,"▁offense":12728,"▁oliver":12729,"▁chemistry":12730,"▁hampshire":12731,"otte":12732,"▁declaration":12733,"▁seized":12734,"▁terrain":12735,"▁accompanying":12736,"▁edinburgh":12737,"▁topped":12738,"▁talks":12739,"▁applications":12740,"▁competing":12741,"▁pond":12742,"▁failing":12743,"andy":12744,"▁turner":12745,"▁reinforcements":12746,"▁indigenous":12747,"agger":12748,"▁investigate":12749,"▁veloc":12750,"feld":12751,"▁reverse":12752,"▁mosc":12753,"▁maya":12754,"▁uranium":12755,"▁universities":12756,"▁stuff":12757,"irm":12758,"▁sending":12759,"▁portrayal":12760,"nia":12761,"pin":12762,"aks":12763,"▁smart":12764,"▁glen":12765,"1898":12766,"▁terminal":12767,"▁tenure":12768,"▁rangers":12769,"bu":12770,"▁penet":12771,"▁victorian":12772,"▁chord":12773,"▁broadcasting":12774,"▁gaz":12775,"▁output":12776,"▁revenge":12777,"▁regime":12778,"▁reconstruction":12779,"▁cros":12780,"▁experiments":12781,"▁volunteers":12782,"▁consolid":12783,"▁beneath":12784,"▁tap":12785,"▁flooded":12786,"▁certainly":12787,"imetres":12788,"▁recurring":12789,"▁therm":12790,"▁guid":12791,"▁hitting":12792,"▁troub":12793,"▁spy":12794,"▁juven":12795,"▁profession":12796,"▁goddess":12797,"▁dual":12798,"▁apoll":12799},"merges":["▁ t","▁ a","h e","i n","▁t he","▁ s","e r","o n","▁ ,","r e","▁ w","▁ c","▁ o","e d","▁ b","▁ .","n d","▁ f","a t","o r","i t","e n","▁ p","▁ in","▁ m","i s","e s","a r","▁o f","a n","a l","in g","▁ d","a s","▁a nd","▁ h","▁t o","r o","i c","▁ l","i on","o u","▁ n","▁ re","i l","▁ e","▁ g","▁t h","▁ =","l e","en t","▁ \"","s t","▁ @","e l","a m","o m","▁ on","a c","a d","▁w as","▁s t","▁b e","▁ he","u r","l y","▁ '","▁f or","▁ u","i d","i m","o l","t er","▁a s","i r","- @","▁@ -@","i v","i g","c t","o t","u t","▁ r","e t","it h","a y","o w","▁a l","v er","▁w ith","c e","at ion","▁th at","▁w h","▁ it","c h","▁c on","▁a t","▁ j","▁a n","▁b y","▁d e","▁s e","▁ is","u s","▁ v","▁ k","▁ )","t h","▁ (","u l","er s","1 9","▁c h","a nd","a in","e m","ro m","▁h is","o s","he r","a g","a v","u m","▁c om","es t","0 0","r i","▁s u","▁f rom","▁p ro","p e","o d","▁n e","is t","i f","u n","il l","o re","l d","a p","▁s h","s e","▁ y","er e","re s","ig h","o p","i es","▁ ro","q u","ar t","b er","ar d","▁o r","▁e x","▁p l","▁w ere","a k","ic h","at e","or t","al l","▁u n","a b","▁l e","an t","u d","o c","g h","on g","at ed","i p","it y","es s","▁a r","am e","iv e","i e","▁t r","▁h ad","ac k","as t","re d","ro u","▁wh ich","ou r","g e","▁a re","m ent","▁n ot","i an","o v","▁a f","i al","p t","o st","el l","i a","igh t","▁c l","u st","ar y","▁w or","in e","▁w he","p p","r it","c l","t her","ou n","▁a d","ic al","av e","▁s c","c c","▁com p","▁b ut","▁ en","2 0","ct ion","or d","▁th is","2 00","▁f ir","▁he r","t e","ou ld","▁t w","▁a b","is h","▁af ter","▁con t","▁fir st","ou s","s o","▁t e","id e","▁s p","u re","▁it s","▁ne w","ig n","▁the ir","▁a m","▁al l","▁ ;","▁m an","p er","▁on e","r a","it ion","▁in t","▁p er","as s","▁ i","▁ –","▁al so","r u","▁u s","▁m ar","o g","o k","▁s he","u b","e ar","▁ :","at er","om e","▁t im","▁re s","ou t","ag e","▁re c","on d","▁the y","or m","i re","r y","▁s er","he d","▁f e","▁tw o","u e","▁p art","▁a g","1 8","▁wh o","▁com m","d u","▁d es","an s","▁h ave","re e","▁be c","al ly","f f","▁d is","▁g o","an ce","il e","▁w e",". @","▁@ .@","p l","▁o ver","▁y ear","ow n","t ed","ic e","▁of f","i z","▁h as","▁pl ay","ur ing","▁be en","en ce","▁c o","▁o ther","e ct",", @","▁@ ,@","20 1","▁ im","ou gh","k e","▁m e","a re","or y","▁c ol","el y","t s","▁o ut","ation s","cl ud","▁u p","ac h","ac e","▁p re","▁in ter","ou nd","l and","▁e v","▁f in","▁p r","w n","▁whe n","▁b o","ad e","i b","ac t","ion s","▁s pe","▁tim e","▁d uring","▁c an","a il","ur n","▁in clud","res s","c ed","▁a p","▁f l","r ic","en s","▁w ould","k s","▁se c","m an","▁f il","on e","▁in d","w e","w ard","nd er","▁int o","an g","▁b r","▁h im","▁at t","▁b l","it e","ul t","▁e ar","ol l","at es","▁ qu","▁m ore","▁j o","ab le","▁w ar","▁p e","c es","as ed","re n","▁ch ar","it ed","▁c ent","am p","i ed","▁re p","▁for m","as e","▁be t","▁fil m","rou gh","w ay","oun t","l es","▁g r","or s","os e","as on","f orm","▁p o","a w","em ber","ing s","▁wh ile","▁a cc","▁m us","v el","▁g ame","il d","▁m ost","n e","er ed","▁the re","▁re m","▁c ar","▁n or","in d","▁s o","c k","▁f r","▁p ar","▁g en","▁s ou","▁as s","ak e","i ous","at t","ol d","▁con s","▁h ow","ent s","a us","f er","▁e m","▁b u","v e","re at","▁n o","is s","▁l ater","▁s ong","ic k","rou nd","▁re g","▁pro du","▁ag ain","f t","▁on ly","g an","▁a ct","ri b","v ed","▁u nder","▁wor k","o od","▁s y","▁m ay","▁the m","▁k n","▁th an","▁s ome","▁re t","ter s","▁th ree","al s","▁ab out","ub l","19 9","i x","we en","▁ ver","at h","▁bet ween","oll ow","p h","▁d ay","on s","h ip","▁h igh","▁b ro","▁m a","▁re le","▁en g","▁th rough","▁m on","ot h","▁rec ord","▁f ollow","▁m in","er ic","f ore","ation al","▁a pp","▁sec ond","▁re l","▁e nd","1 0","▁l i","▁p h","▁n um","ic t","▁su b","▁a c","t on","▁e le","▁s a","u g","▁p res","▁im p","ie w","▁ ed","▁a ir","▁al b","▁se ason","▁f our","▁e p","▁de f","▁d o","▁p os","▁wor ld","▁am eric","▁nor th","▁in c","▁ ent","▁whe re","ct ed","r al","▁be fore","▁te am","n ing","▁m ov","00 0","ul ar","at ing","am es","▁spe c","▁w rit","▁ar m","▁m ade","▁s m","▁l ar","▁s ch","▁g u","is ion","▁l oc","▁w ill","iv ed","▁su ch","he s","▁p ol","▁s ur","▁c ap","▁d r","▁s ing","s on","▁alb um","▁p ubl","1 7","i o","is hed","▁se ver","▁year s","ain ed","ic s","1 5","▁su pp","od e","i el","▁c all","e ver","▁sou th","▁b ack","▁sh ow","id ent","ro s","▁ad d","▁re v","▁ /","▁gen er","▁b oth","u al","ter n","il y","▁in v","▁the n","▁how ever","▁ap pe","▁ep is","▁c ount","▁us ed","▁de c","al e","ut e","▁re ce","▁m ill","if ic","▁be ing","▁the se","▁w ell","l l","ur y","▁m et","▁ z","▁s et","▁st ud","▁ser ies","▁again st","▁b att","t en","an k","▁char ac","▁in st","if e","▁f ound","▁num ber","▁st e","vel op","▁b el","▁le ad","▁man y","▁s im","▁mus ic","▁m at","or n","▁per form","an e","▁m ain","▁l ong","ot her","▁c ity","1 6","▁o p","▁t er","▁c re","1 2","in t","o ol","▁b rit","aus e","in ce","o y","e nd","▁de velop","▁bec ame","er t","▁un ited","▁s l","▁d ire","ig in","▁his t","▁ar t","▁sever al","▁includ ing","▁sh ip","▁ —","a u","h n","▁de p","at her","a ir","▁st ate","is e","▁m il","▁ex p","▁in f","▁ear ly","▁d iv","i er","▁or igin","is ed","ow er","▁o b","ver n","19 8","▁p op","▁tr ans","▁d id","ar s","it s","▁d ist","i red","em ent","j ect","u res","or k","le y","19 4","in es","▁n ov","ro p","u nd","i et","▁cont in","▁go vern","an c","ol og","▁w in","▁p ers","it ies","3 0","d er","rou p","a z","▁pro v","l ed","▁epis ode","t il","▁st ates","el f","ros s","a red","▁k e","▁c rit","▁sa id","▁ est","▁jo hn","▁follow ing","f ul","ir d","▁con st","▁des ign","▁g roup","▁c ould","▁d if","n a","y s","▁st r","at ive","iv er","▁ret urn","▁m ed","▁r un","▁o per","▁americ an","oc k","▁des c","ou se","▁al th","▁kn own","▁comp le","te nd","▁alth ough","▁l o","iel d","▁a ust","1 4","▁an y","iv ers","▁g er","▁w est","19 7","▁s ign","▁k ing","▁j un","r on","▁ser v","▁m od","▁p ass","em b","▁d own","19 6","u ally","▁l and","u ch","t y","▁f am","▁ne ar","u ed","▁be gan","t ing","▁li ke","1 3","▁fe at","▁off ic","in ed","▁e ff","▁un til","ro w","op le","g r","is m","▁dis c","▁h ar","an ge","▁b ar","ak ing","▁al ong","▁sch ool","▁bec ause","▁o wn","id ed","▁rele ased","er n","▁op en","▁p ort","cc ess","iz ed","in s","▁call ed","▁n ational","▁pre v","▁e l","g er","u c","▁th ough","▁ma j","ist s","▁we e","▁c r","i am","▁pe ople","u red","st em","▁y ou","▁g re","▁j u","▁in s","ial ly","ut ion","▁an n","▁cl ass","▁col le","5 0","ment s","▁g e","▁mill ion","os ed","▁j ust","i um","▁c our","▁e ver","▁sy stem","ce pt","▁l a","▁brit ish","ul l","▁s ince","▁he ad","▁s ix","n er","▁ad v","▁a ut","▁b est","▁a round","▁a ug","u p","ar k","▁a ward","▁maj or","▁l ife","▁c or","▁ $","▁ if","▁e ach","▁b re","▁su ccess","ain s","▁att ack","▁se pt","an y","x t","g est","a h","▁v ar","▁charac ter","▁a v","o ot","▁u se","▁sept ember","▁desc rib","▁aug ust","▁st art","am ed","▁con f","r ap","g et","ib le","▁s ame","▁ro ad","▁t ri","▁he l","on t","▁e ast","ac ed","i k","▁fin al","▁l ine","1 1","▁supp ort","▁o cc","▁o ct","▁an other","▁de m","r is","▁f ive","▁r a","▁c are","▁publ ic","ain ing","▁p rom","▁s w","▁k m","▁t y","▁g reat","▁bu ild","▁l it","▁o ld","▁con c","▁aust ral","el s","av ing","▁m y","▁ex t","▁g l","▁to ok","▁c amp","▁b and","▁ger man","u es","en n","▁bo ok","▁are a","▁m id","▁h ouse","▁sm all","o b","ov e","an n","▁rep ort","e p","▁cons id","▁cent ury","o ber","▁t urn","p ed","▁rece ived","us s","▁oct ober","▁cont ro","et s","ant s","iv es","b le","▁st re","▁un ivers","ical ly","▁s k","h ing","▁wh at","▁d ue","▁g ames","▁part ic","▁sh ort","▁l ast","▁govern ment","▁dire ct","il ity","▁re f","▁h al","in a","▁re st","en e","▁mar ch","at ely","▁ es","c ess","▁comm and","▁le g","▁pers on","▁h ome","g in","▁ ]","▁ [","ian s","ore d","▁w ay","in k","▁j an","▁jun e","t le","▁m ag","r il","▁sing le","▁th ird","▁mar k","▁gener al","o ver","im e","▁m en","▁s qu","▁t it","2 5","iss ion","▁ju ly","▁ch ild","▁ %","▁cap t","iv ing","pe ct","▁nov ember","ur ch","▁tr ack","▁de ath","▁d el","▁rev iew","▁m uch","▁ev ent","as h","▁is land","▁ar r","ra ft","▁e u","▁y ork","▁ap ril","▁f ur","c he","▁d am","▁lar ge","▁to p","u ary","▁batt le","▁acc ord","▁p ower","l ish","▁ver s","▁ev en","▁le ft","▁s oc","▁de ce","▁to wn","ur al","▁c he","ction s","▁c ast","ion al",". .","▁v ide","▁all ow","i ent","iv ely","▁inter n","▁g un","▁dif fer","▁mon th","▁p at","id ge","▁st ar","b o","il t","▁k ill","▁st ory","▁app ro","▁v is","▁b ased","a im","m s","▁fam ily","▁pl ace","ag ue","▁c ur","▁add ition","▁n ow","m ber","▁v ict","m in","v en","▁inc re","▁c al","al es","▁par k","▁ex pl","▁bl ack","if ied","▁an t","▁r ight","▁. ..","▁l aw","▁comp any","▁arm y","av y","em pt","ro te","▁dece mber","▁hist ory","en g","▁cl ub","▁play ed","▁m or","▁st orm","▁accord ing","▁r iver","▁p ost","b y","l ing","▁includ ed","p s","▁n ame","at s","▁l os","▁l ed","▁jan uary","▁w ater","▁re d","▁ ir","19 5","r ist","og rap","om et","▁h and","ag ed","▁w ind","ber t","b all","19 3","2 4","on y","ap an","▁an g","▁w om","▁i i","▁w rote","in c","▁w on","▁h um","ent ly","er g","▁res p","▁j apan","▁tim es","ag es","▁st ru","▁or gan","▁o pp","i ence","▁v al","▁re qu","▁prev ious","▁pos ition","▁with in","p ort","▁appe ar","od y","▁m ake","▁describ ed","▁in it","▁r ad","m ed","it al","▁eu ro","▁th ose","▁de b","▁f ore","▁st ill","▁vide o","▁ch amp","▁f ar","▁b ill","id es","▁ne xt","▁l ate","ot t","▁m emb","▁st and","▁n amed","om in","ne y","▁bel ie","▁b us","▁origin al","▁am ong","▁rele ase","▁att empt","▁eff ect","p or","▁fur ther","iv en","▁re pl","▁l ist","st er","▁le ague","il ar","▁for ce","▁ver y","▁ x","▁d est","▁te le","▁pos s","▁b as","▁f oot","c y","▁v iew","▁is s","is ter","▁ro ute","m er","i od","b ru","▁ rom","▁re al","ent ion","▁c y","re t","a ff","▁comm un","▁produ ction","▁ex per","▁spec ies","ren ch","er v","n ess","i or","pt ion","▁memb ers","ac hed","iv al","▁const ru","▁s ound","▁pol it","pe nd","▁wh ite","▁mil it","▁form er","▁ch rist","▁f le","▁p a","▁c oun","▁ er","▁to ur","▁fe bru","▁febru ary","▁sim ilar","▁inf l","▁t ak","ar ch","an ces","▁n ort","▁s old","2 2","▁per iod","ri end","▁div ision","▁day s","▁bu ilt","1 00","▁mat ch","b r","▁t em","en ces","▁n at","▁s ide","c hed","▁ro y","ver s","▁pl an","▁su per","▁pro p","▁he ld","▁euro pe","▁m o","▁v e","2 1","p le","▁y oun","▁c le","▁univers ity","▁ro ck","▁l ight","▁f rench","▁go od","▁po int","ri ed","201 0","▁s ay","▁serv ice","he n","▁aut h","▁pres ident","▁f re","▁loc al","▁ro le","▁est ab","▁des p","au gh","ut ed","ward s","▁pres ent","2 3","▁e qu","tend ed","▁or der","e c","▁d et","▁c ame","rop ical","▁ever y","▁to t","▁ne ver","▁c aus","▁e as","h y","▁be h","▁s ol","▁h aving","h am","oc i","▁wee k","▁will iam","s elf","▁c ross","2 7","▁res ult","▁j e","▁s en","▁fe w","▁s um","f ord","▁su g","4 0","ul ation","▁t ro","▁t est","▁ass oci","▁pro f","▁play er","▁ch art","m e","▁se e","▁t ake","200 8","a x","2 8","▁of ten","▁comm on","ic es","ap p","s h","▁st at","ard s","▁hal f","200 9","▁care er","▁h ur","l er","▁ge or","▁contin ued","▁w at","▁te ch","b s","▁t en","▁l ow","ot s","▁p ri","▁f ire","▁st y","▁cl aim","▁hist or","c raft","2 6","201 1","r ing","▁le vel","▁s ent","▁m ich","at or","▁differ ent","▁with out","▁p ress","▁f un","▁ele ct","es tern","es e","▁desp ite","at ic","▁co ver","▁eng land","▁ &","olog y","gr am","▁l ess","▁m er","▁cour t","▁part y","re ad","▁consid ered","▁cont r","a f","op s","▁e c","g ress","▁d av","▁develop ment","▁ch urch","le t","200 7","▁ar ch","▁t re","▁rep res","as ter","p ar","▁l y","▁d on","▁n ight","▁count ry","v es","▁count y","▁com b","▁infl u","▁champ ions","▁f ield","▁roy al","▁song s","▁f riend","▁h y","▁vers ion","▁h ig","▁eng lish","▁milit ary","▁mov ed","▁high way","▁pro te","▁writ ten","▁tr ad","▁w ant","▁str ong","on es","▁def e","ro du","c o","▁m i","▁con v","v ision","201 2","▁pro gram","▁v ol","▁bec ome","▁l im","▁for ces","▁an im","▁lit tle","▁ch ang","al k","2 9","s ide","▁f act","▁l ost","▁pro ject","ert ain","c hes","iz e","▁intern ational","▁l ond","l ine","▁build ing","▁s on","▁g iven","ur s","▁m iss","▁h o","a i","▁t ropical","▁contro l","▁lond on","▁tot al","▁af f","▁inv ol","▁auth or","▁sug gest","19 0","▁or d","el t","▁re fer","b e","▁h it","▁b ur","is on","ut es","▁ph il","▁ann oun","he l","▁v ir","▁l et","g ed","at ter","▁l ab","▁h our","▁re ad","▁stre et","▁imp ort","▁f ree","al d","im ent","qu e","en ed","▁de cl","iet y","er y","▁g et","ro y","▁can ad","▁e ight","se qu","▁v i","il le","▁r ail","▁perform ance","▁g old","a e","▁s it","▁s al","▁st ation","▁g ave","▁ear l","▁w ent","er ing","▁fin d","▁repres ent","ren t","▁c ir","▁return ed","▁s omet","ail ed","▁us ing","▁d u","▁bro ad","▁j ack","▁ne ed","▁f ather","▁publ ished","▁co ast","▁produ ced","▁he n","▁ar g","▁w estern","▁comp et","▁new s","▁ob s","▁report ed","e ad","x im","▁h un","▁pop ular","ab ly","▁partic ular","▁record ed","▁child ren","a pe","▁ind e","▁tele vision","▁m ass","200 6","or ies","▁st ated","am a","▁air craft","a ign","▁spec ial","▁c ult","▁ship s","▁inter est","ition s","▁g round","▁camp aign","6 0","▁sh ould","▁includ e","▁l ive","▁l ove","▁v o","▁m aking","▁ ide","▁de v","us ed","▁d ou","▁crit ic","▁a ge","om b","y l","m it","ie f","▁fr ont","▁wom en","um ent","▁hur ric","d ay","▁cent ral","▁c op","are n","▁through out","▁col l","▁pr im","▁f ac","in ts","▁up on","▁on ce","▁h om","▁youn g","os p","in ess","pl oy","ra w","▁su ff","on om","▁him self","▁offic ial","▁austral ia","201 3","▁champions hip","▁dest roy","▁tech n","▁a ud","y ing","▁dep art","▁m ot","▁r ich","▁w all","▁charac ters","n ed","▁n on","▁sou ther","c er","▁v ill","▁b all","ens ive","▁tr av","re st","▁se a","▁c as","▁h or","re w","pl ay","l o","al th","▁f av","▁play ers","▁squ ad","▁rel ations","18 9","it ive","▁f t","▁p ra","▁c e","▁c am","▁cir c","▁inst ead","▁f all","ed er","▁t ur","▁comm it","▁souther n","it her","▁b ase","▁tit le","▁se ven","ak es","▁j ames","▁writ ing","▁a way","▁c ost","g es","▁m ad","ac y","▁be gin","▁ac ross","▁int rodu","▁f em","▁d ied","▁rem ained","▁month s","▁cent er","en se","▁sign ific","▁develop ed","▁for t","▁gr and","▁prom ot","d om","▁f ull","▁h all","▁polit ical","▁lo ok","▁m ount","▁n et","▁var ious","ri es","▁man ag","▁f if","▁to o","▁mod ern","▁hurric ane","▁w ood","u ck","▁r ace","r ation","▁m c","▁p ut","▁a ver","▁h ill","en cy","▁h on","f ic","▁h ol","▁h am","▁ ill","▁f ight","▁con d","▁c at","ri e","▁off ice","her n","▁b ig","ist ed","▁p al","▁p it","in ted","▁h ard","▁b ow","m ost","a el","▁wor ks","▁f elt","▁are as","▁s il","▁m al","▁not ed","k ed","▁ind ust","ort s","▁americ a","▁event ually","▁sty le","8 0","▁r uss","er c","▁announ ced","▁cre ated","▁mil es","▁en c","▁re ached","▁bro ther","▁colle ge","▁disc over","▁h ot","▁c ro","▁constru ction","▁japan ese","▁eng ine","m ing","▁st ri","▁s an","▁su n","▁success ful","▁nort hern","▁h old","200 5","▁b ody","▁se en","▁p ain","▁se le","▁he avy","▁stru ct","is ing","c ast","▁c ut","▁ ’","▁ag re","z e","▁follow ed","▁r ange","get her","▁to gether","▁sy m","f ield","▁me et","▁pro cess","▁m em","▁perform ed","▁c iv","iz ation","it ing","▁bro wn","▁ser ved","▁hel p","▁d i","▁m ember","an a","▁act iv","w ork","201 4","▁kn ow","▁br idge","▁geor ge","al ity","▁m ix","▁foot ball","▁es c","▁pro t","▁qu e","▁t or","▁kill ed","▁m ur","▁signific ant","▁g od","id ence","▁prof ess","id s","▁ab le","▁tak en","▁s aw","ol ution","c ent","▁m m","▁estab l","at ure","▁ ident","▁imp ro","ric t","ell ing","▁s at","▁bec om","▁a ction","▁ro und","▁hum an","▁po ints","▁b orn","▁do es","▁though t","▁establ ished","▁me an","os s","▁origin ally","▁inv est","i us","b or","▁th om","▁g ar","▁austral ian","d s","▁sub sequ","▁g row","ent h","av al","▁other s","▁st age","am ent","en ced","ir l","▁ent ire","▁appe ared","ress ion","7 0","▁ !","▁dav id","▁s n","▁loc ated","▁direct or","c il","▁sur v","▁re du","▁feat ures","ct or","▁v oc","▁d en","m a","r ay","ar a","▁cre w","o x","y n","o on","i ers","▁comm ission","et t","g round","▁bus iness","▁start ed","ric k","▁af ric","▁play ing","▁p ot","▁p en","▁m other","b ur","od es","av es","▁caus ed","l ess","ough t","▁dec ided","▁civ il","▁crit ics","▁ ur","ress ed","ri pt","▁king dom","▁fe et","▁r ather","▁r ank","at ors","s hip","▁four th","▁m ater","▁f ell","▁re b","at a","▁in form","▁re se","▁ec onom","▁beh ind","▁inde pend","▁form ed","d en","▁s ite","▁it al","og n","▁mag az","▁add ed","▁fle et","▁b i","▁c ase","▁r u","▁import ant","▁so on","g g","▁p red","amp le","ree k","▁com ment","iv id","ate g","▁j ud","▁m art","w ood","rough t","g o","▁eas tern","c ing","▁dam age","▁ed uc","▁comple ted","▁gre en","▁pop ulation","ad es","▁un c","▁ne g","▁s am","▁gun s","▁m ult","▁al most","▁con n","▁se x","he ad","d le","▁pe ak","ac es","▁ -","▁ex ec","▁cl ose","▁c up","in ation","▁inter v","▁l ang","▁ind ian","▁j our","em y","▁init ially","▁award s","▁reg ion","▁los s","▁in j","▁t reat","l in","▁to m","200 4","one y","▁occ ur","way s","it ar","▁open ed","▁l ack","▁c reat","▁soc ial","3 1","▁h ost","ap s","▁pr act","▁mich ael","▁pro ble","▁sc re","▁g irl","▁relations hip","▁ind ivid","▁u l","ce ed","▁f und","▁p ur","▁l ou","▁s us","in o","em ents","▁lead ing","▁ty p","c her","▁wee ks","▁trad ition","h ic","t o","201 5","om m","▁work ing","▁rad io","▁b ay","▁se par","▁cl os","▁work ed","▁fr ance","▁dif fic","▁cur rent","▁n ar","▁s our","▁diffic ult","▁pre m","▁a le","▁record ing","▁f a","ul a","▁sec ret","▁to wards","▁m ac","med i","▁app o","▁b omb","3 5","▁m el","ic a","▁b al","▁un ion","▁coun cil","▁la un","▁sc ene","▁r ain","um b","ist ic","ris on","k i","im es","▁r ap","▁go al","k y","▁w id","as ing","▁res pect","▁rep ubl","▁re n","▁ro om","▁hen ry","▁res ul","ign ed","▁qu ick","▁n orm","an ch","▁re ve","et h","▁ro bert","200 0","▁bre ak","▁mater ial","▁record s","▁n avy","▁ac cept","▁v ot","▁tr aining","▁was hing","▁le ast","▁sc ored","▁ang el","pe c","▁prov ided","▁re ach","▁want ed","▁m ust","▁e y","▁f ig","▁tro ops","▁c ru","▁b rought","▁aver age","he st","▁br ig","▁d ut","▁sp ace","▁rec ogn","bo ard","5 00","▁feat ured","▁ear th","id ing","olog ical","ow s","os ition","▁col on","▁e ither","▁f oc","▁n omin","▁qu ar","▁pro per","▁allow ed","▁ro b","ect ed","▁p ast","▁est im","▁f ut","▁t ar","▁ch o","▁f eder","▁w ife","am s","▁vict ory","▁stud io","▁pl aced","▁gener ally","▁av ail","▁washing ton","▁in n","▁r ul","if f","ic o","▁cy cl","▁pr iv","he re","▁a ch","▁run s","▁ph ys","▁ex ample","▁d ark","▁ev ents","▁magaz ine","a ut","▁ch ief","▁batt al","a ur","m p","▁republ ic","▁d er","▁l eng","▁bo ard","▁sum mer","ant ic","ok e","v ille","▁gr ad","▁ins p","▁pa ul","▁st aff","200 3","▁c red","▁d ro","▁partic ip","▁w il","ent ial","k a","▁jo ined","▁design ed","▁squad ron","u el","▁sur f","▁d an","▁hour s","h a","▁p ie","om p","▁reg ular","▁sp an","▁mid dle","▁em ploy","▁qu est","i ke","▁spe ed","▁n ine","▁sh ot","▁oper ation","▁con du","18 8","v ing","▁com e","▁th reat","▁open ing","ell s","▁rel ig","▁med ia","▁belie ved","ud e","▁sc ore","9 0","▁reg ard","▁c ou","m en","an ks","▁wind s","▁o x","▁b ir","▁m ary","t im","▁fl ight","▁trans port","ap er","▁repl aced","u gh","▁m ph","h an","4 5","▁pri or","▁st one","7 5","▁sc en","18 6","ict ion","▁b er","▁inf ant","▁p ay","▁b en","▁em p","or ing","im in","▁de ter","▁se qu","▁capt ain","▁pol ice","▁invol ved","▁st op","▁europe an","ific ation","▁lang u","▁min utes","er ous","▁earl ier","w est","f all","▁fin ished","ag o","▁rese arch","▁soc iety","as ion","al ed","▁h op","▁cont rib","ut ive","▁leng th","l ic","▁poss ible","▁say ing","▁ind ic","▁rom an","o ff","▁im medi","▁comm erc","▁ch ange","▁n y","▁associ ation","▁p il","▁t rib","▁ke ep","re g","▁ad min","▁rem ov","▁lar gest","▁hig hest","▁particular ly","▁l ower","▁bo y","▁film s","▁b ad","▁f ly","▁sc ott","▁begin ning","▁ex ist","▁ke y","▁ad m","▁avail able","ish ing","▁resp ons","▁u k","▁per cent","▁pl at","▁vir gin","▁for ced","pe cted","▁se ction","200 1","▁ass ist","▁bet ter","▁at l","▁n in","w er","op h","▁we ak","▁ach ie","▁dis p","h ib","▁out side","▁de al","ann ed","▁t aking","ri an","▁le ar","▁ant i","▁me as","ar ing","▁char les","▁commit te","m ar","▁he art","▁gr ant","▁h a","ograp hy","▁thom as","▁nov el","▁ °","▁main t","▁turn ed","▁incre ased","▁end ed","▁re ason","ip p","▁un its","id a","o f","em s","▁fe el","▁commun ity","▁review s","▁cal if","s el","as es","▁fut ure","▁pass ed","▁pra ised","▁calif orn","he ast","▁mov e","▁h ous","▁ac ad","▁go ing","▁be at","▁ab ove","▁m cc","▁addition al","200 2","▁te x","▁appear ance","s u","▁p an","i ation","ke y","▁ph ot","▁ty pe","f or","▁th us","▁gu itar","▁b ird","act ion","i os","▁canad a","ad ed","it or","▁p s","▁li k","▁en ough","▁lit er","▁cast le","▁infant ry","ers hip","▁ord ered","▁l ake","▁sm ith","▁pl ot","▁d augh","▁previous ly","▁p un","▁l at","▁person al","▁l u","▁sign ed","▁mus ical","oc r","▁min or","e y","t t","▁d oc","▁ter rit","▁rich ard","n al","st on","g a","▁ale x","▁ele ments","▁inst it","▁right s","▁mark et","ar ily","▁p ac","▁d ig","▁the at","▁vi ol","▁ab s","▁californ ia","t r","pp ed","us h","▁pos itive","st r","▁fr anc","ag on","▁pro b","▁crit ical","▁de ad","fer ence","▁part s","m y","▁acc ess","▁f ood","i que","▁l ord","▁back ground","▁l ines","▁g ive","ers on","pp er","▁b at","▁ex c","▁trav el","▁p ow","s en","g en","▁m oney","▁fem ale","▁sp ent","▁over all","▁to ld","▁be g","́ n","it z","▁pr inc","ct s","▁sub ject","▁m ic","il ities","cl us","▁sc ient","▁t ax","▁dire cted","▁fl ood","u ation","▁bl ue","▁committe e","b ack","▁vict or","u ter","▁de ep","ell ed","▁interv iew","▁f ailed","199 0","▁p et","n el","▁d omin","▁ch ap","▁squ are","▁c orn","▁requ ired","▁po or","▁deb ut","▁group s","ren g","s c","▁m ach","▁german y","▁ro ll","um e","▁cle ar","▁h app","▁k il","▁broad cast","▁ob ject","b ers","▁ter m","n es","▁dist rict","▁const it","▁pe ter","▁en v","en ing","▁an al","▁its elf","▁he alth","▁ind ia","▁battal ion","▁christ ian","▁ev idence","▁w al","▁somet imes","▁ste p","is l","▁fr ank","ib ility","▁pr ison","▁b ank","▁occ up","▁rece ption","▁contr act","▁ele ction","▁invest ig","ber g","▁commerc ial","▁as ked","▁z e","▁st ars","▁trans fer","▁ex cept","▁ £","▁ ?","read y","▁def end","st and","er ved","▁par l","▁st reng","ab ility","▁l iving","▁admin ist","▁o ur","▁s ov","▁me x","ay s","▁wh ose","ed y","ak er","ap t","i i","g ar","on se","▁nat ural","▁stud y","air s","▁comple te","▁al ready","▁claim ed","on na","▁govern or","▁appro xim","▁mus e","▁cl im","re am","▁ch ic","▁be y","▁sov iet","ig an","rie f","▁introdu ced","▁fl or","▁fre qu","▁wh om","▁fore st","▁min ister","▁am b","▁th ink","▁us ually","b c","▁b urn","▁wom an","▁f er","▁stud ents","en ue","▁educ ation","▁quick ly","ac ted","▁ide a","▁lim ited","▁g ro","▁w ild","w or","▁b ud","▁b ul","▁r h","▁l ie","▁an c","3 3","▁m ight","▁gu ard","▁effect s","▁mov ement","▁conc ern","▁resp onse","▁prev ent","▁l ib","▁sy n","▁iss ue","▁c ertain","▁command er","▁cent re","▁sl ow","▁t un","▁que en","▁o l","at ory","197 0","▁pl ant","▁pol ic","▁surf ace","▁y our","▁s elf","▁l ay","18 7","▁depart ment","ain t","▁es pec","▁fif th","▁arr ived","▁h osp","b our","198 0","▁s and","▁brit ain","d e","▁espec ially","▁f ace","▁dec ision","▁serv ices","m on","se c","erg y","b a","▁oper ations","▁vill age","▁r ac","▁team s","▁vo ice","▁parl iam","t ies","▁struct ure","▁bo x","▁r an","▁show s","p r","um p","▁g ard","▁muse um","and ed","▁con gress","▁indust ry","▁w alk","▁lar ger","▁f est","▁writ er","▁sc ience","3 6","▁ly ric","▁becom ing","▁rem aining","▁estim ated","▁l atter","▁epis odes","▁rem ain","▁defe ated","▁car ried","▁he av","▁g ot","▁parliam ent","w h","is es","ap h","▁mult ip","▁m as","▁ul tim","f l","▁net work","▁d raw","▁disc uss","ar ies","▁press ure","▁bl ood","199 9","3 7","▁fl ag","o or","▁pro gress","▁sur round","ul ly","ir on","▁scen es","▁c m","▁consid er","▁b rief","it es","▁le aving","▁run ning","▁chang es","t a","ul f","▁ac qu","▁virgin ia","▁c and","▁je w","▁comple t","p re","ess ion","▁n aval","por ary","▁suggest ed","r or","ou th","▁ent ered","▁near ly","v al","▁dep ression","or ial","in ing","▁quar ter","▁appo inted","▁win ning","▁b ra","▁influ ence","▁d ate","▁approxim ately","▁d om","▁f ail","▁ch all","if t","▁tw ent","▁s ize","▁em b","er ve","▁cap ital","▁lead er","▁langu age","▁f ant","▁short ly","▁emp ire","▁island s","▁reg iment","▁estab lish","▁sc ript","▁met h","▁equ ip","▁feder al","▁fav or","▁cour se","▁scre en","▁w ide","▁to day","▁jack son","▁fin ally","an ia","▁th r","▁ro s","3 8","ch ange","▁u pper","and er","▁un l","▁track s","▁m ission","▁o ly","▁can n","▁lou is","▁destroy ed","▁prop osed","▁daugh ter","▁a w","▁p urch","3 2","ul ated","4 9","▁oly mp","▁hig her","▁w ing","▁produ cer","▁manag er","bur g","▁arr ang","▁span ish","▁cor ps","k ing","ab or","▁l ad","▁exper ience","▁v an","▁nat ure","▁dist rib","▁env iron","▁c er","▁princ ip","▁hor se","▁prov ide","▁subsequ ently","▁brig ade","▁batt les","id ents","▁rail way","▁profess ional","i res","▁al tern","mit ted","▁dis s","ens ion","▁comp ared","▁bre ed","is er","o id","▁comple x","▁p aren","▁con cept","▁he ro","▁in tended","▁immedi ately","▁em erg","▁mar ried","ines e","196 0","▁dem ocr","▁priv ate","▁f ans","▁sa f","▁ce le","▁tem per","▁jour nal","▁support ed","▁p ict","▁agre ed","▁li ber","▁st ay","▁c a","▁sp ir","▁ent ertain","▁m r","▁comp an","▁sh oot","▁int ens","▁arch it","all ed","▁b ord","ri a","▁d one","▁ed ward","▁mod el","▁feat ure","▁j ose","▁incre asing","n s","▁init ial","▁award ed","g y","▁we ap","▁archit ect","▁dis play","▁chic ago","▁mon t","▁ch inese","▁whe ther","▁b or","▁hel ped","▁rel ated","c om","▁ q","▁leg isl","▁pl anned","▁c ard","d own","▁book s","▁im m","▁g i","▁offic er","ch ing","199 8","▁sold iers","▁cre ate","▁br ing","▁long er","▁tr ade","▁art ic","▁f air","he m","18 5","▁he re","▁w it","at ively","▁att r","b an","▁p le","▁m om","ore s","▁c ause","▁k ore","▁g al","th ing","▁capt ured","te en","▁val ley","▁y et","▁pl ans","▁ir on","3 4","▁build ings","3 00","▁cons erv","▁un it","▁col or","▁bl ock","▁for ward","in ct","▁chang ed","▁con clud","▁win ter","▁with d","▁p enn","▁co ach","as y","▁associ ated","▁sub st","▁friend s","▁d ance","che ster","▁somet hing","▁p u","▁offic ers","i en","▁inst r","▁sp ring","▁rem ains","▁most ly","sel ves","▁pac ific","▁sing les","▁bill board","▁se v","▁john son","▁them selves","▁stand ard","ab it","▁r at","ron ic","k en","▁tar get","▁count ries","▁lyric s","om s","▁ex am","▁mix ed","▁prob ably","4 8","ri age","▁re ally","n y","▁meth od","▁ex tended","h l","w ell","▁r ay","▁mov ing","▁num erous","▁fin anc","▁f it","▁at tend","en a","▁o ce","▁inform ation","▁port ray","▁cont em","▁cop ies","▁al ways","▁requ est","le g","▁n ation","▁vis it","▁sc ot","▁loc ation","▁t as","▁go als","▁r id","is ions","▁individ ual","▁bir th","▁s ales","▁c it","199 7","▁foc us","▁iss ued","r ated","▁coun ter","▁stat us","ol ic","▁m ess","▁le ave","▁en ergy","▁atl antic","▁art ist","▁includ es","and on","r d","▁m ale","c an","▁con ference","▁suff ered","▁sing er","▁adm ir","3 9","▁hosp ital","▁v ia","▁tr aff","▁t al","▁imp act","u k","and s","▁j im","▁mart in","▁flor ida","▁ed ition","▁proble ms","▁ter min","▁album s","▁ma xim","▁meet ing","▁b ene","h ood","il i","▁g all","▁dou ble","▁lik ely","4 7","▁ch ina","▁incre ase","▁car ry","▁ass emb","▁independ ent","▁remov ed","▁appro ach","b ury","▁cele br","▁mov ie","▁b ond","▁d og","b ed","▁tex as","v in","▁rev olution","▁insp ired","▁w a","▁fore ign","at ives","ch an","▁r ang","▁ref le","▁m aster","▁d ie","▁ter ms","▁prim ary","▁c reek","▁major ity","is c","▁a st","land s","▁s ir","▁comp os","▁k ind","▁d v","▁off ered","o le","▁ ice","▁inter se","▁cons ist","▁tak es","▁min ute","▁qu al","▁ve hic","ograp h","▁t ons","ve y","▁st ad","▁u t","ail y","▁dr um","ous ly","▁en s","▁ad op","it er","▁attack s","oun ted","▁s ar","▁f ox","▁entertain ment","▁m akes","▁ ign","▁conf ir","et ic","▁o il","▁wor d","▁comp osed","▁dam aged","▁ra ised","▁comb at","ut h","▁canad ian","▁rank ed","▁environ ment","▁pre c","ound s","▁afric a","▁l og","▁conc ert","ic ted","▁car ol","ac hes","▁sh ar","▁cycl one","▁w rest","▁let ter","▁d aily","he t","▁u nd","▁appe ars","▁fight ing","▁sele cted","▁mount ain","o o","l ight","▁reve aled","▁c ateg","▁discover ed","▁er a","▁sim p","▁tr ain","▁act ive","▁met al","▁deter m","▁russ ian","▁de g","if y","uc le","us e","▁mor ning","ar i","ail s","▁ins ide","▁sp orts","▁cond itions","4 6","st e","▁twent y","▁k ent","al and","▁dem on","▁t v","▁un able","▁sch ol","▁laun ched","ur ies","un g","▁acc omp","▁at h","er a","▁gre ater","um ed","▁respect ively","▁v en","z z","▁o s","▁w r","ad o","▁inc or","▁sc hed","199 5","▁who le","▁num bers","▁iss ues","▁need ed","▁s ister","▁small er","▁bel ow","▁angel es","▁th ir","▁l ived","▁conn ect","▁adv ance","e e","▁to uch","▁cont ains","▁y ard","▁attempt ed","▁sl ight","▁attack ed","▁tradition al","▁ iv","▁y ards","▁st ra","▁sh own","ri ption","▁b ed","l or","▁cult ure","▁occur red","▁news p","▁relig ious","um ents","▁ii i","▁p ick","▁c art","u als","▁n ick","a j","▁sil ver","ag ing","i est","▁re in","▁r ing","▁defe at","▁c ab","▁to urn","ort un","j oy","▁act or","▁rec over","▁ann ual","▁lar g","an ced","e ch","▁r are","▁const ant","▁ele cted","▁fest ival","201 6","▁pe ace","199 6","▁refer red","augh t","19 50","▁re form","ne w","iz ing","u ing","▁m un","▁d ra","ct ing","▁franc is","▁b on","▁m ind","▁ne igh","ri al","ur ity","▁b ab","ver t","▁m u","ol k","▁aud ience","▁them e","▁school s","▁s av","am b","▁resul ted","y a","▁b an","▁ps y","▁larg ely","▁d ar","▁pr ince","▁ass igned","▁r is","▁mag n","▁cover ed","▁d un","▁exp ress","▁oce an","en ant","▁f ast","▁l ink","as c","▁ital ian","▁list ed","▁var iety","▁colle ction","▁pur p","199 4","u ated","▁gu est","▁gl ob","▁compet ition","h old","▁c ath","▁as h","l a","▁n ames","▁ear ned","▁stad ium","▁contro vers","▁ex pected","▁comment ed","l s","▁h aw","ter ed","5 5","▁s out","▁start ing","it ude","▁rap id","▁cl osed","m i","qu ar","▁perform ances","▁n ucle","▁att ention","▁doc ument","▁im per","▁quest ion","▁ent er","▁air port","▁d a","▁mich igan","▁g iving","ent al","▁ext re","18 0","▁k ar","▁leg al","▁acc ount","▁ref used","▁v iet","▁ch am","▁econom ic","▁f igh","▁re pe","▁c row","i j","▁m ir","▁c ust","oun ts","▁great est","▁wat ers","▁set t","ap ed","▁comp l","▁en joy","pl es","▁elect ric","▁to wer","▁w ales","ut ions","▁ab ility","▁ser ious","▁dire ction","nd ing","▁not es","▁st ories","▁st an","▁n ative","▁h und","194 0","▁prom in","▁decl ared","▁r ate","▁me ant","▁mat ches","▁o d","▁voc als","br idge","b re","▁th ings","▁p oll","pt ed","▁sp l","▁hund red","4 4","is her","▁m ention","▁h us","▁ab andon","▁level s","▁wor ds","▁s we","on a","▁near by","im s","▁ch ann","▁mar riage","▁produ ce","▁te xt","▁do ctor","▁ne cess","▁constit ution","k er","▁c ry","▁pract ice","g l","▁def ense","▁pre p","▁constru cted","w in","▁f ill","▁em per","▁sour ce","od ies","▁l ot","ol s","▁fant asy","et te","i ences","ic ient","199 2","▁cand id","▁m att","ro ad","g s","▁dv d","▁voc al","▁separ ate","6 5","w ide","u ff","u f","▁high ly","r am","▁lab or","▁ ess","ed ic","▁me ans","▁e th","▁o h","▁far m","▁writ ers","▁l es","▁ro w","um n","▁med ical","it ation","▁sp ot","▁contro ll","▁ze aland","▁exec utive","g ing","▁ex hib","▁direct ly","ish op","▁position s","▁ultim ately","▁p urs","▁obs erv","ell ow","▁north west","▁we ather","▁s le","▁contin ue","▁present ed","▁redu ced","▁eff ort","m as","▁afric an","▁mex ico","k in","▁c ub","▁multip le","▁admir al","▁j er","▁b ound","▁che m","w rit","▁fl ow","▁eff orts","▁br ad","▁dis m","ib ly","▁anim als","▁me chan","19 30","▁form ation","▁d yn","▁lie ut","▁hous es","▁ch ris","j o","d ing","og ue","▁str ateg","p ing","ri er","▁g as","▁set tle","b and","▁tri ed","r ical","▁l in","▁mem orial","▁at tended","▁b atter","▁stud ies","▁accept ed","▁st ating","▁financ ial","▁par al","▁w ear","▁k h","▁t alk","▁ru le","k n","▁lib r","▁mad onna","v ement","ac her","▁p air","4 00","▁se em","▁spec ific","▁sym b","▁de pend","199 3","an i","199 1","▁bo b","▁th ick","▁adv ent","▁in ch","▁incor por","tr ack","▁end ing","is ation","▁beg ins","▁rec omm","▁s aint","▁cer em","▁organ ization","▁r am","▁pil ot","▁l if","an es","▁tr ue","▁theat re","▁traff ic","ru ction","▁s ides","▁en emy","▁cas es","9 5","▁scot land","▁l uc","▁j ones","it a","▁ro ugh","▁dr ive","ill ery","▁ar rest","n ers","re y","h ouse","▁p ack","4 2","▁fly ing","op er","▁m ob","▁respons ible","▁ey e","▁conf l","▁b ell","ian ce","▁man aged","▁hon or","▁form s","▁w ound","▁mean ing","▁ +","▁us es","▁ar ab","▁result ing","▁g reek","▁k enn","▁tourn ament","▁ke pt","▁ro se","un e","▁lieut enant","▁sound track","▁acad emy","▁dro pped","▁prot est","▁m os","▁show ed","4 1","▁author ity","▁polic y","▁ed ge","▁b ost","▁pr ime","▁qu ality","▁p ath","▁stru gg","▁emper or","▁d ru","▁f at","▁w ick","▁art illery","▁exp ed","▁ap art","▁comb ined","▁h ors","cl aim","▁bo at","ceed ed","▁act ing","▁found ed","▁secret ary","▁e ll","▁spir it","▁contin ues","▁tri al","▁administ ration","▁mark ed","u it","▁ ic","ad a","▁inc hes","▁proper ty","ip s","▁william s","▁system s","▁enc oun","▁subsequ ent","▁prop os","er o","▁art ists","▁b it","▁contem porary","▁attempt s","▁l l","▁se arch","▁ext r","▁territ ory","▁par is","i ated","gy pt","▁d raft","▁nort heast","▁re ar","▁ste am","u ge","▁compan ies","t hel","▁pot ential","▁mar sh","▁per f","▁se g","▁pres ence","n am","▁met res","▁view ers","▁plan et","ic ip","▁allow ing","▁th ous","▁stud ios","▁six th","ul ations","▁pre par","▁rec ent","j e","▁sc ale","▁commun ic","▁co al","▁official s","▁condu cted","194 2","▁supp l","7 8","▁e gypt","k et","▁beh av","th ur","▁ob t","▁hy d","e x","z a","▁jo b","▁resp ond","o e","▁pie ce","▁dig ital","▁film ing","▁le e","▁mach ine","▁def ence","▁head quar","▁contr ast","▁am ount","▁tem ple","ol f","▁transfer red","▁coll abor","stand ing","ing u","▁lat in","▁paren ts","▁y ellow","▁sc oring","▁opp ortun","▁maxim um","▁sen ior","▁fig ure","r ain","▁cor por","▁s ac","e f","▁com ing","▁step hen","ag a","▁dis e","d on","▁all ied","en ge","▁feat uring","in em","▁be aut","▁tor ped","c le","▁there fore","▁prim arily","▁rel atively","▁ox ford","▁geor g","▁own ed","▁the ory","▁ele v","▁peak ed","▁stud ent","▁becom es","7 6","▁col d","▁tit led","▁jose ph","▁torped o","▁m ort","▁act ually","▁recomm end","▁port ion","c a","▁dist ance","▁battles hip","▁c ert","▁cit iz","▁conclud ed","ers ey","▁st ock","▁bost on","▁con ver","or ter","▁man chester","▁m ut","▁inv asion","▁har rison","▁sit uation","▁streng th","▁writ e","▁ch air","▁b ass","▁je ff","▁trans l","▁psy ch","▁h an","▁bro ke","4 3","os h","▁fun ction","▁sh are","▁obs erved","▁s elling","▁phys ical","▁sec urity","▁along side","aren t","▁t on","▁dist inct","▁t ree","▁sw ed","ent ed","▁in h","▁play s","▁person nel","▁resul ts","▁conc ent","▁l iver","▁sour ces","▁div ided","▁d oll","▁pa id","ist ics","ste in","▁second s","▁res ist","▁call ing","▁r ating","▁c ities","194 4","▁slight ly","▁she ll","▁bord er","▁return ing","▁power ful","▁col umb","▁f red","8 5","15 0","▁manag ement","▁cont est","▁ar ts","in i","▁re ject","▁histor ian","▁b a","▁o tt","▁histor ical","▁k g","▁imper ial","p o","▁min im","▁m ile","▁on to","▁a ctions","▁su st","▁el se","▁v ess","▁plat form","am ing","▁f ear","▁not hing","▁bird s","id er","▁be ach","▁influ enced","ast ic","▁fre ed","▁o w","▁can c","▁activ ity","▁inn ings","ct ive","▁f an","▁tr ust","il s","▁i re","▁b ru","▁su c","un t","▁res idents","▁ath let","▁com edy","ell ig","▁po et","for ce","▁b bc","▁design ated","▁promot ed","os aur","▁nomin ated","▁pass ing","▁cult ural","▁res c","▁ro d","▁cro wn","m ond","▁complet ely","st one","▁cro at","▁confl ict","▁l ane","▁prem i","▁proble m","▁or che","▁av enue","▁l ov","▁we ight","▁he ight","▁main ly","▁sub s","ph y","▁sex ual","▁tr ail","a ult","▁stru ck","▁chart s","ist ry","▁arm s","▁p aper","ic ed","▁s ought","▁repl ac","19 20","▁char ge","▁enc our","▁ro t","▁hand s","▁anc ient","194 5","▁sen se","▁season s","nd s","▁cont ent","▁we bs","le ment","194 1","6 4","▁var i","▁p ul","▁dou b","▁con sec","▁fe ed","▁war s","▁f ish","▁im age","▁reach ing","▁m is","wh ile","▁spe ct","▁fell ow","▁r y","ill s","▁weap ons","y er","ian o","▁c ell","▁ital y","▁instr ument","ol ved","▁d ang","▁americ ans","▁chann el","▁wid ely","ot a","▁fav our","▁m it","ac ts","▁g ra","▁med al","▁g il","ur a","▁base ball","▁s r","▁appear ances","▁h abit","▁int ellig","▁al one","▁em ot","▁j ersey","qu es","▁confir med","▁f res","i ber","9 9","▁g ained","▁she l","yl v","▁bey ond","p ass","▁r i","▁f iction","▁ire land","▁cho ice","ad el","▁brother s","▁jo in","▁mur der","▁re ign","▁old er","r ative","▁ele ment","z y","▁pro ved","▁ste el","▁anal ys","▁vers ions","▁c rick","▁libr ary","▁car l","ul ed","▁headquar ters","▁fl oor","or ation","▁expl ained","▁d w","▁say s","m ans","c ers","▁off er","▁a head","om an","al ing","▁al t","▁k r","▁exp ans","▁neg ot","kn own","198 9","▁ser ve","▁rain fall","▁s ens","ro ll","b on","▁caus ing","▁com es","t own","▁spe ech","u le","▁d edic","▁s ant","194 3","▁o pt","▁hot el","▁victor ia","▁char l","ic an","▁su it","▁rec on","▁requ ire","d y","▁f al","▁exp ressed","▁cath olic","▁equip ment","▁work ers","▁spl it","g u","▁hors es","▁artic le","▁app arent","et y","▁road s","a res","▁report s","e es","▁grow th","▁p ap","m ark","▁occ asion","▁promin ent","6 00","▁off ensive","▁br anch","▁g ross","▁dr ama","▁adv anced","▁bow l","▁exper iment","anc y","k o","▁capt ure","▁ident ified","▁offic ially","ou red","▁set ting","▁hus band","▁world wide","▁p in","▁arm ed","uf act","us ion","▁pat tern","▁so ft","▁categ ory","▁sn ow","7 7","ic ́","igh th","▁man ufact","▁sur re","▁t ells","▁heav ily","▁res erve","▁sen ate","▁sp ort","▁just ice","ub e","▁b ott","▁mat ter","▁comp uter","▁represent ed","▁esc ape","▁tre es","▁activ ities","ir ing","▁sp read","▁ext ra","▁crick et","▁un f","▁pl aces","▁mean while","▁ad apt","▁treat ment","▁pie ces","▁le aves","b it","▁t a","▁t ay","▁act ress","▁lead ers","▁fig ures","▁j ul","▁av oid","▁f ired","▁wh y","▁inj ury","▁belie ve","▁to ward","▁du ke","▁agre ement","▁supp ly","▁exped ition","▁dut ch","b i","▁l ives","ylv ania","w here","ab eth","▁un known","▁ill ust",
[...]
