{"version":"1.0","truncation":null,"padding":null,"added_tokens":[{"id":0,"special":true,"content":"[PAD]","single_word":false,"lstrip":false,"rstrip":false,"normalized":false},{"id":1,"special":true,"content":"[CLS]","single_word":false,"lstrip":false,"rstrip":false,"normalized":false},{"id":2,"special":true,"content":"[SEP]","single_word":false,"lstrip":false,"rstrip":false,"normalized":false},{"id":3,"special":true,"content":"[EOS]","single_word":false,"lstrip":false,"rstrip":false,"normalized":false},{"id":4,"special":true,"content":"[UNK]","single_word":false,"lstrip":false,"rstrip":false,"normalized":false},{"id":5,"special":true,"content":"[MASK]","single_word":false,"lstrip":false,"rstrip":false,"normalized":false}],"normalizer":{"type":"Sequence","normalizers":[{"type":"NFKD"},{"type":"Lowercase"}]},"pre_tokenizer":{"type":"Sequence","pretokenizers":[{"type":"ByteLevel","add_prefix_space":true,"trim_offsets":true},{"type":"Digits","individual_digits":false}]},"post_processor":{"type":"TemplateProcessing","single":[{"SpecialToken":{"id":"[CLS]","type_id":0}},{"Sequence":{"id":"A","type_id":0}},{"SpecialToken":{"id":"[EOS]","type_id":0}}],"pair":[{"SpecialToken":{"id":"[CLS]","type_id":0}},{"Sequence":{"id":"A","type_id":0}},{"SpecialToken":{"id":"[SEP]","type_id":0}},{"Sequence":{"id":"B","type_id":1}},{"SpecialToken":{"id":"[EOS]","type_id":1}}],"special_tokens":{"[CLS]":{"id":"[CLS]","ids":[1],"tokens":["[CLS]"]},"[EOS]":{"id":"[EOS]","ids":[3],"tokens":["[EOS]"]},"[SEP]":{"id":"[SEP]","ids":[2],"tokens":["[SEP]"]}}},"decoder":{"type":"ByteLevel","add_prefix_space":true,"trim_offsets":true},"model":{"dropout":null,"unk_token":"[UNK]","continuing_subword_prefix":null,"end_of_word_suffix":null,"fuse_unk":false,"vocab":{"[PAD]":0,"[CLS]":1,"[SEP]":2,"[EOS]":3,"[UNK]":4,"[MASK]":5,"!":6,"\"":7,"#":8,"$":9,"%":10,"&":11,"'":12,"(":13,")":14,"*":15,"+":16,",":17,"-":18,".":19,"/":20,"0":21,"1":22,"2":23,"3":24,"4":25,"5":26,"6":27,"7":28,"8":29,"9":30,":":31,";":32,"<":33,"=":34,">":35,"?":36,"@":37,"[":38,"\\":39,"]":40,"^":41,"_":42,"`":43,"a":44,"b":45,"c":46,"d":47,"e":48,"f":49,"g":50,"h":51,"i":52,"j":53,"k":54,"l":55,"m":56,"n":57,"o":58,"p":59,"q":60,"r":61,"s":62,"t":63,"u":64,"v":65,"w":66,"x":67,"y":68,"z":69,"{":70,"|":71,"}":72,"~":73,"¡":74,"¢":75,"£":76,"¤":77,"¥":78,"¦":79,"§":80,"¨":81,"©":82,"ª":83,"«":84,"¬":85,"®":86,"¯":87,"°":88,"±":89,"²":90,"³":91,"´":92,"µ":93,"¶":94,"·":95,"¸":96,"¹":97,"º":98,"»":99,"¼":100,"½":101,"¾":102,"¿":103,"Â":104,"Ã":105,"Ä":106,"Å":107,"Æ":108,"Ç":109,"È":110,"É":111,"Ê":112,"Ë":113,"Ì":114,"Í":115,"Î":116,"Ï":117,"Ð":118,"Ñ":119,"Ò":120,"Ó":121,"Õ":122,"Ö":123,"×":124,"Ø":125,"Ù":126,"Ú":127,"Û":128,"Ü":129,"Ý":130,"à":131,"á":132,"â":133,"ã":134,"ä":135,"å":136,"æ":137,"ç":138,"è":139,"é":140,"ê":141,"ï":142,"ð":143,"Ċ":144,"Ġ":145,"Ģ":146,"ģ":147,"Ĥ":148,"ĥ":149,"Ħ":150,"ħ":151,"Ĩ":152,"ĩ":153,"Ī":154,"ī":155,"Ĭ":156,"ĭ":157,"Į":158,"į":159,"İ":160,"ı":161,"Ĳ":162,"ĳ":163,"Ĵ":164,"ĵ":165,"Ķ":166,"ķ":167,"ĸ":168,"Ĺ":169,"ĺ":170,"Ļ":171,"ļ":172,"Ľ":173,"ľ":174,"Ŀ":175,"ŀ":176,"Ł":177,"ł":178,"Ń":179,"Ġt":180,"Ġa":181,"he":182,"in":183,"Ġthe":184,"er":185,"Ġs":186,"on":187,"Ġ,":188,"re":189,"Ġw":190,"Ġc":191,"Ġo":192,"ed":193,"Ġb":194,"nd":195,"Ġf":196,"at":197,"Ġ.":198,"or":199,"it":200,"en":201,"Ġp":202,"Ġin":203,"Ġm":204,"is":205,"es":206,"ar":207,"Ġof":208,"an":209,"al":210,"ing":211,"Ġd":212,"as":213,"Ġand":214,"Ġh":215,"Ġto":216,"ro":217,"ic":218,"Ġl":219,"ion":220,"ĠĊ":221,"ou":222,"Ġn":223,"Ġre":224,"il":225,"Ġe":226,"Ġg":227,"Ġth":228,"Ġ=":229,"le":230,"ent":231,"Ġ\"":232,"st":233,"Ġ@":234,"el":235,"am":236,"om":237,"Ġon":238,"ac":239,"ad":240,"Ġwas":241,"Ġst":242,"Ġbe":243,"Ġhe":244,"ur":245,"ly":246,"Ġ'":247,"Ġfor":248,"Ġu":249,"id":250,"im":251,"ol":252,"ter":253,"Ġas":254,"ir":255,"-@":256,"Ġ@-@":257,"iv":258,"ig":259,"ct":260,"ot":261,"ut":262,"Ġr":263,"et":264,"ith":265,"ay":266,"ow":267,"Ġal":268,"ver":269,"Ġwith":270,"ce":271,"ation":272,"Ġthat":273,"Ġwh":274,"Ġit":275,"ch":276,"Ġcon":277,"Ġat":278,"Ġj":279,"Ġan":280,"Ġby":281,"Ġde":282,"Ġse":283,"Ġis":284,"us":285,"Ġk":286,"Ġv":287,"th":288,"Ġ)":289,"Ġ(":290,"ul":291,"ers":292,"19":293,"Ġch":294,"and":295,"ain":296,"em":297,"rom":298,"Ġhis":299,"os":300,"her":301,"ag":302,"av":303,"um":304,"est":305,"Ġcom":306,"00":307,"ri":308,"Ġsu":309,"Ġfrom":310,"Ġpro":311,"pe":312,"od":313,"Ġne":314,"ist":315,"if":316,"un":317,"ill":318,"ore":319,"ld":320,"ap":321,"Ġsh":322,"se":323,"Ġy":324,"ere":325,"res":326,"igh":327,"op":328,"ies":329,"Ġro":330,"qu":331,"art":332,"ber":333,"ard":334,"Ġor":335,"Ġex":336,"Ġpl":337,"Ġwere":338,"ak":339,"ich":340,"ate":341,"ort":342,"all":343,"Ġun":344,"ab":345,"Ġle":346,"ant":347,"ud":348,"oc":349,"gh":350,"ong":351,"ated":352,"ip":353,"ity":354,"ess":355,"Ġar":356,"ame":357,"ive":358,"ie":359,"Ġtr":360,"Ġhad":361,"Ġâ":362,"ack":363,"ĠâĢ":364,"ast":365,"red":366,"rou":367,"Ġwhich":368,"our":369,"ge":370,"Ġare":371,"ment":372,"Ġnot":373,"ian":374,"ov":375,"Ġaf":376,"ial":377,"pt":378,"ost":379,"ell":380,"ia":381,"ight":382,"Ġcl":383,"ust":384,"ary":385,"Ġwor":386,"ine":387,"Ġwhe":388,"pp":389,"cl":390,"rit":391,"ther":392,"oun":393,"Ġad":394,"ical":395,"ave":396,"Ġsc":397,"cc":398,"Ġcomp":399,"Ġbut":400,"Ġen":401,"20":402,"ction":403,"ord":404,"Ġthis":405,"200":406,"Ġfir":407,"Ġher":408,"te":409,"ould":410,"Ġtw":411,"Ġab":412,"ish":413,"Ġafter":414,"Ġcont":415,"Ġfirst":416,"ous":417,"so":418,"Ġte":419,"ide":420,"Ġsp":421,"ure":422,"Ġits":423,"Ġnew":424,"ign":425,"Ġtheir":426,"Ġam":427,"Ġall":428,"Ġ;":429,"Ġman":430,"per":431,"Ġone":432,"ra":433,"ition":434,"Ġint":435,"Ġper":436,"ass":437,"ĠâĢĵ":438,"Ġalso":439,"ru":440,"Ġi":441,"Ġus":442,"Ġmar":443,"og":444,"ok":445,"ub":446,"Ġshe":447,"ear":448,"Ġ:":449,"ater":450,"ome":451,"Ġtim":452,"Ġres":453,"out":454,"orm":455,"age":456,"Ġrec":457,"ond":458,"Ġthey":459,"ire":460,"ry":461,"Ġser":462,"hed":463,"Ġfe":464,"Ġtwo":465,"ue":466,"Ġpart":467,"Ġag":468,"18":469,"Ġwho":470,"Ġcomm":471,"du":472,"Ġdes":473,"ans":474,"Ġhave":475,"ree":476,"Ġbec":477,"ally":478,"ff":479,"Ġdis":480,"Ġgo":481,"ance":482,"ile":483,"Ġwe":484,".@":485,"Ġ@.@":486,"pl":487,"Ġover":488,"Ġyear":489,"own":490,"ted":491,"ice":492,"Ġoff":493,"iz":494,"Ġhas":495,"Ġplay":496,"uring":497,"Ġbeen":498,"ence":499,"Ġco":500,"Ġother":501,"ect":502,",@":503,"Ġ@,@":504,"201":505,"Ġim":506,"ke":507,"ough":508,"Ġme":509,"are":510,"ory":511,"Ġcol":512,"ely":513,"ts":514,"Ġout":515,"ations":516,"clud":517,"Ġup":518,"ach":519,"ace":520,"Ġpre":521,"Ġinter":522,"ound":523,"land":524,"Ġev":525,"Ġfin":526,"Ġpr":527,"wn":528,"Ġwhen":529,"Ġbo":530,"ade":531,"ib":532,"act":533,"ions":534,"Ġspe":535,"Ġtime":536,"Ġduring":537,"Ġcan":538,"ail":539,"urn":540,"Ġinclud":541,"ress":542,"ced":543,"Ġap":544,"Ġfl":545,"ric":546,"ens":547,"Ġwould":548,"ks":549,"Ġsec":550,"man":551,"one":552,"Ġfil":553,"Ġind":554,"we":555,"ward":556,"ang":557,"nder":558,"Ġinto":559,"Ġbr":560,"Ġhim":561,"Ġatt":562,"Ġbl":563,"ite":564,"ult":565,"Ġear":566,"oll":567,"ates":568,"Ġmore":569,"Ġqu":570,"Ġjo":571,"able":572,"Ġwar":573,"Ġpe":574,"ces":575,"ased":576,"ren":577,"Ġchar":578,"ited":579,"Ġcent":580,"amp":581,"ied":582,"Ġrep":583,"ase":584,"Ġbet":585,"Ġfilm":586,"rough":587,"way":588,"ount":589,"Ġform":590,"les":591,"Ġgr":592,"form":593,"ors":594,"ose":595,"ason":596,"aw":597,"Ġpo":598,"ember":599,"ings":600,"Ġwhile":601,"Ġacc":602,"ne":603,"Ġmus":604,"vel":605,"Ġgame":606,"ild":607,"Ġmost":608,"ve":609,"ered":610,"Ġthere":611,"Ġrem":612,"Ġcar":613,"ind":614,"Ġnor":615,"Ġso":616,"ck":617,"Ġfr":618,"Ġpar":619,"Ġgen":620,"Ġsou":621,"Ġass":622,"ake":623,"ious":624,"att":625,"Ìģ":626,"old":627,"Ġcons":628,"Ġhow":629,"ents":630,"aus":631,"fer":632,"reat":633,"Ġbu":634,"iss":635,"Ġem":636,"Ġno":637,"Ġlater":638,"Ġsong":639,"ick":640,"round":641,"Ġreg":642,"Ġprodu":643,"Ġagain":644,"ft":645,"Ġonly":646,"gan":647,"Ġact":648,"rib":649,"ved":650,"Ġunder":651,"Ġwork":652,"ood":653,"Ġsy":654,"Ġmay":655,"Ġthem":656,"Ġkn":657,"Ġthan":658,"Ġsome":659,"Ġret":660,"ters":661,"als":662,"Ġthree":663,"Ġabout":664,"ubl":665,"199":666,"ix":667,"ween":668,"ath":669,"Ġver":670,"Ġbetween":671,"ollow":672,"ph":673,"ons":674,"hip":675,"Ġday":676,"Ġhigh":677,"Ġbro":678,"Ġma":679,"Ġrele":680,"Ġeng":681,"Ġthrough":682,"Ġmon":683,"oth":684,"Ġrecord":685,"Ġfollow":686,"Ġmin":687,"eric":688,"fore":689,"ational":690,"Ġapp":691,"Ġsecond":692,"Ġrel":693,"Ġend":694,"10":695,"Ġli":696,"Ġph":697,"Ġnum":698,"ict":699,"Ġsub":700,"Ġac":701,"Ġele":702,"ton":703,"Ġsa":704,"ug":705,"Ġpres":706,"Ġimp":707,"iew":708,"Ġed":709,"Ġair":710,"Ġalb":711,"Ġseason":712,"Ġfour":713,"Ġep":714,"Ġdef":715,"Ġdo":716,"Ġpos":717,"Ġworld":718,"Ġameric":719,"Ġnorth":720,"Ġinc":721,"Ġent":722,"Ġwhere":723,"cted":724,"ral":725,"Ġbefore":726,"Ġteam":727,"ning":728,"Ġmov":729,"000":730,"ular":731,"ating":732,"ames":733,"Ġspec":734,"Ġwrit":735,"Ġarm":736,"Ġmade":737,"Ġsm":738,"Ġlar":739,"Ġsch":740,"Ġgu":741,"ision":742,"Ġloc":743,"Ġwill":744,"ived":745,"Ġsuch":746,"hes":747,"Ġsur":748,"Ġcap":749,"Ġpol":750,"Ġdr":751,"Ġsing":752,"son":753,"Ġalbum":754,"Ġpubl":755,"17":756,"io":757,"ished":758,"Ġsever":759,"Ġyears":760,"ained":761,"ics":762,"15":763,"Ġsupp":764,"ode":765,"iel":766,"Ġcall":767,"ever":768,"ll":769,"Ġsouth":770,"Ġshow":771,"Ġback":772,"ident":773,"ros":774,"Ġadd":775,"Ġrev":776,"Ġ/":777,"Ġgener":778,"Ġboth":779,"ual":780,"tern":781,"ily":782,"Ġinv":783,"Ġthen":784,"Ġhowever":785,"Ġappe":786,"Ġepis":787,"Ġcount":788,"Ġused":789,"Ġdec":790,"ale":791,"ute":792,"Ġrece":793,"Ġmill":794,"ific":795,"Ġbeing":796,"Ġthese":797,"Ġwell":798,"ury":799,"Ġmet":800,"Ġset":801,"Ġstud":802,"Ġz":803,"Ġseries":804,"Ġagainst":805,"Ġbatt":806,"ten":807,"ank":808,"Ġcharac":809,"Ġinst":810,"ife":811,"Ġfound":812,"Ġnumber":813,"Ġste":814,"velop":815,"Ġbel":816,"Ġlead":817,"Ġmany":818,"Ġmusic":819,"Ġsim":820,"Ġmat":821,"orn":822,"Ġperform":823,"ane":824,"Ġmain":825,"Ġlong":826,"other":827,"Ġcity":828,"16":829,"Ġop":830,"Ġter":831,"Ġcre":832,"int":833,"12":834,"ool":835,"oy":836,"ause":837,"Ġbrit":838,"ince":839,"end":840,"Ġdevelop":841,"Ġbecame":842,"ert":843,"Ġunited":844,"Ġsl":845,"Ġdire":846,"igin":847,"Ġseveral":848,"Ġhist":849,"Ġart":850,"Ġincluding":851,"Ġship":852,"ĠâĢĶ":853,"au":854,"hn":855,"Ġdep":856,"ather":857,"air":858,"Ġstate":859,"ise":860,"Ġmil":861,"Ġexp":862,"Ġinf":863,"Ġearly":864,"ier":865,"Ġdiv":866,"Ġorigin":867,"ised":868,"ower":869,"Ġob":870,"vern":871,"198":872,"Ġpop":873,"Ġtrans":874,"Ġdid":875,"ars":876,"its":877,"Ġdist":878,"ired":879,"ement":880,"ject":881,"ures":882,"ork":883,"ley":884,"194":885,"ines":886,"Ġnov":887,"rop":888,"und":889,"iet":890,"Ġcontin":891,"Ġgovern":892,"anc":893,"olog":894,"Ġwin":895,"ities":896,"Ġpers":897,"30":898,"der":899,"roup":900,"az":901,"Ġprov":902,"led":903,"Ġepisode":904,"til":905,"Ġstates":906,"elf":907,"ross":908,"ared":909,"Ġcrit":910,"Ġsaid":911,"Ġke":912,"Ġjohn":913,"Ġfollowing":914,"ful":915,"ird":916,"Ġest":917,"Ġconst":918,"Ġdesign":919,"Ġgroup":920,"Ġcould":921,"na":922,"Ġdif":923,"ys":924,"Ġstr":925,"ative":926,"iver":927,"Ġreturn":928,"Ġmed":929,"Ġrun":930,"Ġoper":931,"Ġamerican":932,"ock":933,"Ġdesc":934,"ouse":935,"Ġalth":936,"Ġknown":937,"Ġcomple":938,"tend":939,"Ġalthough":940,"ield":941,"Ġlo":942,"Ġaust":943,"14":944,"Ġany":945,"ivers":946,"Ġwest":947,"Ġger":948,"197":949,"Ġsign":950,"Ġking":951,"ron":952,"Ġjun":953,"Ġserv":954,"Ġmod":955,"Ġpass":956,"emb":957,"Ġdown":958,"196":959,"ually":960,"Ġland":961,"uch":962,"ty":963,"Ġfam":964,"Ġnear":965,"ued":966,"Ġbegan":967,"ting":968,"Ġlike":969,"13":970,"Ġfeat":971,"Ġoffic":972,"ined":973,"Ġeff":974,"Ġuntil":975,"gr":976,"row":977,"ople":978,"ism":979,"Ġdisc":980,"ange":981,"aking":982,"Ġbar":983,"Ġhar":984,"Ġalong":985,"Ġschool":986,"Ġbecause":987,"Ġown":988,"ided":989,"Ġreleased":990,"ern":991,"Ġopen":992,"Ġport":993,"ccess":994,"ins":995,"ized":996,"Ġcalled":997,"Ġnational":998,"Ġprev":999,"Ġel":1000,"ger":1001,"uc":1002,"Ġthough":1003,"Ġmaj":1004,"ists":1005,"Ġwee":1006,"Ġcr":1007,"iam":1008,"Ġpeople":1009,"ured":1010,"stem":1011,"Ġyou":1012,"Ġgre":1013,"Ġju":1014,"ially":1015,"Ġins":1016,"ution":1017,"Ġann":1018,"Ġcolle":1019,"Ġclass":1020,"50":1021,"ments":1022,"Ġge":1023,"Ġmillion":1024,"osed":1025,"Ġjust":1026,"ium":1027,"Ġcour":1028,"Ġever":1029,"Ġsystem":1030,"cept":1031,"Ġla":1032,"Ġbritish":1033,"ull":1034,"Ġsince":1035,"Ġhead":1036,"Ġsix":1037,"ner":1038,"Ġadv":1039,"Ġbest":1040,"Ġaut":1041,"Ġaround":1042,"Ġaug":1043,"up":1044,"ark":1045,"Ġaward":1046,"Ġmajor":1047,"Ġlife":1048,"Ġcor":1049,"Ġ$":1050,"Ġif":1051,"Ġeach":1052,"Ġbre":1053,"Ġsuccess":1054,"ains":1055,"Ġattack":1056,"Ġsept":1057,"any":1058,"xt":1059,"gest":1060,"ah":1061,"Ġvar":1062,"Ġcharacter":1063,"oot":1064,"Ġuse":1065,"Ġav":1066,"Ġseptember":1067,"Ġdescrib":1068,"Ġaugust":1069,"Ġstart":1070,"amed":1071,"Ġconf":1072,"rap":1073,"get":1074,"ible":1075,"Ġsame":1076,"Ġroad":1077,"Ġtri":1078,"Ġhel":1079,"ont":1080,"Ġeast":1081,"aced":1082,"ik":1083,"Ġfinal":1084,"Ġline":1085,"11":1086,"Ġsupport":1087,"Ġocc":1088,"Ġoct":1089,"Ġanother":1090,"ris":1091,"Ġdem":1092,"Ġfive":1093,"Ġcare":1094,"Ġra":1095,"Ġpublic":1096,"aining":1097,"Ġprom":1098,"Ġsw":1099,"Ġkm":1100,"Ġty":1101,"Ġgreat":1102,"Ġbuild":1103,"Ġlit":1104,"Ġold":1105,"Ġconc":1106,"els":1107,"Ġaustral":1108,"aving":1109,"Ġmy":1110,"Ġext":1111,"Ġgl":1112,"Ġtook":1113,"Ġcamp":1114,"Ġband":1115,"Ġgerman":1116,"ues":1117,"enn":1118,"Ġbook":1119,"Ġarea":1120,"Ġmid":1121,"Ġhouse":1122,"Ġsmall":1123,"ob":1124,"ove":1125,"ann":1126,"ep":1127,"Ġreport":1128,"Ġconsid":1129,"Ġcentury":1130,"ober":1131,"Ġturn":1132,"ped":1133,"Ġreceived":1134,"uss":1135,"Ġoctober":1136,"Ġcontro":1137,"ets":1138,"ants":1139,"ives":1140,"ble":1141,"Ġstre":1142,"Ġunivers":1143,"ically":1144,"Ġsk":1145,"hing":1146,"Ġwhat":1147,"Ġdue":1148,"Ġgames":1149,"Ġpartic":1150,"Ġshort":1151,"Ġlast":1152,"Ġgovernment":1153,"Ġdirect":1154,"ility":1155,"Ġref":1156,"Ġhal":1157,"ina":1158,"Ġrest":1159,"ene":1160,"Ġmarch":1161,"ately":1162,"cess":1163,"Ġcommand":1164,"Ġleg":1165,"Ġes":1166,"Ġperson":1167,"Ġhome":1168,"gin":1169,"Ġ]":1170,"Ġ[":1171,"ians":1172,"ored":1173,"ink":1174,"Ġway":1175,"Ġjan":1176,"Ġjune":1177,"tle":1178,"Ġmag":1179,"ril":1180,"Ġsingle":1181,"Ġthird":1182,"Ġmark":1183,"Ġgeneral":1184,"over":1185,"ime":1186,"Ġmen":1187,"Ġsqu":1188,"Ġtit":1189,"25":1190,"ission":1191,"Ġjuly":1192,"Ġchild":1193,"Ġ%":1194,"Ġcapt":1195,"iving":1196,"pect":1197,"Ġnovember":1198,"urch":1199,"Ġtrack":1200,"Ġdeath":1201,"Ġdel":1202,"Ġreview":1203,"Ġmuch":1204,"ash":1205,"Ġevent":1206,"Ġisland":1207,"raft":1208,"Ġarr":1209,"Ġeu":1210,"Ġyork":1211,"Ġapril":1212,"che":1213,"Ġfur":1214,"Ġdam":1215,"Ġlarge":1216,"Ġtop":1217,"uary":1218,"Ġbattle":1219,"Ġaccord":1220,"Ġpower":1221,"lish":1222,"Ġvers":1223,"Ġeven":1224,"Ġleft":1225,"Ġsoc":1226,"Ġdece":1227,"Ġtown":1228,"ural":1229,"Ġche":1230,"ctions":1231,"Ġcast":1232,"ional":1233,"..":1234,"Ġvide":1235,"ient":1236,"Ġallow":1237,"ively":1238,"Ġintern":1239,"Ġgun":1240,"Ġdiffer":1241,"Ġmonth":1242,"Ġpat":1243,"idge":1244,"bo":1245,"Ġstar":1246,"ilt":1247,"Ġkill":1248,"Ġstory":1249,"Ġappro":1250,"Ġvis":1251,"aim":1252,"ms":1253,"Ġfamily":1254,"Ġbased":1255,"Ġplace":1256,"ague":1257,"Ġcur":1258,"Ġaddition":1259,"Ġnow":1260,"mber":1261,"min":1262,"Ġvict":1263,"ven":1264,"Ġincre":1265,"Ġcal":1266,"ales":1267,"Ġpark":1268,"Ġexpl":1269,"Ġblack":1270,"ified":1271,"Ġant":1272,"Ġright":1273,"Ġ...":1274,"Ġlaw":1275,"Ġcompany":1276,"Ġarmy":1277,"avy":1278,"empt":1279,"rote":1280,"Ġdecember":1281,"Ġhistory":1282,"eng":1283,"Ġclub":1284,"Ġplayed":1285,"Ġmor":1286,"Ġstorm":1287,"by":1288,"Ġaccording":1289,"Ġpost":1290,"ling":1291,"Ġincluded":1292,"Ġriver":1293,"ps":1294,"Ġname":1295,"ats":1296,"Ġlos":1297,"Ġjanuary":1298,"Ġwater":1299,"Ġled":1300,"Ġred":1301,"Ġir":1302,"195":1303,"rist":1304,"ograp":1305,"omet":1306,"Ġhand":1307,"aged":1308,"Ġwind":1309,"bert":1310,"ball":1311,"193":1312,"24":1313,"ony":1314,"apan":1315,"Ġwom":1316,"inc":1317,"Ġwrote":1318,"Ġii":1319,"Ġwon":1320,"Ġhum":1321,"Ġang":1322,"ently":1323,"erg":1324,"Ġresp":1325,"Ġjapan":1326,"Ġtimes":1327,"ages":1328,"Ġstru":1329,"Ġorgan":1330,"Ġopp":1331,"ience":1332,"Ġrequ":1333,"Ġval":1334,"Ġprevious":1335,"ital":1336,"Ġposition":1337,"Ġwithin":1338,"port":1339,"Ġappear":1340,"ody":1341,"Ġmake":1342,"med":1343,"Ġdescribed":1344,"Ġinit":1345,"Ġrad":1346,"Ġeuro":1347,"Ġthose":1348,"Ġdeb":1349,"Ġfore":1350,"Ġstill":1351,"Ġvideo":1352,"Ġchamp":1353,"Ġbill":1354,"Ġfar":1355,"ides":1356,"Ġnext":1357,"ott":1358,"Ġlate":1359,"Ġmemb":1360,"Ġstand":1361,"Ġnamed":1362,"omin":1363,"ney":1364,"Ġbelie":1365,"Ġbus":1366,"Ġamong":1367,"Ġoriginal":1368,"Ġrelease":1369,"Ġattempt":1370,"Ġeffect":1371,"por":1372,"Ġfurther":1373,"iven":1374,"Ġrepl":1375,"Ġlist":1376,"ster":1377,"ilar":1378,"Ġleague":1379,"Ġforce":1380,"Ġvery":1381,"Ġdest":1382,"Ġtele":1383,"Ġposs":1384,"cy":1385,"Ġfoot":1386,"Ġbas":1387,"Ġx":1388,"Ġview":1389,"Ġiss":1390,"ister":1391,"mer":1392,"Ġroute":1393,"iod":1394,"bru":1395,"Ġrom":1396,"Ġreal":1397,"aff":1398,"ention":1399,"Ġcy":1400,"ret":1401,"Ġcommun":1402,"Ġproduction":1403,"Ġexper":1404,"Ġspecies":1405,"rench":1406,"erv":1407,"ness":1408,"ior":1409,"ption":1410,"Ġmembers":1411,"ached":1412,"ival":1413,"Ġconstru":1414,"Ġsound":1415,"Ġpolit":1416,"pend":1417,"Ġwhite":1418,"Ġmilit":1419,"Ġformer":1420,"Ġchrist":1421,"Ġfle":1422,"Ġpa":1423,"Ġcoun":1424,"Ġtour":1425,"Ġfebru":1426,"Ġfebruary":1427,"Ġsimilar":1428,"Ġinfl":1429,"arch":1430,"Ġtak":1431,"Ġer":1432,"ances":1433,"Ġnort":1434,"Ġsold":1435,"22":1436,"Ġperiod":1437,"riend":1438,"Ġdivision":1439,"Ġdays":1440,"100":1441,"Ġbuilt":1442,"Ġmatch":1443,"br":1444,"Ġtem":1445,"ences":1446,"Ġnat":1447,"Ġside":1448,"ched":1449,"Ġroy":1450,"vers":1451,"Ġplan":1452,"Ġsuper":1453,"Ġprop":1454,"Ġheld":1455,"Ġeurope":1456,"Ġmo":1457,"21":1458,"ple":1459,"Ġyoun":1460,"Ġcle":1461,"Ġuniversity":1462,"Ġrock":1463,"Ġlight":1464,"Ġfrench":1465,"Ġgood":1466,"Ġpoint":1467,"ÌĪ":1468,"ried":1469,"2010":1470,"Ġservice":1471,"Ġsay":1472,"hen":1473,"hor":1474,"Ġpresident":1475,"Ġfre":1476,"Ġlocal":1477,"Ġrole":1478,"Ġestab":1479,"Ġdesp":1480,"augh":1481,"uted":1482,"wards":1483,"Ġpresent":1484,"23":1485,"ec":1486,"Ġequ":1487,"tended":1488,"Ġorder":1489,"Ġdet":1490,"Ġcame":1491,"ropical":1492,"Ġevery":1493,"Ġtot":1494,"hy":1495,"Ġnever":1496,"Ġcaus":1497,"Ġsol":1498,"Ġbeh":1499,"ham":1500,"Ġhaving":1501,"oci":1502,"Ġwilliam":1503,"Ġweek":1504,"self":1505,"Ġcross":1506,"Ġeas":1507,"27":1508,"Ġresult":1509,"Ġje":1510,"Ġsen":1511,"Ġfew":1512,"Ġsum":1513,"ford":1514,"ĠÂ":1515,"Ġsug":1516,"40":1517,"ulation":1518,"Ġtro":1519,"Ġtest":1520,"Ġassoci":1521,"Ġprof":1522,"Ġplayer":1523,"Ġchart":1524,"me":1525,"sh":1526,"Ġsee":1527,"ax":1528,"Ġtake":1529,"app":1530,"2008":1531,"28":1532,"Ġoften":1533,"Ġcommon":1534,"ices":1535,"Ġstat":1536,"ards":1537,"Ġhalf":1538,"2009":1539,"Ġcareer":1540,"ler":1541,"Ġhur":1542,"Ġcontinued":1543,"Ġgeor":1544,"Ġwat":1545,"Ġtech":1546,"bs":1547,"Ġten":1548,"Ġlow":1549,"ots":1550,"Ġpri":1551,"Ġfire":1552,"Ġclaim":1553,"Ġsty":1554,"Ġhistor":1555,"craft":1556,"26":1557,"2011":1558,"ring":1559,"Ġlevel":1560,"Ġsent":1561,"ator":1562,"Ġmich":1563,"Ġdifferent":1564,"Ġwithout":1565,"Ġpress":1566,"Ġfun":1567,"Ġelect":1568,"estern":1569,"ese":1570,"Ġdespite":1571,"atic":1572,"Ġcover":1573,"Ġengland":1574,"Ġ&":1575,"ology":1576,"gram":1577,"Ġless":1578,"Ġmer":1579,"Ġcourt":1580,"Ġparty":1581,"read":1582,"af":1583,"Ġconsidered":1584,"Ġcontr":1585,"ops":1586,"Ġec":1587,"gress":1588,"Ġdav":1589,"Ġdevelopment":1590,"aster":1591,"let":1592,"Ġchurch":1593,"2007":1594,"Ġtre":1595,"Ġarch":1596,"Ġrepres":1597,"par":1598,"Ġly":1599,"Ġnight":1600,"Ġcountry":1601,"ves":1602,"Ġcounty":1603,"Ġcomb":1604,"Ġinflu":1605,"Ġchampions":1606,"Ġfield":1607,"Ġroyal":1608,"Ġsongs":1609,"Ġfriend":1610,"Ġhy":1611,"Ġversion":1612,"Ġenglish":1613,"Ġmilitary":1614,"Ġmoved":1615,"Ġhighway":1616,"Ġhig":1617,"Ġdon":1618,"Ġprote":1619,"Ġwritten":1620,"Ġtrad":1621,"Ġwant":1622,"co":1623,"Ġstrong":1624,"ones":1625,"Ġdefe":1626,"rodu":1627,"Ġmi":1628,"vision":1629,"Ġconv":1630,"2012":1631,"Ġprogram":1632,"Ġvol":1633,"Ġbecome":1634,"Ġforces":1635,"Ġlim":1636,"Ġanim":1637,"Ġlittle":1638,"Ġchang":1639,"alk":1640,"29":1641,"side":1642,"Ġfact":1643,"Ġlost":1644,"Ġproject":1645,"ertain":1646,"ches":1647,"ize":1648,"Ġlond":1649,"Ġinternational":1650,"line":1651,"Ġbuilding":1652,"Ġson":1653,"Ġgiven":1654,"urs":1655,"Ġmiss":1656,"Ġtropical":1657,"Ġcontrol":1658,"ai":1659,"Ġlondon":1660,"Ġho":1661,"Ġtotal":1662,"Ġinvol":1663,"Ġaff":1664,"Ġauthor":1665,"be":1666,"Ġsuggest":1667,"190":1668,"elt":1669,"Ġord":1670,"Ġrefer":1671,"Ġhit":1672,"Ġbur":1673,"ison":1674,"utes":1675,"Ġphil":1676,"Ġannoun":1677,"hel":1678,"Ġvir":1679,"ged":1680,"atter":1681,"Ġlet":1682,"Ġlab":1683,"Ġhour":1684,"Ġve":1685,"Ġread":1686,"Ġstreet":1687,"Ġimport":1688,"ald":1689,"Ġfree":1690,"iment":1691,"que":1692,"ened":1693,"Ġdecl":1694,"iety":1695,"ery":1696,"Ġget":1697,"roy":1698,"Ġcanad":1699,"Ġeight":1700,"sequ":1701,"ille":1702,"Ġrail":1703,"Ġperformance":1704,"ae":1705,"Ġgold":1706,"Ġvi":1707,"Ġsit":1708,"Ġsal":1709,"Ġstation":1710,"Ġgave":1711,"Ġearl":1712,"Ġwent":1713,"ering":1714,"Ġfind":1715,"Ġrepresent":1716,"rent":1717,"Ġcir":1718,"Ġreturned":1719,"Ġsomet":1720,"ailed":1721,"Ġusing":1722,"Ġdu":1723,"Ġbroad":1724,"Ġjack":1725,"Ġneed":1726,"Ġfather":1727,"Ġpublished":1728,"Ġcoast":1729,"Ġproduced":1730,"Ġhen":1731,"Ġwestern":1732,"Ġcompet":1733,"Ġarg":1734,"Ġnews":1735,"Ġreported":1736,"Ġobs":1737,"ead":1738,"xim":1739,"Ġhun":1740,"Ġpopular":1741,"ably":1742,"Ġparticular":1743,"Ġrecorded":1744,"Ġchildren":1745,"ape":1746,"Ġtelevision":1747,"Ġinde":1748,"Ġmass":1749,"2006":1750,"ories":1751,"ama":1752,"Ġstated":1753,"Ġaircraft":1754,"aign":1755,"Ġspecial":1756,"Ġcult":1757,"Ġships":1758,"Ġinterest":1759,"itions":1760,"Ġground":1761,"Ġcampaign":1762,"60":1763,"Ġshould":1764,"Ġinclude":1765,"Ġlive":1766,"Ġlove":1767,"Ġvo":1768,"Ġmaking":1769,"Ġide":1770,"Ġdev":1771,"used":1772,"Ġdou":1773,"day":1774,"Ġcritic":1775,"omb":1776,"Ġage":1777,"yl":1778,"mit":1779,"ief":1780,"Ġfront":1781,"Ġwomen":1782,"ument":1783,"Ġhurric":1784,"Ġcentral":1785,"aren":1786,"Ġcop":1787,"Ġthroughout":1788,"Ġcoll":1789,"Ġprim":1790,"Ġfac":1791,"ints":1792,"Ġupon":1793,"Ġonce":1794,"Ġyoung":1795,"osp":1796,"iness":1797,"ploy":1798,"raw":1799,"Ġhom":1800,"Ġsuff":1801,"onom":1802,"Ġhimself":1803,"Ġofficial":1804,"Ġaustralia":1805,"2013":1806,"Ġchampionship":1807,"Ġdestroy":1808,"Ġtechn":1809,"Ġaud":1810,"ying":1811,"Ġdepart":1812,"Ġmot":1813,"Ġrich":1814,"Ġwall":1815,"Ġcharacters":1816,"ned":1817,"Ġnon":1818,"Ġsouther":1819,"cer":1820,"Ġvill":1821,"Ġball":1822,"ensive":1823,"Ġtrav":1824,"rest":1825,"lo":1826,"Ġsea":1827,"Ġcas":1828,"rew":1829,"play":1830,"Ġhor":1831,"alth":1832,"Ġfav":1833,"Ġplayers":1834,"Ġsquad":1835,"Ġrelations":1836,"189":1837,"itive":1838,"Ġft":1839,"Ġpra":1840,"Ġce":1841,"Ġcam":1842,"Ġcirc":1843,"Ġinstead":1844,"eder":1845,"Ġtur":1846,"Ġfall":1847,"Ġcommit":1848,"Ġsouthern":1849,"ither":1850,"Ġbase":1851,"Ġtitle":1852,"Ġseven":1853,"akes":1854,"Ġjames":1855,"Ġwriting":1856,"Ġaway":1857,"Ġcost":1858,"ges":1859,"Ġmad":1860,"acy":1861,"Ġbegin":1862,"Ġacross":1863,"Ġfem":1864,"Ġintrodu":1865,"Ġdied":1866,"Ġremained":1867,"com":1868,"Ġmonths":1869,"Ġcenter":1870,"ense":1871,"Ġsignific":1872,"Ġdeveloped":1873,"Ġfort":1874,"Ġgrand":1875,"Ġpromot":1876,"dom":1877,"Ġfull":1878,"Ġpolitical":1879,"Ġlook":1880,"Ġhall":1881,"Ġmount":1882,"Ġvarious":1883,"ries":1884,"Ġmanag":1885,"Ġfif":1886,"Ġmodern":1887,"Ġhurricane":1888,"Ġwood":1889,"uck":1890,"Ġrace":1891,"Ġtoo":1892,"ration":1893,"Ġmc":1894,"Ġput":1895,"Ġaver":1896,"ency":1897,"Ġhill":1898,"fic":1899,"Ġhol":1900,"Ġnet":1901,"Ġham":1902,"Ġill":1903,"Ġfight":1904,"Ġcond":1905,"Ġcat":1906,"Ġhon":1907,"rie":1908,"Ġoffice":1909,"hern":1910,"isted":1911,"Ġbig":1912,"Ġpal":1913,"Ġpit":1914,"inted":1915,"Ġhard":1916,"Ġbow":1917,"most":1918,"ael":1919,"Ġworks":1920,"Ġfelt":1921,"Ġareas":1922,"Ġsil":1923,"Ġnoted":1924,"ked":1925,"Ġindust":1926,"orts":1927,"Ġamerica":1928,"Ġeventually":1929,"80":1930,"Ġruss":1931,"Ġstyle":1932,"erc":1933,"Ġannounced":1934,"Ġcreated":1935,"Ġmiles":1936,"Ġreached":1937,"Ġbrother":1938,"Ġcollege":1939,"Ġdiscover":1940,"Ġhot":1941,"Ġcro":1942,"Ġconstruction":1943,"Ġjapanese":1944,"Ġengine":1945,"ming":1946,"Ġstri":1947,"Ġsan":1948,"Ġsun":1949,"Ġsuccessful":1950,"Ġnorthern":1951,"Ġhold":1952,"2005":1953,"Ġmal":1954,"Ġbody":1955,"Ġseen":1956,"Ġpain":1957,"Ġsele":1958,"Ġheavy":1959,"Ġstruct":1960,"ising":1961,"cast":1962,"Ġcut":1963,"ĠâĢĻ":1964,"Ġagre":1965,"ze":1966,"Ġfollowed":1967,"Ġrange":1968,"gether":1969,"Ġtogether":1970,"field":1971,"Ġsym":1972,"Ġmeet":1973,"Ġprocess":1974,"Ġmem":1975,"Ġperformed":1976,"Ġciv":1977,"ization":1978,"iting":1979,"Ġbrown":1980,"Ġserved":1981,"Ġhelp":1982,"ana":1983,"Ġmember":1984,"Ġactiv":1985,"work":1986,"2014":1987,"Ġdi":1988,"Ġbridge":1989,"Ġknow":1990,"ality":1991,"Ġgeorge":1992,"Ġmix":1993,"Ġfootball":1994,"Ġprot":1995,"Ġque":1996,"Ġtor":1997,"Ġesc":1998,"Ġkilled":1999,"Ġmur":2000,"Ġsignificant":2001,"Ġgod":2002,"idence":2003,"Ġprofess":2004,"ids":2005,"Ġable":2006,"Ġtaken":2007,"Ġsaw":2008,"cent":2009,"olution":2010,"Ġestabl":2011,"Ġmm":2012,"ature":2013,"Ġident":2014,"Ġimpro":2015,"rict":2016,"elling":2017,"Ġsat":2018,"Ġbecom":2019,"Ġaction":2020,"Ġround":2021,"Ġpoints":2022,"Ġhuman":2023,"Ġborn":2024,"Ġdoes":2025,"Ġthought":2026,"oss":2027,"Ġestablished":2028,"Ġmean":2029,"Ġoriginally":2030,"Ġinvest":2031,"ius":2032,"bor":2033,"Ġthom":2034,"ara":2035,"Ġaustralian":2036,"ds":2037,"Ġgar":2038,"Ġsubsequ":2039,"aval":2040,"Ġgrow":2041,"Ġenc":2042,"enth":2043,"Ġothers":2044,"Ġstage":2045,"ament":2046,"enced":2047,"irl":2048,"Ġentire":2049,"Ġappeared":2050,"ression":2051,"70":2052,"ma":2053,"Ġ!":2054,"Ġdavid":2055,"Ġsn":2056,"Ġlocated":2057,"Ġdirector":2058,"cil":2059,"Ġsurv":2060,"Ġredu":2061,"Ġfeatures":2062,"ctor":2063,"Ġvoc":2064,"Ġden":2065,"ray":2066,"ox":2067,"yn":2068,"Ġcrew":2069,"oon":2070,"iers":2071,"Ġcommission":2072,"ett":2073,"ground":2074,"Ġbusiness":2075,"Ġstarted":2076,"rick":2077,"Ġplaying":2078,"Ġafric":2079,"Ġpot":2080,"Ġpen":2081,"bur":2082,"aves":2083,"Ġmother":2084,"odes":2085,"less":2086,"Ġcaused":2087,"ought":2088,"Ġdecided":2089,"Ġcivil":2090,"Ġcritics":2091,"ressed":2092,"ript":2093,"Ġkingdom":2094,"Ġfeet":2095,"Ġur":2096,"Ġrather":2097,"Ġrank":2098,"ators":2099,"ship":2100,"Ġfourth":2101,"Ġmater":2102,"Ġfell":2103,"Ġreb":2104,"ata":2105,"Ġrese":2106,"Ġinform":2107,"Ġeconom":2108,"Ġbehind":2109,"Ġindepend":2110,"Ġformed":2111,"Ġsite":2112,"den":2113,"ogn":2114,"Ġmagaz":2115,"Ġadded":2116,"Ġfleet":2117,"Ġbi":2118,"Ġru":2119,"Ġimportant":2120,"Ġcase":2121,"Ġsoon":2122,"gg":2123,"Ġpred":2124,"ample":2125,"reek":2126,"Ġcomment":2127,"ivid":2128,"ateg":2129,"Ġjud":2130,"Ġmart":2131,"go":2132,"wood":2133,"rought":2134,"Ġeastern":2135,"cing":2136,"Ġdamage":2137,"Ġital":2138,"Ġeduc":2139,"Ġpopulation":2140,"Ġcompleted":2141,"Ġgreen":2142,"ades":2143,"Ġneg":2144,"Ġsam":2145,"Ġguns":2146,"Ġmult":2147,"Ġalmost":2148,"Ġsex":2149,"head":2150,"dle":2151,"Ġpeak":2152,"aces":2153,"Ġexec":2154,"Ġclose":2155,"Ġcup":2156,"ination":2157,"Ġinterv":2158,"Ġlang":2159,"Ġindian":2160,"ÌĦ":2161,"emy":2162,"Ġjour":2163,"Ġinitially":2164,"Ġawards":2165,"Ġregion":2166,"Ġloss":2167,"Ġinj":2168,"Ġtreat":2169,"lin":2170,"Ġtom":2171,"2004":2172,"oney":2173,"ways":2174,"Ġoccur":2175,"itar":2176,"Ġopened":2177,"Ġlack":2178,"Ġcreat":2179,"Ġsocial":2180,"31":2181,"Ġhost":2182,"aps":2183,"Ġpract":2184,"Ġmichael":2185,"Ġproble":2186,"Ġscre":2187,"Ġgirl":2188,"Ġrelationship":2189,"Ġindivid":2190,"to":2191,"ceed":2192,"Ġfund":2193,"Ġpur":2194,"Ġul":2195,"Ġsus":2196,"Ġlou":2197,"ino":2198,"ements":2199,"Ġleading":2200,"Ġtyp":2201,"cher":2202,"Ġweeks":2203,"Ġtradition":2204,"hic":2205,"2015":2206,"Ġworking":2207,"Ġradio":2208,"Ġbay":2209,"Ġsepar":2210,"Ġclos":2211,"Ġworked":2212,"Ġfrance":2213,"Ġdiffic":2214,"Ġcurrent":2215,"Ġdifficult":2216,"Ġnar":2217,"Ġsour":2218,"Ġprem":2219,"Ġrecording":2220,"Ġfa":2221,"ula":2222,"Ġsecret":2223,"Ġtowards":2224,"Ġale":2225,"Ġaccom":2226,"Ġroom":2227,"Ġconn":2228,"Ġmac":2229,"medi":2230,"Ġappo":2231,"Ġbomb":2232,"35":2233,"Ġmel":2234,"ica":2235,"Ġbal":2236,"Ġcouncil":2237,"Ġlaun":2238,"Ġunion":2239,"Ġscene":2240,"ki":2241,"Ġrain":2242,"umb":2243,"istic":2244,"rison":2245,"imes":2246,"ky":2247,"Ġrap":2248,"Ġgoal":2249,"Ġwid":2250,"asing":2251,"Ġrespect":2252,"Ġrepubl":2253,"Ġren":2254,"Ġresul":2255,"Ġhenry":2256,"igned":2257,"Ġquick":2258,"anch":2259,"Ġnorm":2260,"Ġreve":2261,"Ġrobert":2262,"2000":2263,"Ġbreak":2264,"Ġmaterial":2265,"Ġnavy":2266,"Ġrecords":2267,"Ġaccept":2268,"eth":2269,"Ġvot":2270,"Ġtraining":2271,"Ġwashing":2272,"Ġleast":2273,"Ġscored":2274,"pec":2275,"Ġprovided":2276,"Ġreach":2277,"Ġwanted":2278,"Ġmust":2279,"Ġey":2280,"Ġfig":2281,"Ġtroops":2282,"Ġbrought":2283,"Ġaverage":2284,"hest":2285,"Ġbrig":2286,"Ġdut":2287,"Ġcru":2288,"Ġspace":2289,"Ġrecogn":2290,"board":2291,"500":2292,"Ġfeatured":2293,"Ġearth":2294,"iding":2295,"ological":2296,"ows":2297,"osition":2298,"Ġcolon":2299,"Ġeither":2300,"Ġfoc":2301,"Ġnomin":2302,"Ġquar":2303,"Ġproper":2304,"Ġallowed":2305,"Ġangel":2306,"Ġrob":2307,"ected":2308,"Ġpast":2309,"Ġestim":2310,"Ġfut":2311,"Ġtar":2312,"Ġcho":2313,"Ġfeder":2314,"Ġwife":2315,"ams":2316,"Ġvictory":2317,"Ġstudio":2318,"Ġplaced":2319,"Ġgenerally":2320,"Ġavail":2321,"Ġwashington":2322,"Ġinn":2323,"Ġrul":2324,"iff":2325,"ico":2326,"here":2327,"Ġcycl":2328,"Ġpriv":2329,"aut":2330,"Ġach":2331,"Ġruns":2332,"Ġphys":2333,"Ġexample":2334,"Ġdark":2335,"Ġevents":2336,"Ġmagazine":2337,"aur":2338,"Ġchief":2339,"Ġbattal":2340,"mp":2341,"Ġrepublic":2342,"Ġder":2343,"Ġleng":2344,"Ġboard":2345,"Ġsummer":2346,"antic":2347,"oke":2348,"ville":2349,"Ġinsp":2350,"Ġpaul":2351,"Ġstaff":2352,"2003":2353,"Ġcred":2354,"ka":2355,"Ġdro":2356,"Ġparticip":2357,"Ġwil":2358,"ential":2359,"Ġjoined":2360,"Ġdesigned":2361,"Ġunc":2362,"Ġsquadron":2363,"Ġgrad":2364,"uel":2365,"Ġsurf":2366,"ha":2367,"Ġhours":2368,"Ġpie":2369,"Ġdan":2370,"Ġregular":2371,"ike":2372,"Ġspan":2373,"Ġmiddle":2374,"Ġemploy":2375,"Ġquest":2376,"Ġspeed":2377,"Ġnine":2378,"Ġshot":2379,"Ġoperation":2380,"Ġcondu":2381,"188":2382,"ving":2383,"Ġcome":2384,"Ġthreat":2385,"Ġopening":2386,"ells":2387,"Ġmedia":2388,"Ġbelieved":2389,"Ġrelig":2390,"ude":2391,"men":2392,"Ġscore":2393,"90":2394,"Ġregard":2395,"Ġcou":2396,"anks":2397,"Ġwinds":2398,"Ġox":2399,"Ġbir":2400,"tim":2401,"Ġmary":2402,"Ġflight":2403,"Ġtransport":2404,"aper":2405,"Ġreplaced":2406,"ugh":2407,"Ġmph":2408,"han":2409,"45":2410,"Ġprior":2411,"Ġstone":2412,"75":2413,"Ġscen":2414,"186":2415,"iction":2416,"Ġinfant":2417,"Ġpay":2418,"Ġber":2419,"Ġben":2420,"imin":2421,"Ġdeter":2422,"oring":2423,"Ġsequ":2424,"Ġemp":2425,"Ġcaptain":2426,"Ġpolice":2427,"Ġinvolved":2428,"Ġstop":2429,"Ġeuropean":2430,"ification":2431,"Ġlangu":2432,"Ġminutes":2433,"erous":2434,"Ġearlier":2435,"fall":2436,"west":2437,"Ġfinished":2438,"ago":2439,"Ġresearch":2440,"Ġsociety":2441,"asion":2442,"aled":2443,"Ġhop":2444,"Ġcontrib":2445,"utive":2446,"Ġlength":2447,"lic":2448,"Ġpossible":2449,"Ġsaying":2450,"Ġindic":2451,"off":2452,"Ġroman":2453,"Ġimmedi":2454,"Ġcommerc":2455,"Ġchange":2456,"Ġny":2457,"Ġpil":2458,"Ġtrib":2459,"Ġassociation":2460,"reg":2461,"Ġkeep":2462,"Ġadmin":2463,"Ġremov":2464,"Ġlargest":2465,"Ġhighest":2466,"Ġparticularly":2467,"Ġlower":2468,"Ġboy":2469,"Ġfilms":2470,"Ġbeginning":2471,"Ġbad":2472,"Ġfly":2473,"Ġscott":2474,"Ġexist":2475,"Ġkey":2476,"Ġadm":2477,"Ġavailable":2478,"ishing":2479,"Ġrespons":2480,"Ġpercent":2481,"Ġvirgin":2482,"Ġplat":2483,"Ġforced":2484,"pected":2485,"Ġsection":2486,"2001":2487,"Ġassist":2488,"Ġbetter":2489,"Ġatl":2490,"wer":2491,"Ġnin":2492,"Ġweak":2493,"Ġachie":2494,"Ġdisp":2495,"Ġuk":2496,"hib":2497,"Ġoutside":2498,"Ġdeal":2499,"anned":2500,"Ġtaking":2501,"mar":2502,"Ġlear":2503,"Ġanti":2504,"Ġmeas":2505,"rian":2506,"Ġcharles":2507,"Ġcommitte":2508,"aring":2509,"Ġheart":2510,"ography":2511,"Ġgrant":2512,"Ġnovel":2513,"Ġthomas":2514,"ĠÂ°":2515,"Ġmaint":2516,"Ġha":2517,"Ġturned":2518,"Ġincreased":2519,"Ġended":2520,"Ġreason":2521,"ipp":2522,"Ġunits":2523,"of":2524,"ida":2525,"ems":2526,"Ġfeel":2527,"Ġcommunity":2528,"Ġreviews":2529,"Ġcalif":2530,"sel":2531,"ases":2532,"Ġfuture":2533,"Ġpassed":2534,"Ġpraised":2535,"oph":2536,"Ġcaliforn":2537,"heast":2538,"Ġmove":2539,"Ġhous":2540,"Ġacad":2541,"Ġgoing":2542,"Ġbeat":2543,"Ġabove":2544,"Ġmcc":2545,"Ġadditional":2546,"su":2547,"2002":2548,"Ġtex":2549,"Ġappearance":2550,"Ġpan":2551,"for":2552,"iation":2553,"key":2554,"Ġphot":2555,"Ġthus":2556,"Ġguitar":2557,"Ġbird":2558,"action":2559,"ios":2560,"Ġtype":2561,"aded":2562,"Ġcanada":2563,"itor":2564,"Ġps":2565,"Ġlik":2566,"Ġenough":2567,"Ġliter":2568,"Ġcastle":2569,"Ġinfantry":2570,"ership":2571,"Ġordered":2572,"Ġlake":2573,"Ġsmith":2574,"Ġplot":2575,"Ġdaugh":2576,"Ġpreviously":2577,"Ġpun":2578,"Ġlat":2579,"Ġpersonal":2580,"Ġsigned":2581,"Ġmusical":2582,"Ġlu":2583,"ocr":2584,"ey":2585,"Ġminor":2586,"nal":2587,"tt":2588,"Ġdoc":2589,"Ġterrit":2590,"Ġrichard":2591,"ga":2592,"ston":2593,"Ġalex":2594,"Ġelements":2595,"Ġinstit":2596,"Ġrights":2597,"Ġmarket":2598,"arily":2599,"Ġpac":2600,"Ġdig":2601,"Ġtheat":2602,"Ġviol":2603,"Ġcalifornia":2604,"Ġabs":2605,"tr":2606,"ush":2607,"pped":2608,"Ġpositive":2609,"str":2610,"agon":2611,"Ġfranc":2612,"my":2613,"Ġprob":2614,"Ġcritical":2615,"Ġdead":2616,"ference":2617,"Ġparts":2618,"Ġaccess":2619,"Ġfood":2620,"ique":2621,"Ġlord":2622,"Ġbackground":2623,"Ġgive":2624,"erson":2625,"Ġlines":2626,"pper":2627,"Ġbat":2628,"gen":2629,"Ġtravel":2630,"Ġpow":2631,"Ġmoney":2632,"Ġfemale":2633,"sen":2634,"Ġspent":2635,"Ġoverall":2636,"Ġtold":2637,"Ġbeg":2638,"itz":2639,"Ġprinc":2640,"cts":2641,"Ġsubject":2642,"Ġmic":2643,"ilities":2644,"clus":2645,"Ġscient":2646,"Ġtax":2647,"Ġdirected":2648,"Ġflood":2649,"uation":2650,"Ġblue":2651,"back":2652,"Ġcommittee":2653,"Ġvictor":2654,"uter":2655,"elled":2656,"Ġinterview":2657,"Ġfailed":2658,"Ġdeep":2659,"1990":2660,"Ġpet":2661,"nel":2662,"Ġdomin":2663,"Ġchap":2664,"Ġsquare":2665,"Ġcorn":2666,"Ġrequired":2667,"Ġpoor":2668,"Ġdebut":2669,"Ġgroups":2670,"reng":2671,"mon":2672,"Ġgermany":2673,"ume":2674,"Ġmach":2675,"Ġclear":2676,"Ġhapp":2677,"Ġkil":2678,"Ġbroadcast":2679,"sc":2680,"nes":2681,"Ġobject":2682,"bers":2683,"Ġterm":2684,"Ġdistrict":2685,"Ġconstit":2686,"Ġpeter":2687,"Ġroll":2688,"ening":2689,"Ġenv":2690,"Ġexc":2691,"Ġanal":2692,"Ġitself":2693,"Ġhealth":2694,"Ġindia":2695,"Ġchristian":2696,"Ġbattalion":2697,"Ġevidence":2698,"Ġwal":2699,"Ġsometimes":2700,"Ġstep":2701,"isl":2702,"Ġfrank":2703,"ibility":2704,"Ġprison":2705,"Ġbank":2706,"Ġreception":2707,"Ġoccup":2708,"Ġcontract":2709,"Ġelection":2710,"Ġinvestig":2711,"berg":2712,"Ġcommercial":2713,"Ġasked":2714,"Ġze":2715,"Ġstars":2716,"Ġtransfer":2717,"Ġexcept":2718,"ĠÂ£":2719,"Ġ?":2720,"ready":2721,"Ġdefend":2722,"stand":2723,"erved":2724,"ii":2725,"Ġparl":2726,"Ġstreng":2727,"ability":2728,"Ġliving":2729,"Ġadminist":2730,"Ġour":2731,"ays":2732,"Ġsov":2733,"Ġwhose":2734,"Ġmex":2735,"edy":2736,"aker":2737,"apt":2738,"gar":2739,"onse":2740,"Ġnatural":2741,"Ġstudy":2742,"airs":2743,"Ġcomplete":2744,"Ġalready":2745,"Ġclaimed":2746,"onna":2747,"Ġgovernor":2748,"Ġapproxim":2749,"Ġmuse":2750,"Ġclim":2751,"ream":2752,"Ġchic":2753,"Ġbey":2754,"Ġsoviet":2755,"igan":2756,"rief":2757,"Ġintroduced":2758,"Ġflor":2759,"Ġfrequ":2760,"Ġwhom":2761,"Ġforest":2762,"Ġminister":2763,"Ġthink":2764,"Ġusually":2765,"Ġamb":2766,"Ġburn":2767,"Ġwoman":2768,"Ġstudents":2769,"Ġfer":2770,"enue":2771,"wor":2772,"Ġeducation":2773,"Ġquickly":2774,"acted":2775,"Ġidea":2776,"bc":2777,"Ġlimited":2778,"Ġgro":2779,"Ġwild":2780,"Ġbud":2781,"Ġbul":2782,"Ġrh":2783,"Ġlie":2784,"Ġanc":2785,"33":2786,"Ġmight":2787,"Ġguard":2788,"Ġeffects":2789,"Ġmovement":2790,"Ġconcern":2791,"Ġresponse":2792,"Ġprevent":2793,"Ġlib":2794,"Ġsyn":2795,"Ġissue":2796,"de":2797,"Ġcertain":2798,"Ġcommander":2799,"Ġcentre":2800,"Ġslow":2801,"ba":2802,"Ġqueen":2803,"atory":2804,"1970":2805,"Ġplant":2806,"Ġpolic":2807,"Ġsurface":2808,"Ġyour":2809,"Ġself":2810,"Ġlay":2811,"187":2812,"Ġtun":2813,"Ġdepartment":2814,"aint":2815,"Ġfifth":2816,"Ġarrived":2817,"Ġespec":2818,"bour":2819,"1980":2820,"Ġsand":2821,"Ġhosp":2822,"Ġbritain":2823,"Ġface":2824,"Ġespecially":2825,"Ġdecision":2826,"Ġservices":2827,"sec":2828,"ergy":2829,"Ġoperations":2830,"Ġvillage":2831,"Ġteams":2832,"Ġrac":2833,"Ġvoice":2834,"Ġparliam":2835,"ties":2836,"pr":2837,"Ġstructure":2838,"Ġbox":2839,"Ġshows":2840,"Ġran":2841,"ump":2842,"Ġgard":2843,"anded":2844,"Ġcongress":2845,"Ġmuseum":2846,"Ġindustry":2847,"ÌĮ":2848,"Ġwalk":2849,"Ġlarger":2850,"Ġfest":2851,"Ġwriter":2852,"Ġscience":2853,"36":2854,"Ġlyric":2855,"Ġbecoming":2856,"Ġremaining":2857,"Ġestimated":2858,"Ġlatter":2859,"Ġepisodes":2860,"Ġremain":2861,"Ġdefeated":2862,"Ġ-":2863,"fl":2864,"Ġcarried":2865,"Ġheav":2866,"Ġparliament":2867,"Ġgot":2868,"ises":2869,"Ġmultip":2870,"pre":2871,"wh":2872,"Ġultim":2873,"Ġmas":2874,"Ġdraw":2875,"Ġnetwork":2876,"Ġdiscuss":2877,"aries":2878,"oor":2879,"Ġpressure":2880,"Ġblood":2881,"1999":2882,"37":2883,"Ġol":2884,"Ġprogress":2885,"Ġsurround":2886,"Ġflag":2887,"ully":2888,"iron":2889,"Ġscenes":2890,"Ġcm":2891,"Ġconsider":2892,"ites":2893,"Ġbrief":2894,"Ġleaving":2895,"Ġrunning":2896,"ta":2897,"Ġchanges":2898,"ulf":2899,"Ġacqu":2900,"Ġvirginia":2901,"Ġcand":2902,"Ġjew":2903,"Ġcomplet":2904,"ession":2905,"Ġnaval":2906,"porary":2907,"ror":2908,"Ġsuggested":2909,"outh":2910,"Ġdom":2911,"Ġentered":2912,"Ġnearly":2913,"val":2914,"Ġdepression":2915,"orial":2916,"ining":2917,"Ġquarter":2918,"Ġappointed":2919,"Ġwinning":2920,"Ġbra":2921,"Ġinfluence":2922,"Ġdate":2923,"Ġapproximately":2924,"Ġfail":2925,"Ġchall":2926,"ift":2927,"Ġtwent":2928,"Ġsize":2929,"Ġemb":2930,"erve":2931,"Ġcapital":2932,"Ġleader":2933,"Ġlanguage":2934,"Ġros":2935,"Ġfant":2936,"Ġshortly":2937,"Ġislands":2938,"Ġregiment":2939,"Ġestablish":2940,"Ġempire":2941,"Ġscript":2942,"Ġfederal":2943,"Ġfavor":2944,"Ġmeth":2945,"Ġequip":2946,"Ġcourse":2947,"Ġscreen":2948,"Ġtoday":2949,"Ġjackson":2950,"Ġfinally":2951,"ania":2952,"Ġthr":2953,"38":2954,"change":2955,"Ġupper":2956,"Ġwide":2957,"ander":2958,"Ġtracks":2959,"Ġunl":2960,"Ġmission":2961,"Ġcann":2962,"Ġoly":2963,"Ġlouis":2964,"Ġdestroyed":2965,"Ġproposed":2966,"Ġdaughter":2967,"Ġpurch":2968,"32":2969,"ulated":2970,"49":2971,"Ġhigher":2972,"Ġolymp":2973,"Ġwing":2974,"Ġproducer":2975,"Ġmanager":2976,"burg":2977,"Ġarrang":2978,"Ġspanish":2979,"king":2980,"Ġcorps":2981,"abor":2982,"Ġexperience":2983,"Ġnature":2984,"Ġlad":2985,"Ġvan":2986,"Ġdistrib":2987,"Ġenviron":2988,"Ġcer":2989,"Ġprincip":2990,"Ġhorse":2991,"Ġprovide":2992,"Ġsubsequently":2993,"Ġbrigade":2994,"Ġbattles":2995,"idents":2996,"Ġrailway":2997,"Ġprofessional":2998,"ires":2999,"Ġaltern":3000,"mitted":3001,"Ġdiss":3002,"ension":3003,"Ġcompared":3004,"Ġbreed":3005,"iser":3006,"oid":3007,"Ġparen":3008,"Ġcomplex":3009,"Ġconcept":3010,"Ġhero":3011,"Ġintended":3012,"Ġemerg":3013,"Ġimmediately":3014,"Ġmarried":3015,"inese":3016,"1960":3017,"Ġaw":3018,"Ġdemocr":3019,"Ġprivate":3020,"Ġfans":3021,"Ġsaf":3022,"Ġcele":3023,"Ġtemper":3024,"Ġjournal":3025,"Ġpict":3026,"Ġsupported":3027,"ns":3028,"Ġagreed":3029,"Ġstay":3030,"Ġliber":3031,"Ġspir":3032,"Ġentertain":3033,"Ġcompan":3034,"Ġshoot":3035,"Ġintens":3036,"Ġca":3037,"alled":3038,"Ġbord":3039,"Ġmr":3040,"ria":3041,"Ġdone":3042,"Ġedward":3043,"Ġarchit":3044,"Ġmodel":3045,"Ġfeature":3046,"Ġjose":3047,"Ġincreasing":3048,"Ġinitial":3049,"gy":3050,"Ġawarded":3051,"Ġweap":3052,"Ġdisplay":3053,"Ġchicago":3054,"Ġmont":3055,"Ġarchitect":3056,"Ġchinese":3057,"Ġwhether":3058,"Ġbor":3059,"Ġhelped":3060,"Ġrelated":3061,"Ġlegisl":3062,"Ġplanned":3063,"Ġcard":3064,"down":3065,"Ġbooks":3066,"Ġgi":3067,"Ġofficer":3068,"Ġimm":3069,"ching":3070,"1998":3071,"aph":3072,"Ġsoldiers":3073,"Ġmom":3074,"Ġcreate":3075,"Ġbring":3076,"Ġlonger":3077,"Ġtrade":3078,"Ġartic":3079,"Ġfair":3080,"hem":3081,"185":3082,"Ġhere":3083,"Ġwit":3084,"atively":3085,"ban":3086,"Ġattr":3087,"Ġple":3088,"ores":3089,"ny":3090,"Ġcause":3091,"Ġkore":3092,"thing":3093,"Ġgal":3094,"Ġcaptured":3095,"teen":3096,"Ġvalley":3097,"Ġplans":3098,"Ġyet":3099,"Ġiron":3100,"34":3101,"300":3102,"Ġbuildings":3103,"Ġconserv":3104,"Ġcolor":3105,"Ġforward":3106,"Ġblock":3107,"Ġunit":3108,"inct":3109,"Ġchanged":3110,"omm":3111,"Ġconclud":3112,"Ġwinter":3113,"Ġwithd":3114,"Ġpenn":3115,"Ġcoach":3116,"asy":3117,"Ġassociated":3118,"Ġq":3119,"Ġsubst":3120,"Ġfriends":3121,"Ġdance":3122,"chester":3123,"Ġsomething":3124,"Ġpu":3125,"ien":3126,"Ġofficers":3127,"Ġinstr":3128,"Ġspring":3129,"Ġremains":3130,"Ġmostly":3131,"selves":3132,"Ġpacific":3133,"Ġsingles":3134,"Ġbillboard":3135,"Ġsev":3136,"abit":3137,"Ġjohnson":3138,"Ġthemselves":3139,"Ġstandard":3140,"Ġrat":3141,"ronic":3142,"Ġtarget":3143,"ken":3144,"Ġcountries":3145,"Ġlyrics":3146,"oms":3147,"Ġexam":3148,"Ġmixed":3149,"Ġprobably":3150,"48":3151,"riage":3152,"Ġreally":3153,"Ġmethod":3154,"Ġextended":3155,"hl":3156,"well":3157,"Ġray":3158,"Ġmoving":3159,"Ġnumerous":3160,"Ġfinanc":3161,"Ġfit":3162,"Ġattend":3163,"ena":3164,"pan":3165,"Ġoce":3166,"Ġinformation":3167,"Ġportray":3168,"Ġcontem":3169,"leg":3170,"Ġcopies":3171,"Ġalways":3172,"Ġrequest":3173,"Ġnation":3174,"Ġvisit":3175,"Ġscot":3176,"Ġlocation":3177,"Ġgoals":3178,"isions":3179,"Ġrid":3180,"Ġindividual":3181,"Ġbirth":3182,"ÌĢ":3183,"uk":3184,"Ġsales":3185,"1997":3186,"Ġfocus":3187,"rated":3188,"Ġcit":3189,"Ġissued":3190,"Ġcounter":3191,"rd":3192,"Ġstatus":3193,"olic":3194,"Ġmess":3195,"Ġleave":3196,"Ġenergy":3197,"Ġatlantic":3198,"Ġartist":3199,"Ġincludes":3200,"can":3201,"andon":3202,"Ġmale":3203,"Ġtas":3204,"Ġconference":3205,"Ġsuffered":3206,"Ġsinger":3207,"Ġadmir":3208,"39":3209,"Ġvia":3210,"Ġtraff":3211,"Ġhospital":3212,"Ġimpact":3213,"Ġtal":3214,"ands":3215,"Ġjim":3216,"Ġflorida":3217,"Ġmartin":3218,"Ġedition":3219,"Ġproblems":3220,"Ġalbums":3221,"Ġmaxim":3222,"Ġmeeting":3223,"Ġtermin":3224,"hood":3225,"Ġbene":3226,"ili":3227,"Ġdouble":3228,"Ġgall":3229,"Ġlikely":3230,"47":3231,"Ġchina":3232,"Ġincrease":3233,"Ġcarry":3234,"Ġassemb":3235,"Ġindependent":3236,"Ġremoved":3237,"Ġapproach":3238,"bury":3239,"ole":3240,"Ġcelebr":3241,"Ġmovie":3242,"Ġbond":3243,"Ġdog":3244,"bed":3245,"vin":3246,"Ġtexas":3247,"Ġrevolution":3248,"Ġinspired":3249,"Ġwa":3250,"Ġforeign":3251,"atives":3252,"chan":3253,"Ġrang":3254,"Ġrefle":3255,"Ġmaster":3256,"Ġdie":3257,"Ġterms":3258,"Ġprimary":3259,"Ġcreek":3260,"Ġmajority":3261,"lands":3262,"Ġast":3263,"Ġsir":3264,"Ġkind":3265,"Ġcompos":3266,"Ġdv":3267,"Ġoffered":3268,"Ġice":3269,"Ġinterse":3270,"Ġconsist":3271,"Ġtakes":3272,"Ġqual":3273,"Ġminute":3274,"Ġvehic":3275,"ograph":3276,"Ġtons":3277,"isc":3278,"vey":3279,"Ġstad":3280,"aily":3281,"Ġdrum":3282,"ously":3283,"Ġadop":3284,"Ġens":3285,"iter":3286,"Ġattacks":3287,"ounted":3288,"Ġsar":3289,"Ġfox":3290,"Ġentertainment":3291,"Ġut":3292,"Ġmakes":3293,"Ġconfir":3294,"Ġign":3295,"etic":3296,"Ġword":3297,"Ġcomposed":3298,"Ġdamaged":3299,"Ġoil":3300,"Ġcombat":3301,"Ġraised":3302,"Ġcanadian":3303,"Ġranked":3304,"Ġenvironment":3305,"ounds":3306,"Ġprec":3307,"Ġafrica":3308,"Ġconcert":3309,"Ġlog":3310,"icted":3311,"Ġcarol":3312,"aches":3313,"Ġshar":3314,"Ġcyclone":3315,"Ġwrest":3316,"Ġdaily":3317,"het":3318,"Ġletter":3319,"Ġund":3320,"Ġappears":3321,"Ġfighting":3322,"Ġselected":3323,"Ġmountain":3324,"oo":3325,"light":3326,"Ġrevealed":3327,"Ġdiscovered":3328,"Ġcateg":3329,"Ġsimp":3330,"Ġtrain":3331,"Ġmetal":3332,"Ġactive":3333,"Ġdeterm":3334,"Ġera":3335,"Ġrussian":3336,"Ġdeg":3337,"ify":3338,"ari":3339,"use":3340,"ucle":3341,"Ġmorning":3342,"ails":3343,"Ġinside":3344,"Ġsports":3345,"Ġconditions":3346,"46":3347,"ste":3348,"Ġtwenty":3349,"Ġkent":3350,"ung":3351,"aland":3352,"Ġdemon":3353,"era":3354,"Ġunable":3355,"Ġschol":3356,"Ġlaunched":3357,"uries":3358,"Ġgreater":3359,"umed":3360,"Ġrespectively":3361,"Ġven":3362,"Ġwr":3363,"Ġtv":3364,"ado":3365,"Ġsched":3366,"1995":3367,"Ġwhole":3368,"Ġos":3369,"Ġnumbers":3370,"Ġissues":3371,"Ġneeded":3372,"Ġsister":3373,"Ġsmaller":3374,"Ġbelow":3375,"Ġangeles":3376,"Ġincor":3377,"Ġthir":3378,"Ġlived":3379,"Ġconnect":3380,"Ġadvance":3381,"ee":3382,"ÌĤ":3383,"Ġtouch":3384,"Ġcontains":3385,"Ġyard":3386,"Ġattempted":3387,"uth":3388,"Ġslight":3389,"Ġattacked":3390,"Ġtraditional":3391,"Ġyards":3392,"Ġstra":3393,"Ġshown":3394,"ription":3395,"zz":3396,"Ġbed":3397,"lor":3398,"Ġculture":3399,"Ġoccurred":3400,"Ġnewsp":3401,"Ġreligious":3402,"uments":3403,"aj":3404,"Ġpick":3405,"Ġcart":3406,"uals":3407,"Ġnick":3408,"Ġiii":3409,"Ġsilver":3410,"aging":3411,"iest":3412,"Ġrein":3413,"Ġdefeat":3414,"Ġring":3415,"Ġcab":3416,"Ġtourn":3417,"ortun":3418,"joy":3419,"Ġrecover":3420,"Ġactor":3421,"Ġannual":3422,"Ġlarg":3423,"anced":3424,"ech":3425,"Ġrare":3426,"Ġconstant":3427,"Ġelected":3428,"Ġfestival":3429,"Ġiv":3430,"2016":3431,"Ġpeace":3432,"1996":3433,"Ġreferred":3434,"aught":3435,"1950":3436,"new":3437,"Ġreform":3438,"izing":3439,"uing":3440,"Ġdra":3441,"cting":3442,"Ġfrancis":3443,"Ġmind":3444,"Ġneigh":3445,"Ġbon":3446,"rial":3447,"urity":3448,"Ġbab":3449,"amb":3450,"olk":3451,"vert":3452,"Ġmu":3453,"Ġaudience":3454,"Ġschools":3455,"Ġtheme":3456,"Ġsav":3457,"Ġresulted":3458,"Ġpsy":3459,"Ġlargely":3460,"ya":3461,"Ġban":3462,"Ġassigned":3463,"Ġris":3464,"Ġcovered":3465,"Ġprince":3466,"Ġmagn":3467,"Ġath":3468,"Ġocean":3469,"enant":3470,"asc":3471,"Ġfast":3472,"Ġdun":3473,"Ġexpress":3474,"Ġdar":3475,"Ġlink":3476,"Ġitalian":3477,"Ġvariety":3478,"Ġlisted":3479,"Ġcollection":3480,"Ġpurp":3481,"1994":3482,"uated":3483,"Ġguest":3484,"Ġglob":3485,"Ġcompetition":3486,"Ġmun":3487,"hold":3488,"Ġcath":3489,"Ġnames":3490,"Ġash":3491,"Ġearned":3492,"Ġstadium":3493,"Ġcontrovers":3494,"Ġexpected":3495,"Ġcommented":3496,"ls":3497,"Ġhaw":3498,"tered":3499,"55":3500,"Ġsout":3501,"itude":3502,"Ġstarting":3503,"mi":3504,"Ġrapid":3505,"Ġclosed":3506,"quar":3507,"Ġperformances":3508,"Ġattention":3509,"Ġnucle":3510,"Ġdocument":3511,"Ġquestion":3512,"Ġimper":3513,"Ġenter":3514,"Ġairport":3515,"Ġgiving":3516,"Ġmichigan":3517,"ental":3518,"180":3519,"Ġda":3520,"Ġextre":3521,"Ġlegal":3522,"Ġaccount":3523,"Ġrefused":3524,"Ġviet":3525,"Ġcham":3526,"Ġkar":3527,"Ġeconomic":3528,"Ġfigh":3529,"Ġrepe":3530,"ãĤ":3531,"Ġcrow":3532,"ij":3533,"Ġcust":3534,"Ġmir":3535,"ounts":3536,"Ġgreatest":3537,"Ġwaters":3538,"la":3539,"Ġsett":3540,"aped":3541,"Ġcompl":3542,"Ġenjoy":3543,"ples":3544,"Ġelectric":3545,"Ġtower":3546,"Ġwales":3547,"utions":3548,"Ġability":3549,"Ġserious":3550,"Ġdirection":3551,"nding":3552,"Ġstories":3553,"Ġnotes":3554,"Ġnative":3555,"Ġstan":3556,"Ġhund":3557,"1940":3558,"Ġpromin":3559,"Ġdeclared":3560,"Ġrate":3561,"Ġmeant":3562,"Ġmatches":3563,"ãĥ":3564,"bridge":3565,"Ġvocals":3566,"Ġthings":3567,"Ġpoll":3568,"Ġod":3569,"pted":3570,"bre":3571,"Ġspl":3572,"Ġhundred":3573,"44":3574,"isher":3575,"Ġmention":3576,"Ġhus":3577,"Ġabandon":3578,"Ġlevels":3579,"Ġwords":3580,"Ġswe":3581,"ona":3582,"Ġnearby":3583,"ims":3584,"Ġchann":3585,"Ġmarriage":3586,"Ġproduce":3587,"Ġtext":3588,"Ġdoctor":3589,"Ġnecess":3590,"Ġconstitution":3591,"gl":3592,"Ġcry":3593,"ker":3594,"Ġpractice":3595,"Ġdefense":3596,"win":3597,"Ġprep":3598,"Ġconstructed":3599,"Ġfill":3600,"Ġemper":3601,"Ġsource":3602,"odies":3603,"ols":3604,"Ġlot":3605,"Ġfantasy":3606,"ette":3607,"iences":3608,"icient":3609,"1992":3610,"Ġcandid":3611,"wide":3612,"Ġmatt":3613,"pass":3614,"road":3615,"gs":3616,"Ġdvd":3617,"Ġvocal":3618,"Ġseparate":3619,"65":3620,"uf":3621,"uff":3622,"Ġhighly":3623,"ram":3624,"Ġlabor":3625,"Ġess":3626,"edic":3627,"Ġmeans":3628,"Ġeth":3629,"Ġfarm":3630,"Ġwriters":3631,"Ġles":3632,"Ġrow":3633,"umn":3634,"Ġmedical":3635,"itation":3636,"Ġspot":3637,"Ġzealand":3638,"Ġcontroll":3639,"Ġexecutive":3640,"ging":3641,"Ġexhib":3642,"Ġdirectly":3643,"ishop":3644,"Ġpositions":3645,"Ġultimately":3646,"Ġpurs":3647,"ellow":3648,"Ġobserv":3649,"Ġnorthwest":3650,"Ġweather":3651,"ping":3652,"mas":3653,"Ġsle":3654,"Ġcontinue":3655,"Ġpresented":3656,"Ġreduced":3657,"Ġeffort":3658,"Ġafrican":3659,"kin":3660,"Ġmexico":3661,"Ġcub":3662,"Ġmultiple":3663,"Ġadmiral":3664,"Ġjer":3665,"Ġbound":3666,"Ġchem":3667,"writ":3668,"Ġflow":3669,"Ġefforts":3670,"Ġbrad":3671,"jo":3672,"Ġdism":3673,"ibly":3674,"Ġanimals":3675,"Ġmechan":3676,"1930":3677,"Ġformation":3678,"Ġdyn":3679,"Ġhouses":3680,"Ġlieut":3681,"Ġchris":3682,"ding":3683,"ogue":3684,"Ġstrateg":3685,"rier":3686,"Ġgas":3687,"Ġsettle":3688,"band":3689,"Ġtried":3690,"rical":3691,"Ġlin":3692,"Ġmemorial":3693,"Ġattended":3694,"Ġbatter":3695,"Ġstudies":3696,"kn":3697,"Ġaccepted":3698,"Ġstating":3699,"Ġfinancial":3700,"Ġparal":3701,"Ġwear":3702,"Ġtalk":3703,"Ġrule":3704,"Ġlibr":3705,"Ġmadonna":3706,"vement":3707,"acher":3708,"don":3709,"Ġpair":3710,"400":3711,"Ġseem":3712,"Ġspecific":3713,"Ġsymb":3714,"1993":3715,"Ġdepend":3716,"1991":3717,"Ġoh":3718,"Ġbob":3719,"Ġadvent":3720,"Ġincorpor":3721,"track":3722,"isation":3723,"Ġending":3724,"Ġbegins":3725,"Ġthick":3726,"Ġsaint":3727,"Ġcerem":3728,"Ġrecomm":3729,"Ġinch":3730,"Ġorganization":3731,"Ġram":3732,"Ġpilot":3733,"Ġlif":3734,"anes":3735,"Ġtrue":3736,"Ġtheatre":3737,"Ġtraffic":3738,"ruction":3739,"Ġsides":3740,"Ġenemy":3741,"Ġcases":3742,"95":3743,"Ġscotland":3744,"ita":3745,"Ġluc":3746,"Ġjones":3747,"Ġkh":3748,"Ġrough":3749,"illery":3750,"Ġdrive":3751,"Ġarrest":3752,"ners":3753,"house":3754,"rey":3755,"42":3756,"Ġpack":3757,"oper":3758,"Ġflying":3759,"Ġmob":3760,"Ġresponsible":3761,"Ġconfl":3762,"Ġeye":3763,"iance":3764,"Ġbell":3765,"Ġmanaged":3766,"Ġhonor":3767,"Ġforms":3768,"Ġwound":3769,"Ġmeaning":3770,"Ġ+":3771,"Ġuses":3772,"Ġarab":3773,"Ġresulting":3774,"Ġgreek":3775,"Ġkenn":3776,"une":3777,"Ġtournament":3778,"Ġkept":3779,"Ġrose":3780,"ĠÃ":3781,"Ġsoundtrack":3782,"Ġlieutenant":3783,"Ġacademy":3784,"Ġdropped":3785,"Ġprotest":3786,"Ġmos":3787,"Ġshowed":3788,"41":3789,"Ġauthority":3790,"Ġpolicy":3791,"Ġedge":3792,"Ġbost":3793,"Ġprime":3794,"Ġquality":3795,"Ġpath":3796,"Ġstrugg":3797,"Ġemperor":3798,"Ġdru":3799,"Ġfat":3800,"Ġwick":3801,"Ġartillery":3802,"Ġexped":3803,"Ġapart":3804,"Ġcombined":3805,"Ġhors":3806,"claim":3807,"Ġboat":3808,"ceeded":3809,"Ġacting":3810,"Ġfounded":3811,"Ġsecretary":3812,"Ġell":3813,"Ġspirit":3814,"Ġcontinues":3815,"Ġtrial":3816,"Ġmarked":3817,"ada":3818,"Ġadministration":3819,"uit":3820,"Ġinches":3821,"Ġproperty":3822,"ips":3823,"Ġwilliams":3824,"Ġsystems":3825,"Ġencoun":3826,"ero":3827,"Ġsubsequent":3828,"Ġpropos":3829,"nam":3830,"Ġartists":3831,"Ġbit":3832,"Ġcontemporary":3833,"Ġattempts":3834,"Ġsearch":3835,"ex":3836,"Ġextr":3837,"Ġterritory":3838,"Ġparis":3839,"gypt":3840,"iated":3841,"Ġdraft":3842,"Ġnortheast":3843,"Ġsteam":3844,"Ġrear":3845,"uge":3846,"Ġcompanies":3847,"thel":3848,"Ġpotential":3849,"Ġmarsh":3850,"Ġperf":3851,"Ġseg":3852,"Ġpresence":3853,"Ġmetres":3854,"Ġviewers":3855,"Ġplanet":3856,"icip":3857,"Ġallowing":3858,"Ġthous":3859,"Ġstudios":3860,"Ġsixth":3861,"ulations":3862,"Ġprepar":3863,"je":3864,"Ġrecent":3865,"Ġscale":3866,"Ġcoal":3867,"Ġcommunic":3868,"Ġofficials":3869,"Ġconducted":3870,"1942":3871,"oe":3872,"78":3873,"ani":3874,"Ġsuppl":3875,"ket":3876,"Ġbehav":3877,"Ġegypt":3878,"thur":3879,"Ġobt":3880,"za":3881,"Ġjob":3882,"Ġrespond":3883,"Ġpiece":3884,"Ġdigital":3885,"Ġfilming":3886,"Ġhyd":3887,"Ġlee":3888,"Ġdefence":3889,"Ġmachine":3890,"Ġheadquar":3891,"Ġcontrast":3892,"Ġamount":3893,"Ġtemple":3894,"olf":3895,"Ġtransferred":3896,"Ġcollabor":3897,"standing":3898,"ingu":3899,"Ġlatin":3900,"Ġparents":3901,"Ġyellow":3902,"Ġscoring":3903,"Ġic":3904,"Ġopportun":3905,"Ġmaximum":3906,"Ġsenior":3907,"rain":3908,"Ġfigure":3909,"ef":3910,"Ġcorpor":3911,"Ġsac":3912,"Ġcoming":3913,"aga":3914,"Ġstephen":3915,"Ġdise":3916,"Ġallied":3917,"enge":3918,"Ġfeaturing":3919,"cle":3920,"inem":3921,"Ġbeaut":3922,"Ġtorped":3923,"Ġtherefore":3924,"Ġprimarily":3925,"Ġrelatively":3926,"Ġoxford":3927,"Ġgeorg":3928,"Ġelev":3929,"Ġowned":3930,"Ġpeaked":3931,"Ġtheory":3932,"Ġstudent":3933,"Ġbecomes":3934,"76":3935,"Ġcold":3936,"Ġtitled":3937,"Ġjoseph":3938,"Ġtorpedo":3939,"ca":3940,"Ġmort":3941,"Ġactually":3942,"Ġrecommend":3943,"Ġportion":3944,"Ġdistance":3945,"Ġbattleship":3946,"Ġcert":3947,"Ġcitiz":3948,"Ġconcluded":3949,"ersey":3950,"Ġstock":3951,"Ġboston":3952,"Ġconver":3953,"Ġmanchester":3954,"Ġmut":3955,"Ġinvasion":3956,"Ġsituation":3957,"Ġstrength":3958,"Ġwrite":3959,"Ġchair":3960,"Ġharrison":3961,"orter":3962,"Ġtransl":3963,"Ġjeff":3964,"Ġbass":3965,"Ġpsych":3966,"Ġbroke":3967,"43":3968,"osh":3969,"Ġfunction":3970,"Ġshare":3971,"Ġobserved":3972,"Ġselling":3973,"Ġphysical":3974,"Ġsecurity":3975,"Ġalongside":3976,"arent":3977,"Ġhan":3978,"Ġdistinct":3979,"Ġtree":3980,"Ġswed":3981,"ented":3982,"Ġton":3983,"Ġinh":3984,"Ġplays":3985,"Ġpersonnel":3986,"Ġresults":3987,"Ġconcent":3988,"Ġliver":3989,"Ġdivided":3990,"Ġsources":3991,"stein":3992,"Ġdoll":3993,"istics":3994,"Ġpaid":3995,"Ġseconds":3996,"Ġresist":3997,"Ġcalling":3998,"Ġcities":3999,"Ġrating":4000,"1944":4001,"Ġslightly":4002,"Ġborder":4003,"Ġshell":4004,"Ġreturning":4005,"Ġpowerful":4006,"Ġcolumb":4007,"po":4008,"Ġfred":4009,"85":4010,"150":4011,"Ġmanagement":4012,"Ġcontest":4013,"ini":4014,"Ġarts":4015,"Ġreject":4016,"Ġhistorian":4017,"Ġhistorical":4018,"Ġott":4019,"Ġimperial":4020,"Ġminim":4021,"Ġonto":4022,"Ġsust":4023,"Ġactions":4024,"Ġelse":4025,"Ġvess":4026,"Ġmile":4027,"Ġplatform":4028,"aming":4029,"Ġfear":4030,"Ġnothing":4031,"Ġbirds":4032,"ider":4033,"Ġbeach":4034,"Ġkg":4035,"astic":4036,"Ġfreed":4037,"Ġinfluenced":4038,"Ġow":4039,"Ġcanc":4040,"Ġactivity":4041,"Ġinnings":4042,"ctive":4043,"Ġfan":4044,"Ġtrust":4045,"ils":4046,"Ġire":4047,"Ġbru":4048,"Ġsuc":4049,"unt":4050,"Ġresidents":4051,"Ġathlet":4052,"Ġcomedy":4053,"ellig":4054,"Ġpoet":4055,"force":4056,"Ġbbc":4057,"Ġdesignated":4058,"Ġpromoted":4059,"osaur":4060,"Ġnominated":4061,"Ġpassing":4062,"Ġcultural":4063,"Ġresc":4064,"Ġrod":4065,"Ġcrown":4066,"mond":4067,"Ġcompletely":4068,"stone":4069,"Ġcroat":4070,"Ġconflict":4071,"Ġlane":4072,"Ġpremi":4073,"Ġproblem":4074,"Ġavenue":4075,"Ġlov":4076,"Ġorche":4077,"Ġweight":4078,"Ġba":4079,"Ġheight":4080,"Ġmainly":4081,"Ġsubs":4082,"phy":4083,"Ġsexual":4084,"ĠÎ":4085,"Ġtrail":4086,"ault":4087,"Ġstruck":4088,"Ġcharts":4089,"istry":4090,"Ġarms":4091,"Ġmis":4092,"iced":4093,"Ġsought":4094,"Ġreplac":4095},"merges":["Ġ t","Ġ a","h e","i n","Ġt he","e r","Ġ s","o n","Ġ ,","r e","Ġ w","Ġ c","Ġ o","e d","Ġ b","n d","Ġ f","a t","Ġ .","o r","i t","e n","Ġ p","Ġ in","Ġ m","i s","e s","a r","Ġo f","a n","a l","in g","Ġ d","a s","Ġa nd","Ġ h","Ġt o","r o","i c","Ġ l","i on","Ġ Ċ","o u","Ġ n","Ġ re","i l","Ġ e","Ġ g","Ġt h","Ġ =","l e","en t","Ġ \"","s t","Ġ @","e l","a m","o m","Ġ on","a c","a d","Ġw as","Ġs t","Ġb e","Ġ he","u r","l y","Ġ '","Ġf or","Ġ u","i d","i m","o l","t er","Ġa s","i r","- @","Ġ@ -@","i v","i g","c t","o t","u t","Ġ r","e t","it h","a y","o w","Ġa l","v er","Ġw ith","c e","at ion","Ġth at","Ġw h","Ġ it","c h","Ġc on","Ġa t","Ġ j","Ġa n","Ġb y","Ġd e","Ġs e","Ġ is","u s","Ġ k","Ġ v","t h","Ġ )","Ġ (","u l","er s","1 9","Ġc h","a nd","a in","e m","ro m","Ġh is","o s","he r","a g","a v","u m","es t","Ġc om","0 0","r i","Ġs u","Ġf rom","Ġp ro","p e","o d","Ġn e","is t","i f","u n","il l","o re","l d","a p","Ġs h","s e","Ġ y","er e","re s","ig h","o p","i es","Ġ ro","q u","ar t","b er","ar d","Ġo r","Ġe x","Ġp l","Ġw ere","a k","ic h","at e","or t","al l","Ġu n","a b","Ġl e","an t","u d","o c","g h","on g","at ed","i p","it y","es s","Ġa r","am e","iv e","i e","Ġt r","Ġh ad","Ġ â","ac k","Ġâ Ģ","as t","re d","ro u","Ġwh ich","ou r","g e","Ġa re","m ent","Ġn ot","i an","o v","Ġa f","i al","p t","o st","el l","i a","igh t","Ġc l","u st","ar y","Ġw or","in e","Ġw he","p p","c l","r it","t her","ou n","Ġa d","ic al","av e","Ġs c","c c","Ġcom p","Ġb ut","Ġ en","2 0","ct ion","or d","Ġth is","2 00","Ġf ir","Ġhe r","t e","ou ld","Ġt w","Ġa b","is h","Ġaf ter","Ġcon t","Ġfir st","ou s","s o","Ġt e","id e","Ġs p","u re","Ġit s","Ġne w","ig n","Ġthe ir","Ġa m","Ġal l","Ġ ;","Ġm an","p er","Ġon e","r a","it ion","Ġin t","Ġp er","as s","ĠâĢ ĵ","Ġal so","r u","Ġ i","Ġu s","Ġm ar","o g","o k","u b","Ġs he","e ar","Ġ :","at er","om e","Ġt im","Ġre s","ou t","or m","ag e","Ġre c","on d","Ġthe y","i re","r y","Ġs er","he d","Ġf e","Ġtw o","u e","Ġp art","Ġa g","1 8","Ġwh o","Ġcom m","d u","Ġd es","an s","Ġh ave","re e","Ġbe c","al ly","f f","Ġd is","Ġg o","an ce","il e","Ġw e",". @","Ġ@ .@","p l","Ġo ver","Ġy ear","ow n","t ed","ic e","Ġof f","i z","Ġh as","Ġpl ay","ur ing","Ġbe en","en ce","Ġc o","Ġo ther","e ct",", @","Ġ@ ,@","20 1","Ġ im","k e","ou gh","Ġm e","a re","or y","Ġc ol","el y","t s","Ġo ut","ation s","cl ud","Ġu p","ac h","ac e","Ġp re","Ġin ter","ou nd","l and","Ġe v","Ġf in","Ġp r","w n","Ġwhe n","Ġb o","ad e","i b","ac t","ion s","Ġs pe","Ġtim e","Ġd uring","Ġc an","a il","ur n","Ġin clud","res s","c ed","Ġa p","Ġf l","r ic","en s","Ġw ould","k s","Ġse c","m an","on e","Ġf il","Ġin d","w e","w ard","an g","nd er","Ġint o","Ġb r","Ġh im","Ġat t","Ġb l","it e","ul t","Ġe ar","ol l","at es","Ġm ore","Ġ qu","Ġj o","ab le","Ġw ar","Ġp e","c es","as ed","re n","Ġch ar","it ed","Ġc ent","am p","i ed","Ġre p","as e","Ġbe t","Ġfil m","rou gh","w ay","oun t","Ġfor m","l es","Ġg r","f orm","or s","os e","as on","a w","Ġp o","em ber","ing s","Ġwh ile","Ġa cc","n e","Ġm us","v el","Ġg ame","il d","Ġm ost","v e","er ed","Ġthe re","Ġre m","Ġc ar","in d","Ġn or","Ġs o","c k","Ġf r","Ġp ar","Ġg en","Ġs ou","Ġas s","ak e","i ous","at t","Ì ģ","ol d","Ġcon s","Ġh ow","ent s","a us","f er","re at","Ġb u","is s","Ġe m","Ġn o","Ġl ater","Ġs ong","ic k","rou nd","Ġre g","Ġpro du","Ġag ain","f t","Ġon ly","g an","Ġa ct","ri b","v ed","Ġu nder","Ġwor k","o od","Ġs y","Ġm ay","Ġthe m","Ġk n","Ġth an","Ġs ome","Ġre t","ter s","al s","Ġth ree","Ġab out","ub l","19 9","i x","we en","at h","Ġ ver","Ġbet ween","oll ow","p h","on s","h ip","Ġd ay","Ġh igh","Ġb ro","Ġm a","Ġre le","Ġen g","Ġth rough","Ġm on","ot h","Ġrec ord","Ġf ollow","Ġm in","er ic","f ore","ation al","Ġa pp","Ġsec ond","Ġre l","Ġe nd","1 0","Ġl i","Ġp h","Ġn um","ic t","Ġsu b","Ġa c","Ġe le","t on","Ġs a","u g","Ġp res","Ġim p","ie w","Ġ ed","Ġa ir","Ġal b","Ġse ason","Ġf our","Ġe p","Ġde f","Ġd o","Ġp os","Ġwor ld","Ġam eric","Ġnor th","Ġin c","Ġ ent","Ġwhe re","ct ed","r al","Ġbe fore","Ġte am","n ing","Ġm ov","00 0","ul ar","at ing","am es","Ġspe c","Ġw rit","Ġar m","Ġm ade","Ġs m","Ġl ar","Ġs ch","Ġg u","is ion","Ġl oc","Ġw ill","iv ed","Ġsu ch","he s","Ġs ur","Ġc ap","Ġp ol","Ġd r","Ġs ing","s on","Ġalb um","Ġp ubl","1 7","i o","is hed","Ġse ver","Ġyear s","ain ed","ic s","1 5","Ġsu pp","od e","i el","Ġc all","e ver","l l","Ġsou th","Ġsh ow","Ġb ack","id ent","ro s","Ġad d","Ġre v","Ġ /","Ġgen er","Ġb oth","u al","ter n","il y","Ġin v","Ġthe n","Ġhow ever","Ġap pe","Ġep is","Ġc ount","Ġus ed","Ġde c","al e","ut e","Ġre ce","Ġm ill","if ic","Ġbe ing","Ġthe se","Ġw ell","ur y","Ġm et","Ġs et","Ġst ud","Ġ z","Ġser ies","Ġagain st","Ġb att","t en","an k","Ġchar ac","Ġin st","if e","Ġf ound","Ġnum ber","Ġst e","vel op","Ġb el","Ġle ad","Ġman y","Ġmus ic","Ġs im","Ġm at","or n","Ġper form","an e","Ġm ain","Ġl ong","ot her","Ġc ity","1 6","Ġo p","Ġt er","Ġc re","in t","1 2","o ol","o y","aus e","Ġb rit","in ce","e nd","Ġde velop","Ġbec ame","er t","Ġun ited","Ġs l","Ġd ire","ig in","Ġsever al","Ġhis t","Ġar t","Ġinclud ing","Ġsh ip","ĠâĢ Ķ","a u","h n","Ġde p","at her","a ir","Ġst ate","is e","Ġm il","Ġex p","Ġin f","Ġear ly","i er","Ġd iv","Ġor igin","is ed","ow er","Ġo b","ver n","19 8","Ġp op","Ġtr ans","Ġd id","ar s","it s","Ġd ist","i red","em ent","j ect","u res","or k","le y","19 4","in es","Ġn ov","ro p","u nd","i et","Ġcont in","Ġgo vern","an c","ol og","Ġw in","it ies","Ġp ers","3 0","d er","rou p","a z","Ġpro v","l ed","Ġepis ode","t il","Ġst ates","el f","ros s","a red","Ġc rit","Ġsa id","Ġk e","Ġjo hn","Ġfollow ing","f ul","ir d","Ġ est","Ġcon st","Ġdes ign","Ġg roup","Ġc ould","n a","Ġd if","y s","Ġst r","at ive","iv er","Ġret urn","Ġm ed","Ġr un","Ġo per","Ġameric an","oc k","Ġdes c","ou se","Ġal th","Ġkn own","Ġcomp le","te nd","Ġalth ough","iel d","Ġl o","Ġa ust","1 4","Ġan y","iv ers","Ġw est","Ġg er","19 7","Ġs ign","Ġk ing","r on","Ġj un","Ġser v","Ġm od","Ġp ass","em b","Ġd own","19 6","u ally","Ġl and","u ch","t y","Ġf am","Ġne ar","u ed","Ġbe gan","t ing","Ġli ke","1 3","Ġfe at","Ġoff ic","in ed","Ġe ff","Ġun til","g r","ro w","op le","is m","Ġdis c","an ge","ak ing","Ġb ar","Ġh ar","Ġal ong","Ġsch ool","Ġbec ause","Ġo wn","id ed","Ġrele ased","er n","Ġop en","Ġp ort","cc ess","in s","iz ed","Ġcall ed","Ġn ational","Ġpre v","Ġe l","g er","u c","Ġth ough","Ġma j","ist s","Ġwe e","Ġc r","i am","Ġpe ople","u red","st em","Ġy ou","Ġg re","Ġj u","ial ly","Ġin s","ut ion","Ġan n","Ġcol le","Ġcl ass","5 0","ment s","Ġg e","Ġmill ion","os ed","Ġj ust","i um","Ġc our","Ġe ver","Ġsy stem","ce pt","Ġl a","Ġbrit ish","ul l","Ġs ince","Ġhe ad","Ġs ix","n er","Ġad v","Ġb est","Ġa ut","Ġa round","Ġa ug","u p","ar k","Ġa ward","Ġmaj or","Ġl ife","Ġc or","Ġ $","Ġ if","Ġe ach","Ġb re","Ġsu ccess","ain s","Ġatt ack","Ġse pt","an y","x t","g est","a h","Ġv ar","Ġcharac ter","o ot","Ġu se","Ġa v","Ġsept ember","Ġdesc rib","Ġaug ust","Ġst art","am ed","Ġcon f","r ap","g et","ib le","Ġs ame","Ġro ad","Ġt ri","Ġhe l","on t","Ġe ast","ac ed","i k","Ġfin al","Ġl ine","1 1","Ġsupp ort","Ġo cc","Ġo ct","Ġan other","r is","Ġde m","Ġf ive","Ġc are","Ġr a","Ġpubl ic","ain ing","Ġp rom","Ġs w","Ġk m","Ġt y","Ġg reat","Ġbu ild","Ġl it","Ġo ld","Ġcon c","el s","Ġaust ral","av ing","Ġm y","Ġex t","Ġg l","Ġto ok","Ġc amp","Ġb and","Ġger man","u es","en n","Ġbo ok","Ġare a","Ġm id","Ġh ouse","Ġsm all","o b","ov e","an n","e p","Ġrep ort","Ġcons id","Ġcent ury","o ber","Ġt urn","p ed","Ġrece ived","us s","Ġoct ober","Ġcont ro","et s","ant s","iv es","b le","Ġst re","Ġun ivers","ical ly","Ġs k","h ing","Ġwh at","Ġd ue","Ġg ames","Ġpart ic","Ġsh ort","Ġl ast","Ġgovern ment","Ġdire ct","il ity","Ġre f","Ġh al","in a","Ġre st","en e","Ġmar ch","at ely","c ess","Ġcomm and","Ġle g","Ġ es","Ġpers on","Ġh ome","g in","Ġ ]","Ġ [","ian s","ore d","in k","Ġw ay","Ġj an","Ġjun e","t le","Ġm ag","r il","Ġsing le","Ġth ird","Ġmar k","Ġgener al","o ver","im e","Ġm en","Ġs qu","Ġt it","2 5","iss ion","Ġju ly","Ġch ild","Ġ %","Ġcap t","iv ing","pe ct","Ġnov ember","ur ch","Ġtr ack","Ġde ath","Ġd el","Ġrev iew","Ġm uch","as h","Ġev ent","Ġis land","ra ft","Ġar r","Ġe u","Ġy ork","Ġap ril","c he","Ġf ur","Ġd am","Ġlar ge","Ġto p","u ary","Ġbatt le","Ġacc ord","Ġp ower","l ish","Ġver s","Ġev en","Ġle ft","Ġs oc","Ġde ce","Ġto wn","ur al","Ġc he","ction s","Ġc ast","ion al",". .","Ġv ide","i ent","Ġall ow","iv ely","Ġinter n","Ġg un","Ġdif fer","Ġmon th","Ġp at","id ge","b o","Ġst ar","il t","Ġk ill","Ġst ory","Ġapp ro","Ġv is","a im","m s","Ġfam ily","Ġb ased","Ġpl ace","ag ue","Ġc ur","Ġadd ition","Ġn ow","m ber","m in","Ġv ict","v en","Ġinc re","Ġc al","al es","Ġpar k","Ġex pl","Ġbl ack","if ied","Ġan t","Ġr ight","Ġ. ..","Ġl aw","Ġcomp any","Ġarm y","av y","em pt","ro te","Ġdece mber","Ġhist ory","en g","Ġcl ub","Ġplay ed","Ġm or","Ġst orm","b y","Ġaccord ing","Ġp ost","l ing","Ġinclud ed","Ġr iver","p s","Ġn ame","at s","Ġl os","Ġjan uary","Ġw ater","Ġl ed","Ġre d","Ġ ir","19 5","r ist","og rap","om et","Ġh and","ag ed","Ġw ind","ber t","b all","19 3","2 4","on y","ap an","Ġw om","in c","Ġw rote","Ġi i","Ġw on","Ġh um","Ġan g","ent ly","er g","Ġres p","Ġj apan","Ġtim es","ag es","Ġst ru","Ġor gan","Ġo pp","i ence","Ġre qu","Ġv al","Ġprev ious","it al","Ġpos ition","Ġwith in","p ort","Ġappe ar","od y","Ġm ake","m ed","Ġdescrib ed","Ġin it","Ġr ad","Ġeu ro","Ġth ose","Ġde b","Ġf ore","Ġst ill","Ġvide o","Ġch amp","Ġb ill","Ġf ar","id es","Ġne xt","ot t","Ġl ate","Ġm emb","Ġst and","Ġn amed","om in","ne y","Ġbel ie","Ġb us","Ġam ong","Ġorigin al","Ġrele ase","Ġatt empt","Ġeff ect","p or","Ġfur ther","iv en","Ġre pl","Ġl ist","st er","il ar","Ġle ague","Ġfor ce","Ġver y","Ġd est","Ġte le","Ġpos s","c y","Ġf oot","Ġb as","Ġ x","Ġv iew","Ġis s","is ter","m er","Ġro ute","i od","b ru","Ġ rom","Ġre al","a ff","ent ion","Ġc y","re t","Ġcomm un","Ġprodu ction","Ġex per","Ġspec ies","ren ch","er v","n ess","i or","pt ion","Ġmemb ers","ac hed","iv al","Ġconst ru","Ġs ound","Ġpol it","pe nd","Ġwh ite","Ġmil it","Ġform er","Ġch rist","Ġf le","Ġp a","Ġc oun","Ġto ur","Ġfe bru","Ġfebru ary","Ġsim ilar","Ġinf l","ar ch","Ġt ak","Ġ er","an ces","Ġn ort","Ġs old","2 2","Ġper iod","ri end","Ġdiv ision","Ġday s","1 00","Ġbu ilt","Ġmat ch","b r","Ġt em","en ces","Ġn at","Ġs ide","c hed","Ġro y","ver s","Ġpl an","Ġsu per","Ġpro p","Ġhe ld","Ġeuro pe","Ġm o","2 1","p le","Ġy oun","Ġc le","Ġunivers ity","Ġro ck","Ġl ight","Ġf rench","Ġgo od","Ġpo int","Ì Ī","ri ed","201 0","Ġserv ice","Ġs ay","he n","h or","Ġpres ident","Ġf re","Ġloc al","Ġro le","Ġest ab","Ġdes p","au gh","ut ed","ward s","Ġpres ent","2 3","e c","Ġe qu","tend ed","Ġor der","Ġd et","Ġc ame","rop ical","Ġever y","Ġto t","h y","Ġne ver","Ġc aus","Ġs ol","Ġbe h","h am","Ġh aving","oc i","Ġwill iam","Ġwee k","s elf","Ġc ross","Ġe as","2 7","Ġres ult","Ġj e","Ġs en","Ġfe w","Ġs um","f ord","Ġ Â","Ġsu g","4 0","ul ation","Ġt ro","Ġt est","Ġass oci","Ġpro f","Ġplay er","Ġch art","m e","s h","Ġse e","a x","Ġt ake","ap p","200 8","2 8","Ġof ten","Ġcomm on","ic es","Ġst at","ard s","Ġhal f","200 9","Ġcare er","l er","Ġh ur","Ġcontin ued","Ġge or","Ġw at","Ġte ch","b s","Ġt en","Ġl ow","ot s","Ġp ri","Ġf ire","Ġcl aim","Ġst y","Ġhist or","c raft","2 6","201 1","r ing","Ġle vel","Ġs ent","at or","Ġm ich","Ġdiffer ent","Ġwith out","Ġp ress","Ġf un","Ġele ct","es tern","es e","Ġdesp ite","at ic","Ġco ver","Ġeng land","Ġ &","olog y","gr am","Ġl ess","Ġm er","Ġcour t","Ġpart y","re ad","a f","Ġconsid ered","Ġcont r","op s","Ġe c","g ress","Ġd av","Ġdevelop ment","as ter","le t","Ġch urch","200 7","Ġt re","Ġar ch","Ġrep res","p ar","Ġl y","Ġn ight","Ġcount ry","v es","Ġcount y","Ġcom b","Ġinfl u","Ġchamp ions","Ġf ield","Ġroy al","Ġsong s","Ġf riend","Ġh y","Ġvers ion","Ġeng lish","Ġmilit ary","Ġmov ed","Ġhigh way","Ġh ig","Ġd on","Ġpro te","Ġwrit ten","Ġtr ad","Ġw ant","c o","Ġstr ong","on es","Ġdef e","ro du","Ġm i","v ision","Ġcon v","201 2","Ġpro gram","Ġv ol","Ġbec ome","Ġfor ces","Ġl im","Ġan im","Ġlit tle","Ġch ang","al k","2 9","s ide","Ġf act","Ġl ost","Ġpro ject","ert ain","c hes","iz e","Ġl ond","Ġintern ational","l ine","Ġbuild ing","Ġs on","Ġg iven","ur s","Ġm iss","Ġt ropical","Ġcontro l","a i","Ġlond on","Ġh o","Ġtot al","Ġinv ol","Ġaf f","Ġaut hor","b e","Ġsug gest","19 0","el t","Ġor d","Ġre fer","Ġh it","Ġb ur","is on","ut es","Ġph il","Ġann oun","he l","Ġv ir","g ed","at ter","Ġl et","Ġl ab","Ġh our","Ġv e","Ġre ad","Ġstre et","Ġimp ort","al d","Ġf ree","im ent","qu e","en ed","Ġde cl","iet y","er y","Ġg et","ro y","Ġcan ad","Ġe ight","se qu","il le","Ġr ail","Ġperform ance","a e","Ġg old","Ġv i","Ġs it","Ġs al","Ġst ation","Ġg ave","Ġear l","Ġw ent","er ing","Ġfin d","Ġrepres ent","ren t","Ġc ir","Ġreturn ed","Ġs omet","ail ed","Ġus ing","Ġd u","Ġbro ad","Ġj ack","Ġne ed","Ġf ather","Ġpubl ished","Ġco ast","Ġprodu ced","Ġhe n","Ġw estern","Ġcomp et","Ġar g","Ġnew s","Ġreport ed","Ġob s","e ad","x im","Ġh un","Ġpop ular","ab ly","Ġpartic ular","Ġrecord ed","Ġchild ren","a pe","Ġtele vision","Ġind e","Ġm ass","200 6","or ies","am a","Ġst ated","Ġair craft","a ign","Ġspec ial","Ġc ult","Ġship s","Ġinter est","ition s","Ġg round","Ġcamp aign","6 0","Ġsh ould","Ġinclud e","Ġl ive","Ġl ove","Ġv o","Ġm aking","Ġ ide","Ġde v","us ed","Ġd ou","d ay","Ġcrit ic","om b","Ġa ge","y l","m it","ie f","Ġfr ont","Ġwom en","um ent","Ġhur ric","Ġcent ral","are n","Ġc op","Ġthrough out","Ġcol l","Ġpr im","Ġf ac","in ts","Ġup on","Ġon ce","Ġyoun g","os p","in ess","pl oy","ra w","Ġh om","Ġsu ff","on om","Ġhim self","Ġoffic ial","Ġaustral ia","201 3","Ġchampions hip","Ġdest roy","Ġtech n","Ġa ud","y ing","Ġdep art","Ġm ot","Ġr ich","Ġw all","Ġcharac ters","n ed","Ġn on","Ġsou ther","c er","Ġv ill","Ġb all","ens ive","Ġtr av","re st","l o","Ġse a","Ġc as","re w","pl ay","Ġh or","al th","Ġf av","Ġplay ers","Ġsqu ad","Ġrel ations","18 9","it ive","Ġf t","Ġp ra","Ġc e","Ġc am","Ġcir c","Ġinst ead","ed er","Ġt ur","Ġf all","Ġcomm it","Ġsouther n","it her","Ġb ase","Ġtit le","Ġse ven","ak es","Ġj ames","Ġwrit ing","Ġa way","Ġc ost","g es","Ġm ad","ac y","Ġbe gin","Ġac ross","Ġf em","Ġint rodu","Ġd ied","Ġrem ained","c om","Ġmonth s","Ġcent er","en se","Ġsign ific","Ġdevelop ed","Ġfor t","Ġgr and","Ġprom ot","d om","Ġf ull","Ġpolit ical","Ġlo ok","Ġh all","Ġm ount","Ġvar ious","ri es","Ġman ag","Ġf if","Ġmod ern","Ġhurric ane","Ġw ood","u ck","Ġr ace","Ġto o","r ation","Ġm c","Ġp ut","Ġa ver","en cy","Ġh ill","f ic","Ġh ol","Ġn et","Ġh am","Ġ ill","Ġf ight","Ġcon d","Ġc at","Ġh on","ri e","Ġoff ice","her n","ist ed","Ġb ig","Ġp al","Ġp it","in ted","Ġh ard","Ġb ow","m ost","a el","Ġwor ks","Ġf elt","Ġare as","Ġs il","Ġnot ed","k ed","Ġind ust","ort s","Ġameric a","Ġevent ually","8 0","Ġr uss","Ġsty le","er c","Ġannoun ced","Ġcre ated","Ġmil es","Ġre ached","Ġbro ther","Ġcolle ge","Ġdisc over","Ġh ot","Ġc ro","Ġconstru ction","Ġjapan ese","Ġeng ine","m ing","Ġst ri","Ġs an","Ġsu n","Ġsuccess ful","Ġnort hern","Ġh old","200 5","Ġm al","Ġb ody","Ġse en","Ġp ain","Ġse le","Ġhe avy","Ġstru ct","is ing","c ast","Ġc ut","ĠâĢ Ļ","Ġag re","z e","Ġfollow ed","Ġr ange","get her","Ġto gether","f ield","Ġsy m","Ġme et","Ġpro cess","Ġm em","Ġperform ed","Ġc iv","iz ation","it ing","Ġbro wn","Ġser ved","Ġhel p","an a","Ġm ember","Ġact iv","w ork","201 4","Ġd i","Ġbr idge","Ġkn ow","al ity","Ġgeor ge","Ġm ix","Ġfoot ball","Ġpro t","Ġqu e","Ġt or","Ġes c","Ġkill ed","Ġm ur","Ġsignific ant","Ġg od","id ence","Ġprof ess","id s","Ġab le","Ġtak en","Ġs aw","c ent","ol ution","Ġestab l","Ġm m","at ure","Ġ ident","Ġimp ro","ric t","ell ing","Ġs at","Ġbec om","Ġa ction","Ġro und","Ġpo ints","Ġhum an","Ġb orn","Ġdo es","Ġthough t","os s","Ġestabl ished","Ġme an","Ġorigin ally","Ġinv est","i us","b or","Ġth om","ar a","Ġaustral ian","d s","Ġg ar","Ġsub sequ","av al","Ġg row","Ġen c","ent h","Ġother s","Ġst age","am ent","en ced","ir l","Ġent ire","Ġappe ared","ress ion","7 0","m a","Ġ !","Ġdav id","Ġs n","Ġloc ated","Ġdirect or","c il","Ġsur v","Ġre du","Ġfeat ures","ct or","Ġv oc","Ġd en","r ay","o x","y n","Ġcre w","o on","i ers","Ġcomm ission","et t","g round","Ġbus iness","Ġstart ed","ric k","Ġplay ing","Ġaf ric","Ġp ot","Ġp en","b ur","av es","Ġm other","od es","l ess","Ġcaus ed","ough t","Ġdec ided","Ġciv il","Ġcrit ics","ress ed","ri pt","Ġking dom","Ġfe et","Ġ ur","Ġr ather","Ġr ank","at ors","s hip","Ġfour th","Ġm ater","Ġf ell","Ġre b","at a","Ġre se","Ġin form","Ġec onom","Ġbeh ind","Ġinde pend","Ġform ed","Ġs ite","d en","og n","Ġmag az","Ġadd ed","Ġfle et","Ġb i","Ġr u","Ġimport ant","Ġc ase","Ġso on","g g","Ġp red","amp le","ree k","Ġcom ment","iv id","ate g","Ġj ud","Ġm art","g o","w ood","rough t","Ġeas tern","c ing","Ġdam age","Ġit al","Ġed uc","Ġpop ulation","Ġcomple ted","Ġgre en","ad es","Ġne g","Ġs am","Ġgun s","Ġm ult","Ġal most","Ġse x","he ad","d le","Ġpe ak","ac es","Ġex ec","Ġcl ose","Ġc up","in ation","Ġinter v","Ġl ang","Ġind ian","Ì Ħ","em y","Ġj our","Ġinit ially","Ġaward s","Ġreg ion","Ġlos s","Ġin j","Ġt reat","l in","Ġto m","200 4","one y","way s","Ġocc ur","it ar","Ġopen ed","Ġl ack","Ġc reat","Ġsoc ial","3 1","Ġh ost","ap s","Ġpr act","Ġmich ael","Ġpro ble","Ġsc re","Ġg irl","Ġrelations hip","Ġind ivid","t o","ce ed","Ġf und","Ġp ur","Ġu l","Ġs us","Ġl ou","in o","em ents","Ġlead ing","Ġty p","c her","Ġwee ks","Ġtrad ition","h ic","201 5","Ġwork ing","Ġrad io","Ġb ay","Ġse par","Ġcl os","Ġwork ed","Ġfr ance","Ġdif fic","Ġcur rent","Ġdiffic ult","Ġn ar","Ġs our","Ġpre m","Ġrecord ing","Ġf a","ul a","Ġsec ret","Ġto wards","Ġa le","Ġacc om","Ġro om","Ġcon n","Ġm ac","med i","Ġapp o","Ġb omb","3 5","Ġm el","ic a","Ġb al","Ġcoun cil","Ġla un","Ġun ion","Ġsc ene","k i","Ġr ain","um b","ist ic","ris on","im es","k y","Ġr ap","Ġgo al","Ġw id","as ing","Ġres pect","Ġrep ubl","Ġre n","Ġres ul","Ġhen ry","ign ed","Ġqu ick","an ch","Ġn orm","Ġre ve","Ġro bert","200 0","Ġbre ak","Ġmater ial","Ġn avy","Ġrecord s","Ġac cept","et h","Ġv ot","Ġtr aining","Ġwas hing","Ġle ast","Ġsc ored","pe c","Ġprov ided","Ġre ach","Ġwant ed","Ġm ust","Ġe y","Ġf ig","Ġtro ops","Ġb rought","Ġaver age","he st","Ġbr ig","Ġd ut","Ġc ru","Ġsp ace","Ġrec ogn","bo ard","5 00","Ġfeat ured","Ġear th","id ing","olog ical","ow s","os ition","Ġcol on","Ġe ither","Ġf oc","Ġn omin","Ġqu ar","Ġpro per","Ġallow ed","Ġang el","Ġro b","ect ed","Ġp ast","Ġest im","Ġf ut","Ġt ar","Ġch o","Ġf eder","Ġw ife","am s","Ġvict ory","Ġstud io","Ġpl aced","Ġgener ally","Ġav ail","Ġwashing ton","Ġin n","Ġr ul","if f","ic o","he re","Ġcy cl","Ġpr iv","a ut","Ġa ch","Ġrun s","Ġph ys","Ġex ample","Ġd ark","Ġev ents","Ġmagaz ine","a ur","Ġch ief","Ġbatt al","m p","Ġrepubl ic","Ġd er","Ġl eng","Ġbo ard","Ġsum mer","ant ic","ok e","v ille","Ġins p","Ġpa ul","Ġst aff","200 3","Ġc red","k a","Ġd ro","Ġpartic ip","Ġw il","ent ial","Ġjo ined","Ġdesign ed","Ġun c","Ġsquad ron","Ġgr ad","u el","Ġsur f","h a","Ġhour s","Ġp ie","Ġd an","Ġreg ular","i ke","Ġsp an","Ġmid dle","Ġem ploy","Ġqu est","Ġspe ed","Ġn ine","Ġsh ot","Ġoper ation","Ġcon du","18 8","v ing","Ġcom e","Ġth reat","Ġopen ing","ell s","Ġmed ia","Ġbelie ved","Ġrel ig","ud e","m en","Ġsc ore","9 0","Ġreg ard","Ġc ou","an ks","Ġwind s","Ġo x","Ġb ir","t im","Ġm ary","Ġfl ight","Ġtrans port","ap er","Ġrepl aced","u gh","Ġm ph","h an","4 5","Ġpri or","Ġst one","7 5","Ġsc en","18 6","ict ion","Ġinf ant","Ġp ay","Ġb er","Ġb en","im in","Ġde ter","or ing","Ġse qu","Ġem p","Ġcapt ain","Ġpol ice","Ġinvol ved","Ġst op","Ġeurope an","ific ation","Ġlang u","Ġmin utes","er ous","Ġearl ier","f all","w est","Ġfin ished","ag o","Ġrese arch","Ġsoc iety","as ion","al ed","Ġh op","Ġcont rib","ut ive","Ġleng th","l ic","Ġposs ible","Ġsay ing","Ġind ic","o ff","Ġrom an","Ġim medi","Ġcomm erc","Ġch ange","Ġn y","Ġp il","Ġt rib","Ġassoci ation","re g","Ġke ep","Ġad min","Ġrem ov","Ġlar gest","Ġhig hest","Ġparticular ly","Ġl ower","Ġbo y","Ġfilm s","Ġbegin ning","Ġb ad","Ġf ly","Ġsc ott","Ġex ist","Ġke y","Ġad m","Ġavail able","ish ing","Ġresp ons","Ġper cent","Ġvir gin","Ġpl at","Ġfor ced","pe cted","Ġse ction","200 1","Ġass ist","Ġbet ter","Ġat l","w er","Ġn in","Ġwe ak","Ġach ie","Ġdis p","Ġu k","h ib","Ġout side","Ġde al","ann ed","Ġt aking","m ar","Ġle ar","Ġant i","Ġme as","ri an","Ġchar les","Ġcommit te","ar ing","Ġhe art","ograp hy","Ġgr ant","Ġnov el","Ġthom as","ĠÂ °","Ġmain t","Ġh a","Ġturn ed","Ġincre ased","Ġend ed","Ġre ason","ip p","Ġun its","o f","id a","em s","Ġfe el","Ġcommun ity","Ġreview s","Ġcal if","s el","as es","Ġfut ure","Ġpass ed","Ġpra ised","op h","Ġcalif orn","he ast","Ġmov e","Ġh ous","Ġac ad","Ġgo ing","Ġbe at","Ġab ove","Ġm cc","Ġaddition al","s u","200 2","Ġte x","Ġappear ance","Ġp an","f or","i ation","ke y","Ġph ot","Ġth us","Ġgu itar","Ġb ird","act ion","i os","Ġty pe","ad ed","Ġcanad a","it or","Ġp s","Ġli k","Ġen ough","Ġlit er","Ġcast le","Ġinfant ry","ers hip","Ġord ered","Ġl ake","Ġsm ith","Ġpl ot","Ġd augh","Ġprevious ly","Ġp un","Ġl at","Ġperson al","Ġsign ed","Ġmus ical","Ġl u","oc r","e y","Ġmin or","n al","t t","Ġd oc","Ġter rit","Ġrich ard","g a","st on","Ġale x","Ġele ments","Ġinst it","Ġright s","Ġmark et","ar ily","Ġp ac","Ġd ig","Ġthe at","Ġvi ol","Ġcaliforn ia","Ġab s","t r","us h","pp ed","Ġpos itive","st r","ag on","Ġfr anc","m y","Ġpro b","Ġcrit ical","Ġde ad","fer ence","Ġpart s","Ġacc ess","Ġf ood","i que","Ġl ord","Ġback ground","Ġg ive","ers on","Ġl ines","pp er","Ġb at","g en","Ġtrav el","Ġp ow","Ġm oney","Ġfem ale","s en","Ġsp ent","Ġover all","Ġto ld","Ġbe g","it z","Ġpr inc","ct s","Ġsub ject","Ġm ic","il ities","cl us","Ġsc ient","Ġt ax","Ġdire cted","Ġfl ood","u ation","Ġbl ue","b ack","Ġcommitte e","Ġvict or","u ter","ell ed","Ġinterv iew","Ġf ailed","Ġde ep","199 0","Ġp et","n el","Ġd omin","Ġch ap","Ġsqu are","Ġc orn","Ġrequ ired","Ġpo or","Ġdeb ut","Ġgroup s","ren g","m on","Ġgerman y","um e","Ġm ach","Ġcle ar","Ġh app","Ġk il","Ġbroad cast","s c","n es","Ġob ject","b ers","Ġter m","Ġdist rict","Ġconst it","Ġpe ter","Ġro ll","en ing","Ġen v","Ġex c","Ġan al","Ġits elf","Ġhe alth","Ġind ia","Ġchrist ian","Ġbattal ion","Ġev idence","Ġw al","Ġsomet imes","Ġste p","is l","Ġfr ank","ib ility","Ġpr ison","Ġb ank","Ġrece ption","Ġocc up","Ġcontr act","Ġele ction","Ġinvest ig","ber g","Ġcommerc ial","Ġas ked","Ġz e","Ġst ars","Ġtrans fer","Ġex cept","ĠÂ £","Ġ ?","read y","Ġdef end","st and","er ved","i i","Ġpar l","Ġst reng","ab ility","Ġl iving","Ġadmin ist","Ġo ur","ay s","Ġs ov","Ġwh ose","Ġme x","ed y","ak er","ap t","g ar","on se","Ġnat ural","Ġstud y","air s","Ġcomple te","Ġal ready","Ġclaim ed","on na","Ġgovern or","Ġappro xim","Ġmus e","Ġcl im","re am","Ġch ic","Ġbe y","Ġsov iet","ig an","rie f","Ġintrodu ced","Ġfl or","Ġfre qu","Ġwh om","Ġfore st","Ġmin ister","Ġth ink","Ġus ually","Ġam b","Ġb urn","Ġwom an","Ġstud ents","Ġf er","en ue","w or","Ġeduc ation","Ġquick ly","ac ted","Ġide a","b c","Ġlim ited","Ġg ro","Ġw ild","Ġb ud","Ġb ul","Ġr h","Ġl ie","Ġan c","3 3","Ġm ight","Ġgu ard","Ġeffect s","Ġmov ement","Ġconc ern","Ġresp onse","Ġprev ent","Ġl ib","Ġsy n","Ġiss ue","d e","Ġc ertain","Ġcommand er","Ġcent re","Ġsl ow","b a","Ġque en","at ory","197 0","Ġpl ant","Ġpol ic","Ġsurf ace","Ġy our","Ġs elf","Ġl ay","18 7","Ġt un","Ġdepart ment","ain t","Ġfif th","Ġarr ived","Ġes pec","b our","198 0","Ġs and","Ġh osp","Ġbrit ain","Ġf ace","Ġespec ially","Ġdec ision","Ġserv ices","se c","erg y","Ġoper ations","Ġvill age","Ġteam s","Ġr ac","Ġvo ice","Ġparl iam","t ies","p r","Ġstruct ure","Ġbo x","Ġshow s","Ġr an","um p","Ġg ard","and ed","Ġcon gress","Ġmuse um","Ġindust ry","Ì Į","Ġw alk","Ġlar ger","Ġf est","Ġwrit er","Ġsc ience","3 6","Ġly ric","Ġbecom ing","Ġrem aining","Ġestim ated","Ġl atter","Ġepis odes","Ġrem ain","Ġdefe ated","Ġ -","f l","Ġcar ried","Ġhe av","Ġparliam ent","Ġg ot","is es","Ġmult ip","p re","w h","Ġul tim","Ġm as","Ġd raw","Ġnet work","Ġdisc uss","ar ies","o or","Ġpress ure","Ġbl ood","199 9","3 7","Ġo l","Ġpro gress","Ġsur round","Ġfl ag","ul ly","ir on","Ġscen es","Ġc m","Ġconsid er","it es","Ġb rief","Ġle aving","Ġrun ning","t a","Ġchang es","ul f","Ġac qu","Ġvirgin ia","Ġc and","Ġje w","Ġcomple t","ess ion","Ġn aval","por ary","r or","Ġsuggest ed","ou th","Ġd om","Ġent ered","Ġnear ly","v al","Ġdep ression","or ial","in ing","Ġquar ter","Ġappo inted","Ġwin ning","Ġb ra","Ġinflu ence","Ġd ate","Ġapproxim ately","Ġf ail","Ġch all","if t","Ġtw ent","Ġs ize","Ġem b","er ve","Ġcap ital","Ġlead er","Ġlangu age","Ġro s","Ġf ant","Ġshort ly","Ġisland s","Ġreg iment","Ġestab lish","Ġemp ire","Ġsc ript","Ġfeder al","Ġfav or","Ġmet h","Ġequ ip","Ġcour se","Ġscre en","Ġto day","Ġjack son","Ġfin ally","an ia","Ġth r","3 8","ch ange","Ġu pper","Ġw ide","and er","Ġtrack s","Ġun l","Ġm ission","Ġcan n","Ġo ly","Ġlou is","Ġdestroy ed","Ġprop osed","Ġdaugh ter","Ġp urch","3 2","ul ated","4 9","Ġhig her","Ġoly mp","Ġw ing","Ġprodu cer","Ġmanag er","bur g","Ġarr ang","Ġspan ish","k ing","Ġcor ps","ab or","Ġexper ience","Ġnat ure","Ġl ad","Ġv an","Ġdist rib","Ġenv iron","Ġc er","Ġprinc ip","Ġhor se","Ġprov ide","Ġsubsequ ently","Ġbrig ade","Ġbatt les","id ents","Ġrail way","Ġprofess ional","i res","Ġal tern","mit ted","Ġdis s","ens ion","Ġcomp ared","Ġbre ed","is er","o id","Ġp aren","Ġcomple x","Ġcon cept","Ġhe ro","Ġin tended","Ġem erg","Ġimmedi ately","Ġmar ried","ines e","196 0","Ġa w","Ġdem ocr","Ġpriv ate","Ġf ans","Ġsa f","Ġce le","Ġtem per","Ġjour nal","Ġp ict","Ġsupport ed","n s","Ġagre ed","Ġst ay","Ġli ber","Ġsp ir","Ġent ertain","Ġcomp an","Ġsh oot","Ġint ens","Ġc a","all ed","Ġb ord","Ġm r","ri a","Ġd one","Ġed ward","Ġarch it","Ġmod el","Ġfeat ure","Ġj ose","Ġincre asing","Ġinit ial","g y","Ġaward ed","Ġwe ap","Ġdis play","Ġchic ago","Ġmon t","Ġarchit ect","Ġch inese","Ġwhe ther","Ġb or","Ġhel ped","Ġrel ated","Ġleg isl","Ġpl anned","Ġc ard","d own","Ġbook s","Ġg i","Ġoffic er","Ġim m","ch ing","199 8","ap h","Ġsold iers","Ġm om","Ġcre ate","Ġbr ing","Ġlong er","Ġtr ade","Ġart ic","Ġf air","he m","18 5","Ġhe re","Ġw it","at ively","b an","Ġatt r","Ġp le","ore s","n y","Ġc ause","Ġk ore","th ing","Ġg al","Ġcapt ured","te en","Ġval ley","Ġpl ans","Ġy et","Ġir on","3 4","3 00","Ġbuild ings","Ġcons erv","Ġcol or","Ġfor ward","Ġbl ock","Ġun it","in ct","Ġchang ed","om m","Ġcon clud","Ġwin ter","Ġwith d","Ġp enn","Ġco ach","as y","Ġassoci ated","Ġ q","Ġsub st","Ġfriend s","Ġd ance","che ster","Ġsomet hing","Ġp u","i en","Ġoffic ers","Ġinst r","Ġsp ring","Ġrem ains","Ġmost ly","sel ves","Ġpac ific","Ġsing les","Ġbill board","Ġse v","ab it","Ġjohn son","Ġthem selves","Ġstand ard","Ġr at","ron ic","Ġtar get","k en","Ġcount ries","Ġlyric s","om s","Ġex am","Ġmix ed","Ġprob ably","4 8","ri age","Ġre ally","Ġmeth od","Ġex tended","h l","w ell","Ġr ay","Ġmov ing","Ġnum erous","Ġfin anc","Ġf it","Ġat tend","en a","p an","Ġo ce","Ġinform ation","Ġport ray","Ġcont em","le g","Ġcop ies","Ġal ways","Ġrequ est","Ġn ation","Ġvis it","Ġsc ot","Ġloc ation","Ġgo als","is ions","Ġr id","Ġindivid ual","Ġbir th","Ì Ģ","u k","Ġs ales","199 7","Ġfoc us","r ated","Ġc it","Ġiss ued","Ġcoun ter","r d","Ġstat us","ol ic","Ġm ess","Ġle ave","Ġen ergy","Ġatl antic","Ġart ist","Ġinclud es","c an","and on","Ġm ale","Ġt as","Ġcon ference","Ġsuff ered","Ġsing er","Ġadm ir","3 9","Ġv ia","Ġtr aff","Ġhosp ital","Ġimp act","Ġt al","and s","Ġj im","Ġflor ida","Ġmart in","Ġed ition","Ġproble ms","Ġalbum s","Ġma xim","Ġmeet ing","Ġter min","h ood","Ġb ene","il i","Ġdou ble","Ġg all","Ġlik ely","4 7","Ġch ina","Ġincre ase","Ġcar ry","Ġass emb","Ġindepend ent","Ġremov ed","Ġappro ach","b ury","o le","Ġcele br","Ġmov ie","Ġb ond","Ġd og","b ed","v in","Ġtex as","Ġrev olution","Ġinsp ired","Ġw a","Ġfore ign","at ives","ch an","Ġr ang","Ġref le","Ġm aster","Ġd ie","Ġter ms","Ġprim ary","Ġc reek","Ġmajor ity","land s","Ġa st","Ġs ir","Ġk ind","Ġcomp os","Ġd v","Ġoff ered","Ġ ice","Ġinter se","Ġcons ist","Ġtak es","Ġqu al","Ġmin ute","Ġve hic","ograp h","Ġt ons","is c","ve y","Ġst ad","ail y","Ġdr um","ous ly","Ġad op","Ġen s","it er","Ġattack s","oun ted","Ġs ar","Ġf ox","Ġentertain ment","Ġu t","Ġm akes","Ġconf ir","Ġ ign","et ic","Ġwor d","Ġcomp osed","Ġdam aged","Ġo il","Ġcomb at","Ġra ised","Ġcanad ian","Ġrank ed","Ġenviron ment","ound s","Ġpre c","Ġafric a","Ġconc ert","Ġl og","ic ted","Ġcar ol","ac hes","Ġsh ar","Ġcycl one","Ġw rest","Ġd aily","he t","Ġlet ter","Ġu nd","Ġappe ars","Ġfight ing","Ġsele cted","Ġmount ain","o o","l ight","Ġreve aled","Ġdiscover ed","Ġc ateg","Ġsim p","Ġtr ain","Ġmet al","Ġact ive","Ġdeter m","Ġer a","Ġruss ian","Ġde g","if y","ar i","us e","uc le","Ġmor ning","ail s","Ġins ide","Ġsp orts","Ġcond itions","4 6","st e","Ġtwent y","Ġk ent","un g","al and","Ġdem on","er a","Ġun able","Ġsch ol","Ġlaun ched","ur ies","Ġgre ater","um ed","Ġrespect ively","Ġv en","Ġw r","Ġt v","ad o","Ġsc hed","199 5","Ġwho le","Ġo s","Ġnum bers","Ġiss ues","Ġneed ed","Ġs ister","Ġsmall er","Ġbel ow","Ġangel es","Ġinc or","Ġth ir","Ġl ived","Ġconn ect","Ġadv ance","e e","Ì Ĥ","Ġto uch","Ġcont ains","Ġy ard","Ġattempt ed","ut h","Ġsl ight","Ġattack ed","Ġtradition al","Ġy ards","Ġst ra","Ġsh own","ri ption","z z","Ġb ed","l or","Ġcult ure","Ġoccur red","Ġnews p","Ġrelig ious","um ents","a j","Ġp ick","Ġc art","u als","Ġn ick","Ġii i","Ġsil ver","ag ing","i est","Ġre in","Ġdefe at","Ġr ing","Ġc ab","Ġto urn","ort un","j oy","Ġrec over","Ġact or","Ġann ual","Ġlar g","an ced","e ch","Ġr are","Ġconst ant","Ġele cted","Ġfest ival","Ġ iv","201 6","Ġpe ace","199 6","Ġrefer red","augh t","19 50","ne w","Ġre form","iz ing","u ing","Ġd ra","ct ing","Ġfranc is","Ġm ind","Ġne igh","Ġb on","ri al","ur ity","Ġb ab","am b","ol k","ver t","Ġm u","Ġaud ience","Ġschool s","Ġthem e","Ġs av","Ġresul ted","Ġps y","Ġlarg ely","y a","Ġb an","Ġass igned","Ġr is","Ġcover ed","Ġpr ince","Ġmag n","Ġat h","Ġoce an","en ant","as c","Ġf ast","Ġd un","Ġexp ress","Ġd ar","Ġl ink","Ġital ian","Ġvar iety","Ġlist ed","Ġcolle ction","Ġpur p","199 4","u ated","Ġgu est","Ġgl ob","Ġcompet ition","Ġm un","h old","Ġc ath","Ġn ames","Ġas h","Ġear ned","Ġstad ium","Ġcontro vers","Ġex pected","Ġcomment ed","l s","Ġh aw","ter ed","5 5","Ġs out","it ude","Ġstart ing","m i","Ġrap id","Ġcl osed","qu ar","Ġperform ances","Ġatt ention","Ġn ucle","Ġdoc ument","Ġquest ion","Ġim per","Ġent er","Ġair port","Ġg iving","Ġmich igan","ent al","18 0","Ġd a","Ġext re","Ġleg al","Ġacc ount","Ġref used","Ġv iet","Ġch am","Ġk ar","Ġeconom ic","Ġf igh","Ġre pe","ã Ĥ","Ġc row","i j","Ġc ust","Ġm ir","oun ts","Ġgreat est","Ġwat ers","l a","Ġset t","ap ed","Ġcomp l","Ġen joy","pl es","Ġelect ric","Ġto wer","Ġw ales","ut ions","Ġab ility","Ġser ious","Ġdire ction","nd ing","Ġst ories","Ġnot es","Ġn ative","Ġst an","Ġh und","194 0","Ġprom in","Ġdecl ared","Ġr ate","Ġme ant","Ġmat ches","ã ĥ","br idge","Ġvoc als","Ġth ings","Ġp oll","Ġo d","pt ed","b re","Ġsp l","Ġhund red","4 4","is her","Ġm ention","Ġh us","Ġab andon","Ġlevel s","Ġwor ds","Ġs we","on a","Ġnear by","im s","Ġch ann","Ġmar riage","Ġprodu ce","Ġte xt","Ġdo ctor","Ġne cess","Ġconstit ution","g l","Ġc ry","k er","Ġpract ice","Ġdef ense","w in","Ġpre p","Ġconstru cted","Ġf ill","Ġem per","Ġsour ce","od ies","ol s","Ġl ot","Ġfant asy","et te","i ences","ic ient","199 2","Ġcand id","w ide","Ġm att","p ass","ro ad","g s","Ġdv d","Ġvoc al","Ġsepar ate","6 5","u f","u ff","Ġhigh ly","r am","Ġlab or","Ġ ess","ed ic","Ġme ans","Ġe th","Ġfar m","Ġwrit ers","Ġl es","Ġro w","um n","Ġmed ical","it ation","Ġsp ot","Ġze aland","Ġcontro ll","Ġexec utive","g ing","Ġex hib","Ġdirect ly","ish op","Ġposition s","Ġultim ately","Ġp urs","ell ow","Ġobs erv","Ġnorth west","Ġwe ather","p ing","m as","Ġs le","Ġcontin ue","Ġpresent ed","Ġredu ced","Ġeff ort","Ġafric an","k in","Ġmex ico","Ġc ub","Ġmultip le","Ġadmir al","Ġj er","Ġb ound","Ġche m","w rit","Ġfl ow","Ġeff orts","Ġbr ad","j o","Ġdis m","ib ly","Ġanim als","Ġme chan","19 30","Ġform ation","Ġd yn","Ġhous es","Ġlie ut","Ġch ris","d ing","og ue","Ġstr ateg","ri er","Ġg as","Ġset tle","b and","Ġtri ed","r ical","Ġl in","Ġmem orial","Ġat tended","Ġb atter","Ġstud ies","k n","Ġaccept ed","Ġst ating","Ġfinanc ial","Ġpar al","Ġw ear","Ġt alk","Ġru le","Ġlib r","Ġmad onna","v ement","ac her","d on","Ġp air","4 00","Ġse em","Ġspec ific","Ġsym b","199 3","Ġde pend","199 1","Ġo h","Ġbo b","Ġadv ent","Ġincor por","tr ack","is ation","Ġend ing","Ġbeg ins","Ġth ick","Ġs aint","Ġcer em","Ġrec omm","Ġin ch","Ġorgan ization","Ġr am","Ġpil ot","Ġl if","an es","Ġtr ue","Ġtheat re","Ġtraff ic","ru ction","Ġs ides","Ġen emy","Ġcas es","9 5","Ġscot land","it a","Ġl uc","Ġj ones","Ġk h","Ġro ugh","ill ery","Ġdr ive","Ġar rest","n ers","h ouse","re y","4 2","Ġp ack","op er","Ġfly ing","Ġm ob","Ġrespons ible","Ġconf l","Ġey e","ian ce","Ġb ell","Ġman aged","Ġhon or","Ġform s","Ġw ound","Ġmean ing","Ġ +","Ġus es","Ġar ab","Ġresult ing","Ġg reek","Ġk enn","un e","Ġtourn ament","Ġke pt","Ġro se","Ġ Ã","Ġsound track","Ġlieut enant","Ġacad emy","Ġdro pped","Ġprot est","Ġm os","Ġshow ed","4 1","Ġauthor ity","Ġpolic y","Ġed ge","Ġb ost","Ġpr ime","Ġqu ality","Ġp ath","Ġstru gg","Ġemper or","Ġd ru","Ġf at","Ġw ick","Ġart illery","Ġexp ed","Ġap art","Ġcomb ined","Ġh ors","cl aim","Ġbo at","ceed ed","Ġact ing","Ġfound ed","Ġsecret ary","Ġe ll","Ġspir it","Ġcontin ues","Ġtri al","Ġmark ed","ad a","Ġadminist ration","u it","Ġinc hes","Ġproper ty","ip s","Ġwilliam s","Ġsystem s","Ġenc oun","er o","Ġsubsequ ent","Ġprop os","n am","Ġart ists","Ġb it","Ġcontem porary","Ġattempt s","Ġse arch","e x","Ġext r","Ġterrit ory","Ġpar is","gy pt","i ated","Ġd raft","Ġnort heast","Ġste am","Ġre ar","u ge","Ġcompan ies","t hel","Ġpot ential","Ġmar sh","Ġper f","Ġse g","Ġpres ence","Ġmet res","Ġview ers","Ġplan et","ic ip","Ġallow ing","Ġth ous","Ġstud ios","Ġsix th","ul ations","Ġpre par","j e","Ġrec ent","Ġsc ale","Ġco al","Ġcommun ic","Ġofficial s","Ġcondu cted","194 2","o e","7 8","an i","Ġsupp l","k et","Ġbeh av","Ġe gypt","th ur","Ġob t","z a","Ġjo b","Ġresp ond","Ġpie ce","Ġdig ital","Ġfilm ing","Ġhy d","Ġle e","Ġdef ence","Ġmach ine","Ġhead quar","Ġcontr ast","Ġam ount","Ġtem ple","ol f","Ġtransfer red","Ġcoll abor","stand ing","ing u","Ġlat in","Ġparen ts","Ġy ellow","Ġsc oring","Ġ ic","Ġopp ortun","Ġmaxim um","Ġsen ior","r ain","Ġfig ure","e f","Ġcor por","Ġs ac","Ġcom ing","ag a","Ġstep hen","Ġdis e","Ġall ied","en ge","Ġfeat uring","c le","in em","Ġbe aut","Ġtor ped","Ġthere fore","Ġprim arily","Ġrel atively","Ġox ford","Ġgeor g","Ġele v","Ġown ed","Ġpeak ed","Ġthe ory","Ġstud ent","Ġbecom es","7 6","Ġcol d","Ġtit led","Ġjose ph","Ġtorped o","c a","Ġm ort","Ġact ually","Ġrecomm end","Ġport ion","Ġdist ance","Ġbattles hip","Ġc ert","Ġcit iz","Ġconclud ed","ers ey","Ġst ock","Ġbost on","Ġcon ver","Ġman chester","Ġm ut","Ġinv asion","Ġsit uation","Ġstreng th","Ġwrit e","Ġch air","Ġhar rison","or ter","Ġtrans l","Ġje ff","Ġb ass","Ġpsy ch","Ġbro ke","4 3","os h","Ġfun ction","Ġsh are","Ġobs erved","Ġs elling","Ġphys ical","Ġsec urity","Ġalong side","aren t","Ġh an","Ġdist inct","Ġt ree","Ġsw ed","ent ed","Ġt on","Ġin h","Ġplay s","Ġperson nel","Ġresul ts","Ġconc ent","Ġl iver","Ġdiv ided","Ġsour ces","ste in","Ġd oll","ist ics","Ġpa id","Ġsecond s","Ġres ist","Ġcall ing","Ġc ities","Ġr ating","194 4","Ġslight ly","Ġbord er","Ġshe ll","Ġreturn ing","Ġpower ful","Ġcol umb","p o","Ġf red","8 5","15 0","Ġmanag ement","Ġcont est","in i","Ġar ts","Ġre ject","Ġhistor ian","Ġhistor ical","Ġo tt","Ġimper ial","Ġmin im","Ġon to","Ġsu st","Ġa ctions","Ġel se","Ġv ess","Ġm ile","Ġplat form","am ing","Ġf ear","Ġnot hing","Ġbird s","id er","Ġbe ach","Ġk g","ast ic","Ġfre ed","Ġinflu enced","Ġo w","Ġcan c","Ġactiv ity","Ġinn ings","ct ive","Ġf an","Ġtr ust","il s","Ġi re","Ġb ru","Ġsu c","un t","Ġres idents","Ġath let","Ġcom edy","ell ig","Ġpo et","for ce","Ġb bc","Ġdesign ated","Ġpromot ed","os aur","Ġnomin ated","Ġpass ing","Ġcult ural","Ġres c","Ġro d","Ġcro wn","m ond","Ġcomplet ely","st one","Ġcro at","Ġconfl ict","Ġl ane","Ġprem i","Ġproble m","Ġav enue","Ġl ov","Ġor che","Ġwe ight","Ġb a","Ġhe ight","Ġmain ly","Ġsub s","ph y","Ġsex ual","Ġ Î","Ġtr ail","a ult","Ġstru ck","Ġchart s","ist ry","Ġarm s","Ġm is","ic ed","Ġs ought","Ġrepl ac"]}}
