{"version":"1.0","truncation":{"max_length":256,"strategy":"LongestFirst","stride":0},"padding":{"strategy":{"Fixed":256},"direction":"Right","pad_to_multiple_of":null,"pad_id":0,"pad_type_id":0,"pad_token":"[PAD]"},"added_tokens":[{"id":0,"special":true,"content":"[PAD]","single_word":false,"lstrip":false,"rstrip":false,"normalized":false},{"id":1,"special":true,"content":"[CLS]","single_word":false,"lstrip":false,"rstrip":false,"normalized":false},{"id":2,"special":true,"content":"[EOS]","single_word":false,"lstrip":false,"rstrip":false,"normalized":false}],"normalizer":{"type":"Sequence","normalizers":[{"type":"NFKC"},{"type":"Lowercase"}]},"pre_tokenizer":{"type":"ByteLevel","add_prefix_space":true,"trim_offsets":true},"post_processor":{"type":"TemplateProcessing","single":[{"SpecialToken":{"id":"[CLS]","type_id":0}},{"Sequence":{"id":"A","type_id":0}},{"SpecialToken":{"id":"[EOS]","type_id":0}}],"pair":[{"Sequence":{"id":"A","type_id":0}},{"Sequence":{"id":"B","type_id":1}}],"special_tokens":{"[EOS]":{"id":"[EOS]","ids":[2],"tokens":["[EOS]"]},"[CLS]":{"id":"[CLS]","ids":[1],"tokens":["[CLS]"]}}},"decoder":{"type":"ByteLevel","add_prefix_space":true,"trim_offsets":true},"model":{"dropout":null,"unk_token":null,"continuing_subword_prefix":null,"end_of_word_suffix":null,"fuse_unk":false,"vocab":{"[PAD]":0,"[CLS]":1,"[EOS]":2,"!":3,"\"":4,"#":5,"$":6,"%":7,"&":8,"'":9,"(":10,")":11,"*":12,"+":13,",":14,"-":15,".":16,"/":17,"0":18,"1":19,"2":20,"3":21,"4":22,"5":23,"6":24,"7":25,"8":26,"9":27,":":28,";":29,"<":30,"=":31,">":32,"?":33,"@":34,"A":35,"B":36,"C":37,"D":38,"E":39,"F":40,"G":41,"H":42,"I":43,"J":44,"K":45,"L":46,"M":47,"N":48,"O":49,"P":50,"Q":51,"R":52,"S":53,"T":54,"U":55,"V":56,"W":57,"X":58,"Y":59,"Z":60,"[":61,"\\":62,"]":63,"^":64,"_":65,"`":66,"a":67,"b":68,"c":69,"d":70,"e":71,"f":72,"g":73,"h":74,"i":75,"j":76,"k":77,"l":78,"m":79,"n":80,"o":81,"p":82,"q":83,"r":84,"s":85,"t":86,"u":87,"v":88,"w":89,"x":90,"y":91,"z":92,"{":93,"|":94,"}":95,"~":96,"¡":97,"¢":98,"£":99,"¤":100,"¥":101,"¦":102,"§":103,"¨":104,"©":105,"ª":106,"«":107,"¬":108,"®":109,"¯":110,"°":111,"±":112,"²":113,"³":114,"´":115,"µ":116,"¶":117,"·":118,"¸":119,"¹":120,"º":121,"»":122,"¼":123,"½":124,"¾":125,"¿":126,"À":127,"Á":128,"Â":129,"Ã":130,"Ä":131,"Å":132,"Æ":133,"Ç":134,"È":135,"É":136,"Ê":137,"Ë":138,"Ì":139,"Í":140,"Î":141,"Ï":142,"Ð":143,"Ñ":144,"Ò":145,"Ó":146,"Ô":147,"Õ":148,"Ö":149,"×":150,"Ø":151,"Ù":152,"Ú":153,"Û":154,"Ü":155,"Ý":156,"Þ":157,"ß":158,"à":159,"á":160,"â":161,"ã":162,"ä":163,"å":164,"æ":165,"ç":166,"è":167,"é":168,"ê":169,"ë":170,"ì":171,"í":172,"î":173,"ï":174,"ð":175,"ñ":176,"ò":177,"ó":178,"ô":179,"õ":180,"ö":181,"÷":182,"ø":183,"ù":184,"ú":185,"û":186,"ü":187,"ý":188,"þ":189,"ÿ":190,"Ā":191,"ā":192,"Ă":193,"ă":194,"Ą":195,"ą":196,"Ć":197,"ć":198,"Ĉ":199,"ĉ":200,"Ċ":201,"ċ":202,"Č":203,"č":204,"Ď":205,"ď":206,"Đ":207,"đ":208,"Ē":209,"ē":210,"Ĕ":211,"ĕ":212,"Ė":213,"ė":214,"Ę":215,"ę":216,"Ě":217,"ě":218,"Ĝ":219,"ĝ":220,"Ğ":221,"ğ":222,"Ġ":223,"ġ":224,"Ģ":225,"ģ":226,"Ĥ":227,"ĥ":228,"Ħ":229,"ħ":230,"Ĩ":231,"ĩ":232,"Ī":233,"ī":234,"Ĭ":235,"ĭ":236,"Į":237,"į":238,"İ":239,"ı":240,"Ĳ":241,"ĳ":242,"Ĵ":243,"ĵ":244,"Ķ":245,"ķ":246,"ĸ":247,"Ĺ":248,"ĺ":249,"Ļ":250,"ļ":251,"Ľ":252,"ľ":253,"Ŀ":254,"ŀ":255,"Ł":256,"ł":257,"Ń":258,"Ġt":259,"Ġa":260,"he":261,"in":262,"Ġthe":263,"er":264,"Ġs":265,"on":266,"Ġ,":267,"re":268,"Ġw":269,"Ġc":270,"Ġo":271,"ed":272,"Ġb":273,"nd":274,"Ġf":275,"at":276,"Ġ.":277,"or":278,"it":279,"en":280,"Ġp":281,"Ġin":282,"Ġm":283,"is":284,"es":285,"ar":286,"Ġof":287,"an":288,"al":289,"ing":290,"Ġd":291,"as":292,"Ġand":293,"Ġh":294,"Ġto":295,"ro":296,"ic":297,"Ġl":298,"ion":299,"ĠĊ":300,"ou":301,"Ġn":302,"Ġre":303,"il":304,"Ġe":305,"Ġg":306,"Ġth":307,"Ġ=":308,"le":309,"ent":310,"Ġ\"":311,"Ġ1":312,"st":313,"Ġ@":314,"el":315,"am":316,"om":317,"Ġon":318,"ac":319,"ad":320,"Ġwas":321,"Ġst":322,"Ġbe":323,"Ġhe":324,"ur":325,"ly":326,"Ġ'":327,"Ġfor":328,"Ġu":329,"id":330,"im":331,"ol":332,"ter":333,"Ġas":334,"ir":335,"-@":336,"Ġ@-@":337,"iv":338,"ig":339,"ct":340,"ot":341,"ut":342,"Ġr":343,"et":344,"ith":345,"ay":346,"ow":347,"Ġ2":348,"Ġal":349,"ver":350,"Ġwith":351,"ce":352,"ation":353,"Ġthat":354,"Ġwh":355,"Ġit":356,"ch":357,"Ġcon":358,"Ġat":359,"Ġj":360,"Ġan":361,"Ġby":362,"Ġde":363,"Ġse":364,"Ġis":365,"us":366,"Ġk":367,"Ġv":368,"th":369,"Ġ)":370,"Ġ(":371,"ul":372,"ers":373,"Ġch":374,"and":375,"ain":376,"em":377,"Ġ19":378,"rom":379,"Ġhis":380,"os":381,"her":382,"ag":383,"av":384,"um":385,"est":386,"Ġcom":387,"00":388,"Ġsu":389,"ri":390,"Ġfrom":391,"Ġpro":392,"od":393,"pe":394,"Ġne":395,"ist":396,"if":397,"un":398,"ill":399,"ore":400,"ld":401,"ap":402,"Ġsh":403,"se":404,"Ġy":405,"ere":406,"igh":407,"res":408,"op":409,"ies":410,"Ġro":411,"qu":412,"art":413,"ber":414,"ard":415,"Ġor":416,"Ġex":417,"ich":418,"Ġpl":419,"Ġwere":420,"ak":421,"ate":422,"ort":423,"all":424,"Ġun":425,"ab":426,"Ġle":427,"ant":428,"ud":429,"oc":430,"gh":431,"ong":432,"ated":433,"ip":434,"ity":435,"ess":436,"Ġar":437,"ame":438,"ive":439,"Ġtr":440,"ie":441,"Ġhad":442,"Ġâ":443,"ack":444,"ĠâĢ":445,"ast":446,"red":447,"rou":448,"Ġwhich":449,"our":450,"ge":451,"Ġare":452,"ment":453,"Ġnot":454,"ian":455,"ov":456,"Ġaf":457,"ial":458,"pt":459,"ost":460,"ell":461,"ia":462,"ight":463,"Ġcl":464,"ust":465,"ary":466,"Ġwor":467,"ine":468,"Ġwhe":469,"pp":470,"cl":471,"rit":472,"ther":473,"Ġ3":474,"oun":475,"Ġad":476,"ical":477,"ave":478,"Ġsc":479,"cc":480,"Ġcomp":481,"Ġbut":482,"Ġen":483,"ction":484,"ord":485,"Ġthis":486,"Ġfir":487,"Ġher":488,"Ġ200":489,"te":490,"ould":491,"Ġtw":492,"Ġab":493,"ish":494,"Ġafter":495,"Ġcont":496,"Ġfirst":497,"ous":498,"so":499,"Ġte":500,"ide":501,"Ġ20":502,"Ġsp":503,"ure":504,"Ġits":505,"Ġnew":506,"ign":507,"Ġtheir":508,"Ġam":509,"Ġall":510,"Ġ;":511,"Ġman":512,"per":513,"Ġone":514,"ra":515,"ition":516,"Ġint":517,"Ġper":518,"ass":519,"ĠâĢĵ":520,"Ġalso":521,"ub":522,"Ġus":523,"Ġmar":524,"ire":525,"og":526,"ok":527,"Ġshe":528,"ru":529,"ear":530,"Ġ:":531,"ater":532,"ome":533,"Ġtim":534,"Ġres":535,"out":536,"orm":537,"age":538,"Ġrec":539,"ond":540,"Ġthey":541,"ry":542,"Ġser":543,"Ġi":544,"hed":545,"Ġtwo":546,"Ġfe":547,"Ġpart":548,"Ġ4":549,"Ġag":550,"ue":551,"Ġwho":552,"Ġcomm":553,"du":554,"Ġdes":555,"ans":556,"Ġhave":557,"Ġ5":558,"ree":559,"Ġbec":560,"ally":561,"ff":562,"Ġdis":563,"ance":564,"ile":565,"Ġgo":566,"Ġ18":567,"Ġwe":568,".@":569,"Ġ@.@":570,"pl":571,"Ġover":572,"Ġyear":573,"own":574,"ted":575,"ice":576,"Ġoff":577,"iz":578,"Ġplay":579,"Ġhas":580,"uring":581,"Ġbeen":582,"ence":583,"Ġco":584,"Ġother":585,"ect":586,"Ġ201":587,",@":588,"Ġ@,@":589,"Ġim":590,"ough":591,"ke":592,"are":593,"ory":594,"Ġcol":595,"ely":596,"ts":597,"Ġout":598,"Ġme":599,"ations":600,"clud":601,"Ġup":602,"ach":603,"ace":604,"Ġinter":605,"Ġpre":606,"ound":607,"land":608,"Ġev":609,"Ġpr":610,"Ġfin":611,"wn":612,"Ġwhen":613,"Ġbo":614,"ade":615,"ib":616,"act":617,"ions":618,"Ġspe":619,"Ġtime":620,"Ġduring":621,"Ġcan":622,"ail":623,"urn":624,"Ġinclud":625,"ress":626,"ced":627,"Ġap":628,"Ġfl":629,"ric":630,"ens":631,"Ġwould":632,"ks":633,"Ġsec":634,"man":635,"Ġfil":636,"one":637,"Ġind":638,"we":639,"ward":640,"Ġbr":641,"ang":642,"nder":643,"Ġinto":644,"Ġhim":645,"Ġatt":646,"Ġbl":647,"ite":648,"ult":649,"Ġear":650,"oll":651,"ates":652,"Ġ6":653,"Ġmore":654,"Ġqu":655,"able":656,"Ġjo":657,"Ġwar":658,"ces":659,"ased":660,"Ġpe":661,"Ġchar":662,"ited":663,"ren":664,"Ġcent":665,"amp":666,"ied":667,"Ġrep":668,"ase":669,"Ġbet":670,"Ġfilm":671,"rough":672,"way":673,"Ġgr":674,"ount":675,"Ġform":676,"les":677,"form":678,"Ġ7":679,"ors":680,"ason":681,"aw":682,"Ġpo":683,"ember":684,"ings":685,"Ġwhile":686,"ose":687,"Ġacc":688,"vel":689,"Ġmus":690,"Ġgame":691,"ne":692,"ild":693,"Ġmost":694,"ve":695,"ered":696,"Ġthere":697,"Ġrem":698,"Ġcar":699,"Ġfr":700,"ind":701,"Ġnor":702,"ck":703,"Ġpar":704,"Ġso":705,"Ġgen":706,"Ġsou":707,"Ġass":708,"ake":709,"ious":710,"att":711,"old":712,"Ġcons":713,"Ġhow":714,"ents":715,"aus":716,"Ġ8":717,"fer":718,"iss":719,"reat":720,"Ġem":721,"Ġno":722,"Ġlater":723,"Ġbu":724,"Ġsong":725,"ick":726,"round":727,"Ġreg":728,"Ġprodu":729,"Ġagain":730,"ft":731,"Ġonly":732,"gan":733,"Ġact":734,"rib":735,"ved":736,"Ġunder":737,"Ġwork":738,"ood":739,"Ġsy":740,"Ġmay":741,"Ġthem":742,"Ġkn":743,"Ġ9":744,"Ġsome":745,"Ġthan":746,"Ġret":747,"ters":748,"Ġthree":749,"als":750,"Ġabout":751,"ubl":752,"ix":753,"Ġ199":754,"ath":755,"ween":756,"Ġver":757,"Ġbetween":758,"ollow":759,"ph":760,"ons":761,"hip":762,"Ġday":763,"Ġhigh":764,"Ġbro":765,"Ġrele":766,"Ġeng":767,"Ġthrough":768,"Ġmon":769,"oth":770,"Ġrecord":771,"Ġfollow":772,"Ġmin":773,"eric":774,"Ġma":775,"fore":776,"ational":777,"Ġapp":778,"Ġsecond":779,"Ġrel":780,"Ġend":781,"Ġli":782,"Ġph":783,"Ġnum":784,"ict":785,"Ġsub":786,"Ġac":787,"Ġele":788,"ton":789,"ug":790,"Ġimp":791,"Ġpres":792,"iew":793,"Ġ00":794,"Ġsa":795,"Ġed":796,"Ġair":797,"Ġalb":798,"Ġseason":799,"Ġfour":800,"Ġep":801,"Ġdef":802,"Ġpos":803,"Ġdo":804,"Ġworld":805,"Ġameric":806,"Ġnorth":807,"Ġinc":808,"Ġent":809,"Ġwhere":810,"cted":811,"ral":812,"Ġbefore":813,"Ġteam":814,"ning":815,"Ġmov":816,"ular":817,"ating":818,"ames":819,"Ġspec":820,"Ġwrit":821,"Ġarm":822,"Ġmade":823,"Ġsm":824,"Ġlar":825,"Ġsch":826,"ision":827,"Ġloc":828,"Ġgu":829,"Ġwill":830,"ived":831,"Ġsuch":832,"hes":833,"Ġsur":834,"Ġcap":835,"Ġpol":836,"Ġdr":837,"Ġsing":838,"son":839,"Ġalbum":840,"Ġpubl":841,"Ġ000":842,"ished":843,"Ġsever":844,"io":845,"Ġyears":846,"ained":847,"ics":848,"Ġsupp":849,"iel":850,"Ġcall":851,"ode":852,"ever":853,"Ġ10":854,"ll":855,"Ġsouth":856,"Ġshow":857,"Ġback":858,"ident":859,"ros":860,"Ġadd":861,"Ġrev":862,"Ġ/":863,"Ġgener":864,"Ġboth":865,"ual":866,"tern":867,"ily":868,"Ġinv":869,"Ġthen":870,"Ġhowever":871,"Ġappe":872,"Ġepis":873,"Ġcount":874,"Ġused":875,"Ġdec":876,"Ġrece":877,"ute":878,"Ġmill":879,"ale":880,"ific":881,"Ġbeing":882,"Ġthese":883,"Ġwell":884,"ury":885,"Ġmet":886,"Ġset":887,"Ġstud":888,"Ġseries":889,"Ġagainst":890,"Ġbatt":891,"Ġz":892,"ten":893,"ank":894,"Ġcharac":895,"Ġinst":896,"ife":897,"Ġfound":898,"Ġnumber":899,"Ġste":900,"velop":901,"Ġbel":902,"Ġlead":903,"Ġmany":904,"Ġ17":905,"Ġmusic":906,"Ġsim":907,"Ġmat":908,"orn":909,"Ġperform":910,"Ġ0":911,"Ġmain":912,"ane":913,"Ġlong":914,"other":915,"Ġop":916,"Ġcity":917,"Ġter":918,"int":919,"Ġcre":920,"ool":921,"oy":922,"Ġbrit":923,"ause":924,"ince":925,"end":926,"Ġdevelop":927,"Ġbecame":928,"ert":929,"Ġunited":930,"Ġsl":931,"Ġdire":932,"igin":933,"Ġseveral":934,"Ġhist":935,"Ġart":936,"Ġincluding":937,"Ġship":938,"ĠâĢĶ":939,"hn":940,"Ġdep":941,"au":942,"ather":943,"air":944,"Ġstate":945,"Ġmil":946,"Ġexp":947,"ise":948,"Ġinf":949,"Ġearly":950,"Ġdiv":951,"ier":952,"Ġorigin":953,"ised":954,"ower":955,"Ġob":956,"vern":957,"Ġ198":958,"Ġ15":959,"Ġ12":960,"Ġpop":961,"Ġtrans":962,"Ġdid":963,"its":964,"ars":965,"Ġdist":966,"ired":967,"ement":968,"ject":969,"ork":970,"ley":971,"ures":972,"ines":973,"Ġnov":974,"Ġ194":975,"rop":976,"und":977,"iet":978,"Ġcontin":979,"Ġgovern":980,"olog":981,"Ġwin":982,"ities":983,"Ġpers":984,"der":985,"roup":986,"Ġprov":987,"led":988,"az":989,"Ġepisode":990,"til":991,"Ġstates":992,"elf":993,"ross":994,"ared":995,"Ġcrit":996,"anc":997,"Ġsaid":998,"Ġjohn":999,"Ġfollowing":1000,"ful":1001,"ird":1002,"Ġke":1003,"Ġest":1004,"Ġconst":1005,"Ġdesign":1006,"Ġgroup":1007,"Ġcould":1008,"Ġdif":1009,"Ġstr":1010,"ys":1011,"ative":1012,"iver":1013,"Ġreturn":1014,"Ġmed":1015,"Ġ16":1016,"Ġrun":1017,"Ġoper":1018,"Ġamerican":1019,"ock":1020,"Ġdesc":1021,"ouse":1022,"na":1023,"Ġalth":1024,"Ġknown":1025,"tend":1026,"Ġalthough":1027,"Ġcomple":1028,"ield":1029,"Ġaust":1030,"Ġany":1031,"ivers":1032,"Ġwest":1033,"Ġger":1034,"Ġsign":1035,"Ġ197":1036,"Ġmod":1037,"Ġking":1038,"Ġjun":1039,"ron":1040,"Ġserv":1041,"Ġpass":1042,"Ġlo":1043,"emb":1044,"Ġdown":1045,"ually":1046,"Ġ196":1047,"Ġ11":1048,"Ġland":1049,"uch":1050,"ty":1051,"Ġfam":1052,"Ġnear":1053,"ued":1054,"Ġbegan":1055,"ting":1056,"Ġlike":1057,"gr":1058,"Ġfeat":1059,"Ġoffic":1060,"ined":1061,"Ġeff":1062,"Ġuntil":1063,"row":1064,"ople":1065,"ism":1066,"Ġdisc":1067,"ange":1068,"Ġbar":1069,"aking":1070,"Ġhar":1071,"Ġalong":1072,"Ġschool":1073,"Ġbecause":1074,"Ġown":1075,"ern":1076,"ided":1077,"Ġreleased":1078,"Ġopen":1079,"Ġport":1080,"ccess":1081,"ins":1082,"ized":1083,"Ġcalled":1084,"Ġnational":1085,"Ġprev":1086,"Ġel":1087,"ger":1088,"Ġcr":1089,"Ġthough":1090,"uc":1091,"Ġmaj":1092,"ists":1093,"Ġwee":1094,"iam":1095,"Ġpeople":1096,"ured":1097,"stem":1098,"Ġyou":1099,"ially":1100,"up":1101,"Ġins":1102,"Ġgre":1103,"ution":1104,"Ġann":1105,"Ġclass":1106,"Ġcolle":1107,"ments":1108,"Ġmillion":1109,"osed":1110,"Ġjust":1111,"ium":1112,"Ġcour":1113,"Ġever":1114,"Ġsystem":1115,"cept":1116,"Ġbritish":1117,"ull":1118,"Ġge":1119,"Ã©":1120,"Ġsince":1121,"Ġhead":1122,"Ġla":1123,"Ġ13":1124,"Ġsix":1125,"ner":1126,"Ġadv":1127,"Ġbest":1128,"Ġaut":1129,"Ġaround":1130,"Ġaug":1131,"ark":1132,"Ġaward":1133,"Ġmajor":1134,"Ġlife":1135,"Ġcor":1136,"Ġ$":1137,"Ġif":1138,"Ġju":1139,"Ġeach":1140,"Ġsuccess":1141,"ains":1142,"Ġbre":1143,"Ġattack":1144,"Ġsept":1145,"any":1146,"xt":1147,"gest":1148,"ah":1149,"Ġvar":1150,"Ġcharacter":1151,"oot":1152,"Ġuse":1153,"Ġav":1154,"Ġseptember":1155,"Ġdescrib":1156,"Ġaugust":1157,"Ġstart":1158,"amed":1159,"Ġconf":1160,"rap":1161,"get":1162,"ible":1163,"Ġsame":1164,"Ġroad":1165,"Ġtri":1166,"Ġhel":1167,"ont":1168,"ik":1169,"Ġeast":1170,"aced":1171,"Ġfinal":1172,"Ġline":1173,"Ġsupport":1174,"Ġocc":1175,"Ġoct":1176,"Ġanother":1177,"ris":1178,"Ġdem":1179,"Ġfive":1180,"Ġcare":1181,"Ġpublic":1182,"aining":1183,"Ġ14":1184,"Ġprom":1185,"Ġsw":1186,"Ġkm":1187,"Ġty":1188,"Ġgreat":1189,"Ġbuild":1190,"Ġlit":1191,"Ġra":1192,"Ġold":1193,"Ġconc":1194,"els":1195,"Ġaustral":1196,"aving":1197,"Ġ195":1198,"Ġext":1199,"Ġmy":1200,"Ġgl":1201,"Ġtook":1202,"Ġcamp":1203,"Ġband":1204,"Ġgerman":1205,"ues":1206,"enn":1207,"Ġbook":1208,"Ġarea":1209,"Ġmid":1210,"Ġhouse":1211,"Ġsmall":1212,"ob":1213,"ove":1214,"ann":1215,"Ġreport":1216,"Ġ193":1217,"ep":1218,"Ġconsid":1219,"Ġcentury":1220,"ober":1221,"Ġturn":1222,"ped":1223,"Ġreceived":1224,"uss":1225,"Ġoctober":1226,"Ġcontro":1227,"ets":1228,"ants":1229,"ives":1230,"ble":1231,"Ġstre":1232,"Ġunivers":1233,"ically":1234,"Ġsk":1235,"hing":1236,"Ġ191":1237,"Ġwhat":1238,"Ġdue":1239,"Ġgames":1240,"Ġpartic":1241,"Ġshort":1242,"Ġlast":1243,"Ġgovernment":1244,"Ġdirect":1245,"ility":1246,"Ġref":1247,"Ġhal":1248,"Ġrest":1249,"Ġmarch":1250,"ately":1251,"ina":1252,"ene":1253,"cess":1254,"Ġcommand":1255,"Ġleg":1256,"Ġes":1257,"Ġperson":1258,"Ġhome":1259,"gin":1260,"Ġ]":1261,"Ġ[":1262,"ians":1263,"ored":1264,"Ġjan":1265,"ink":1266,"Ġway":1267,"Ġjune":1268,"tle":1269,"Ġmag":1270,"ril":1271,"Ġsingle":1272,"Ġthird":1273,"Ġmark":1274,"Ġgeneral":1275,"over":1276,"Ġmen":1277,"ime":1278,"Ġsqu":1279,"Ġtit":1280,"ission":1281,"Ġjuly":1282,"Ġchild":1283,"Ġ%":1284,"Ġcapt":1285,"iving":1286,"pect":1287,"Ġnovember":1288,"urch":1289,"Ġtrack":1290,"Ġdeath":1291,"Ġdel":1292,"Ġreview":1293,"ash":1294,"Ġmuch":1295,"Ġevent":1296,"Ġisland":1297,"raft":1298,"Ġarr":1299,"Ġyork":1300,"Ġapril":1301,"uro":1302,"Ġfur":1303,"Ġdam":1304,"Ġtop":1305,"Ġlarge":1306,"uary":1307,"Ġbattle":1308,"che":1309,"Ġaccord":1310,"Ġpower":1311,"lish":1312,"Ġvers":1313,"Ġeven":1314,"Ġleft":1315,"Ġdece":1316,"Ġtown":1317,"Ġsoc":1318,"ural":1319,"ctions":1320,"Ġcast":1321,"ional":1322,"..":1323,"Ġche":1324,"Ġvide":1325,"ient":1326,"Ġallow":1327,"ively":1328,"Ġintern":1329,"Ġgun":1330,"Ġdiffer":1331,"Ġmonth":1332,"Ġ30":1333,"idge":1334,"Ġstar":1335,"ilt":1336,"Ġkill":1337,"Ġpat":1338,"Ġstory":1339,"bo":1340,"Ġappro":1341,"Ġvis":1342,"aim":1343,"ms":1344,"Ġfamily":1345,"Ġbased":1346,"Ġplace":1347,"ague":1348,"Ġcur":1349,"Ġaddition":1350,"Ġnow":1351,"mber":1352,"Ġvict":1353,"min":1354,"ven":1355,"Ġincre":1356,"Ġcal":1357,"ales":1358,"Ġpark":1359,"Ġexpl":1360,"Ġblack":1361,"ified":1362,"Ġant":1363,"Ġright":1364,"Ġ...":1365,"Ġlaw":1366,"Ġcompany":1367,"Ġarmy":1368,"avy":1369,"empt":1370,"rote":1371,"Ġdecember":1372,"Ġhistory":1373,"eng":1374,"Ġclub":1375,"Ġplayed":1376,"Ġ25":1377,"Ġmor":1378,"Ġstorm":1379,"by":1380,"Ġaccording":1381,"Ġpost":1382,"ling":1383,"Ġincluded":1384,"Ġriver":1385,"ps":1386,"Ġname":1387,"ats":1388,"Ġlos":1389,"Ġjanuary":1390,"Ġwater":1391,"Ġled":1392,"Ġred":1393,"Ġ192":1394,"Ġir":1395,"rist":1396,"ograp":1397,"omet":1398,"bert":1399,"Ġhand":1400,"aged":1401,"Ġwind":1402,"ball":1403,"ony":1404,"apan":1405,"Ġwom":1406,"Ġwrote":1407,"inc":1408,"Ġii":1409,"Ġwon":1410,"Ġang":1411,"Ġhum":1412,"ently":1413,"erg":1414,"Ġresp":1415,"Ġjapan":1416,"Ġtimes":1417,"ages":1418,"Ġstru":1419,"Ġorgan":1420,"Ġopp":1421,"Ġval":1422,"ience":1423,"Ġrequ":1424,"Ġprevious":1425,"ital":1426,"Ġposition":1427,"Ġwithin":1428,"port":1429,"Ġappear":1430,"ody":1431,"Ġmake":1432,"med":1433,"Ġdescribed":1434,"Ġinit":1435,"Ġrad":1436,"Ġthose":1437,"Ġeuro":1438,"Ġdeb":1439,"Ġstill":1440,"Ġfore":1441,"Ġchamp":1442,"Ġvideo":1443,"Ġbill":1444,"Ġfar":1445,"ides":1446,"Ġnext":1447,"ott":1448,"Ġlate":1449,"Ġmemb":1450,"Ġstand":1451,"Ġnamed":1452,"omin":1453,"ney":1454,"Ġbelie":1455,"Ġbus":1456,"Ġamong":1457,"Ġoriginal":1458,"Ġrelease":1459,"Ġattempt":1460,"Ġeffect":1461,"por":1462,"Ġfurther":1463,"iven":1464,"Ġrepl":1465,"Ġlist":1466,"ster":1467,"ilar":1468,"Ġleague":1469,"Ġforce":1470,"Ġvery":1471,"Ġdest":1472,"Ġtele":1473,"Ġposs":1474,"cy":1475,"Ġfoot":1476,"Ġx":1477,"Ġview":1478,"Ġiss":1479,"ister":1480,"Ġbas":1481,"mer":1482,"Ġroute":1483,"iod":1484,"Ġrom":1485,"Ġreal":1486,"aff":1487,"bru":1488,"ention":1489,"Ġcy":1490,"ret":1491,"Ġ100":1492,"Ġcommun":1493,"Ġproduction":1494,"Ġexper":1495,"Ġspecies":1496,"erv":1497,"rench":1498,"ness":1499,"ior":1500,"ption":1501,"Ġmembers":1502,"ached":1503,"ival":1504,"Ġconstru":1505,"Ġsound":1506,"Ġpolit":1507,"pend":1508,"Ġwhite":1509,"Ġmilit":1510,"Ġformer":1511,"Ġchrist":1512,"Ġtour":1513,"Ġcoun":1514,"Ġfle":1515,"Ġfebru":1516,"Ġfebruary":1517,"Ġsimilar":1518,"Ġinfl":1519,"arch":1520,"Ġtak":1521,"Ġer":1522,"ances":1523,"Ġnort":1524,"Ġsold":1525,"Ġperiod":1526,"riend":1527,"Ġpa":1528,"br":1529,"Ġdivision":1530,"Ġdays":1531,"Ġbuilt":1532,"Ġmatch":1533,"Ġplan":1534,"Ġtem":1535,"ences":1536,"Ġside":1537,"Ġnat":1538,"ched":1539,"Ġroy":1540,"vers":1541,"Ġsuper":1542,"Ġprop":1543,"Ġheld":1544,"Ġeurope":1545,"ple":1546,"Ġyoun":1547,"Ġuniversity":1548,"Ġrock":1549,"Ġlight":1550,"Ġfrench":1551,"Ġgood":1552,"Ġpoint":1553,"Ġcle":1554,"ried":1555,"hen":1556,"Ġ2010":1557,"Ġservice":1558,"Ġsay":1559,"hor":1560,"Ġpresident":1561,"Ġlocal":1562,"Ġrole":1563,"Ġestab":1564,"Ġdesp":1565,"Ġmo":1566,"augh":1567,"uted":1568,"wards":1569,"Ġpresent":1570,"Ġequ":1571,"tended":1572,"Ġorder":1573,"Ġ21":1574,"Ġfre":1575,"ec":1576,"Ġdet":1577,"Ġcame":1578,"ropical":1579,"Ġevery":1580,"Ġtot":1581,"hy":1582,"Ġnever":1583,"Ġcaus":1584,"Ġsol":1585,"Ġbeh":1586,"ham":1587,"Ġhaving":1588,"Ġwilliam":1589,"Ġweek":1590,"self":1591,"Ġcross":1592,"oci":1593,"Ġeas":1594,"Ġresult":1595,"ense":1596,"Ġfew":1597,"Ġsum":1598,"ford":1599,"ĠÂ":1600,"Ġsug":1601,"ulation":1602,"Ġje":1603,"Ġtro":1604,"Ġtest":1605,"Ġassoci":1606,"Ġprof":1607,"Ġplayer":1608,"Ġchart":1609,"sh":1610,"Ġsee":1611,"ax":1612,"Ġtake":1613,"app":1614,"Ġ2008":1615,"Ġoften":1616,"Ġcommon":1617,"ices":1618,"Ġstat":1619,"ards":1620,"Ġhalf":1621,"Ġhur":1622,"Ġcareer":1623,"Ġ2009":1624,"Ġ24":1625,"ler":1626,"me":1627,"Ġcontinued":1628,"Ġgeor":1629,"Ġwat":1630,"Ġtech":1631,"Ġlow":1632,"ots":1633,"Ġfire":1634,"Ġpri":1635,"Ġclaim":1636,"Ġsty":1637,"Ġhistor":1638,"craft":1639,"ring":1640,"Ġ2011":1641,"Ġlevel":1642,"Ġsent":1643,"Ġmich":1644,"ator":1645,"Ġdifferent":1646,"Ġwithout":1647,"Ġpress":1648,"Ġfun":1649,"bs":1650,"Ġelect":1651,"estern":1652,"ese":1653,"Ġdespite":1654,"atic":1655,"Ġcover":1656,"Ġengland":1657,"Ġ&":1658,"ology":1659,"gram":1660,"Ġless":1661,"Ġmer":1662,"Ġcourt":1663,"Ġten":1664,"Ġparty":1665,"read":1666,"af":1667,"Ġconsidered":1668,"Ġcontr":1669,"Ġ22":1670,"ops":1671,"Ġec":1672,"gress":1673,"Ġdav":1674,"Ġdevelopment":1675,"aster":1676,"let":1677,"Ġchurch":1678,"Ġ2007":1679,"Ġarch":1680,"Ġrepres":1681,"par":1682,"Ġly":1683,"Ġtre":1684,"Ġnight":1685,"Ġcountry":1686,"ves":1687,"Ġcounty":1688,"Ġcomb":1689,"Ġinflu":1690,"Ġchampions":1691,"Ġfield":1692,"Ġroyal":1693,"Ġsongs":1694,"Ġfriend":1695,"Ġhy":1696,"Ġversion":1697,"Ġenglish":1698,"Ġmilitary":1699,"Ġmoved":1700,"Ġhighway":1701,"Ġhig":1702,"Ġdon":1703,"Ġwritten":1704,"Ġtrad":1705,"Ġwant":1706,"Ġstrong":1707,"ones":1708,"Ġdefe":1709,"rodu":1710,"co":1711,"vision":1712,"Ġconv":1713,"Ġprogram":1714,"Ġvol":1715,"Ġ2012":1716,"Ġprote":1717,"Ġbecome":1718,"Ġforces":1719,"Ġlim":1720,"Ġmi":1721,"Ġanim":1722,"Ġlittle":1723,"Ġchang":1724,"alk":1725,"side":1726,"Ġfact":1727,"Ġlost":1728,"Ġproject":1729,"ertain":1730,"ches":1731,"ize":1732,"Ġlond":1733,"Ġinternational":1734,"line":1735,"Ġbuilding":1736,"Ġ23":1737,"Ġson":1738,"Ġgiven":1739,"Ġmiss":1740,"urs":1741,"Ġtropical":1742,"Ġcontrol":1743,"Ġlondon":1744,"Ġtotal":1745,"Ġinvol":1746,"Ġaff":1747,"Ġauthor":1748,"Ġsuggest":1749,"elt":1750,"Ġord":1751,"Ġrefer":1752,"Ġhit":1753,"Ġbur":1754,"ison":1755,"utes":1756,"Ġphil":1757,"Ġ190":1758,"Ġannoun":1759,"Ġvir":1760,"hel":1761,"be":1762,"ged":1763,"atter":1764,"Ġlet":1765,"Ġlab":1766,"Ġhour":1767,"Ġread":1768,"Ġstreet":1769,"ald":1770,"Ġimport":1771,"Ġfree":1772,"iment":1773,"ened":1774,"Ġdecl":1775,"iety":1776,"ery":1777,"Ġget":1778,"Ġcanad":1779,"Ġho":1780,"Ġeight":1781,"roy":1782,"ai":1783,"sequ":1784,"Ġve":1785,"Ġvi":1786,"Ġrail":1787,"Ġperformance":1788,"que":1789,"Ġgold":1790,"ille":1791,"Ġsal":1792,"Ġsit":1793,"Ġstation":1794,"Ġgave":1795,"Ġearl":1796,"Ġwent":1797,"ering":1798,"Ġfind":1799,"Ġrepresent":1800,"rent":1801,"Ġcir":1802,"ae":1803,"Ġreturned":1804,"Ġsomet":1805,"ailed":1806,"Ġusing":1807,"Ġbroad":1808,"Ġjack":1809,"Ġneed":1810,"Ġfather":1811,"Ġpublished":1812,"Ġcoast":1813,"Ġproduced":1814,"Ġhen":1815,"Ġwestern":1816,"Ġcompet":1817,"Ġarg":1818,"Ġnews":1819,"Ġreported":1820,"Ġobs":1821,"ead":1822,"xim":1823,"Ġmass":1824,"Ġhun":1825,"Ġpopular":1826,"ably":1827,"Ġparticular":1828,"Ġrecorded":1829,"Ġchildren":1830,"ape":1831,"Ġtelevision":1832,"Ġinde":1833,"Ġ2006":1834,"Ġdu":1835,"ories":1836,"Ġstated":1837,"Ġaircraft":1838,"aign":1839,"Ġspecial":1840,"Ġcult":1841,"ama":1842,"Ġships":1843,"Ġinterest":1844,"itions":1845,"Ġground":1846,"Ġcampaign":1847,"Ġshould":1848,"Ġinclude":1849,"Ġlive":1850,"Ġlove":1851,"Ġmaking":1852,"Ġide":1853,"Ġdev":1854,"used":1855,"Ġdou":1856,"day":1857,"Ġcritic":1858,"omb":1859,"yl":1860,"Ġage":1861,"mit":1862,"Ġvo":1863,"ief":1864,"Ġfront":1865,"Ġwomen":1866,"ument":1867,"Ġhurric":1868,"Ġcentral":1869,"Ġ27":1870,"Ġcoll":1871,"aren":1872,"Ġcop":1873,"Ġthroughout":1874,"Ġprim":1875,"ints":1876,"Ġupon":1877,"Ġ50":1878,"Ġ28":1879,"Ġyoung":1880,"Ġonce":1881,"osp":1882,"iness":1883,"ploy":1884,"raw":1885,"Ġhom":1886,"Ġsuff":1887,"onom":1888,"Ġhimself":1889,"Ġofficial":1890,"Ġaustralia":1891,"Ġ2013":1892,"Ġchampionship":1893,"Ġdestroy":1894,"Ġtechn":1895,"Ġaud":1896,"ying":1897,"Ġdepart":1898,"Ġmot":1899,"Ġfac":1900,"Ġrich":1901,"Ġwall":1902,"Ġsen":1903,"Ġcharacters":1904,"ned":1905,"Ġnon":1906,"Ġsouther":1907,"cer":1908,"Ġvill":1909,"Ġball":1910,"ensive":1911,"Ġtrav":1912,"rest":1913,"Ġ40":1914,"rew":1915,"Ġcas":1916,"play":1917,"alth":1918,"Ġhor":1919,"Ġfav":1920,"Ġsea":1921,"Ġplayers":1922,"Ġsquad":1923,"Ġrelations":1924,"itive":1925,"Ġft":1926,"Ġ26":1927,"Ġpra":1928,"Ġcam":1929,"Ġcirc":1930,"Ġinstead":1931,"eder":1932,"Ġtur":1933,"Ġfall":1934,"Ġcommit":1935,"Ġsouthern":1936,"ither":1937,"Ġbase":1938,"Ġtitle":1939,"Ġseven":1940,"akes":1941,"Ġjames":1942,"Ġwriting":1943,"lo":1944,"Ġaway":1945,"Ġ189":1946,"Ġcost":1947,"ges":1948,"Ġmad":1949,"acy":1950,"Ġbegin":1951,"Ġacross":1952,"Ġfem":1953,"Ġintrodu":1954,"Ġdied":1955,"Ġremained":1956,"com":1957,"Ġmonths":1958,"Ġcenter":1959,"Ġfort":1960,"Ġsignific":1961,"Ġdeveloped":1962,"Ġce":1963,"Ġgrand":1964,"Ġpromot":1965,"dom":1966,"Ġfull":1967,"Ġhall":1968,"Ġpolitical":1969,"Ġlook":1970,"Ġmount":1971,"Ġvarious":1972,"ries":1973,"Ġmanag":1974,"Ġfif":1975,"Ġmodern":1976,"Ġhurricane":1977,"Ġwood":1978,"uck":1979,"Ġrace":1980,"Ġtoo":1981,"ration":1982,"Ġmc":1983,"Ġput":1984,"Ġaver":1985,"ency":1986,"Ġhill":1987,"fic":1988,"Ġhol":1989,"Ġnet":1990,"Ġham":1991,"Ġill":1992,"Ġcat":1993,"Ġfight":1994,"Ġcond":1995,"Ġhon":1996,"Ġoffice":1997,"hern":1998,"isted":1999,"Ġbig":2000,"Ġpal":2001,"inted":2002,"Ġhard":2003,"Ġbow":2004,"most":2005,"ael":2006,"Ġworks":2007,"Ġfelt":2008,"ef":2009,"Ġareas":2010,"Ġsil":2011,"Ġnoted":2012,"ked":2013,"Ġindust":2014,"orts":2015,"Ġamerica":2016,"Ġpit":2017,"Ġeventually":2018,"Ġruss":2019,"Ġstyle":2020,"erc":2021,"Ġannounced":2022,"Ġcreated":2023,"Ġmiles":2024,"Ġreached":2025,"Ġbrother":2026,"Ġcollege":2027,"Ġdiscover":2028,"Ġhot":2029,"Ġdi":2030,"Ġcro":2031,"Ġconstruction":2032,"Ġjapanese":2033,"Ġstri":2034,"Ġengine":2035,"ming":2036,"Ġsan":2037,"Ġsun":2038,"Ġsuccessful":2039,"Ġnorthern":2040,"Ġhold":2041,"Ġ2005":2042,"Ġmal":2043,"Ġbody":2044,"Ġseen":2045,"Ġpain":2046,"Ġsele":2047,"Ġheavy":2048,"Ġstruct":2049,"ising":2050,"cast":2051,"Ġcut":2052,"ĠâĢĻ":2053,"Ġagre":2054,"Ġfollowed":2055,"Ġ29":2056,"Ġrange":2057,"gether":2058,"Ġtogether":2059,"Ġsym":2060,"field":2061,"Ġmeet":2062,"Ġprot":2063,"Ġprocess":2064,"Ġmem":2065,"Ġperformed":2066,"Ġciv":2067,"ization":2068,"iting":2069,"Ġbrown":2070,"Ġserved":2071,"Ġhelp":2072,"Ġmember":2073,"Ġactiv":2074,"work":2075,"Ġ2014":2076,"Ġbridge":2077,"Ġknow":2078,"ality":2079,"Ġgeorge":2080,"Ġmix":2081,"Ġfootball":2082,"Ġtor":2083,"Ġesc":2084,"Ġkilled":2085,"Ġmur":2086,"Ġsignificant":2087,"Ġgod":2088,"ana":2089,"idence":2090,"Ġprofess":2091,"ids":2092,"Ġable":2093,"Ġtaken":2094,"Ġsaw":2095,"cent":2096,"olution":2097,"Ġestabl":2098,"Ġmm":2099,"ature":2100,"Ġident":2101,"Ġimpro":2102,"rict":2103,"elling":2104,"Ġsat":2105,"ze":2106,"Ġbecom":2107,"Ġaction":2108,"Ġround":2109,"Ġque":2110,"Ġpoints":2111,"Ġhuman":2112,"Ġborn":2113,"Ġdoes":2114,"Ġthought":2115,"oss":2116,"Ġestablished":2117,"Ġmean":2118,"Ġoriginally":2119,"Ġinvest":2120,"ius":2121,"bor":2122,"Ġthom":2123,"ds":2124,"Ġaustralian":2125,"Ġgar":2126,"Ġsubsequ":2127,"Ġgrow":2128,"aval":2129,"Ġenc":2130,"enth":2131,"Ġothers":2132,"Ġstage":2133,"ament":2134,"enced":2135,"Ġbri":2136,"irl":2137,"Ġentire":2138,"Ġappeared":2139,"ression":2140,"ara":2141,"Ġ!":2142,"Ġsn":2143,"Ġdavid":2144,"Ġlocated":2145,"Ġdirector":2146,"cil":2147,"Ġsurv":2148,"Ġredu":2149,"Ġfeatures":2150,"ctor":2151,"Ġden":2152,"ray":2153,"ett":2154,"Ġvoc":2155,"ox":2156,"Ġcrew":2157,"oon":2158,"iers":2159,"Ġcommission":2160,"ground":2161,"Ġbusiness":2162,"Ġstarted":2163,"rick":2164,"Ġplaying":2165,"Ġafric":2166,"Ġpot":2167,"bur":2168,"aves":2169,"Ġmother":2170,"odes":2171,"less":2172,"Ġcaused":2173,"ought":2174,"Ġdecided":2175,"Ġcivil":2176,"Ġcritics":2177,"yn":2178,"ressed":2179,"ript":2180,"Ġkingdom":2181,"Ġfeet":2182,"Ġur":2183,"Ġrather":2184,"Ġrank":2185,"ators":2186,"ship":2187,"Ġfourth":2188,"Ġmater":2189,"Ġfell":2190,"Ġpen":2191,"Ġreb":2192,"Ġrese":2193,"Ġinform":2194,"Ġeconom":2195,"den":2196,"Ġbehind":2197,"Ġindepend":2198,"Ġformed":2199,"Ġsite":2200,"ogn":2201,"Ġmagaz":2202,"Ġadded":2203,"Ã¡":2204,"Ġfleet":2205,"Ġimportant":2206,"Ġcase":2207,"Ġbi":2208,"ma":2209,"Ġ188":2210,"Ġsoon":2211,"gg":2212,"Ġpred":2213,"ample":2214,"reek":2215,"Ġcomment":2216,"ivid":2217,"ateg":2218,"Ġjud":2219,"Ġmart":2220,"wood":2221,"rought":2222,"Ġ31":2223,"Ġeastern":2224,"cing":2225,"Ġdamage":2226,"Ġital":2227,"Ġeduc":2228,"Ġpopulation":2229,"Ġcompleted":2230,"Ġgreen":2231,"ades":2232,"Ġguns":2233,"Ġmult":2234,"Ġalmost":2235,"Ġsam":2236,"Ġneg":2237,"Ġsex":2238,"head":2239,"dle":2240,"Ġpeak":2241,"Ġru":2242,"aces":2243,"Ġexec":2244,"Ġclose":2245,"Ġcup":2246,"ination":2247,"Ġtom":2248,"Ġinterv":2249,"Ġlang":2250,"emy":2251,"Ġindian":2252,"Ġjour":2253,"ata":2254,"Ġinitially":2255,"Ġawards":2256,"Ġregion":2257,"Ġloss":2258,"Ġinj":2259,"Ġtreat":2260,"lin":2261,"oney":2262,"ways":2263,"Ġoccur":2264,"Ġ2004":2265,"itar":2266,"Ġopened":2267,"Ġlack":2268,"Ġcreat":2269,"Ġsocial":2270,"Ġhost":2271,"go":2272,"aps":2273,"Ġpract":2274,"Ġmichael":2275,"Ġproble":2276,"Ġscre":2277,"Ġgirl":2278,"Ġrelationship":2279,"Ġ186":2280,"Ġindivid":2281,"Ġpur":2282,"ceed":2283,"Ġfa":2284,"Ġren":2285,"Ġfund":2286,"to":2287,"Ġul":2288,"Ġlou":2289,"ements":2290,"Ġsus":2291,"Ġleading":2292,"Ġtyp":2293,"cher":2294,"Ġweeks":2295,"Ġtradition":2296,"hic":2297,"Ġ2015":2298,"Ġworking":2299,"Ġradio":2300,"Ġbay":2301,"Ġsepar":2302,"ino":2303,"Ġclos":2304,"Ġworked":2305,"Ġfrance":2306,"Ġdiffic":2307,"Ġcurrent":2308,"Ġdifficult":2309,"Ġsour":2310,"Ġnar":2311,"Ġprem":2312,"Ġrecording":2313,"Ġsecret":2314,"ula":2315,"Ġtowards":2316,"Ġaccom":2317,"Ġale":2318,"Ġroom":2319,"Ġconn":2320,"medi":2321,"Ġappo":2322,"Ġbomb":2323,"Ġmel":2324,"ki":2325,"Ġbal":2326,"Ġmac":2327,"Ġcouncil":2328,"Ġlaun":2329,"Ġunion":2330,"Ġscene":2331,"Ġrain":2332,"umb":2333,"rison":2334,"istic":2335,"imes":2336,"Ġrap":2337,"Ġgoal":2338,"Ġwid":2339,"ica":2340,"asing":2341,"Ġrespect":2342,"Ġrepubl":2343,"Ġresul":2344,"Ġhenry":2345,"igned":2346,"Ġquick":2347,"anch":2348,"Ġnorm":2349,"Ġreve":2350,"Ġrobert":2351,"Ġbreak":2352,"ky":2353,"Ġmaterial":2354,"Ġnavy":2355,"Ġrecords":2356,"Ġaccept":2357,"eth":2358,"Ġvot":2359,"Ġtraining":2360,"Ġwashing":2361,"Ġleast":2362,"Ġscored":2363,"Ġ2000":2364,"pec":2365,"Ġprovided":2366,"Ġreach":2367,"Ġwanted":2368,"Ġmust":2369,"Ġey":2370,"Ġfig":2371,"Ġtroops":2372,"Ġbrought":2373,"Ġaverage":2374,"hest":2375,"Ġbrig":2376,"Ġdut":2377,"Ġspace":2378,"Ġrecogn":2379,"board":2380,"Ġfeatured":2381,"Ġearth":2382,"iding":2383,"ological":2384,"ows":2385,"Ġcru":2386,"Ġ500":2387,"osition":2388,"Ġcolon":2389,"Ġeither":2390,"Ġnomin":2391,"Ġquar":2392,"Ġ187":2393,"Ġproper":2394,"Ġfoc":2395,"Ġallowed":2396,"Ġangel":2397,"Ġrob":2398,"ected":2399,"Ġpast":2400,"Ġestim":2401,"Ġfut":2402,"Ġtar":2403,"Ġfeder":2404,"Ġwife":2405,"ams":2406,"Ġvictory":2407,"Ġstudio":2408,"Ġplaced":2409,"Ġgenerally":2410,"Ġavail":2411,"Ġwashington":2412,"Ġinn":2413,"Ġrul":2414,"iff":2415,"aut":2416,"Ġcho":2417,"Ġpriv":2418,"Ġcycl":2419,"here":2420,"ico":2421,"Ġach":2422,"Ġruns":2423,"Ġphys":2424,"Ġexample":2425,"Ġdark":2426,"aur":2427,"Ġevents":2428,"Ġmagazine":2429,"Ġchief":2430,"Ġbattal":2431,"mp":2432,"Ġder":2433,"Ġrepublic":2434,"Ġleng":2435,"Ġboard":2436,"Ġsummer":2437,"antic":2438,"ville":2439,"Ġinsp":2440,"Ġpaul":2441,"Ġstaff":2442,"Ġcred":2443,"Ġ2003":2444,"Ġparticip":2445,"ential":2446,"Ġwil":2447,"Ġdro":2448,"Ġjoined":2449,"Ġdesigned":2450,"Ġsquadron":2451,"Ġunc":2452,"Ġgrad":2453,"uel":2454,"Ġsurf":2455,"Ġhours":2456,"Ġregular":2457,"Ġspan":2458,"Ġpie":2459,"ike":2460,"Ġmiddle":2461,"Ġemploy":2462,"Ġdan":2463,"Ġquest":2464,"Ġspeed":2465,"Ġnine":2466,"Ġshot":2467,"Ġoperation":2468,"Ġcondu":2469,"ving":2470,"Ġthreat":2471,"Ġopening":2472,"ells":2473,"Ġmedia":2474,"ka":2475,"Ġbelieved":2476,"Ġrelig":2477,"ude":2478,"men":2479,"Ġ35":2480,"Ġscore":2481,"Ġregard":2482,"Ġcome":2483,"Ġcou":2484,"anks":2485,"Ġwinds":2486,"Ġox":2487,"Ġbir":2488,"tim":2489,"Ġmary":2490,"Ġflight":2491,"Ġtransport":2492,"aper":2493,"Ġreplaced":2494,"ugh":2495,"Ġmph":2496,"han":2497,"Ġprior":2498,"Ġstone":2499,"Ġscen":2500,"iction":2501,"Ġinfant":2502,"Ġpay":2503,"Ġben":2504,"Ġber":2505,"imin":2506,"Ġdeter":2507,"oring":2508,"Ġemp":2509,"Ġsequ":2510,"Ġcaptain":2511,"Ġpolice":2512,"Ġinvolved":2513,"Ġstop":2514,"Ġeuropean":2515,"ification":2516,"Ġlangu":2517,"Ġminutes":2518,"erous":2519,"Ġearlier":2520,"fall":2521,"west":2522,"Ġfinished":2523,"Ġresearch":2524,"Ġsociety":2525,"asion":2526,"aled":2527,"Ġhop":2528,"ha":2529,"Ġcontrib":2530,"utive":2531,"Ġlength":2532,"Ġpossible":2533,"Ġsaying":2534,"Ġindic":2535,"off":2536,"Ġroman":2537,"ago":2538,"lic":2539,"Ġimmedi":2540,"Ġcommerc":2541,"Ġchange":2542,"Ġny":2543,"reg":2544,"Ġpil":2545,"Ġtrib":2546,"Ġassociation":2547,"Ġkeep":2548,"Ġadmin":2549,"Ġremov":2550,"Ġlargest":2551,"Ġatl":2552,"Ġhighest":2553,"Ġparticularly":2554,"Ġlower":2555,"Ġboy":2556,"Ġfilms":2557,"Ġbeginning":2558,"Ġbad":2559,"Ġfly":2560,"Ġscott":2561,"Ġexist":2562,"Ġkey":2563,"Ġadm":2564,"Ġavailable":2565,"ishing":2566,"Ġrespons":2567,"Ġpercent":2568,"Ġplat":2569,"Ġvirgin":2570,"Ġforced":2571,"pected":2572,"Ġsection":2573,"Ġassist":2574,"Ġ2001":2575,"Ġbetter":2576,"wer":2577,"Ġweak":2578,"Ġachie":2579,"Ġdisp":2580,"Ġuk":2581,"hib":2582,"Ġoutside":2583,"Ġdeal":2584,"anned":2585,"Ġtaking":2586,"Ġanti":2587,"Ġlear":2588,"mar":2589,"Ġmeas":2590,"Ġcharles":2591,"Ġcommitte":2592,"aring":2593,"Ġheart":2594,"ography":2595,"Ġgrant":2596,"Ġnovel":2597,"Ġthomas":2598,"ĠÂ°":2599,"Ġmaint":2600,"Ġturned":2601,"Ġincreased":2602,"Ġended":2603,"ipp":2604,"Ġreason":2605,"Ġunits":2606,"of":2607,"ems":2608,"ida":2609,"Ġfeel":2610,"oke":2611,"Ġcommunity":2612,"Ġreviews":2613,"Ġcalif":2614,"sel":2615,"ases":2616,"Ġacad":2617,"Ġnin":2618,"Ġfuture":2619,"Ġpassed":2620,"Ġpraised":2621,"oph":2622,"Ġcaliforn":2623,"heast":2624,"Ġmove":2625,"Ġhous":2626,"Ġgoing":2627,"Ġbeat":2628,"Ġpan":2629,"Ġ2002":2630,"Ġabove":2631,"Ġmcc":2632,"Ġadditional":2633,"Ġtex":2634,"Ġappearance":2635,"iation":2636,"key":2637,"Ġphot":2638,"Ġthus":2639,"Ġguitar":2640,"for":2641,"su":2642,"Ġbird":2643,"action":2644,"ios":2645,"Ġtype":2646,"aded":2647,"Ġcanada":2648,"itor":2649,"Ġps":2650,"str":2651,"Ġlik":2652,"Ġenough":2653,"Ġliter":2654,"Ġcastle":2655,"Ġinfantry":2656,"ership":2657,"Ġordered":2658,"Ġlake":2659,"Ġsmith":2660,"Ġplot":2661,"Ġdaugh":2662,"Ġpreviously":2663,"Ġpun":2664,"Ġlat":2665,"tr":2666,"Ġpersonal":2667,"ocr":2668,"Ġsigned":2669,"Ġmusical":2670,"ey":2671,"Ġminor":2672,"nal":2673,"Ġdoc":2674,"Ġterrit":2675,"Ġrichard":2676,"tt":2677,"ston":2678,"Ġalex":2679,"Ġelements":2680,"Ġinstit":2681,"Ġrights":2682,"Ġmarket":2683,"arily":2684,"Ġdig":2685,"Ġpac":2686,"Ġtheat":2687,"Ġviol":2688,"Ġcalifornia":2689,"Ġabs":2690,"ush":2691,"pped":2692,"Ġpositive":2693,"agon":2694,"my":2695,"Ġprob":2696,"Ġcritical":2697,"Ġdead":2698,"ference":2699,"Ġparts":2700,"Ġha":2701,"Ġaccess":2702,"Ġfood":2703,"Ġlord":2704,"Ġbackground":2705,"Ġgive":2706,"erson":2707,"Ġlines":2708,"pper":2709,"gen":2710,"Ġbat":2711,"Ġtravel":2712,"Ġpow":2713,"Ġmoney":2714,"Ġfemale":2715,"sen":2716,"Ġspent":2717,"Ġbeg":2718,"Ġoverall":2719,"Ġtold":2720,"itz":2721,"Ġprinc":2722,"cts":2723,"Ġsubject":2724,"ique":2725,"ilities":2726,"clus":2727,"Ġscient":2728,"Ġtax":2729,"Ġmic":2730,"Ġdirected":2731,"Ġflood":2732,"uation":2733,"Ġblue":2734,"back":2735,"Ġcommittee":2736,"uter":2737,"Ġvictor":2738,"elled":2739,"Ġinterview":2740,"Ġfailed":2741,"Ġdeep":2742,"Ġ1990":2743,"Ġpet":2744,"Ġ60":2745,"nel":2746,"Ġdomin":2747,"Ġchap":2748,"Ġcorn":2749,"Ġsquare":2750,"Ġrequired":2751,"Ġpoor":2752,"Ġdebut":2753,"Ġgroups":2754,"reng":2755,"mon":2756,"Ġ45":2757,"Ġmach":2758,"Ġgermany":2759,"ga":2760,"Ġclear":2761,"Ġhapp":2762,"Ġkil":2763,"Ġbroadcast":2764,"Ġobject":2765,"bers":2766,"sc":2767,"nes":2768,"Ġterm":2769,"ĠÃ":2770,"Ġdistrict":2771,"Ġconstit":2772,"Ġpeter":2773,"Ġroll":2774,"ening":2775,"Ġexc":2776,"Ġenv":2777,"Ġanal":2778,"Ġitself":2779,"Ġhealth":2780,"ume":2781,"Ġindia":2782,"Ġchristian":2783,"Ġbattalion":2784,"Ġevidence":2785,"Ġsometimes":2786,"Ġwal":2787,"Ġstep":2788,"isl":2789,"Ġfrank":2790,"ibility":2791,"Ġprison":2792,"Ġbank":2793,"berg":2794,"Ġoccup":2795,"Ġreception":2796,"Ġcontract":2797,"Ġ185":2798,"Ġelection":2799,"Ġinvestig":2800,"Ġcommercial":2801,"Ġasked":2802,"Ġstars":2803,"Ġtransfer":2804,"Ġexcept":2805,"ĠÂ£":2806,"Ġ?":2807,"ready":2808,"Ġlu":2809,"Ġdefend":2810,"stand":2811,"erved":2812,"Ġparl":2813,"ii":2814,"Ġze":2815,"Ġstreng":2816,"ability":2817,"Ġliving":2818,"Ġadminist":2819,"Ġour":2820,"ays":2821,"Ġsov":2822,"Ġwhose":2823,"Ġmex":2824,"edy":2825,"aker":2826,"apt":2827,"gar":2828,"onse":2829,"Ġnatural":2830,"Ġstudy":2831,"airs":2832,"Ġcomplete":2833,"Ġalready":2834,"Ġclaimed":2835,"onna":2836,"Ġgovernor":2837,"Ġapproxim":2838,"Ġclim":2839,"ream":2840,"Ġchic":2841,"Ġbey":2842,"Ġsoviet":2843,"Ġflor":2844,"Ġintroduced":2845,"Ġfrequ":2846,"igan":2847,"Ġwhom":2848,"Ġforest":2849,"Ġminister":2850,"Ġthink":2851,"Ġusually":2852,"Ġamb":2853,"Ġburn":2854,"Ġwoman":2855,"Ġmuse":2856,"Ġstudents":2857,"enue":2858,"wor":2859,"Ġeducation":2860,"Ġquickly":2861,"acted":2862,"Ġidea":2863,"bc":2864,"Ġlimited":2865,"Ġbud":2866,"Ġwild":2867,"Ġbul":2868,"Ġrh":2869,"Ġfranc":2870,"Ġanc":2871,"Ġmight":2872,"Ġguard":2873,"Ġeffects":2874,"Ġmovement":2875,"Ġconcern":2876,"Ġ32":2877,"Ġresponse":2878,"Ġprevent":2879,"Ġlib":2880,"Ġsyn":2881,"Ġissue":2882,"Ġcertain":2883,"Ġcommander":2884,"Ġcentre":2885,"Ġslow":2886,"Ġgro":2887,"Ġqueen":2888,"atory":2889,"Ġ1970":2890,"Ġplant":2891,"Ġsurface":2892,"Ġpolic":2893,"Ġyour":2894,"Ġself":2895,"Ġlay":2896,"Ġtun":2897,"Ġdepartment":2898,"aint":2899,"Ġfifth":2900,"Ġarrived":2901,"Ġespec":2902,"bour":2903,"Ġ1980":2904,"Ġsand":2905,"Ġhosp":2906,"Ġbritain":2907,"Ġface":2908,"Ġespecially":2909,"Ġdecision":2910,"Ġservices":2911,"pr":2912,"sec":2913,"ergy":2914,"Ġfer":2915,"Ġoperations":2916,"Ġvillage":2917,"Ġteams":2918,"Ġvoice":2919,"Ġlie":2920,"Ġparliam":2921,"ties":2922,"Ġstructure":2923,"Ġbox":2924,"Ġshows":2925,"Ġrac":2926,"Ġran":2927,"ump":2928,"Ġgard":2929,"anded":2930,"Ġcongress":2931,"Ġmuseum":2932,"Ġindustry":2933,"Ġwalk":2934,"Ġlarger":2935,"ba":2936,"Ġfest":2937,"Ġwriter":2938,"Ġscience":2939,"Ġlyric":2940,"Ġbecoming":2941,"Ġremaining":2942,"Ġestimated":2943,"Ġlatter":2944,"Ġepisodes":2945,"Ġremain":2946,"Ġdefeated":2947,"Ġ-":2948,"Ġcarried":2949,"fl":2950,"Ġheav":2951,"Ġparliament":2952,"Ġgot":2953,"ises":2954,"Ġmultip":2955,"wh":2956,"Ġultim":2957,"Ġdraw":2958,"Ġnetwork":2959,"Ġdiscuss":2960,"aries":2961,"oor":2962,"pre":2963,"Ġol":2964,"Ġpressure":2965,"Ġblood":2966,"Ġ1999":2967,"Ġprogress":2968,"Ġsurround":2969,"Ġflag":2970,"ully":2971,"iron":2972,"Ġscenes":2973,"Ġcm":2974,"Ġconsider":2975,"Ġbrief":2976,"ites":2977,"de":2978,"Ġleaving":2979,"Ġrunning":2980,"Ġchanges":2981,"ulf":2982,"Ġacqu":2983,"Ġvirginia":2984,"Ġcand":2985,"Ġjew":2986,"Ġcomplet":2987,"Ġmas":2988,"ession":2989,"Ġ36":2990,"Ġnaval":2991,"porary":2992,"Ġdom":2993,"ror":2994,"Ġsuggested":2995,"outh":2996,"Ġentered":2997,"Ġnearly":2998,"val":2999,"Ġ80":3000,"Ġdepression":3001,"orial":3002,"ining":3003,"Ġquarter":3004,"Ġappointed":3005,"Ġwinning":3006,"Ġinfluence":3007,"Ġdate":3008,"Ġapproximately":3009,"ift":3010,"Ġfail":3011,"Ġchall":3012,"Ġtwent":3013,"Ġsize":3014,"Ġros":3015,"Ġemb":3016,"Ġcapital":3017,"Ġleader":3018,"Ġlanguage":3019,"Ġfant":3020,"erve":3021,"Ġshortly":3022,"Ġislands":3023,"Ġregiment":3024,"Ġestablish":3025,"Ġempire":3026,"Ġscript":3027,"Ġfederal":3028,"Ġfavor":3029,"Ġmeth":3030,"Ġequip":3031,"Ġcourse":3032,"Ġscreen":3033,"Ġtoday":3034,"Ġthr":3035,"ta":3036,"Ġjackson":3037,"Ġfinally":3038,"ania":3039,"Ġbra":3040,"change":3041,"Ġupper":3042,"Ġwide":3043,"ander":3044,"Ġtracks":3045,"Ġunl":3046,"Ġmission":3047,"Ġcann":3048,"Ġoly":3049,"Ġlouis":3050,"Ġdestroyed":3051,"Ġproposed":3052,"Ġdaughter":3053,"Ġpurch":3054,"ulated":3055,"Ġhigher":3056,"Ġolymp":3057,"Ġwing":3058,"Ġproducer":3059,"Ġmanager":3060,"burg":3061,"Ġarrang":3062,"Ġspanish":3063,"king":3064,"Ġcorps":3065,"abor":3066,"Ġlad":3067,"Ġexperience":3068,"Ġnature":3069,"Ġvan":3070,"Ġdistrib":3071,"Ġ75":3072,"Ġcer":3073,"Ġenviron":3074,"Ġprincip":3075,"Ġhorse":3076,"Ġprovide":3077,"Ġsubsequently":3078,"Ġbrigade":3079,"Ġbattles":3080,"idents":3081,"Ġrailway":3082,"Ġprofessional":3083,"ires":3084,"Ġaltern":3085,"mitted":3086,"Ġdiss":3087,"ension":3088,"Ġcompared":3089,"Ġbreed":3090,"iser":3091,"oid":3092,"Ġparen":3093,"Ġcomplex":3094,"Ġconcept":3095,"Ġhero":3096,"Ġintended":3097,"Ġemerg":3098,"Ġimmediately":3099,"Ġmarried":3100,"Ġdemocr":3101,"inese":3102,"Ġaw":3103,"Ġ1960":3104,"Ġprivate":3105,"Ġ184":3106,"Ġfans":3107,"Ġsaf":3108,"Ġcele":3109,"Ġtemper":3110,"Ġjournal":3111,"Ġ300":3112,"Ġpict":3113,"Ġsupported":3114,"ÃŃ":3115,"ns":3116,"Ġagreed":3117,"Ġstay":3118,"Ġspir":3119,"Ġentertain":3120,"Ġshoot":3121,"Ġintens":3122,"alled":3123,"Ġcompan":3124,"Ġbord":3125,"Ġdone":3126,"Ġmr":3127,"Ġedward":3128,"Ġarchit":3129,"Ġmodel":3130,"Ġfeature":3131,"Ġincreasing":3132,"Ġinitial":3133,"gy":3134,"Ġawarded":3135,"Ġliber":3136,"Ġgi":3137,"ria":3138,"Ġweap":3139,"Ġdisplay":3140,"Ġchicago":3141,"Ġbor":3142,"Ġarchitect":3143,"Ġchinese":3144,"Ġwhether":3145,"Ġhelped":3146,"Ġrelated":3147,"Ġlegisl":3148,"Ġplanned":3149,"Ġcard":3150,"down":3151,"Ġbooks":3152,"Ġofficer":3153,"Ġimm":3154,"ching":3155,"Ġ1998":3156,"aph":3157,"Ġsoldiers":3158,"Ġmom":3159,"Ġcreate":3160,"Ġbring":3161,"Ġlonger":3162,"Ġtrade":3163,"Ã¶":3164,"Ġartic":3165,"uk":3166,"hem":3167,"Ġfair":3168,"Ġmont":3169,"Ġhere":3170,"Ġwit":3171,"atively":3172,"Ġattr":3173,"Ġple":3174,"ores":3175,"Ġcause":3176,"Ġkore":3177,"thing":3178,"Ġgal":3179,"Ġcaptured":3180,"teen":3181,"Ġvalley":3182,"Ġplans":3183,"Ġyet":3184,"Ġiron":3185,"Ġbuildings":3186,"Ġconserv":3187,"Ġcolor":3188,"omm":3189,"ban":3190,"ny":3191,"Ġunit":3192,"Ġforward":3193,"Ġblock":3194,"inct":3195,"Ġchanged":3196,"Ġconclud":3197,"Ġq":3198,"Ġwinter":3199,"Ġwithd":3200,"Ġpenn":3201,"Ġcoach":3202,"asy":3203,"Ġassociated":3204,"Ġsubst":3205,"Ġfriends":3206,"Ġdance":3207,"chester":3208,"Ġsomething":3209,"Ġofficers":3210,"Ġinstr":3211,"Ġspring":3212,"ien":3213,"Ġremains":3214,"Ġmostly":3215,"selves":3216,"Ġpacific":3217,"Ġsingles":3218,"Ġ33":3219,"Ġbillboard":3220,"Ġsev":3221,"abit":3222,"Ġjohnson":3223,"Ġthemselves":3224,"Ġstandard":3225,"Ġrat":3226,"Ġ70":3227,"ronic":3228,"Ġtarget":3229,"Ġcountries":3230,"Ġlyrics":3231,"oms":3232,"Ġexam":3233,"Ġmixed":3234,"Ġprobably":3235,"ken":3236,"riage":3237,"Ġreally":3238,"Ġmethod":3239,"hl":3240,"Ġextended":3241,"well":3242,"Ġray":3243,"Ġmoving":3244,"Ġpu":3245,"Ġnumerous":3246,"Ġfinanc":3247,"Ġfit":3248,"Ġattend":3249,"Ã¼":3250,"ena":3251,"Ġinformation":3252,"Ġportray":3253,"Ġcontem":3254,"leg":3255,"Ġcopies":3256,"Ġalways":3257,"Ġrequest":3258,"Ġnation":3259,"Ġvisit":3260,"Ġscot":3261,"Ġlocation":3262,"Ġgoals":3263,"Ġca":3264,"Ġoce":3265,"isions":3266,"Ġrid":3267,"Ġindividual":3268,"Ġbirth":3269,"Ġsales":3270,"Ġcit":3271,"Ġfocus":3272,"Ġ1997":3273,"rated":3274,"rd":3275,"Ġissued":3276,"Ġcounter":3277,"Ġstatus":3278,"Ġmess":3279,"Ġleave":3280,"Ġenergy":3281,"Ġatlantic":3282,"Ġincludes":3283,"Ġartist":3284,"andon":3285,"olic":3286,"ili":3287,"Ġtas":3288,"Ġconference":3289,"Ġ37":3290,"Ġsuffered":3291,"Ġjim":3292,"Ġmale":3293,"can":3294,"Ġsinger":3295,"Ġvia":3296,"Ġadmir":3297,"Ġtraff":3298,"Ġhospital":3299,"Ġtal":3300,"Ġimpact":3301,"ands":3302,"Ġflorida":3303,"Ġmartin":3304,"Ġedition":3305,"Ġproblems":3306,"Ġalbums":3307,"Ġbene":3308,"Ġmaxim":3309,"Ġmeeting":3310,"Ġtermin":3311,"hood":3312,"Ġdouble":3313,"Ġgall":3314,"Ġlikely":3315,"Ġchina":3316,"Ġincrease":3317,"Ġcarry":3318,"Ġassemb":3319,"Ġremoved":3320,"Ġapproach":3321,"Ġindependent":3322,"bury":3323,"Ġcelebr":3324,"Ġmovie":3325,"Ġbond":3326,"bed":3327,"Ġdog":3328,"Ġtexas":3329,"Ġrevolution":3330,"pan":3331,"Ġinspired":3332,"Ġforeign":3333,"atives":3334,"chan":3335,"Ġrang":3336,"Ġrefle":3337,"ole":3338,"Ġmaster":3339,"Ġterms":3340,"Ġprimary":3341,"Ġcreek":3342,"Ġdv":3343,"Ġmajority":3344,"lands":3345,"Ġsir":3346,"Ġcompos":3347,"Ġkind":3348,"Ġast":3349,"Ġoffered":3350,"Ġwa":3351,"Ġice":3352,"Ġinterse":3353,"Ġconsist":3354,"Ġtakes":3355,"Ġqual":3356,"Ġminute":3357,"vin":3358,"Ġvehic":3359,"ograph":3360,"Ġtons":3361,"isc":3362,"vey":3363,"Ġstad":3364,"aily":3365,"Ġens":3366,"Ġdrum":3367,"ously":3368,"Ġadop":3369,"iter":3370,"Ġattacks":3371,"ounted":3372,"Ġsar":3373,"Ġut":3374,"Ġfox":3375,"Ġentertainment":3376,"Ġmakes":3377,"Ġconfir":3378,"Ġign":3379,"Ġword":3380,"Ġcomposed":3381,"Ġdamaged":3382,"Ġoil":3383,"Ġcombat":3384,"Ġraised":3385,"Ġ183":3386,"Ġcanadian":3387,"Ġranked":3388,"Ġenvironment":3389,"ounds":3390,"Ġafrica":3391,"etic":3392,"Ġprec":3393,"Ġconcert":3394,"Ġlog":3395,"icted":3396,"Ġcarol":3397,"Ã³":3398,"aches":3399,"Ġcyclone":3400,"Ġshar":3401,"Ġwrest":3402,"het":3403,"Ġdaily":3404,"Ġletter":3405,"Ġund":3406,"Ġappears":3407,"Ġfighting":3408,"Ġselected":3409,"Ġmountain":3410,"light":3411,"Ġrevealed":3412,"Ġdiscovered":3413,"Ġcateg":3414,"oo":3415,"Ġsimp":3416,"Ġtrain":3417,"Ġmetal":3418,"Ġactive":3419,"Ġdeterm":3420,"Ġrussian":3421,"Ġera":3422,"Ġdeg":3423,"ify":3424,"Ġ90":3425,"ucle":3426,"Ġmorning":3427,"ails":3428,"Ġinside":3429,"Ġsports":3430,"Ġconditions":3431,"ung":3432,"Ġtwenty":3433,"Ġkent":3434,"aland":3435,"Ġdemon":3436,"Ġunable":3437,"Ġschol":3438,"Ġlaunched":3439,"ari":3440,"uries":3441,"Ġgreater":3442,"era":3443,"umed":3444,"Ġrespectively":3445,"ste":3446,"Ġwr":3447,"Ġven":3448,"Ġtv":3449,"Ġsched":3450,"Ġwhole":3451,"Ġ1995":3452,"Ġnumbers":3453,"Ġissues":3454,"Ġneeded":3455,"Ġsister":3456,"Ġsmaller":3457,"Ġbelow":3458,"Ġangeles":3459,"Ġos":3460,"Ġincor":3461,"ee":3462,"Ġthir":3463,"Ġlived":3464,"Ġconnect":3465,"ado":3466,"Ġadvance":3467,"Ġtouch":3468,"Ġcontains":3469,"Ġ34":3470,"uth":3471,"Ġyard":3472,"Ġattempted":3473,"Ġslight":3474,"Ġattacked":3475,"Ġtraditional":3476,"lor":3477,"Ġyards":3478,"Ġshown":3479,"ription":3480,"zz":3481,"Ġbed":3482,"Ġstra":3483,"Ġculture":3484,"Ġoccurred":3485,"Ġnewsp":3486,"Ġreligious":3487,"uments":3488,"aj":3489,"Ġpick":3490,"Ġcart":3491,"uals":3492,"use":3493,"Ġnick":3494,"Ġiii":3495,"Ġ38":3496,"Ġsilver":3497,"aging":3498,"Ġrein":3499,"iest":3500,"Ġdefeat":3501,"Ġring":3502,"Ġcab":3503,"Ġtourn":3504,"ortun":3505,"joy":3506,"Ġrecover":3507,"Ġactor":3508,"Ġannual":3509,"Ġlarg":3510,"anced":3511,"ech":3512,"Ġrare":3513,"Ġelected":3514,"Ġfestival":3515,"Ġiv":3516,"Ġ2016":3517,"Ġpeace":3518,"Ġreferred":3519,"Ġ1996":3520,"aught":3521,"Ġ1950":3522,"Ġconstant":3523,"new":3524,"Ġreform":3525,"Ġbon":3526,"izing":3527,"uing":3528,"cting":3529,"Ġfrancis":3530,"Ġmind":3531,"Ġneigh":3532,"Ġdra":3533,"rial":3534,"urity":3535,"amb":3536,"Ġbab":3537,"olk":3538,"vert":3539,"Ġjose":3540,"Ġaudience":3541,"Ġschools":3542,"Ġtheme":3543,"Ġsav":3544,"Ġresulted":3545,"Ġlargely":3546,"Ġpsy":3547,"rian":3548,"Ġassigned":3549,"Ġmagn":3550,"Ġcovered":3551,"Ġprince":3552,"asc":3553,"Ġris":3554,"Ġocean":3555,"enant":3556,"Ġath":3557,"Ġdar":3558,"Ġfast":3559,"Ġdun":3560,"Ġexpress":3561,"Ġlink":3562,"Ġitalian":3563,"Ġvariety":3564,"Ġlisted":3565,"Ġcollection":3566,"Ġpurp":3567,"uated":3568,"Ġban":3569,"Ġ1994":3570,"Ġguest":3571,"Ġglob":3572,"Ġcompetition":3573,"hold":3574,"ya":3575,"Ġcath":3576,"Ġnames":3577,"Ġash":3578,"mi":3579,"Ġearned":3580,"Ġstadium":3581,"Ġcontrovers":3582,"Ġexpected":3583,"ls":3584,"Ġcommented":3585,"Ġhaw":3586,"tered":3587,"Ġsout":3588,"itude":3589,"Ġstarting":3590,"Ġrapid":3591,"Ġclosed":3592,"ãĥ":3593,"quar":3594,"Ġperformances":3595,"Ġattention":3596,"Ġnucle":3597,"Ġdocument":3598,"Ġquestion":3599,"Ġimper":3600,"Ġenter":3601,"Ġairport":3602,"Ġgiving":3603,"Ġmichigan":3604,"ental":3605,"Ġlegal":3606,"Ġaccount":3607,"Ġrefused":3608,"Ġviet":3609,"Ġextre":3610,"Ġmir":3611,"Ġeconomic":3612,"Ġfigh":3613,"Ġkar":3614,"Ġrepe":3615,"Ġcrow":3616,"Ġcham":3617,"ij":3618,"Ġcust":3619,"ounts":3620,"Ġcompl":3621,"Ġgreatest":3622,"Ġwaters":3623,"Ġsett":3624,"aped":3625,"Ġenjoy":3626,"ples":3627,"Ġelectric":3628,"Ġtower":3629,"Ġwales":3630,"utions":3631,"Ġability":3632,"Ġserious":3633,"Ġdirection":3634,"nding":3635,"Ġstories":3636,"Ġnotes":3637,"Ġnative":3638,"Ġdie":3639,"Ġhund":3640,"Ġpromin":3641,"Ġ1940":3642,"Ġdeclared":3643,"Ġrate":3644,"Ġmun":3645,"Ġmeant":3646,"Ġmatches":3647,"Ġstan":3648,"Ġvocals":3649,"bridge":3650,"Ġthings":3651,"Ġod":3652,"Ġpoll":3653,"pted":3654,"Ġspl":3655,"Ġ49":3656,"Ġ180":3657,"bre":3658,"Ġhundred":3659,"isher":3660,"Ġmention":3661,"Ġhus":3662,"Ġabandon":3663,"Ġlevels":3664,"uf":3665,"Ġwords":3666,"Ġswe":3667,"uff":3668,"Ġkh":3669,"Ġnearby":3670,"gl":3671,"ims":3672,"Ġchann":3673,"ona":3674,"Ġmarriage":3675,"Ġproduce":3676,"Ġtext":3677,"Ġdoctor":3678,"Ġnecess":3679,"Ġconstitution":3680,"ker":3681,"Ġcry":3682,"Ġpractice":3683,"Ġdefense":3684,"Ġprep":3685,"Ġconstructed":3686,"Ġfill":3687,"Ġemper":3688,"win":3689,"Ġsource":3690,"odies":3691,"ols":3692,"Ġlot":3693,"Ġfantasy":3694,"iences":3695,"Ġ41":3696,"icient":3697,"Ġ1992":3698,"Ġcandid":3699,"wide":3700,"Ġmatt":3701,"pass":3702,"road":3703,"gs":3704,"Ġdvd":3705,"Ġvocal":3706,"Ġseparate":3707,"Ġhighly":3708,"ram":3709,"Ġlabor":3710,"Ġess":3711,"icated":3712,"Ġmeans":3713,"Ġeth":3714,"Ġfarm":3715,"Ġwriters":3716,"ette":3717,"Ġrow":3718,"umn":3719,"Ġmedical":3720,"itation":3721,"Ġspot":3722,"Ġzealand":3723,"Ġcontroll":3724,"Ġexecutive":3725,"ging":3726,"Ġles":3727,"Ġexhib":3728,"Ġdirectly":3729,"ishop":3730,"Ġpositions":3731,"Ġultimately":3732,"Ġpurs":3733,"ellow":3734,"Ġobserv":3735,"Ġda":3736,"Ġnorthwest":3737,"Ġweather":3738,"ping":3739,"Ġsle":3740,"Ġcontinue":3741,"Ġpresented":3742,"Ġreduced":3743,"Ġeffort":3744,"kin":3745,"Ġafrican":3746,"mas":3747,"Ġmexico":3748,"Ġcub":3749,"Ġmultiple":3750,"Ġadmiral":3751,"Ġjer":3752,"Ġbound":3753,"Ġ400":3754,"Ġchem":3755,"writ":3756,"Åį":3757,"Ġflow":3758,"Ġefforts":3759,"Ġbrad":3760,"Ġdism":3761,"ibly":3762,"Ġanimals":3763,"Ġmechan":3764,"Ġformation":3765,"Ġdyn":3766,"Ġ1930":3767,"Ġhouses":3768,"Ġlieut":3769,"Ġchris":3770,"ding":3771,"Ġstrateg":3772,"ogue":3773,"Ġsettle":3774,"band":3775,"Ġtried":3776,"rical":3777,"Ġlin":3778,"Ġgas":3779,"Ġmemorial":3780,"Ġattended":3781,"Ġ55":3782,"kn":3783,"Ġbatter":3784,"Ġstudies":3785,"Ġaccepted":3786,"Ġstating":3787,"Ġfinancial":3788,"Ġwear":3789,"Ġparal":3790,"Ġtalk":3791,"Ġrule":3792,"Ġlibr":3793,"Ġmadonna":3794,"vement":3795,"acher":3796,"don":3797,"Ġpair":3798,"Ġseem":3799,"Ġspecific":3800,"Ġsymb":3801,"la":3802,"Ġdepend":3803,"rie":3804,"Ġ1993":3805,"Ġbob":3806,"Ġ1991":3807,"Ġoh":3808,"Ġhonor":3809,"Ġadvent":3810,"Ġincorpor":3811,"track":3812,"rier":3813,"isation":3814,"Ġending":3815,"Ġbegins":3816,"Ġthick":3817,"Ġsaint":3818,"Ġcerem":3819,"Ġrecomm":3820,"Ġinch":3821,"Ġorganization":3822,"Ġ179":3823,"Ġram":3824,"Ġpilot":3825,"Äĩ":3826,"anes":3827,"Ġlif":3828,"Ġtrue":3829,"Ġtheatre":3830,"Ġtraffic":3831,"ruction":3832,"Ġsides":3833,"Ġenemy":3834,"Ġcases":3835,"Ġscotland":3836,"Ġjones":3837,"Ġrough":3838,"illery":3839,"Ġdrive":3840,"Ġarrest":3841,"ners":3842,"house":3843,"Ġire":3844,"rey":3845,"Ġbell":3846,"Ġpack":3847,"oper":3848,"Ġflying":3849,"Ġluc":3850,"Ġmob":3851,"Ġresponsible":3852,"Ġconfl":3853,"Ġeye":3854,"Ġmanaged":3855,"Ġpath":3856,"Ġforms":3857,"Ġwound":3858,"Ġmeaning":3859,"Ġ+":3860,"Ġuses":3861,"Ġarab":3862,"Ġresulting":3863,"Ġgreek":3864,"Ġkenn":3865,"Ġ39":3866,"Ġtournament":3867,"Ġkept":3868,"Ġsoundtrack":3869,"Ġlieutenant":3870,"Ġacademy":3871,"Ġdropped":3872,"Ġprotest":3873,"Ġshowed":3874,"Ġrose":3875,"Ġauthority":3876,"Ġpolicy":3877,"Ġedge":3878,"Ġbost":3879,"Ġmos":3880,"Ġprime":3881,"Ġ182":3882,"Ġquality":3883,"une":3884,"Ġstrugg":3885,"Ġ48":3886,"Ġemperor":3887,"Ġexped":3888,"Ġ42":3889,"Ġfat":3890,"Ġwick":3891,"Ġartillery":3892,"Ġapart":3893,"Ġcombined":3894,"Ġhors":3895,"claim":3896,"Ġdru":3897,"Ġboat":3898,"ceeded":3899,"Ġacting":3900,"uit":3901,"Ġded":3902,"Ġfounded":3903,"Ġsecretary":3904,"Ġell":3905,"Ġspirit":3906,"Ġcontinues":3907,"Ġtrial":3908,"Ġmarked":3909,"Ġadministration":3910,"ada":3911,"Ġinches":3912,"Ġproperty":3913,"ips":3914,"Ġwilliams":3915,"Ġbit":3916,"Ġsystems":3917,"Ġencoun":3918,"Ġsubsequent":3919,"Ġpropos":3920,"nam":3921,"Ġartists":3922,"ero":3923,"Ġcontemporary":3924,"Ġ181":3925,"Ġattempts":3926,"Ġsearch":3927,"ex":3928,"Ġextr":3929,"Ġterritory":3930,"Ġparis":3931,"gypt":3932,"iated":3933,"Ġdraft":3934,"Ġnortheast":3935,"uge":3936,"Ġsteam":3937,"Ġrear":3938,"Ġcompanies":3939,"thel":3940,"Ġpotential":3941,"Ġmarsh":3942,"Ġperf":3943,"Ġpresence":3944,"Ġmetres":3945,"Ġviewers":3946,"Ġplanet":3947,"icip":3948,"Ġallowing":3949,"ani":3950,"Ġthous":3951,"Ġstudios":3952,"Ġsixth":3953,"ulations":3954,"Ġprepar":3955,"Ġrecent":3956,"Ġsuppl":3957,"Ġscale":3958,"Ġ1942":3959,"Ġcoal":3960,"Ġofficials":3961,"Ġconducted":3962,"ket":3963,"Ġbehav":3964,"je":3965,"Ġegypt":3966,"Ġmu":3967,"thur":3968,"Ġobt":3969,"Ġseg":3970,"Ġjob":3971,"Ġrespond":3972,"Ġpiece":3973,"Ġdigital":3974,"Ġfilming":3975,"Ġhyd":3976,"Ġdefence":3977,"Ġmachine":3978,"Ġlee":3979,"Ġheadquar":3980,"Ġcontrast":3981,"oe":3982,"Ġamount":3983,"Ġtemple":3984,"olf":3985,"Ġtransferred":3986,"Ġcollabor":3987,"standing":3988,"Ġlatin":3989,"Ġparents":3990,"Ġyellow":3991,"ingu":3992,"Ġscoring":3993,"Ġopportun":3994,"Ġic":3995,"Ġmaximum":3996,"Ġsenior":3997,"rain":3998,"Ġcorpor":3999,"Ġfigure":4000,"Ġcoming":4001,"Ġstephen":4002,"Ġdise":4003,"Ġ65":4004,"Ġsac":4005,"Ġallied":4006,"enge":4007,"Ġbeaut":4008,"Ġfeaturing":4009,"inem":4010,"Ġtorped":4011,"Ġtherefore":4012,"Ġprimarily":4013,"cle":4014,"Ġ47":4015,"Ġrelatively":4016,"Ġoxford":4017,"Ġgeorg":4018,"Ġelev":4019,"Ġowned":4020,"Ġpeaked":4021,"Ġtheory":4022,"Ġbecomes":4023,"Ġstudent":4024,"Ġcold":4025,"Ġtitled":4026,"Ġjoseph":4027,"Ġtorpedo":4028,"Ġmort":4029,"Ġactually":4030,"aga":4031,"Ġrecommend":4032,"iance":4033,"Ġportion":4034,"Ġdistance":4035,"Ġbattleship":4036,"Ġcert":4037,"Ġcitiz":4038,"Ġconcluded":4039,"ersey":4040,"Ġstock":4041,"Ġboston":4042,"Ġconver":4043,"Ġpremi":4044,"Ġmanchester":4045,"Ġmut":4046,"Ġton":4047,"Ġinvasion":4048,"Ġsituation":4049,"Ġstrength":4050,"Ġwrite":4051,"Ġbass":4052,"Ġchair":4053,"Ġharrison":4054,"orter":4055,"Ġpsych":4056,"Ġtransl":4057,"Ġjeff":4058,"osh":4059,"Ġbroke":4060,"Ġfunction":4061,"Ġshare":4062,"Ġobserved":4063,"Ġselling":4064,"Ġphysical":4065,"Ġsecurity":4066,"Ġalongside":4067,"Ġcommunic":4068,"arent":4069,"Ġdistinct":4070,"ca":4071,"Ġtree":4072,"Ġswed":4073,"ented":4074,"Ġplays":4075,"Ġpersonnel":4076,"Ġresults":4077,"Ġconcent":4078,"Ġ46":4079,"Ġliver":4080,"Ġ52":4081,"Ġdivided":4082,"Ġsources":4083,"stein":4084,"Ġdoll":4085,"istics":4086,"Ġpaid":4087,"Ġseconds":4088,"Ġresist":4089,"Ġcalling":4090,"ita":4091,"Ġcities":4092,"Ġrating":4093,"Ġ1944":4094,"Ġslightly":4095,"ini":4096,"Ġborder":4097,"Ġshell":4098,"Ġinh":4099,"Ġreturning":4100,"Ġpowerful":4101,"Ġcolumb":4102,"Ġfred":4103,"Ġmanagement":4104,"Ġcontest":4105,"Ġarts":4106,"Ġreject":4107,"Ġhistorian":4108,"Ġott":4109,"Ġhistorical":4110,"Ġ64":4111,"Ġhan":4112,"Ġimperial":4113,"Ġminim":4114,"Ġonto":4115,"Ġsust":4116,"Ġactions":4117,"Ġ43":4118,"Ġelse":4119,"Ġmile":4120,"Ġvess":4121,"Ġplatform":4122,"Ġadj":4123,"aming":4124,"Ġfear":4125,"Ġnothing":4126,"Ġbirds":4127,"ider":4128,"Ġbeach":4129,"Ġkg":4130,"Ġfreed":4131,"Ġinfluenced":4132,"Ġow":4133,"Ġactivity":4134,"Ġcanc":4135,"Ġinnings":4136,"ctive":4137,"astic":4138,"Ġfan":4139,"Ġtrust":4140,"ils":4141,"unt":4142,"Ġ44":4143,"Ġsuc":4144,"Ġresidents":4145,"Ġathlet":4146,"Ġcomedy":4147,"ellig":4148,"force":4149,"Ġbbc":4150,"Ġpoet":4151,"Ġdesignated":4152,"Ġpromoted":4153,"osaur":4154,"Ġnominated":4155,"Ġpassing":4156,"Ġresc":4157,"Ġcultural":4158,"Ġrod":4159,"Ġcrown":4160,"mond":4161,"Ġcompletely":4162,"stone":4163,"Ġcroat":4164,"Ġconflict":4165,"po":4166,"Ġlane":4167,"Ġmis":4168,"Ġproblem":4169,"Ġavenue":4170,"Ġlov":4171,"Ġorche":4172,"Ġweight":4173,"Ġheight":4174,"Ġmainly":4175,"Ġsubs":4176,"phy":4177,"Ġsexual":4178,"Ġtrail":4179,"ault":4180,"Ġstruck":4181,"Ġcharts":4182,"istry":4183,"Ġarms":4184,"iced":4185,"Ġsought":4186,"Ġreplac":4187,"Ġpaper":4188,"Ġrot":4189,"Ġ1920":4190,"Ġhands":4191,"Ġencour":4192,"Ġancient":4193,"Ġsense":4194,"Ġ1945":4195,"Ġseasons":4196,"nds":4197,"Ġwebs":4198,"Ġcontent":4199,"lement":4200,"Ġ1941":4201,"Ġvari":4202,"Ġ150":4203,"Ġdoub":4204,"Ġpul":4205,"Ġconsec":4206,"Ġfeed":4207,"Ġwars":4208,"za":4209,"Ġfish":4210,"Ġcharge":4211,"Ġimage":4212,"Ġreaching":4213,"while":4214,"Ġspect":4215,"ills":4216,"Ġfellow":4217,"Ġweapons":4218,"yer":4219,"zy":4220,"Ġitaly":4221,"Ġcell":4222,"Ġinstrument":4223,"iano":4224,"olved":4225,"Ġdang":4226,"Ġamericans":4227,"Ġchannel":4228,"Ġwidely":4229,"Ġmit":4230,"Ġfavour":4231,"acts":4232,"Ġmedal":4233,"Ġgil":4234,"Ġsr":4235,"Ġry":4236,"Ġbaseball":4237,"Ġappearances":4238,"Ġhabit":4239,"Ġalone":4240,"Ġintellig":4241,"Ġemot":4242,"ura":4243,"Ġjersey":4244,"ques":4245,"Ġconfirmed":4246,"iber":4247,"Ġfres":4248,"Ġkr":4249,"Ġgained":4250,"Ġshel":4251,"ylv":4252,"Ġgra":4253,"Ġbeyond":4254,"Ġfiction":4255,"Ġireland":4256,"Ġchoice":4257,"adel":4258,"Ġbrothers":4259,"Ġjoin":4260,"Ġmurder":4261,"roll":4262,"Ġreign":4263,"ota":4264,"Ġolder":4265,"rative":4266,"Ġbru":4267,"Ġelement":4268,"Ġproved":4269,"Ġsteel":4270,"Ġversions":4271,"Ġanalys":4272,"Ġcrick":4273,"Ġlibrary":4274,"Ġcarl":4275,"uled":4276,"Ġheadquarters":4277,"Ġfloor":4278,"oration":4279,"Ġexplained":4280,"Ġsays":4281,"mans":4282,"cers":4283,"Ġoffer":4284,"Ġahead":4285,"Ġsens":4286,"oman":4287,"Ġalt":4288,"aling":4289,"Ġexpans":4290,"known":4291,"Ġnegot":4292,"ule":4293,"Ġdw":4294,"Ġserve":4295,"Ġrainfall":4296,"Ġ1989":4297,"bon":4298,"Ġcausing":4299,"town":4300,"Ġcomes":4301,"Ġspeech":4302,"Ġsant":4303,"Ġ1943":4304,"Ġhotel":4305,"Ġvictoria":4306,"Ġopt":4307,"ican":4308,"Ġcharl":4309,"Ġsuit":4310,"Ġrecon":4311,"dy":4312,"Ġrequire":4313,"Ġfal":4314,"Ġ51":4315,"Ġexpressed":4316,"Ġcatholic":4317,"Ġequipment":4318,"Ġworkers":4319,"Ġsplit":4320,"Ġhorses":4321,"Ġarticle":4322,"Ġapparent":4323,"ety":4324,"ares":4325,"Ġroads":4326,"Ġreports":4327,"ees":4328,"Ġgrowth":4329,"Ġpap":4330,"Ġprominent":4331,"Ġoffensive":4332,"Ġoccasion":4333,"Ġbranch":4334,"Ġgross":4335,"Ġdrama":4336,"Ġadvanced":4337,"Ġbowl":4338,"Ġexperiment":4339,"ancy":4340,"Ġcapture":4341,"Ġidentified":4342,"Ġofficially":4343,"oured":4344,"Ġsetting":4345,"Ġhusband":4346,"Ġworldwide":4347,"Ġarmed":4348,"ufact":4349,"gu":4350,"usion":4351,"Ġpattern":4352,"Ġsoft":4353,"Ġcategory":4354,"Ġsnow":4355,"ighth":4356,"Ġsurre":4357,"Ġmanufact":4358,"Ġtells":4359,"Ġheavily":4360,"Ġreserve":4361,"Ġsenate":4362,"Ġbott":4363,"Ġjustice":4364,"Ġsport":4365,"Ġmatter":4366,"Ġcomputer":4367,"Ġrepresented":4368,"Ġextra":4369,"iÄĩ":4370,"Ġtrees":4371,"Ġactivities":4372,"Ġescape":4373,"iring":4374,"Ġspread":4375,"mark":4376,"Ġcricket":4377,"Ġunf":4378,"Ġplaces":4379,"Ġmeanwhile":4380,"Ġtreatment":4381,"Ġadapt":4382,"Ġpieces":4383,"bit":4384,"Ġleaves":4385,"ĠÎ":4386,"Ġtay":4387,"bi":4388,"Ġactress":4389,"Ġleaders":4390,"Ġfigures":4391,"Ġjul":4392,"Ġavoid":4393,"Ġfired":4394,"Ġwhy":4395,"Ġinjury":4396,"Ġbelieve":4397,"Ġtoward":4398,"ube":4399,"Ġduke":4400,"Ġagreement":4401,"Ġsupply":4402,"Ġexpedition":4403,"Ġdutch":4404,"Ġlives":4405,"ylvania":4406,"where":4407,"abeth":4408,"Ġunknown":4409,"Ġillust":4410,"Ġdoing":4411,"Ġanth":4412,"Ġcasual":4413,"Ġalbert":4414,"Ġdata":4415,"Ġcouple":4416,"Ġkilomet":4417,"Ġunlike":4418,"Ġprin":4419,"Ġimag":4420,"Ġeliz":4421,"Ġlaid":4422,"Ġeditor":4423,"Ġstrike":4424,"Ġconsisted":4425,"Ġpin":4426,"Ġdebuted":4427,"hire":4428,"essions":4429,"Ġdin":4430,"acity":4431,"Ġwalls":4432,"ours":4433,"ads":4434,"pool":4435,"Ġri":4436,"Ġmig":4437,"Ġdream":4438,"Ġaired":4439,"Ġid":4440,"Ġbart":4441,"Ġargued":4442,"ushed":4443,"Ġopin":4444,"Ġstations":4445,"Ġwatch":4446,"Ġtypically":4447,"Ġopposition":4448,"more":4449,"Ġsevere":4450,"Ġspin":4451,"Ġmoment":4452,"Ġstore":4453,"Ġreference":4454,"Ġmounted":4455,"osen":4456,"Ġhomer":4457,"iles":4458,"Ġtwice":4459,"Ġclaims":4460,"Ġnations":4461,"Ġaffected":4462,"Ġpolish":4463,"Ġdescription":4464,"bn":4465,"Ġactors":4466,"Ġcra":4467,"oty":4468,"Ġanimal":4469,"Ġaspect":4470,"Ġfaced":4471,"inson":4472,"Ġindustrial":4473,"Ġpowers":4474,"Ġ600":4475,"lines":4476,"Ġemph":4477,"Ġnotable":4478,"Ġsupre":4479,"Ġsher":4480,"Ġjon":4481,"Ġsky":4482,"Ġmaintained":4483,"Ġaccident":4484,"Ġtechnology":4485,"Ġtrying":4486,"Ġprotection":4487,"Ġvalue":4488,"elle":4489,"gers":4490,"Ġknight":4491,"Ġvisited":4492,"Ġtable":4493,"ifying":4494,"Ġorders":4495,"Ġdaniel":4496,"Ġconvers":4497,"Ġcriticized":4498,"Ġlanding":4499,"Ġconne":4500,"Ġdelay":4501,"Ġfuel":4502,"Ġmotor":4503,"ux":4504,"Ġcarolina":4505,"Ġbroken":4506,"Ġholly":4507,"Ġsom":4508,"Ġsail":4509,"Ġfully":4510,"emic":4511,"Ġresident":4512,"Ġba":4513,"worth":4514,"Ġgrowing":4515,"Ġchosen":4516,"Ġmotion":4517,"ockey":4518,"Ġtwel":4519,"Ġet":4520,"har":4521,"ruit":4522,"Ġ53":4523,"Ġ1987":4524,"Ġinstitute":4525,"Ġcooper":4526,"ocks":4527,"Ġmul":4528,"Ġscottish":4529,"enger":4530,"Ġlabel":4531,"Ġtwelve":4532,"Ġdur":4533,"Ġdemonstr":4534,"gian":4535,"Ġ1988":4536,"Ġcriticism":4537,"Ġhat":4538,"Ġproducers":4539,"Ġyouth":4540,"Ġfrequently":4541,"Ġcompar":4542,"ola":4543,"Ġsolo":4544,"Ġentr":4545,"Ġseventh":4546,"Ġurban":4547,"Ġphilos":4548,"Ġta":4549,"Ġjoint":4550,"clusion":4551,"Ġcondition":4552,"Ġwounded":4553,"Ġ85":4554,"Ġlands":4555,"ayer":4556,"Ġaccompan":4557,"Ġpenns":4558,"Ġmd":4559,"Ġvice":4560,"Ġnest":4561,"Ġbenef":4562,"Ġlooking":4563,"Ġinte":4564,"Ġtra":4565,"Ġgolden":4566,"Ġnewspaper":4567,"Ġoppos":4568,"Ġsurrounding":4569,"ala":4570,"agn":4571,"Ġbillion":4572,"Ġchor":4573,"Ġbol":4574,"Ġindependence":4575,"Ġdegree":4576,"Ġlew":4577,"Ġcomposition":4578,"rael":4579,"Ġmoon":4580,"Ġregister":4581,"Ġoperated":4582,"Ġbarb":4583,"Ġrepublican":4584,"Ġassembly":4585,"Ġnuclear":4586,"Ġbudget":4587,"Ġchampion":4588,"izes":4589,"ordin":4590,"Ġcomic":4591,"Ġperfect":4592,"Ġserving":4593,"Ġgrew":4594,"Ġdry":4595,"Ġcreation":4596,"Ġsoutheast":4597,"uous":4598,"Ġsimply":4599,"Ġhip":4600,"Ġfollows":4601,"Ġrival":4602,"Ġincident":4603,"Ġvote":4604,"Ġlosing":4605,"Ġexpansion":4606,"Ġcool":4607,"Ġfamous":4608,"ano":4609,"Ġkilling":4610,"Ġcontained":4611,"Ġrisk":4612,"under":4613,"Ġnewly":4614,"Ġagric":4615,"wise":4616,"ias":4617,"Ġcontact":4618,"Ġbc":4619,"mission":4620,"Ġherself":4621,"Ġpasses":4622,"Ġoppon":4623,"Ġandrew":4624,"Ġweekly":4625,"Ġends":4626,"Ġindividuals":4627,"Ġcaval":4628,"Ġbac":4629,"yle":4630,"Ġpros":4631,"Ġchristmas":4632,"urb":4633,"Ġcinem":4634,"ivity":4635,"hew":4636,"wall":4637,"Ġnormal":4638,"Ġapplic":4639,"Ġjac":4640,"Ġ54":4641,"Ġsin":4642,"yr":4643,"Ġheard":4644,"Ġgh":4645,"Ġeyes":4646,"Ġhomes":4647,"Ġattrib":4648,"Ġconsecutive":4649,"Ã¨":4650,"ote":4651,"Ġwilson":4652,"Ġtam":4653,"cul":4654,"isters":4655,"Ġemphas":4656,"Ġnav":4657,"Ġchronic":4658,"Ġtaylor":4659,"Ġcrossing":4660,"ucky":4661,"Ġaer":4662,"Ġcannot":4663,"Ġthing":4664,"Ġorchest":4665,"Ġwebsite":4666,"Ġmeasure":4667,"Ġnarrow":4668,"Ġevac":4669,"Ġsupporting":4670,"Ġ1986":4671,"Ġconsequ":4672,"Ġperman":4673,"Ġchose":4674,"pton":4675,"fully":4676,"Ġelizabeth":4677,"ults":4678,"Ġjoe":4679,"Ġopposed":4680,"Ġ95":4681,"Ġ97":4682,"illy":4683,"ographer":4684,"Ġsequence":4685,"Ġalexander":4686,"Ġnote":4687,"Ġ56":4688,"Ġvolume":4689,"Ġparticipated":4690,"Ġagricult":4691,"Ġpoly":4692,"Ġhistoric":4693,"Ġthemes":4694,"Ġvon":4695,"Ġwave":4696,"Ġrise":4697,"cend":4698,"Ġdub":4699,"Ġleadership":4700,"Ġskin":4701,"lam":4702,"water":4703,"rid":4704,"Ġadopted":4705,"jo":4706,"Ġcolonel":4707,"Ġeld":4708,"Ġfresh":4709,"Ġcapacity":4710,"Ġtry":4711,"prise":4712,"Ġabandoned":4713,"Ġdisease":4714,"Ġadvant":4715,"Ġhair":4716,"ancing":4717,"Ġstanding":4718,"ãĤ":4719,"estic":4720,"Ġextend":4721,"Ġfilmed":4722,"Ġfamil":4723,"Ġdefin":4724,"Ġplants":4725,"Ã¤":4726,"Ġdemocratic":4727,"Ġmax":4728,"Ġvisual":4729,"imens":4730,"Ġbasis":4731,"Ġstraight":4732,"uting":4733,"Ġnegative":4734,"Ġpennsylvania":4735,"Ġegg":4736,"Ġdeploy":4737,"greg":4738,"Ġpier":4739,"Ġtall":4740,"Ġrand":4741,"iled":4742,"Ġlic":4743,"Ġfailure":4744,"tery":4745,"Ġcreating":4746,"Ġchalleng":4747,"Ġdrop":4748,"Ġgameplay":4749,"Ġmike":4750,"Ġappl":4751,"Ġ177":4752,"Ġregarded":4753,"Ġpossibly":4754,"Ġsund":4755,"Ġclin":4756,"uses":4757,"Ġtank":4758,"kins":4759,"Ġharry":4760,"Ġarc":4761,"Ġtreaty":4762,"ko":4763,"Ġirish":4764,"Ġlap":4765,"isers":4766,"Ġbodies":4767,"Ġpalace":4768,"Ġcore":4769,"Ġseat":4770,"Ġdistingu":4771,"Ġtrip":4772,"Ġcanal":4773,"Ġgirls":4774,"ev":4775,"Ġflu":4776,"Ġfoundation":4777,"Ġlady":4778,"rane":4779,"Ġlege":4780,"Ġinterchange":4781,"Ġtend":4782,"Ġkid":4783,"Ġspain":4784,"Ġadult":4785,"Ġmerch":4786,"amm":4787,"Ġkick":4788,"Ġparalle":4789,"Ġreact":4790,"Ġideas":4791,"Ġzone":4792,"Ġeag":4793,"Ġridge":4794,"Ġretired":4795,"Ġadvert":4796,"Ġdismiss":4797,"Ġsel":4798,"Ġsurrender":4799,"Ġlind":4800,"Ġtell":4801,"Ġwel":4802,"Ġped":4803,"Ġmist":4804,"tv":4805,"Ġextensive":4806,"Ġdeliver":4807,"Ġdeck":4808,"Ġ76":4809,"rol":4810,"gal":4811,"onc":4812,"Ġ178":4813,"azz":4814,"ruct":4815,"Ġaid":4816,"Ġyounger":4817,"Ġhockey":4818,"Ġscholars":4819,"Ġroles":4820,"Ġexplos":4821,"Ġnob":4822,"Ġgarden":4823,"Ġdial":4824,"Ġatm":4825,"Ġrailroad":4826,"ledge":4827,"Ġbasket":4828,"Ġhope":4829,"Ġanalysis":4830,"ato":4831,"Ġbishop":4832,"Ġclassic":4833,"Ġaim":4834,"Ġfranch":4835,"Ġ1939":4836,"Ġopera":4837,"Ġworth":4838,"Ġgate":4839,"anda":4840,"Ġdrew":4841,"Ġrepeated":4842,"Ġimproved":4843,"uls":4844,"Ġachieved":4845,"Ġeconomy":4846,"Ġga":4847,"Ġeffective":4848,"icks":4849,"Ġbom":4850,"Ġsoul":4851,"Ġlem":4852,"Ġbriefly":4853,"Ġglass":4854,"Ġbanks":4855,"mes":4856,"Ġisrael":4857,"Ġhay":4858,"Ġpiano":4859,"ienced":4860,"Ġdip":4861,"Ġsche":4862,"Ġthor":4863,"Ġunsu":4864,"Ġchamber":4865,"iana":4866,"Ġwed":4867,"Ġcurrently":4868,"orters":4869,"Ġsouthwest":4870,"Ġtrou":4871,"Ġhousehold":4872,"Ġnecessary":4873,"rich":4874,"Ġvehicles":4875,"Ġsud":4876,"Ġgranted":4877,"Ġdefensive":4878,"Ġroof":4879,"Ġ61":4880,"Ġpurpose":4881,"Ġregional":4882,"Ġfame":4883,"Ġ1985":4884,"Ġturns":4885,"hol":4886,"Ġcitizens":4887,"Ġrejected":4888,"Ġcaught":4889,"Ġarthur":4890,"arked":4891,"Ġorganized":4892,"Ġ1968":4893,"Ġ66":4894,"Ġrecently":4895,"Ġtypes":4896,"Ġgenus":4897,"Ġkilometres":4898,"Ġfro":4899,"Ġspeak":4900,"Ġkir":4901,"Ġmarine":4902,"Ġprovince":4903,"ja":4904,"Ġreceive":4905,"Ġexpanded":4906,"Ġcorre":4907,"Ġsecondary":4908,"resp":4909,"Ġatmosp":4910,"Ġauthorities":4911,"Ġflooding":4912,"Ġsell":4913,"Ġcommissioned":4914,"Ġonline":4915,"Ġrhy":4916,"Ġdidn":4917,"Ġble":4918,"lers":4919,"Ġbraz":4920,"Ġcavalry":4921,"iments":4922,"Ġohio":4923,"station":4924,"Ġjes":4925,"Ġtransform":4926,"Ġfamilies":4927,"onic":4928,"Ġsuccessfully":4929,"Ġperforming":4930,"Ġdivers":4931,"Ġletters":4932,"Ġori":4933,"Ġdetermined":4934,"Ġfreedom":4935,"Ġliterature":4936,"Ġalle":4937,"Ġweb":4938,"Ġdescribes":4939,"Ġfought":4940,"Ġagent":4941,"Ġassistant":4942,"Ġwhit":4943,"utation":4944,"Ġhydro":4945,"Ġtowns":4946,"uate":4947,"Å¡":4948,"Ġdram":4949,"Ġsafety":4950,"Ġpicture":4951,"Ġunus":4952,"iday":4953,"adelph":4954,"Ġtail":4955,"Ġ1984":4956,"Ġupgr":4957,"Ġgoes":4958,"Ġcustom":4959,"Ġsinging":4960,"Ġprefer":4961,"iate":4962,"Ġfreeway":4963,"Ġhorn":4964,"umber":4965,"Ġ800":4966,"Ġacquired":4967,"illa":4968,"Ġphiladelph":4969,"Ġtitles":4970,"set":4971,"Ġsuggests":4972,"stream":4973,"Ġcommonly":4974,"Ġplanning":4975,"Ġgives":4976,"rif":4977,"ading":4978,"oln":4979,"Ġcenturies":4980,"alty":4981,"Ġsupreme":4982,"Ġvac":4983,"Ġclou":4984,"oted":4985,"Ġmicro":4986,"ifications":4987,"Ġmentioned":4988,"Ġrevol":4989,"Ġdistribution":4990,"Ġgeorgia":4991,"Ġ57":4992,"Ġcambridge":4993,"inn":4994,"Ġron":4995,"Ġscheduled":4996,"aven":4997,"Ġcontain":4998,"Ġtrains":4999,"Ġcontrolled":5000,"ope":5001,"Ġwithdraw":5002,"Ġconvention":5003,"Ġalternative":5004,"Ġ120":5005,"Ġmyth":5006,"Ġprotect":5007,"Ġphiladelphia":5008,"Ġsets":5009,"Ġshooting":5010,"isf":5011,"Ġsimple":5012,"Ġcook":5013,"attle":5014,"Ġkel":5015,"Ġclar":5016,"haps":5017,"Ġchance":5018,"Ġprincipal":5019,"Ġunique":5020,"Ġreaction":5021,"Ġgraph":5022,"Ġvirt":5023,"Ġperhaps":5024,"Ġregarding":5025,"Ġka":5026,"Ġsie":5027,"Ġfix":5028,"Ġdecre":5029,"Ġss":5030,"Ġwrestling":5031,"Ġfinds":5032,"Ġ1967":5033,"hi":5034,"oul":5035,"Ġwitness":5036,"Ġsave":5037,"Ġmoder":5038,"Ġrussia":5039,"Ġsubmar":5040,"Ġestate":5041,"een":5042,"Ġcrime":5043,"Ġrules":5044,"Ġfacilities":5045,"umes":5046,"Ġkit":5047,"Ġ62":5048,"Ġreading":5049,"Ġarrival":5050,"Ġtag":5051,"amin":5052,"Ġscientific":5053,"Ġkorean":5054,"Ġdemand":5055,"Ġgain":5056,"tic":5057,"Ġscout":5058,"Ġmedic":5059,"Ġsession":5060,"Ġcontaining":5061,"Ġexchange":5062,"Ġaz":5063,"Ġpublication":5064,"Ġaccompanied":5065,"Ġuns":5066,"Ġteach":5067,"Ġlis":5068,"Ġrated":5069,"Ġtact":5070,"Ġnintend":5071,"pa":5072,"Ġmouth":5073,"Ġprice":5074,"Ġlocations":5075,"Ġbelong":5076,"Ġfighter":5077,"Ġrub":5078,"Ġfinish":5079,"Ġtouchdown":5080,"Ġceremony":5081,"Ġliverpool":5082,"mouth":5083,"Ġanne":5084,"Ġbrid":5085,"Ġboats":5086,"Ġmap":5087,"Ġquite":5088,"Ġselection":5089,"Ġhits":5090,"Ġbrook":5091,"Ġevening":5092,"Ġnintendo":5093,"Ġentirely":5094,"Ġlinc":5095,"Ġasia":5096,"Ġcd":5097,"Ġmand":5098,"unk":5099,"Ġconcer":5100,"Ġcolumbia":5101,"Ġpy":5102,"Ġexisting":5103,"ington":5104,"Ġfirm":5105,"Ġrum":5106,"Ġdedicated":5107,"Ġgri":5108,"Ġcrowd":5109,"Ġintensity":5110,"agan":5111,"och":5112,"Ġsingap":5113,"shire":5114,"Ġcontributed":5115,"rupt":5116,"Ġfash":5117,"da":5118,"Ġlegacy":5119,"Ġjean":5120,"Ġjewish":5121,"Ġbrand":5122,"Ġremix":5123,"Ġgrey":5124,"Ġprovides":5125,"Ġpurchased":5126,"etts":5127,"Ġ58":5128,"Ġcasualties":5129,"Ġkings":5130,"Ġadap":5131,"Ġken":5132,"oma":5133,"Ġwindows":5134,"Ġ1983":5135,"Ġbrazil":5136,"Ġresemb":5137,"Ġpage":5138,"rising":5139,"Ġok":5140,"Ġ74":5141,"Ġcampus":5142,"inger":5143,"Ġthrow":5144,"Ġbattery":5145,"Ġax":5146,"kes":5147,"room":5148,"Ġadvantage":5149,"ables":5150,"Ġresistance":5151,"Ġproduct":5152,"inity":5153,"Ġsites":5154,"Ġoccupied":5155,"Ġcarey":5156,"Ġboys":5157,"Ġsingapore":5158,"sey":5159,"Ġfrancisco":5160,"Ġ1969":5161,"Ġeighth":5162,"respond":5163,"Ġcorrespond":5164,"Ġheads":5165,"Ġholding":5166,"Ġ1964":5167,"Ġbasketball":5168,"Ġgib":5169,"Ġlincoln":5170,"oses":5171,"Ġcode":5172,"Ġ72":5173,"Ġgulf":5174,"Ġbes":5175,"Ġpromotion":5176,"Ġstructures":5177,"Ġbright":5178,"Ġgay":5179,"Ġelimin":5180,"Ġmiller":5181,"Ġprotected":5182,"Ġdrawn":5183,"Ġregions":5184,"Ġmerc":5185,"Ġresour":5186,"Ġnap":5187,"Ġmarc":5188,"Ġcoastal":5189,"Ġ1914":5190,"Ġconqu":5191,"Ġhms":5192,"Ġgill":5193,"Ġreceiving":5194,"Ġspr":5195,"Ġclosely":5196,"fort":5197,"rons":5198,"ection":5199,"Ġplaystation":5200,"ĠâĪ":5201,"Ġcars":5202,"Ġ1918":5203,"Ġlaws":5204,"Ġdisney":5205,"cript":5206,"Ġjudge":5207,"itled":5208,"Ġopportunity":5209,"Ġturning":5210,"Ġ1971":5211,"Ġ1982":5212,"Ġlewis":5213,"Ġgeneration":5214,"gn":5215,"Ġcalls":5216,"Ġconsists":5217,"Ġroughly":5218,"iger":5219,"Ġ1972":5220,"Ġsteve":5221,"Ġ1966":5222,"Ġgrade":5223,"Ġ1979":5224,"Ġ59":5225,"iny":5226,"Ġcorner":5227,"Ġdefined":5228,"Ġreserv":5229,"Ġacts":5230,"Ġanderson":5231,"Ġbyz":5232,"ware":5233,"burgh":5234,"wick":5235,"Ġstrengt":5236,"Ġsymbol":5237,"Ġjr":5238,"Ġbrian":5239,"Ġexperienced":5240,"Ġextrem":5241,"Ġanything":5242,"Ġneighbor":5243,"Ġtenn":5244,"Ġolympic":5245,"Ġlosses":5246,"Ġrolling":5247,"Ġfashion":5248,"Ġtask":5249,"Ġheat":5250,"garian":5251,"Ġassault":5252,"Ġhyp":5253,"verse":5254,"otic":5255,"ocated":5256,"box":5257,"Ġbyzant":5258,"Ġsurvey":5259,"Ġ1965":5260,"Ġbands":5261,"ek":5262,"Ġretire":5263,"Ġfocused":5264,"Ġviewed":5265,"Ġengaged":5266,"Ġhind":5267,"awa":5268,"ua":5269,"Ġpolitics":5270,"Ġreligion":5271,"Ġintelligence":5272,"Ġ#":5273,"Ġproviding":5274,"Ġflat":5275,"mann":5276,"rate":5277,"Ġrelief":5278,"Ġdeveloping":5279,"engers":5280,"Ġ1975":5281,"Ġnhl":5282,"Ġ99":5283,"Ġappeal":5284,"Ġsemi":5285,"Ġdomestic":5286,"Ġuncle":5287,"Ġrapidly":5288,"Ġinvestigation":5289,"Ġshared":5290,"Ġbottom":5291,"rant":5292,"Ġwond":5293,"Ġoak":5294,"Ġshall":5295,"Ġmales":5296,"Ġhired":5297,"Ġenl":5298,"Ġdisapp":5299,"Ġwalter":5300,"Ġtow":5301,"Ã¸":5302,"Ġhollywood":5303,"Ġphase":5304,"Ġmyster":5305,"Ġtemperature":5306,"Ġhighlight":5307,"Ġguy":5308,"Ġcredits":5309,"Ġans":5310,"Ġgermans":5311,"Ġgram":5312,"Ġsolid":5313,"Ġmountains":5314,"Ġeverything":5315,"Ġintroduction":5316,"Ã¡n":5317,"Ġfaith":5318,"Ġlaunch":5319,"Ġmissing":5320,"Ġrecognized":5321,"cles":5322,"Ġ1974":5323,"Ġpainting":5324,"ifically":5325,"Ġdavis":5326,"Ġvent":5327,"Ġjunior":5328,"Ġbelief":5329,"opher":5330,"Ġjourney":5331,"Ġhart":5332,"Ġ1973":5333,"bound":5334,"Ġappoint":5335,"Ġ63":5336,"Ġhell":5337,"Ġgetting":5338,"Ġisol":5339,"Ġ77":5340,"heim":5341,"Ġgord":5342,"Ġfalls":5343,"iat":5344,"Ġsubstant":5345,"Ġtyph":5346,"Ġprepared":5347,"Ġ73":5348,"Ġshape":5349,"active":5350,"Ġconve":5351,"essed":5352,"Ġfolk":5353,"Ġrome":5354,"Ġtick":5355,"Ġfranchise":5356,"ilton":5357,"enc":5358,"Ġknew":5359,"Ġserb":5360,"Ġthin":5361,"Ġopinion":5362,"Ġcens":5363,"Ġnaz":5364,"Ġglobal":5365,"Ġamend":5366,"Ġ1976":5367,"Ġsignificantly":5368,"Ġprojects":5369,"Ġintersection":5370,"Ġexact":5371,"Ġauth":5372,"Ġapproved":5373,"Ġsort":5374,"Ġlb":5375,"tar":5376,"Ġliterary":5377,"Ġadding":5378,"Ġarchae":5379,"Ġpenins":5380,"Ġhung":5381,"Ġlas":5382,"friend":5383,"eper":5384,"Ġknowledge":5385,"Ġconfeder":5386,"Ġreasons":5387,"Ġwings":5388,"wart":5389,"Ġwheel":5390,"ographic":5391,"Ġunsuccess":5392,"Ġraid":5393,"Ġsab":5394,"ishes":5395,"ologist":5396,"Ġchallenge":5397,"Ġplayoff":5398,"oncÃ©":5399,"Ġward":5400,"iful":5401,"rence":5402,"Ġmusl":5403,"Ġvic":5404,"Ġsyd":5405,"eme":5406,"erted":5407,"Ġviews":5408,"Ġstages":5409,"Ġsettlement":5410,"Ġcabin":5411,"ulate":5412,"achus":5413,"Ġpoem":5414,"Ġ250":5415,"Ġescort":5416,"Ġevolution":5417,"eman":5418,"Ġcris":5419,"Ġoperating":5420,"Ġstoryline":5421,"asty":5422,"Ġexerc":5423,"ocked":5424,"Ġ67":5425,"Ġequal":5426,"va":5427,"unte":5428,"Ġshut":5429,"break":5430,"Ġinternal":5431,"Ġrenamed":5432,"eds":5433,"lav":5434,"Ġexpect":5435,"Ġscul":5436,"Ġreputation":5437,"Ġrebu":5438,"ĠbeyoncÃ©":5439,"Ġshaped":5440,"ira":5441,"ador":5442,"Ġwatched":5443,"Ġneverthel":5444,"Ġemployed":5445,"Ġnevertheless":5446,"Ġsed":5447,"Ġproceed":5448,"Ġvolunte":5449,"Ġbaby":5450,"Ġallies":5451,"ients":5452,"Ġpopularity":5453,"Ġautom":5454,"Ġlimit":5455,"Ġfine":5456,"Ġinjured":5457,"Ġthirty":5458,"Ġcape":5459,"Ġshore":5460,"itan":5461,"Ġprofessor":5462,"Ġhumans":5463,"Ġguide":5464,"Ġtriple":5465,"Ġfemales":5466,"Ġpaint":5467,"Ġbull":5468,"Ġneut":5469,"Ġblues":5470,"Ġincreasingly":5471,"Ġcited":5472,"Ġkentucky":5473,"Ġheaded":5474,"Ġneither":5475,"hens":5476,"aver":5477,"Ġ1946":5478,"Ġbern":5479,"Ġmodels":5480,"Ġwealth":5481,"Ġdeclined":5482,"Ġ1981":5483,"zen":5484,"Ġhills":5485,"appe":5486,"Ġraf":5487,"Ġfinding":5488,"Ġconnected":5489,"antly":5490,"Ġcollected":5491,"Ġviolence":5492,"Ġ82":5493,"Ġgrav":5494,"Ġdetails":5495,"Ġjam":5496,"see":5497,"arm":5498,"istan":5499,"Ġ96":5500,"Ġ68":5501,"Ġexistence":5502,"Ġconverted":5503,"Ġdiam":5504,"Ġlabour":5505,"Ġdepth":5506,"Ġsustained":5507,"Ġenjoyed":5508,"ĠâĪĴ":5509,"inum":5510,"Ġcontroversy":5511,"mod":5512,"Ġlearned":5513,"Ġnorway":5514,"Ġentry":5515,"onym":5516,"Ġtorn":5517,"Ġconsum":5518,"Ġ1917":5519,"aka":5520,"Ġimpl":5521,"Ġvolcan":5522,"Ġbron":5523,"nic":5524,"Ġmassachus":5525,"Ġolympics":5526,"rec":5527,"Ġouter":5528,"Ġchampionships":5529,"ceived":5530,"Ġapplied":5531,"bl":5532,"Ġmassachusetts":5533,"Ġsynt":5534,"hr":5535,"Ġsad":5536,"Ġvel":5537,"Ġari":5538,"iform":5539,"Ġcrimin":5540,"ella":5541,"Ġallows":5542,"Ġcamera":5543,"istol":5544,"Ġinterp":5545,"Ġteacher":5546,"Ġ87":5547,"Ġpear":5548,"Ġswim":5549,"Ġways":5550,"Ġoccas":5551,"Ġcells":5552,"ava":5553,"Ġclark":5554,"Ġentrance":5555,"Ġapproached":5556,"Ġpremier":5557,"Ġaware":5558,"apes":5559,"Ġarsen":5560,"Ġdecade":5561,"Ġcarrying":5562,"Ġeasily":5563,"osis":5564,"ropri":5565,"Ġdesigns":5566,"Ġtests":5567,"Ġgree":5568,"Ġ160":5569,"Ġresponded":5570,"Ġloy":5571,"Ġconfron":5572,"Ġmine":5573,"Ġfoss":5574,"Ġdownlo":5575,"atures":5576,"Ġgang":5577,"Ġts":5578,"Ġdiscovery":5579,"Ġnic":5580,"Ġtechnical":5581,"Ġ1948":5582,"rel":5583,"Ġindu":5584,"Ġgray":5585,"Ġpitch":5586,"Ġchairman":5587,"Ġburied":5588,"Ġduty":5589,"Ġhang":5590,"Ġextension":5591,"psons":5592,"Ġ700":5593,"omy":5594,"Ġconvoy":5595,"Ġgradually":5596,"Ġsax":5597,"Ġsucceeded":5598,"eral":5599,"Ġsections":5600,"ima":5601,"Äģ":5602,"Ġmayor":5603,"Ġspecifically":5604,"Ġbreeding":5605,"Ġhull":5606,"Ġacres":5607,"Ġshowing":5608,"Ġprograms":5609,"Ġnas":5610,"Ġraw":5611,"una":5612,"Ġjay":5613,"ignment":5614,"Ġhug":5615,"Ġbush":5616,"Ġmunicip":5617,"Ġastron":5618,"Ġsons":5619,"Ġdoor":5620,"Ġmode":5621,"Ġprize":5622,"Ġinstall":5623,"aine":5624,"Ġstret":5625,"Ġsimpsons":5626,"Ġlev":5627,"tical":5628,"ati":5629,"Ġ69":5630,"Ġitems":5631,"Ġprisoners":5632,"Ġexclus":5633,"Ġ1978":5634,"ÅĤ":5635,"Ġarranged":5636,"Ġshop":5637,"Ġnone":5638,"Ġcredited":5639,"Ġgone":5640,"Ġgenre":5641,"Ġlegend":5642,"wa":5643,"Ġaddress":5644,"iro":5645,"Ġsimilarly":5646,"Ġvietnam":5647,"itors":5648,"Ġutil":5649,"Ġ78":5650,"Ġstatement":5651,"Ġteen":5652,"Ġweakened":5653,"Ġseems":5654,"Ġproducing":5655,"Ġwinner":5656,"Ġadditionally":5657,"Ġcad":5658,"Ġimprove":5659,"Ġearliest":5660,"Ġparties":5661,"Ġcryst":5662,"Ġlandfall":5663,"Ġ91":5664,"Ġross":5665,"come":5666,"Ġrural":5667,"Ġwarning":5668,"ss":5669,"Ġroutes":5670,"Ġpresidential":5671,"put":5672,"Ġthreatened":5673,"Ġplac":5674,"Ġdivisions":5675,"Ġ1915":5676,"Ġcandidate":5677,"ogen":5678,"Ġfields":5679,"Ġengineer":5680,"Ġretained":5681,"Ġsounds":5682,"Ġottoman":5683,"Ġinner":5684,"entions":5685,"Ġcombination":5686,"Ġbear":5687,"Ġsydney":5688,"Ġadam":5689,"Ġlasted":5690,"Ġmoore":5691,"Ġproducts":5692,"Ġspok":5693,"Ġ1977":5694,"Ġpoland":5695,"Ġbrain":5696,"Ġinstru":5697,"now":5698,"Ġmtv":5699,"Ġkim":5700,"Ġ94":5701,"ipe":5702,"Ġhear":5703,"Ġmaryland":5704,"issance":5705,"inking":5706,"Ġsha":5707,"Ġreplace":5708,"Ġsupplies":5709,"Ġones":5710,"ivered":5711,"onia":5712,"Ġdress":5713,"Ġchemical":5714,"Ġadapted":5715,"ctors":5716,"met":5717,"Ġinterior":5718,"Ġevil":5719,"Ġot":5720,"Ġanimated":5721,"Ġdowntown":5722,"Ġbasic":5723,"Ġintegr":5724,"eless":5725,"Ġ81":5726,"Ġpeninsula":5727,"Ġafterwards":5728,"Ġfrag":5729,"Ġkur":5730,"athan":5731,"Ġgrounds":5732,"Ġengines":5733,"Ġdelivered":5734,"Ġinspir":5735,"Ġ98":5736,"Ġ1963":5737,"Ġagency":5738,"Ġcul":5739,"math":5740,"Ġspeaking":5741,"Ġmagic":5742,"Ġfilled":5743,"Ġmaintain":5744,"Ġmessage":5745,"Ġsurviv":5746,"Ġrhodes":5747,"Ġcrash":5748,"rets":5749,"Ġcalc":5750,"Ġequival":5751,"Ġstopped":5752,"oli":5753,"Ġentitled":5754,"Ġpermanent":5755,"Ġaffairs":5756,"aly":5757,"Ġcow":5758,"Ġ1916":5759,"Ġsupporters":5760,"Ġindicated":5761,"Ġclean":5762,"Ġsusp":5763,"Ġclimate":5764,"Ġextremely":5765,"Ġwides":5766,"Ġarchitecture":5767,"izations":5768,"Ġengineering":5769,"ali":5770,"mun":5771,"Ġdeaths":5772,"Ġsole":5773,"Ġcauses":5774,"Ġaffect":5775,"Ġdiamond":5776,"Ġphilipp":5777,"Ġbath":5778,"ushing":5779,"Ġalien":5780,"Ġbuff":5781,"Ġgreg":5782,"Ġfruit":5783,"Ġ71":5784,"Ġsecure":5785,"Ġdrug":5786,"apped":5787,"Ġproposal":5788,"Ġimportance":5789,"Ġrestaur":5790,"Ġmars":5791,"Ġreturns":5792,"Ġgordon":5793,"Ġmulder":5794,"time":5795,"sp":5796,"Ġdeleg":5797,"lee":5798,"Ġspons":5799,"Ġratings":5800,"othes":5801,"Ġtyphoon":5802,"osa":5803,"Ġknots":5804,"cks":5805,"Ġtel":5806,"Ġstreets":5807,"Ġphilip":5808,"itt":5809,"Ġimplement":5810,"Ġacid":5811,"Ġharv":5812,"Ġ1919":5813,"Ġcomposer":5814,"leton":5815,"Ġ1962":5816,"Ġches":5817,"emies":5818,"Ġ89":5819,"Ġpig":5820,"Ġko":5821,"book":5822,"Ġmans":5823,"Ġtanks":5824,"ropol":5825,"iversary":5826,"Ġsurvived":5827,"Ġconsc":5828,"Ġjur":5829,"Ġclassical":5830,"pective":5831,"Ġbure":5832,"Ġswit":5833,"Ġaftermath":5834,"Ġira":5835,"Ġdescribing":5836,"Ġcompon":5837,"Ġreferences":5838,"Ġcolour":5839,"Ġwrites":5840,"bourne":5841,"Ġkat":5842,"Ġconvin":5843,"Ġgiant":5844,"Ġll":5845,"Ġprint":5846,"chers":5847,"Ġbos":5848,"Ġfict":5849,"Ġmah":5850,"Ġclassification":5851,"Ġbought":5852,"Ġconcerns":5853,"Ġmes":5854,"Ġsongwrit":5855,"Ġholy":5856,"Ġalf":5857,"Ġimages":5858,"oles":5859,"inois":5860,"Ġeric":5861,"Ġvul":5862,"Ġflo":5863,"Ġ1938":5864,"Ġruled":5865,"Ġack":5866,"Ġrab":5867,"Ġsomeone":5868,"Ġmedie":5869,"Ġtypical":5870,"Ġentering":5871,"Ġrivers":5872,"Ġarmor":5873,"Ġenvironmental":5874,"ela":5875,"Ġ88":5876,"Ġjane":5877,"Ġremember":5878,"Ġgy":5879,"ante":5880,"Ġna":5881,"Ġstudied":5882,"Ġarrested":5883,"Ġdecline":5884,"Ġportrayed":5885,"entially":5886,"Ġcruiser":5887,"Ġvoted":5888,"Ġpreced":5889,"Ġretreat":5890,"mus":5891,"Ġuniverse":5892,"Ġreduce":5893,"Ġsale":5894,"Ġrecalled":5895,"Ġshr":5896,"Ġscar":5897,"Ġeleven":5898,"Ġago":5899,"Ġsiege":5900,"Ġpurchase":5901,"Ġcorporation":5902,"Ġsculpt":5903,"ansas":5904,"Ġquant":5905,"Ġactual":5906,"Ġcapable":5907,"Ġmedieval":5908,"Ġfeeling":5909,"cop":5910,"Ġbang":5911,"Ġacademic":5912,"zer":5913,"aki":5914,"adow":5915,"Ġalliance":5916,"Ġowner":5917,"Ġobjects":5918,"Ġnomination":5919,"lying":5920,"Ġalan":5921,"Ġcolonial":5922,"Ġliberal":5923,"Ġpav":5924,"Ġrecognition":5925,"Ġsessions":5926,"Ġdriving":5927,"Ġobl":5928,"Ġsufficient":5929,"Ġchapter":5930,"Ġtony":5931,"Ġequipped":5932,"Ġnel":5933,"Ġkong":5934,"Ġ130":5935,"Ġthousands":5936,"Ġoffers":5937,"Ġidentity":5938,"Ġhunting":5939,"Ġfunds":5940,"Ġhistorians":5941,"Ġpassage":5942,"Ġnoting":5943,"Ġmarg":5944,"Ġ175":5945,"Ġcamer":5946,"Ġconcerned":5947,"Ġconnection":5948,"Ġanniversary":5949,"Ġfinals":5950,"Ġ1956":5951,"Ġmeters":5952,"Ġbry":5953,"Ġdecades":5954,"Ġdebate":5955,"Ġcrossed":5956,"Ġconsisting":5957,"Ġundert":5958,"Ġadmitted":5959,"hus":5960,"Ġrecommended":5961,"Ġprincess":5962,"Ġ79":5963,"Ġprogramme":5964,"Ġplate":5965,"Ġdetect":5966,"Ġinterested":5967,"right":5968,"Ġthunder":5969,"uct":5970,"Ġinvited":5971,"Ġdipl":5972,"Ġgam":5973,"inal":5974,"eller":5975,"Ġinstalled":5976,"Ġdougl":5977,"Ġsight":5978,"Ġker":5979,"Ġadams":5980,"Ġbreaking":5981,"Ġconsiderable":5982,"Ġarsenal":5983,"Ġpound":5984,"Ġstarts":5985,"Ġuniversal":5986,"Ġhou":5987,"Ġjord":5988,"Ġak":5989,"uan":5990,"Ġmonument":5991,"Ġestablishment":5992,"Ġcourts":5993,"Ġdates":5994,"Ġcolony":5995,"Ġwarm":5996,"Ġdecor":5997,"Ġ1936":5998,"Ġmaria":5999,"Ġeat":6000,"aked":6001,"Ġsequel":6002,"oir":6003,"wich":6004,"Ġhamilton":6005,"Ġbou":6006,"Ġenemies":6007,"Ġstyles":6008,"iques":6009,"acks":6010,"Ġcharged":6011,"Ġsimon":6012,"Ġduties":6013,"Ġimprov":6014,"Ġremainder":6015,"ranean":6016,"Ġveter":6017,"Ġparallel":6018,"heas":6019,"pread":6020,"oked":6021,"Ġutc":6022,"Ġmanner":6023,"Ġtruth":6024,"ora":6025,"Ġwidespread":6026,"Ġjump":6027,"Ġalleg":6028,"Ġready":6029,"Ġshield":6030,"Ġpure":6031,"Ġ92":6032,"Ġsharp":6033,"Ġnegoti":6034,"Ġcommunist":6035,"Ġ93":6036,"eb":6037,"Ġpromote":6038,"Ġpictures":6039,"eland":6040,"Ġsalt":6041,"Ġconservative":6042,"ilation":6043,"Ġnether":6044,"Ġpad":6045,"Ġ1961":6046,"osaurus":6047,"Ġindones":6048,"Ġthro":6049,"Ġcontinuing":6050,"Ġbid":6051,"Ġ84":6052,"Ġslowly":6053,"Ġdean":6054,"Ġmole":6055,"Ġherit":6056,"ingly":6057,"igation":6058,"Ġdeparture":6059,"Ġbehavior":6060,"Ġaspects":6061,"Ġoccasionally":6062,"Ġdiet":6063,"Ġclasses":6064,"Ġtransition":6065,"Ġnba":6066,"Ġwwe":6067,"Ġcos":6068,"Ġelectronic":6069,"Ġanimation":6070,"Ġlam":6071,"Ġ1953":6072,"Ġargent":6073,"Ġbeautiful":6074,"Ġresources":6075,"Ġromantic":6076,"Ġhitler":6077,"iling":6078,"Ġdestruction":6079,"Ġorchestra":6080,"Ġhappy":6081,"Ġrhyth":6082,"Ġrug":6083,"Ġkennedy":6084,"Ġwearing":6085,"Ġposted":6086,"Ġemergency":6087,"Ġacclaim":6088,"Ġsunday":6089,"Ġtransportation":6090,"Ġhoward":6091,"Ġassistance":6092,"Ġdisappo":6093,"akers":6094,"Ġtreas":6095,"Ġsweet":6096,"Ġsenator":6097,"Ġsuperior":6098,"Ġindiana":6099,"Ġride":6100,"atch":6101,"Ġcarbon":6102,"outs":6103,"Ġformal":6104,"Ġvessels":6105,"ione":6106,"Ġleon":6107,"Ġoccurs":6108,"aken":6109,"ashed":6110,"Ġaccur":6111,"hetic":6112,"Ġnorwe":6113,"Ġcertified":6114,"Ġdated":6115,"Ġincome":6116,"Ġbot":6117,"Ġcredit":6118,"Ġmemory":6119,"Ġpopulations":6120,"Ġscully":6121,"Ġattached":6122,"Ġ1947":6123,"Ġproperties":6124,"Ġdemol":6125,"Ġancest":6126,"Ġchorus":6127,"Ġpassengers":6128,"bey":6129,"Ġ1958":6130,"Ġconservation":6131,"Ġshots":6132,"Ġequivalent":6133,"aware":6134,"Ġportug":6135,"Ġmathem":6136,"Ġchapel":6137,"Ġoldest":6138,"Ġinvolving":6139,"Ġturk":6140,"regon":6141,"icide":6142,"ophy":6143,"Ġ1910":6144,"after":6145,"Ġcircum":6146,"Ġterminus":6147,"Ġ110":6148,"Ġ86":6149,"oard":6150,"Ġtunnel":6151,"Ġacknow":6152,"Ġheritage":6153,"Ġcant":6154,"no":6155,"Ġoregon":6156,"Ġadventure":6157,"Ġ1957":6158,"Ġpriest":6159,"Ġexpand":6160,"Ġsettled":6161,"Ġcatch":6162,"Ġrig":6163,"Ġwins":6164,"Ġryan":6165,"pir":6166,"veland":6167,"Ġobtained":6168,"Ġpink":6169,"Ġpope":6170,"Ġbombard":6171,"Ġsleep":6172,"Ġ1937":6173,"Ġjunction":6174,"Ġfisher":6175,"Ġrescue":6176,"Ġdynasty":6177,"Ġcolumn":6178,"icit":6179,"Ġaccused":6180,"Ġauthors":6181,"Ġfinishing":6182,"Ġworst":6183,"Ġderived":6184,"Ġcharges":6185,"Ġninth":6186,"agues":6187,"Ġincorporated":6188,"ivals":6189,"Ġreviewers":6190,"Ġfavorite":6191,"Ġdouglas":6192,"Ġcircuit":6193,"rus":6194,"Ġreplacement":6195,"Ġeu":6196,"Ġprede":6197,"Ġcrisis":6198,"Ġcleveland":6199,"heastern":6200,"Ġillinois":6201,"Ġcommitted":6202,"Ġmissions":6203,"Ġhosted":6204,"hered":6205,"Ġprey":6206,"Ġsword":6207,"Ġmoves":6208,"Ġ<":6209,"Ġbelt":6210,"Ġsegment":6211,"wan":6212,"etime":6213,"Ġrebell":6214,"Ġbringing":6215,"Ġvehicle":6216,"bar":6217,"Ġshear":6218,"Ġgrass":6219,"Ġsupposed":6220,"Ġaudio":6221,"Ġandy":6222,"Ġlenn":6223,"aret":6224,"Ġassumed":6225,"Ġmediter":6226,"Ġdenied":6227,"Ġ1959":6228,"Ġweeke":6229,"Ġstanley":6230,"inary":6231,"ĠâĢĿ":6232,"Ġinterpret":6233,"western":6234,"Ġcirculation":6235,"Ġrooms":6236,"Ġclubs":6237,"Ġrecre":6238,"Ġrepresentatives":6239,"Ġjordan":6240,"oes":6241,"Ġunusual":6242,"Ġunp":6243,"Ġdens":6244,"Ġtheater":6245,"Ġfictional":6246,"Ġmediterranean":6247,"Ġmusicians":6248,"Ġcommanded":6249,"ji":6250,"Ġstrongly":6251,"Ġroger":6252,"Ġkevin":6253,"Ġseeing":6254,"Ġbeatles":6255,"eline":6256,"agonist":6257,"Ġoutstanding":6258,"Ġbegun":6259,"Ġintercept":6260,"Ġdeput":6261,"Ġmexican":6262,"Ġcompletion":6263,"Ġconte":6264,"Ġsurviving":6265,"Ġbruce":6266,"Ġcharacteristics":6267,"ran":6268,"Ġdeem":6269,"Ġ1955":6270,"Ġbristol":6271,"Ġmaterials":6272,"Ġrif":6273,"Ġ1954":6274,"Ġreality":6275,"Ġsolar":6276,"ĠâĢľ":6277,"Ġcathed":6278,"Ġgust":6279,"Ġisbn":6280,"Ġnorwegian":6281,"Ġalleged":6282,"ician":6283,"Ġpersu":6284,"Ġattor":6285,"Ġmonarch":6286,"Ġcosts":6287,"ooth":6288,"Ġmol":6289,"Ġwickets":6290,"Ġexception":6291,"Ġdescend":6292,"Ġlanc":6293,"Ġtied":6294,"Ġpossibility":6295,"Ġmethods":6296,"Ġsailed":6297,"Ġwet":6298,"Ġresponsibility":6299,"borne":6300,"works":6301,"Ġhaz":6302,"Ġreconst":6303,"Ġbah":6304,"Ġvision":6305,"Ġpraise":6306,"Ġpassenger":6307,"Ġeveryone":6308,"Ġcancer":6309,"Ġdriven":6310,"Ġford":6311,"Ġaggress":6312,"lets":6313,"state":6314,"Ġopposite":6315,"ami":6316,"Ġdifferences":6317,"ager":6318,"Ġeru":6319,"Ġcarrier":6320,"Ġrepresentative":6321,"Ġmissed":6322,"Ġintention":6323,"Ġatmosphere":6324,"Ġscheme":6325,"Ġhabitat":6326,"Ġlisa":6327,"Ġkorea":6328,"Ġbuy":6329,"uv":6330,"weight":6331,"Ġthereafter":6332,"Ġdesire":6333,"Ġvoy":6334,"Ġvary":6335,"con":6336,"ĠÃĹ":6337,"Ġrecovered":6338,"Ġotherwise":6339,"Ġmassive":6340,"char":6341,"Ġorange":6342,"organ":6343,"arian":6344,"Ġthrone":6345,"onto":6346,"Ġfunding":6347,"Ġwrong":6348,"Ġplatinum":6349,"Ġnich":6350,"burn":6351,"Ġdragon":6352,"Ġstrategy":6353,"Ġattributed":6354,"Ġreinforce":6355,"itable":6356,"Ġwarri":6357,"Ġphill":6358,"Ġserves":6359,"ucks":6360,"erged":6361,"Ġske":6362,"Ġstayed":6363,"Ġshif":6364,"Ġtwin":6365,"Ġdisappe":6366,"Ġ83":6367,"Ġemerged":6368,"Ġretirement":6369,"Ġeffectively":6370,"Ġcommunities":6371,"Ġclassified":6372,"Ġ1952":6373,"Ġmorris":6374,"Ġlun":6375,"Ġpunk":6376,"Ġoutbreak":6377,"Ġtownship":6378,"Ġille":6379,"Ġministry":6380,"Ġceme":6381,"Ġadults":6382,"Ġweapon":6383,"alf":6384,"Ġaboard":6385,"Ġrobinson":6386,"Ġinse":6387,"Ġaccommod":6388,"Ġmorgan":6389,"elsh":6390,"Ġmobile":6391,"Ġregularly":6392,"ez":6393,"Ġcrosses":6394,"Ġnorman":6395,"Ġdissip":6396,"bell":6397,"rell":6398,"aza":6399,"Ġdocumentary":6400,"Ġelections":6401,"Ġnelson":6402,"Ġtoll":6403,"Ġaccounts":6404,"Ġpartn":6405,"Ġpremiere":6406,"Ġlies":6407,"Ġhawai":6408,"riers":6409,"Ġunderground":6410,"Ġfalling":6411,"Ġstrengthen":6412,"Ġ1933":6413,"Ġcircle":6414,"Ġwonder":6415,"Ġpleas":6416,"Ġstead":6417,"Ġattracted":6418,"Ġcrop":6419,"Ġneck":6420,"Ġcha":6421,"Ġinspiration":6422,"Ġstood":6423,"isms":6424,"Ġsubmarine":6425,"Ġpir":6426,"Ġforming":6427,"Ġtrials":6428,"Ġsatisf":6429,"Ġ176":6430,"enses":6431,"oslav":6432,"Ġangle":6433,"Ġfactor":6434,"Ġraces":6435,"Ġracing":6436,"Ġcriminal":6437,"Ġpret":6438,"Ġcla":6439,"Ġparks":6440,"Ġmovements":6441,"Ġlith":6442,"Ġcommem":6443,"Ġrenew":6444,"Ġjenn":6445,"sole":6446,"Ġadvis":6447,"rett":6448,"Ġlyn":6449,"Ġinjuries":6450,"Ġvotes":6451,"Ġbattleships":6452,"pping":6453,"Ġbatting":6454,"Ġimmig":6455,"Ġsid":6456,"Ġanton":6457,"Ġpull":6458,"Ġdor":6459,"Ġneeds":6460,"anth":6461,"Ġraise":6462,"Ġmck":6463,"abled":6464,"oking":6465,"Ġ1935":6466,"Ġconduct":6467,"Ġseparated":6468,"Ġsweden":6469,"20":6470,"Ġpatrick":6471,"Ġrelative":6472,"Ġallen":6473,"Ġgarrison":6474,"Ġpredecess":6475,"Ġchain":6476,"Ġphotograph":6477,"Ġsudden":6478,"Ġwy":6479,"Ġ1949":6480,"Ġrecru":6481,"Ġshark":6482,"Ġpublisher":6483,"Ġ1951":6484,"Ġwelsh":6485,"Ġearn":6486,"Ġpale":6487,"Ġbag":6488,"idden":6489,"Ġtemporary":6490,"Ġnom":6491,"Ġqueens":6492,"uts":6493,"Ġremn":6494,"Ġplane":6495,"Ġdesert":6496,"Ġsymph":6497,"Ġflank":6498,"Ġdifficulty":6499,"aug":6500,"Ġorb":6501,"Ġdistinguished":6502,"Ġech":6503,"Ġpartner":6504,"bing":6505,"Ġseemed":6506,"Ġports":6507,"Ġrequested":6508,"Ġdelayed":6509,"Ġhem":6510,"teenth":6511,"Ġuss":6512,"Ġbarr":6513,"Ġtoronto":6514,"Ġfacility":6515,"Ġsoph":6516,"Ġdepict":6517,"Ġrestored":6518,"Ġsurrounded":6519,"Ġelder":6520,"Ġgets":6521,"Ġstandards":6522,"Ġmatthew":6523,"Ġeggs":6524,"Ã³n":6525,"Ġatom":6526,"Ġscr":6527,"ogy":6528,"Ġcurt":6529,"Ġbyzantine":6530,"coming":6531,"Ġhoped":6532,"imate":6533,"Ġom":6534,"Ġharm":6535,"Ġclaiming":6536,"Ġelsewhere":6537,"Ġbridges":6538,"Ġnetherlands":6539,"Ġsend":6540,"Ġshir":6541,"Ġchildhood":6542,"Ġhin":6543,"Ġmetropol":6544,"Ġtu":6545,"Ġpenalty":6546,"Ġconvection":6547,"Ġamaz":6548,"Ġreviewer":6549,"abil":6550,"Ġmurd":6551,"rad":6552,"oyd":6553,"Ġtemperatures":6554,"oral":6555,"Ġframe":6556,"Ġinternet":6557,"Ġmeets":6558,"Ġali":6559,"Ġstands":6560,"Ġrud":6561,"Ġconvinced":6562,"Ġkiss":6563,"Ġages":6564,"Ġexamples":6565,"Ġere":6566,"Ġiraq":6567,"Ġgreatly":6568,"Ġmoderate":6569,"Ġjews":6570,"Ġcathedral":6571,"Ġlock":6572,"Ġpublishing":6573,"Ġjacob":6574,"Ġwolf":6575,"rations":6576,"Ġjazz":6577,"Ġdangerous":6578,"Ġinvolvement":6579,"Ġcycle":6580,"Ġpainted":6581,"Ġappropri":6582,"Ġeasy":6583,"Ġtub":6584,"Ġye":6585,"Ġrick":6586,"yard":6587,"Ġwooden":6588,"Ġaccompl":6589,"Ġdrag":6590,"Ġrit":6591,"Ġalco":6592,"Ġ1900":6593,"oz":6594,"Ġadaptation":6595,"Ġsatell":6596,"Ġwright":6597,"Ġhundreds":6598,"Ġspoke":6599,"Ġtries":6600,"Ġattract":6601,"Ġlearn":6602,"iley":6603,"Ġimmediate":6604,"Ġfled":6605,"Ġrecordings":6606,"Ġah":6607,"Ġarn":6608,"Ġanyone":6609,"Ġsumm":6610,"Ġexcell":6611,"pson":6612,"Ġleaf":6613,"Ġparish":6614,"erto":6615,"Ġtechniques":6616,"Ġcheck":6617,"Ġstrip":6618,"Ġdod":6619,"Ġbureau":6620,"Ġcoin":6621,"Ġsalv":6622,"war":6623,"imet":6624,"Ġappearing":6625,"Ġlearning":6626,"what":6627,"Ġsynthes":6628,"uther":6629,"bro":6630,"Ġassass":6631,"Ġencouraged":6632,"reck":6633,"omot":6634,"Ġsomewhat":6635,"berts":6636,"Ġsuffering":6637,"Ġchur":6638,"Ġarmen":6639,"Ġsafe":6640,"Ġdispl":6641,"Ġmeasures":6642,"Ġprohib":6643,"Ġip":6644,"Ġcroatian":6645,"Ġpoetry":6646,"Ġgraphics":6647,"Ġinsur":6648,"Ġveget":6649,"agement":6650,"Ġpatri":6651,"Ġrussell":6652,"bra":6653,"Ġpel":6654,"Ġlegislation":6655,"Ġbears":6656,"Ġdetermine":6657,"Ġjournalist":6658,"Ġdismissed":6659,"Ġhorror":6660,"Ġthompson":6661,"Ġusa":6662,"Ġtan":6663,"sex":6664,"Ġdating":6665,"Ġhub":6666,"going":6667,"Ġislam":6668,"Ġflash":6669,"Ġinterests":6670,"Ġensure":6671,"Ġfacing":6672,"Ġhud":6673,"Ġhend":6674,"Ġpak":6675,"formula":6676,"Ġwhereas":6677,"Ġattempting":6678,"Ġmargin":6679,"Ġnickn":6680,"Ġfu":6681,"Ġgor":6682,"Ġabsor":6683,"Ġupd":6684,"Ġkelly":6685,"Ġfighters":6686,"iva":6687,"Ġ06":6688,"Ġbuck":6689,"Ġnfl":6690,"Ġfitted":6691,"Ġcarter":6692,"Ġkl":6693,"Ġholds":6694,"agre":6695,"Ġcommonwe":6696,"Ġthousand":6697,"Ġtip":6698,"igg":6699,"Ġtrophy":6700,"Ġstarred":6701,"Ġpuerto":6702,"body":6703,"Ġbypass":6704,"Ġattacking":6705,"Ġdepos":6706,"Ġformerly":6707,"Ġgent":6708,"Ġscrap":6709,"Ġvisible":6710,"Ġcommonwealth":6711,"eld":6712,"Ġquestions":6713,"Ġcloser":6714,"Ġextreme":6715,"Ġconclusion":6716,"Ġbiggest":6717,"encies":6718,"Ġspears":6719,"iant":6720,"Ġbats":6721,"Ġmete":6722,"apping":6723,"Ġabsence":6724,"itzer":6725,"Ġwes":6726,"ighter":6727,"Ã±":6728,"Ġproductions":6729,"Ġhungarian":6730,"Ġinfluences":6731,"Ġmodified":6732,"Ġniel":6733,"fe":6734,"Ġprosec":6735,"Ġreprodu":6736,"Ġdeemed":6737,"Ġhonour":6738,"real":6739,"Ġbatman":6740,"Ġcloth":6741,"Ġinstruments":6742,"Ġlion":6743,"Ġoverse":6744,"Ġdiplom":6745,"Ġ1913":6746,"Ġpremiered":6747,"Ġapparently":6748,"night":6749,"Ġparker":6750,"Ġcontroversial":6751,"Ġbronze":6752,"ito":6753,"Ġlanded":6754,"Ġlandsc":6755,"Ġlaboratory":6756,"alo":6757,"Ġscand":6758,"Ġnovels":6759,"Ġharris":6760,"Ġharbor":6761,"Ġnarrative":6762,"á»":6763,"Ġmurray":6764,"Ġlongest":6765,"Ġdistributed":6766,"Ġdre":6767,"Ġgather":6768,"Ġ1927":6769,"Ġterritories":6770,"rete":6771,"Ġleads":6772,"Ġlocomot":6773,"Ġoperate":6774,"Ġ1926":6775,"Ġgallery":6776,"ila":6777,"Ġrestoration":6778,"Ġfiles":6779,"Ġunderstand":6780,"ameter":6781,"Ġvictims":6782,"Ġalph":6783,"Ġattorney":6784,"Ġarrangement":6785,"Ġtrained":6786,"Ġjoy":6787,"Ġdiscip":6788,"Ġlaure":6789,"Ġcreative":6790,"Ġacknowled":6791,"chang":6792,"Ġrhythm":6793,"ivan":6794,"Ġ1934":6795,"Ġ1921":6796,"Ġcloud":6797,"Ġvisitors":6798,"Ġstor":6799,"Ġuniform":6800,"Ġmainstream":6801,"Ġunsuccessful":6802,"Ġmamm":6803,"Ġweekend":6804,"Ġsubstit":6805,"vis":6806,"Ġreleases":6807,"Ġconcur":6808,"Ġrefuge":6809,"Ġsor":6810,"Ġsees":6811,"Ġrepresenting":6812,"owa":6813,"Ġbelieves":6814,"Ġdynam":6815,"Ġdna":6816,"Ġkw":6817,"Ġexcess":6818,"Ġdepicted":6819,"Ġinfluential":6820,"Ġberlin":6821,"Ġresolution":6822,"Ġowners":6823,"Ġcoins":6824,"Ġliqu":6825,"Ġbasin":6826,"entional":6827,"agu":6828,"ici":6829,"Ġexit":6830,"Ġlooked":6831,"Ġdominated":6832,"Ġ08":6833,"apers":6834,"Ġ900":6835,"hanna":6836,"Ġhouston":6837,"Ġraaf":6838,"dd":6839,"aws":6840,"Ġyan":6841,"Ġsecured":6842,"Ġchurches":6843,"ixon":6844,"Ġvideos":6845,"Äį":6846,"Ġsanta":6847,"Ġwol":6848,"eler":6849,"tz":6850,"chen":6851,"Ġwag":6852,"Ġfinn":6853,"Ġnotably":6854,"roit":6855,"Ġyug":6856,"Ġinformed":6857,"Ġcomics":6858,"Ġ1912":6859,"Ġexpos":6860,"Ġcasting":6861,"Ġwatching":6862,"Ġlegs":6863,"illing":6864,"pany":6865,"Ġreun":6866,"Ġdriver":6867,"Ġgiants":6868,"Ġlod":6869,"Ġindians":6870,"Ġoffices":6871,"using":6872,"aya":6873,"Ġcemetery":6874,"ture":6875,"Ġroberts":6876,"Ġswedish":6877,"Ġdeployed":6878,"Ġhut":6879,"Ġlanguages":6880,"atically":6881,"Ġimposs":6882,"Ġguardian":6883,"Ġsimpson":6884,"Ġterror":6885,"Ġrelationships":6886,"Ġbehavi":6887,"oster":6888,"ultane":6889,"Ġ1932":6890,"Ġtone":6891,"Ġdick":6892,"Ġsimultane":6893,"Ġresear":6894,"Ġneighbour":6895,"Ġhousing":6896,"illed":6897,"eenth":6898,"vens":6899,"Ġdies":6900,"aska":6901,"Ġhu":6902,"ĠâĤ":6903,"Ġhearing":6904,"Ġdevice":6905,"Ġtesting":6906,"acent":6907,"Ġtie":6908,"Ġopponents":6909,"Ġskills":6910,"Ġcabinet":6911,"Ġmeteor":6912,"Ġdiagn":6913,"Ġcov":6914,"ication":6915,"Ġkne":6916,"Ġachieve":6917,"Ġpregn":6918,"Ġbh":6919,"apse":6920,"Ġwarner":6921,"Ġoperational":6922,"Ġabd":6923,"Ġcock":6924,"Ġincom":6925,"Ġdetail":6926,"Ġsang":6927,"Ġdrums":6928,"Ġfreder":6929,"Ġimpressed":6930,"Ġgenerated":6931,"ructure":6932,"Ġintense":6933,"Ġemotional":6934,"Ġjason":6935,"Ġ09":6936,"Ġliz":6937,"Ġfactors":6938,"Ġreportedly":6939,"Ġmainten":6940,"rig":6941,"Ġdialogue":6942,"li":6943,"Ġagents":6944,"Ġhappened":6945,"Ġau":6946,"Ġbapt":6947,"Ġmaintenance":6948,"ternal":6949,"Ġwindow":6950,"Ġdownload":6951,"Ġcommemor":6952,"fare":6953,"Ġay":6954,"Ġrender":6955,"iously":6956,"Ġnbc":6957,"Ġyugoslav":6958,"Ġformat":6959,"Ġsuccessor":6960,"Ġagricultural":6961,"Ġanthony":6962,"Ġfiring":6963,"Ġfootage":6964,"Ġemployees":6965,"Ġexperiences":6966,"Ġmud":6967,"Ġsatur":6968,"Ġsomers":6969,"Ġabbey":6970,"arts":6971,"Ġtrek":6972,"olph":6973,"Ġclay":6974,"Ġrising":6975,"otype":6976,"Ġgaga":6977,"Ġdetroit":6978,"tw":6979,"Ġfishing":6980,"udes":6981,"ci":6982,"Ġcroatia":6983,"Ġlose":6984,"mate":6985,"Ġsure":6986,"Ġteeth":6987,"Ġdefended":6988,"Ġnegotiations":6989,"Ġcu":6990,"Ġlowest":6991,"Ġscientists":6992,"Ġbun":6993,"ache":6994,"fire":6995,"Ġzero":6996,"Ġraj":6997,"Ġrevolutionary":6998,"Ġ1929":6999,"Ġstem":7000,"ih":7001,"icial":7002,"Ġexecuted":7003,"Ġbelg":7004,"Ġark":7005,"Ġku":7006,"Ġ1911":7007,"Ġcod":7008,"Ġfried":7009,"Ġmedium":7010,"Ġdiscussed":7011,"Ġcollect":7012,"Ġgilbert":7013,"ctic":7014,"Ġpersonality":7015,"Ġfeud":7016,"Ġ140":7017,"Ġnormally":7018,"Ġrecur":7019,"Ġtreated":7020,"Ġseas":7021,"igen":7022,"noon":7023,"aints":7024,"Ġsic":7025,"Ġenters":7026,"Ġportra":7027,"anny":7028,"Ġtribute":7029,"Ġasian":7030,"Ġafternoon":7031,"Ġinterstate":7032,"Ġtenth":7033,"Ġsympt":7034,"Ġstewart":7035,"Ġlob":7036,"Ġradar":7037,"Ġdj":7038,"Ġresign":7039,"Ġ1931":7040,"Ġdrawing":7041,"Ġ1922":7042,"Ġclinton":7043,"Ġresidential":7044,"achment":7045,"Ġcarib":7046,"Ġmelbourne":7047,"ontin":7048,"Ġstorms":7049,"30":7050,"Ġflew":7051,"Ġjesus":7052,"Ġresigned":7053,"Ġaccompany":7054,"Ġgoods":7055,"Ġcher":7056,"Ġdifference":7057,"Ġvessel":7058,"Ġadvoc":7059,"Ġdetailed":7060,"iliar":7061,"Ġethnic":7062,"Ġinhabit":7063,"Ġtornado":7064,"Ġbreat":7065,"Ġboil":7066,"ois":7067,"Ġorigins":7068,"Ġaged":7069,"Ġevans":7070,"Ġformally":7071,"Ġpointed":7072,"Ġbudd":7073,"Ġnielsen":7074,"Ġpartnership":7075,"Ġtechnique":7076,"Ġmilitia":7077,"Ġreveals":7078,"Ġprevented":7079,"Ġsynd":7080,"Ġinnov":7081,"Ġpreferred":7082,"Ġloop":7083,"Ġglac":7084,"Ġxbox":7085,"pet":7086,"Ġpushed":7087,"Ġstable":7088,"Ġdirectors":7089,"Ġtempor":7090,"Ġhuge":7091,"oen":7092,"Ġkeeping":7093,"Ġforb":7094,"Ġarriving":7095,"Ġannounce":7096,"Ġapprec":7097,"Ġexposed":7098,"Ġ05":7099,"arf":7100,"Ġorganizations":7101,"Ġisolated":7102,"Ġinstitution":7103,"Ġneighborhood":7104,"Ġsisters":7105,"orous":7106,"Ġatlant":7107,"ni":7108,"Ġsubstantial":7109,"Ġdisturb":7110,"sk":7111,"Ġpartly":7112,"Ġhanded":7113,"Ġsevent":7114,"Ġmetro":7115,"Ġmoments":7116,"Ġforty":7117,"Ġmuslim":7118,"Ġmarshall":7119,"Ġlinked":7120,"Ġfounder":7121,"Ġsamuel":7122,"otes":7123,"Ġturkish":7124,"iner":7125,"Ġoxy":7126,"Ġphen":7127,"lie":7128,"Ġimprison":7129,"Ġenthus":7130,"Ġsarah":7131,"Ġdeparted":7132,"Ġanaly":7133,"Ġmack":7134,"Ġhans":7135,"rees":7136,"Ġherald":7137,"Ġcontinental":7138,"Ġdesigner":7139,"Ġfactory":7140,"vere":7141,"Ġaustria":7142,"Ġcomplic":7143,"mad":7144,"Ġcorrect":7145,"rose":7146,"Ġcolorado":7147,"Ġsuspend":7148,"Ġlennon":7149,"Ġexisted":7150,"Ġassess":7151,"Ġfrequent":7152,"Ġpione":7153,"Ġmanh":7154,"Ġmeg":7155,"Ġfifteen":7156,"Ġdramatic":7157,"Ġgreece":7158,"Ġimpossible":7159,"ologists":7160,"Ġperiods":7161,"bean":7162,"Ġranking":7163,"Ġinstrumental":7164,"Ġbenn":7165,"Ġproced":7166,"Ġavo":7167,"Ġextent":7168,"Ġwedding":7169,"Ġmoral":7170,"Ġoccupation":7171,"Ġbaltim":7172,"Ġparticipate":7173,"Ġconcerts":7174,"Ġcatal":7175,"sa":7176,"ģĦ":7177,"Ġsymp":7178,"Ġinstance":7179,"Ġ170":7180,"Ġpatrol":7181,"Ġinher":7182,"Ġload":7183,"Ġbaltimore":7184,"Ġshock":7185,"rome":7186,"imb":7187,"olis":7188,"Ġseeking":7189,"Ġiniti":7190,"mat":7191,"lev":7192,"usted":7193,"Ġarmament":7194,"Ġcruisers":7195,"Ġscholar":7196,"inder":7197,"Ġapple":7198,"Ġanticip":7199,"stic":7200,"Ġalter":7201,"Ġmalays":7202,"Ġdeputy":7203,"Ġspecimens":7204,"Ġgrace":7205,"Ġmail":7206,"Ġtru":7207,"Ġtaught":7208,"Ġturb":7209,"ullivan":7210,"Ġaqu":7211,"Ġhelic":7212,"Ġverse":7213,"Ġfinale":7214,"Ġghost":7215,"lyn":7216,"Ġseek":7217,"music":7218,"Ġimpress":7219,"Ġfab":7220,"die":7221,"Ġern":7222,"Ġmanus":7223,"Ġhunt":7224,"Ġrarely":7225,"Ġgates":7226,"Ġsem":7227,"Ġrepair":7228,"Ġsmooth":7229,"Ġamendment":7230,"Ġnewspapers":7231,"Ġcreator":7232,"Ġfriendly":7233,"Ġspending":7234,"Ġdave":7235,"fr":7236,"arn":7237,"Ġupgraded":7238,"Ġalab":7239,"Ġmetropolitan":7240,"Ġgene":7241,"Ġobser":7242,"Ġdiameter":7243,"Ġdoesn":7244,"Ġwithdrew":7245,"Ġdir":7246,"Ġrelie":7247,"gate":7248,"Ġarena":7249,"Ġabsol":7250,"Ġprecip":7251,"Ġchase":7252,"cope":7253,"mal":7254,"Ġpip":7255,"Ġdivor":7256,"Ġ1928":7257,"Ġstro":7258,"Ġpoison":7259,"idae":7260,"Ġtimber":7261,"Ġlisten":7262,"Ġnag":7263,"Ġuncertain":7264,"Ġexhibition":7265,"Ġcovers":7266,"Ġpicked":7267,"Ġencountered":7268,"iami":7269,"Ġmathemat":7270,"Ġfrederick":7271,"Ġpermission":7272,"ras":7273,"Ġpounds":7274,"iller":7275,"Ġjoining":7276,"Ġlect":7277,"obi":7278,"Ġchanc":7279,"Ġboss":7280,"umin":7281,"Ġrefere":7282,"boy":7283,"icians":7284,"Ġcollaps":7285,"Ġdifficulties":7286,"Ġpolicies":7287,"Ġrates":7288,"Ġchanging":7289,"Ġschedule":7290,"Ġmario":7291,"Ġskull":7292,"Ġsomerset":7293,"Ġplus":7294,"Ġlegislature":7295,"Ġgab":7296,"Ġconsult":7297,"Ġ1925":7298,"Ġinaug":7299,"Ġmississ":7300,"Ġmulti":7301,"Ġanna":7302,"Ġsuicide":7303,"Ġcous":7304,"Ġpartially":7305,"sea":7306,"Ġ1890":7307,"Ġinqu":7308,"borough":7309,"Ġanch":7310,"Ġrestrict":7311,"Ġturrets":7312,"Ġmerchant":7313,"ski":7314,"Ġadvice":7315,"ĠÃ¦":7316,"Ġsank":7317,"anium":7318,"Ġanglo":7319,"Ġfederation":7320,"Ġovers":7321,"Ġbombers":7322,"Ġathletic":7323,"Ġmiami":7324,"aria":7325,"chell":7326,"Ġseed":7327,"Ġric":7328,"Ġpilots":7329,"Ġloan":7330,"Ġdisaster":7331,"Ġfran":7332,"Ġrestric":7333,"Ġadjacent":7334,"Ġtraveled":7335,"Ġsector":7336,"Ġrefers":7337,"Ġgap":7338,"Ġseattle":7339,"Ġcomments":7340,"col":7341,"Ġmines":7342,"Ġ1924":7343,"Ġrebellion":7344,"Ġbenefit":7345,"olas":7346,"Ġagree":7347,"Ġaffair":7348,"Ġwaves":7349,"Ġdal":7350,"Ġpref":7351,"Ġexplo":7352,"Ġsoldier":7353,"Ġphilosophy":7354,"Ġseats":7355,"Ġgardens":7356,"Ġplain":7357,"Ġsigns":7358,"Ã©e":7359,"Ġproport":7360,"Ġkal":7361,"Ġmarry":7362,"Ġworship":7363,"amese":7364,"Ġpitched":7365,"Ġminimum":7366,"Ġian":7367,"Ġ07":7368,"Ġshakes":7369,"Ġcriticised":7370,"Ġeagle":7371,"Ġiowa":7372,"Ġmeat":7373,"Ġmunicipal":7374,"Ġphr":7375,"Ġcoordin":7376,"ti":7377,"Ġsi":7378,"Ġbases":7379,"Ġalabama":7380,"Ġsoil":7381,"Ġnapole":7382,"esis":7383,"sters":7384,"Ġaustralians":7385,"Ġdestroyers":7386,"iot":7387,"Ġprompted":7388,"Ġcompete":7389,"Ġstruggle":7390,"Ġmint":7391,"Ġremove":7392,"gery":7393,"Ġmissou":7394,"Ġrepr":7395,"Ġpc":7396,"Ġsurprise":7397,"Ġswift":7398,"Ġdanc":7399,"Ġoverl":7400,"usal":7401,"Ġindicate":7402,"Ġwhil":7403,"attan":7404,"Ġhelicop":7405,"Ġcollapse":7406,"Ġion":7407,"Ġrav":7408,"power":7409,"inction":7410,"Ġcommunication":7411,"Ġneutral":7412,"Ġcaribbean":7413,"uster":7414,"Ġmedicine":7415,"Ġcharlie":7416,"Ġspiritual":7417,"Ġmanuscript":7418,"Ġforcing":7419,"Ġlawrence":7420,"Ġcapit":7421,"Ġdesignation":7422,"Ġstring":7423,"Ġhalo":7424,"Ġindeed":7425,"Ġgrown":7426,"Ġminnes":7427,"Ġsatellite":7428,"Ġbros":7429,"Ġarmored":7430,"Ġ1923":7431,"Ġparent":7432,"Ġblow":7433,"Ġenterprise":7434,"enh":7435,"Ġpowered":7436,"pie":7437,"Ġwalker":7438,"attered":7439,"Ġgat":7440,"Ġcopy":7441,"Ġteaching":7442,"Ġpaintings":7443,"Ġwhilst":7444,"gi":7445,"Ġstream":7446,"Ġcollaboration":7447,"isd":7448,"Ġum":7449,"nings":7450,"Ġciting":7451,"Ġsurvivors":7452,"Ġrestaurant":7453,"Ġyanke":7454,"Ġvalues":7455,"Ġelectron":7456,"Ġprotagonist":7457,"gas":7458,"Ġwreck":7459,"Ġfifty":7460,"Ġkhan":7461,"Ġmarketing":7462,"Ġyor":7463,"Ġbranc":7464,"Ġpossession":7465,"Ġcovering":7466,"Ġappointment":7467,"Ġharbour":7468,"mont":7469,"Ġdescribe":7470,"Ġrounds":7471,"Ġapproval":7472,"esh":7473,"Ġprovinc":7474,"Ġencounter":7475,"Ġnazi":7476,"oren":7477,"Ġcandidates":7478,"Ġtravelled":7479,"ascar":7480,"Ġdepending":7481,"Ġjen":7482,"Ġmane":7483,"Ġformula":7484,"ika":7485,"Ġpretty":7486,"mates":7487,"rum":7488,"Ġcharter":7489,"Ġunderstanding":7490,"Ġabb":7491,"Ġpoems":7492,"Ġbalance":7493,"Ġfortress":7494,"Ġreconna":7495,"Ġdispute":7496,"Ġbrill":7497,"Ġhungary":7498,"Ġpine":7499,"Ġorbit":7500,"Ġoxygen":7501,"Ġvictories":7502,"Ġbenj":7503,"imeter":7504,"Ġcyl":7505,"Ġdollars":7506,"mo":7507,"Ġmall":7508,"Ġprompt":7509,"Ġlisting":7510,"Ġsituated":7511,"Ġbowling":7512,"Ġdisplayed":7513,"Ġpic":7514,"Ġbattalions":7515,"Ġvillages":7516,"Ġarticles":7517,"Ġminimal":7518,"Ġdim":7519,"ception":7520,"Ġpole":7521,"Ġchristopher":7522,"icate":7523,"lan":7524,"Ġsurvive":7525,"Ġviolent":7526,"Ġwake":7527,"Ġfel":7528,"Ġbelgium":7529,"Ġhamp":7530,"Ġrugby":7531,"Ġlegislative":7532,"Ġreconnaissance":7533,"Ġearthqu":7534,"Ġcot":7535,"Ġalive":7536,"Ġserial":7537,"Ġoption":7538,"Ġdock":7539,"Ġfemin":7540,"Ġassisted":7541,"Ġclosing":7542,"Ġtelling":7543,"Ġdegrees":7544,"Ġplayoffs":7545,"Ġ01":7546,"Ġpublications":7547,"Ġnam":7548,"Ġcargo":7549,"Ġforests":7550,"Ġdiego":7551,"Ġprol":7552,"Ġdiff":7553,"Ġsoftware":7554,"Ġdancing":7555,"Ġinterpre":7556,"Ġamongst":7557,"Ġfuneral":7558,"Ġhelping":7559,"Ġguil":7560,"Ġsymptoms":7561,"Ġmarks":7562,"Ġcolonies":7563,"Ġshakespe":7564,"Ġeliminated":7565,"Ġtomb":7566,"Ġacted":7567,"Ġjar":7568,"Ġasks":7569,"odore":7570,"Ġbrun":7571,"Ġmonster":7572,"Ġsugar":7573,"Ġriders":7574,"Ġski":7575,"Ġadministrative":7576,"nie":7577,"Ġ*":7578,"Ġnad":7579,"Ġpurposes":7580,"phone":7581,"Ġdrivers":7582,"Ġalfred":7583,"Ġdisl":7584,"anna":7585,"Ġmys":7586,"Ġ1908":7587,"velt":7588,"Ġmichel":7589,"Ġcircumst":7590,"Ġpron":7591,"Ġrepairs":7592,"Ġ1905":7593,"Ġcompilation":7594,"Ġsimpl":7595,"Ġtrouble":7596,"Ġoccasions":7597,"Ġfatal":7598,"Ġmississipp":7599,"Ġ1909":7600,"Ġbenjamin":7601,"Ġmason":7602,"Ġroose":7603,"Ġblind":7604,"Ġconcrete":7605,"orted":7606,"Ġjok":7607,"Ġstatue":7608,"Ã§":7609,"Ġhong":7610,"Ġrout":7611,"Ġalcohol":7612,"Ġinland":7613,"Ġminnesota":7614,"Ġvietn":7615,"Ġcrus":7616,"Ġvietnamese":7617,"Ġlists":7618,"Ġinteract":7619,"Ġattendance":7620,"Ġcannon":7621,"atus":7622,"Ġpreserved":7623,"Ġpreparation":7624,"Ġanime":7625,"Ġpublicly":7626,"Ġhoriz":7627,"Ġgrammy":7628,"Ġconsole":7629,"Ġbusinesses":7630,"rupted":7631,"inals":7632,"Ġmental":7633,"Ġstevens":7634,"Ġmanhattan":7635,"Ġpool":7636,"leman":7637,"Ġabilities":7638,"Ġvoiced":7639,"Ġtang":7640,"Ġsick":7641,"Ġorganisation":7642,"Ġcommunications":7643,"Ġ105":7644,"Ġwider":7645,"ng":7646,"Ġpant":7647,"Ġdefeating":7648,"Ġillness":7649,"Ġ125":7650,"Ġhighways":7651,"fted":7652,"Ġramp":7653,"Ġargument":7654,"forced":7655,"ographical":7656,"Ġfranklin":7657,"uman":7658,"eing":7659,"Ġtouring":7660,"Ġ04":7661,"Ġelabor":7662,"jan":7663,"Ġsignal":7664,"Ġammun":7665,"Ġjet":7666,"Ġresumed":7667,"Ġroosevelt":7668,"Ġkansas":7669,"Ġvs":7670,"uda":7671,"Ġresidence":7672,"Ġ1907":7673,"Ġprel":7674,"Ġcompeted":7675,"Ġbelieving":7676,"Ġintensified":7677,"ivated":7678,"agen":7679,"Ġsas":7680,"Ġsurge":7681,"atherine":7682,"Ġammunition":7683,"Ġalignment":7684,"opes":7685,"Ġcrews":7686,"Ġcoff":7687,"Ġarchb":7688,"Ġexcav":7689,"Ġthinking":7690,"Ġ164":7691,"Ġflights":7692,"Ġdollar":7693,"Ġcounties":7694,"Ġairborne":7695,"Ġbacking":7696,"Ġportland":7697,"Ġfallen":7698,"Ġopponent":7699,"Ġstrategic":7700,"ounced":7701,"Ġunderst":7702,"Ġdocuments":7703,"acle":7704,"ishment":7705,"Ġsigning":7706,"Ġsubjects":7707,"Ġrib":7708,"Ġnit":7709,"Ġnash":7710,"Ġdeliber":7711,"Ġamate":7712,"iable":7713,"Ġing":7714,"Ġusd":7715,"Ġassists":7716,"Ġwalking":7717,"Ġfriendship":7718,"Ġwilling":7719,"Ġaudiences":7720,"din":7721,"Ġalternate":7722,"Ġusual":7723,"Ġceremon":7724,"Ġbiographer":7725,"Ġphilippines":7726,"Ġsuitable":7727,"Ġsib":7728,"Ġgenetic":7729,"Ġinteresting":7730,"Ġstu":7731,"orph":7732,"Ġdoubt":7733,"Ġengineers":7734,"Ġrush":7735,"Ġnoble":7736,"Ġatomic":7737,"Ġmississippi":7738,"Ġ1880":7739,"ensions":7740,"Ġfeelings":7741,"Ġabol":7742,"Ġspar":7743,"Ġradical":7744,"Ġsaturday":7745,"Ġ165":7746,"Ġchand":7747,"Ġwarren":7748,"Ġloyal":7749,"Ġprovincial":7750,"Ġpeters":7751,"Ġguards":7752,"Ġtribes":7753,"Ġdc":7754,"Ġunderw":7755,"Ġsubmitted":7756,"Ġpercentage":7757,"Ġcompleting":7758,"Ġwaiting":7759,"Ġwoods":7760,"à¤":7761,"Ġownership":7762,"Ġexplosion":7763,"Ġcob":7764,"Ġfunctions":7765,"Ġadopt":7766,"Ġbehalf":7767,"Ġtab":7768,"itated":7769,"Ġcharity":7770,"Ġalexand":7771,"donald":7772,"Ġasking":7773,"Ġautobi":7774,"iveness":7775,"Ġhook":7776,"utor":7777,"Ġpor":7778,"Ġdisord":7779,"Ġtast":7780,"Ġsullivan":7781,"Ġrip":7782,"Ġvinc":7783,"Ġguer":7784,"Ġpolar":7785,"Ġtennes":7786,"Ġretail":7787,"Ġartistic":7788,"Ġcampbell":7789,"Ġshakespeare":7790,"Ġevolved":7791,"Ġstick":7792,"ods":7793,"Ġhindu":7794,"dale":7795,"Ġcinema":7796,"Ġchronicle":7797,"Ġlex":7798,"Ġfrust":7799,"Ġtargets":7800,"Ġfalse":7801,"Ġrevenue":7802,"Ġwire":7803,"ifer":7804,"Ġsteven":7805,"Ġobv":7806,"Ġquad":7807,"Ġted":7808,"Ġfrig":7809,"Ġchest":7810,"Ġremark":7811,"Ġregistered":7812,"Ġbirthday":7813,"Ġastronom":7814,"cular":7815,"Ġlakes":7816,"onymous":7817,"Ġsuspended":7818,"Ġcass":7819,"Ġrice":7820,"Ġcartoon":7821,"ader":7822,"Ġhole":7823,"ses":7824,"Ġgoth":7825,"Ġnep":7826,"Ġfavorable":7827,"Ġdimens":7828,"Ġmovies":7829,"ige":7830,"Ġreluct":7831,"Ġjosh":7832,"Ġkin":7833,"Ġcivilian":7834,"Ġlucas":7835,"ãģ":7836,"Ġbeauty":7837,"Ġpoorly":7838,"Ġborough":7839,"icts":7840,"Ġprovision":7841,"Ġheading":7842,"Ġguilty":7843,"10":7844,"Ġpok":7845,"father":7846,"pecies":7847,"Ġegyptian":7848,"Äĥ":7849,"Ġreplacing":7850,"Ġhob":7851,"Ġforth":7852,"eston":7853,"Ġcomfort":7854,"Ġliked":7855,"Ġpace":7856,"Ġpup":7857,"Ġmush":7858,"oto":7859,"Ġrecip":7860,"Ġcliff":7861,"Ġarmies":7862,"Ġarmour":7863,"Ġideal":7864,"Ġ1870":7865,"Ġshells":7866,"Ġaimed":7867,"Ġquiet":7868,"Ġoffering":7869,"Ġsolution":7870,"Ġmeasured":7871,"inea":7872,"Ġmissouri":7873,"Ġtennessee":7874,"Ġboundary":7875,"Ġjos":7876,"Ġengagement":7877,"Ġclearly":7878,"Ġprospect":7879,"Ġacceler":7880,"Ġretrie":7881,"Ġlouisiana":7882,"Ġmargaret":7883,"Ġrocks":7884,"Ġ1906":7885,"inations":7886,"Ġexpensive":7887,"sky":7888,"Ġtemporarily":7889,"pes":7890,"ËĪ":7891,"Ġpalest":7892,"lah":7893,"Ġrecognised":7894,"Ġ360":7895,"Ġmontreal":7896,"Ġsimultaneously":7897,"Ġshipping":7898,"Ġ1904":7899,"Ġgear":7900,"Ġfiled":7901,"Ġesp":7902,"zech":7903,"Ġvulner":7904,"Ġsequences":7905,"uable":7906,"Ġbehaviour":7907,"Ġbrick":7908,"Ġaviation":7909,"Ġsubt":7910,"Ġremnants":7911,"Ġbutter":7912,"Ġgran":7913,"Ġbilly":7914,"Ġrepresents":7915,"Ġgalax":7916,"Ġstorage":7917,"Ġblocks":7918,"Ġagriculture":7919,"Ġcraw":7920,"Ġmonaster":7921,"crib":7922,"Ġwore":7923,"cel":7924,"Ġconspir":7925,"Ġreaders":7926,"Ġessential":7927,"Ġcontext":7928,"Ġfra":7929,"wned":7930,"Ġwants":7931,"Ġsaved":7932,"Ġtox":7933,"Ġcoverage":7934,"Ġstores":7935,"oh":7936,"Ġmitchell":7937,"Ġerr":7938,"Ġtalent":7939,"Ġamph":7940,"Ġsket":7941,"Ġcomparison":7942,"Ġcoinc":7943,"Ġmining":7944,"Ġpatterns":7945,"iac":7946,"Ġczech":7947,"Ġcancelled":7948,"Ġpars":7949,"Ġphone":7950,"Ġphoen":7951,"Ġkirk":7952,"Ġpropag":7953,"Ġaside":7954,"Ġsurgery":7955,"Ġtight":7956,"Ġ03":7957,"Ġperspective":7958,"Ġsuggesting":7959,"Ġinstitutions":7960,"Ġoverseas":7961,"Ġcoc":7962,"rix":7963,"Ġcontinu":7964,"Ġfaster":7965,"Ġspotted":7966,"Ġil":7967,"Ġthirteen":7968,"Ġfamiliar":7969,"Ġgraham":7970,"Ġmatters":7971,"Ġreflected":7972,"Ġmaneu":7973,"Ġwasn":7974,"Ġpractices":7975,"Ġcontributions":7976,"Ġrebuilt":7977,"Ġnotice":7978,"Ġbare":7979,"Ġfurn":7980,"Ġprotein":7981,"issions":7982,"Ġdogs":7983,"Ġlesser":7984,"ylan":7985,"Ġfastest":7986,"mn":7987,"life":7988,"Ġther":7989,"ori":7990,"Ġcarn":7991,"Ġhunter":7992,"Ġglobe":7993,"Ġfurthermore":7994,"Ġpredomin":7995,"Ġshadow":7996,"Ġdestroyer":7997,"Ġpulled":7998,"Ġvertical":7999,"Ġapplication":8000,"net":8001,"Ġarchbishop":8002,"rator":8003,"Ġranks":8004,"Ġcrystal":8005,"Ġescaped":8006,"rim":8007,"Ġroots":8008,"Ġflagship":8009,"Ġbadly":8010,"Ġariz":8011,"Ġoliv":8012,"Ġdrugs":8013,"Ġstrict":8014,"Ġsummit":8015,"Ġsubspecies":8016,"yon":8017,"storm":8018,"Ġforg":8019,"unes":8020,"Ġamounts":8021,"Ġjobs":8022,"Ġsult":8023,"car":8024,"Ġlacked":8025,"Ġcuba":8026,"rants":8027,"Ġsq":8028,"Ġdrove":8029,"Ġcave":8030,"Ġexclud":8031,"Ġallmusic":8032,"Ġdecides":8033,"Ġintelle":8034,"Ġslaves":8035,"Ġpanel":8036,"Ġbombs":8037,"Ġempt":8038,"Ġconfederate":8039,"Ġosc":8040,"Ġargues":8041,"Ġwicket":8042,"Ġintellect":8043,"tha":8044,"Ġbulk":8045,"Ġtoky":8046,"Ġunex":8047,"Ġsubur":8048,"Ġportions":8049,"Ġtriang":8050,"vereign":8051,"kshire":8052,"Ġindies":8053,"Ġsovereign":8054,"Ġautumn":8055,"Ġcontrols":8056,"osing":8057,"artney":8058,"Ġexpression":8059,"Ġsquadrons":8060,"Ġquarterback":8061,"Ġml":8062,"Ġspider":8063,"Ġseverely":8064,"Ġinhabitants":8065,"Ġearning":8066,"Ġstriking":8067,"Ġbiography":8068,"urally":8069,"Ġprinted":8070,"Ġstarring":8071,"Ġtort":8072,"Ġdistinctive":8073,"Ġtamil":8074,"Ġwarship":8075,"Ġcrest":8076,"Ġtoy":8077,"Ġcondem":8078,"Ġambass":8079,"Ġtack":8080,"Ġmainland":8081,"Ġpersian":8082,"Ġguitarist":8083,"Ġsony":8084,"Ġferry":8085,"Ġobservations":8086,"Ġstern":8087,"Ġarizona":8088,"Ġfo":8089,"Ġchick":8090,"Ġcoron":8091,"Ġgodd":8092,"Ġbonus":8093,"Ġrestricted":8094,"Ġtale":8095,"Ġwish":8096,"Ġmarie":8097,"Ġcharacterized":8098,"Ãº":8099,"Ġorth":8100,"Ġvast":8101,"Ġconstitutional":8102,"Ġstere":8103,"Ġplanets":8104,"lings":8105,"urer":8106,"Ġexcellent":8107,"Ġ115":8108,"Ġranging":8109,"Ġclock":8110,"Ġliberty":8111,"Ġbald":8112,"Ġdylan":8113,"Ġvisiting":8114,"iy":8115,"Ġspend":8116,"ieties":8117,"Ġcommanding":8118,"Ġsitting":8119,"Ġflower":8120,"cru":8121,"Ġjury":8122,"Ġrevival":8123,"Ġphenom":8124,"Ġdefinition":8125,"Ġpearl":8126,"rog":8127,"Ġnik":8128,"Ġfixed":8129,"Ġcurren":8130,"Ġmik":8131,"Ġrings":8132,"Ġwilhel":8133,"Ġwait":8134,"Ġvib":8135,"Ġplut":8136,"athy":8137,"idency":8138,"Ġmeetings":8139,"Ġlt":8140,"Ġnominations":8141,"Ġtiss":8142,"Ġwine":8143,"Ġholiday":8144,"Ġthrew":8145,"Ġexplain":8146,"Ġexplains":8147,"Ġbombing":8148,"Ġathletes":8149,"Ġultimate":8150,"Ġsig":8151,"Ġdominant":8152,"olid":8153,"Ġcarriers":8154,"Ġstatistics":8155,"Ġdemonstrated":8156,"Ġamateur":8157,"Ġacou":8158,"fish":8159,"Ġoklah":8160,"Ġillegal":8161,"Ġtig":8162,"Ġbone":8163,"Ġarrive":8164,"Ġbroadway":8165,"equ":8166,"Ġdy":8167,"oga":8168,"Ġdanger":8169,"Ġmultipl":8170,"Ġeducational":8171,"Ġparliamentary":8172,"unction":8173,"Ġartific":8174,"ract":8175,"Ġpill":8176,"Ġaustrian":8177,"Ġmarvel":8178,"Ġfounding":8179,"Ġmetall":8180,"vo":8181,"Ġhidden":8182,"Ġyield":8183,"Ġmrs":8184,"Ġmaur":8185,"Ġswitzer":8186,"Ġticket":8187,"owed":8188,"Ġdust":8189,"Ġforecast":8190,"Ġrook":8191},"merges":["Ġ t","Ġ a","h e","i n","Ġt he","e r","Ġ s","o n","Ġ ,","r e","Ġ w","Ġ c","Ġ o","e d","Ġ b","n d","Ġ f","a t","Ġ .","o r","i t","e n","Ġ p","Ġ in","Ġ m","i s","e s","a r","Ġo f","a n","a l","in g","Ġ d","a s","Ġa nd","Ġ h","Ġt o","r o","i c","Ġ l","i on","Ġ Ċ","o u","Ġ n","Ġ re","i l","Ġ e","Ġ g","Ġt h","Ġ =","l e","en t","Ġ \"","Ġ 1","s t","Ġ @","e l","a m","o m","Ġ on","a c","a d","Ġw as","Ġs t","Ġb e","Ġ he","u r","l y","Ġ '","Ġf or","Ġ u","i d","i m","o l","t er","Ġa s","i r","- @","Ġ@ -@","i v","i g","c t","o t","u t","Ġ r","e t","it h","a y","o w","Ġ 2","Ġa l","v er","Ġw ith","c e","at ion","Ġth at","Ġw h","Ġ it","c h","Ġc on","Ġa t","Ġ j","Ġa n","Ġb y","Ġd e","Ġs e","Ġ is","u s","Ġ k","Ġ v","t h","Ġ )","Ġ (","u l","er s","Ġc h","a nd","a in","e m","Ġ1 9","ro m","Ġh is","o s","he r","a g","a v","u m","es t","Ġc om","0 0","Ġs u","r i","Ġf rom","Ġp ro","o d","p e","Ġn e","is t","i f","u n","il l","o re","l d","a p","Ġs h","s e","Ġ y","er e","ig h","re s","o p","i es","Ġ ro","q u","ar t","b er","ar d","Ġo r","Ġe x","ic h","Ġp l","Ġw ere","a k","at e","or t","al l","Ġu n","a b","Ġl e","an t","u d","o c","g h","on g","at ed","i p","it y","es s","Ġa r","am e","iv e","Ġt r","i e","Ġh ad","Ġ â","ac k","Ġâ Ģ","as t","re d","ro u","Ġwh ich","ou r","g e","Ġa re","m ent","Ġn ot","i an","o v","Ġa f","i al","p t","o st","el l","i a","igh t","Ġc l","u st","ar y","Ġw or","in e","Ġw he","p p","c l","r it","t her","Ġ 3","ou n","Ġa d","ic al","av e","Ġs c","c c","Ġcom p","Ġb ut","Ġ en","ct ion","or d","Ġth is","Ġf ir","Ġhe r","Ġ2 00","t e","ou ld","Ġt w","Ġa b","is h","Ġaf ter","Ġcon t","Ġfir st","ou s","s o","Ġt e","id e","Ġ2 0","Ġs p","u re","Ġit s","Ġne w","ig n","Ġthe ir","Ġa m","Ġal l","Ġ ;","Ġm an","p er","Ġon e","r a","it ion","Ġin t","Ġp er","as s","ĠâĢ ĵ","Ġal so","u b","Ġu s","Ġm ar","i re","o g","o k","Ġs he","r u","e ar","Ġ :","at er","om e","Ġt im","Ġre s","ou t","or m","ag e","Ġre c","on d","Ġthe y","r y","Ġs er","Ġ i","he d","Ġtw o","Ġf e","Ġp art","Ġ 4","Ġa g","u e","Ġwh o","Ġcom m","d u","Ġd es","an s","Ġh ave","Ġ 5","re e","Ġbe c","al ly","f f","Ġd is","an ce","il e","Ġg o","Ġ1 8","Ġw e",". @","Ġ@ .@","p l","Ġo ver","Ġy ear","ow n","t ed","ic e","Ġof f","i z","Ġpl ay","Ġh as","ur ing","Ġbe en","en ce","Ġc o","Ġo ther","e ct","Ġ20 1",", @","Ġ@ ,@","Ġ im","ou gh","k e","a re","or y","Ġc ol","el y","t s","Ġo ut","Ġm e","ation s","cl ud","Ġu p","ac h","ac e","Ġin ter","Ġp re","ou nd","l and","Ġe v","Ġp r","Ġf in","w n","Ġwhe n","Ġb o","ad e","i b","ac t","ion s","Ġs pe","Ġtim e","Ġd uring","Ġc an","a il","ur n","Ġin clud","res s","c ed","Ġa p","Ġf l","r ic","en s","Ġw ould","k s","Ġse c","m an","Ġf il","on e","Ġin d","w e","w ard","Ġb r","an g","nd er","Ġint o","Ġh im","Ġat t","Ġb l","it e","ul t","Ġe ar","ol l","at es","Ġ 6","Ġm ore","Ġ qu","ab le","Ġj o","Ġw ar","c es","as ed","Ġp e","Ġch ar","it ed","re n","Ġc ent","am p","i ed","Ġre p","as e","Ġbe t","Ġfil m","rou gh","w ay","Ġg r","oun t","Ġfor m","l es","f orm","Ġ 7","or s","as on","a w","Ġp o","em ber","ing s","Ġwh ile","os e","Ġa cc","v el","Ġm us","Ġg ame","n e","il d","Ġm ost","v e","er ed","Ġthe re","Ġre m","Ġc ar","Ġf r","in d","Ġn or","c k","Ġp ar","Ġs o","Ġg en","Ġs ou","Ġas s","ak e","i ous","at t","ol d","Ġcon s","Ġh ow","ent s","a us","Ġ 8","f er","is s","re at","Ġe m","Ġn o","Ġl ater","Ġb u","Ġs ong","ic k","rou nd","Ġre g","Ġpro du","Ġag ain","f t","Ġon ly","g an","Ġa ct","ri b","v ed","Ġu nder","Ġwor k","o od","Ġs y","Ġm ay","Ġthe m","Ġk n","Ġ 9","Ġs ome","Ġth an","Ġre t","ter s","Ġth ree","al s","Ġab out","ub l","i x","Ġ19 9","at h","we en","Ġ ver","Ġbet ween","oll ow","p h","on s","h ip","Ġd ay","Ġh igh","Ġb ro","Ġre le","Ġen g","Ġth rough","Ġm on","ot h","Ġrec ord","Ġf ollow","Ġm in","er ic","Ġm a","f ore","ation al","Ġa pp","Ġsec ond","Ġre l","Ġe nd","Ġl i","Ġp h","Ġn um","ic t","Ġsu b","Ġa c","Ġe le","t on","u g","Ġim p","Ġp res","ie w","Ġ 00","Ġs a","Ġ ed","Ġa ir","Ġal b","Ġse ason","Ġf our","Ġe p","Ġde f","Ġp os","Ġd o","Ġwor ld","Ġam eric","Ġnor th","Ġin c","Ġ ent","Ġwhe re","ct ed","r al","Ġbe fore","Ġte am","n ing","Ġm ov","ul ar","at ing","am es","Ġspe c","Ġw rit","Ġar m","Ġm ade","Ġs m","Ġl ar","Ġs ch","is ion","Ġl oc","Ġg u","Ġw ill","iv ed","Ġsu ch","he s","Ġs ur","Ġc ap","Ġp ol","Ġd r","Ġs ing","s on","Ġalb um","Ġp ubl","Ġ00 0","is hed","Ġse ver","i o","Ġyear s","ain ed","ic s","Ġsu pp","i el","Ġc all","od e","e ver","Ġ1 0","l l","Ġsou th","Ġsh ow","Ġb ack","id ent","ro s","Ġad d","Ġre v","Ġ /","Ġgen er","Ġb oth","u al","ter n","il y","Ġin v","Ġthe n","Ġhow ever","Ġap pe","Ġep is","Ġc ount","Ġus ed","Ġde c","Ġre ce","ut e","Ġm ill","al e","if ic","Ġbe ing","Ġthe se","Ġw ell","ur y","Ġm et","Ġs et","Ġst ud","Ġser ies","Ġagain st","Ġb att","Ġ z","t en","an k","Ġchar ac","Ġin st","if e","Ġf ound","Ġnum ber","Ġst e","vel op","Ġb el","Ġle ad","Ġman y","Ġ1 7","Ġmus ic","Ġs im","Ġm at","or n","Ġper form","Ġ 0","Ġm ain","an e","Ġl ong","ot her","Ġo p","Ġc ity","Ġt er","in t","Ġc re","o ol","o y","Ġb rit","aus e","in ce","e nd","Ġde velop","Ġbec ame","er t","Ġun ited","Ġs l","Ġd ire","ig in","Ġsever al","Ġhis t","Ġar t","Ġinclud ing","Ġsh ip","ĠâĢ Ķ","h n","Ġde p","a u","at her","a ir","Ġst ate","Ġm il","Ġex p","is e","Ġin f","Ġear ly","Ġd iv","i er","Ġor igin","is ed","ow er","Ġo b","ver n","Ġ19 8","Ġ1 5","Ġ1 2","Ġp op","Ġtr ans","Ġd id","it s","ar s","Ġd ist","i red","em ent","j ect","or k","le y","u res","in es","Ġn ov","Ġ19 4","ro p","u nd","i et","Ġcont in","Ġgo vern","ol og","Ġw in","it ies","Ġp ers","d er","rou p","Ġpro v","l ed","a z","Ġepis ode","t il","Ġst ates","el f","ros s","a red","Ġc rit","an c","Ġsa id","Ġjo hn","Ġfollow ing","f ul","ir d","Ġk e","Ġ est","Ġcon st","Ġdes ign","Ġg roup","Ġc ould","Ġd if","Ġst r","y s","at ive","iv er","Ġret urn","Ġm ed","Ġ1 6","Ġr un","Ġo per","Ġameric an","oc k","Ġdes c","ou se","n a","Ġal th","Ġkn own","te nd","Ġalth ough","Ġcomp le","iel d","Ġa ust","Ġan y","iv ers","Ġw est","Ġg er","Ġs ign","Ġ19 7","Ġm od","Ġk ing","Ġj un","r on","Ġser v","Ġp ass","Ġl o","em b","Ġd own","u ally","Ġ19 6","Ġ1 1","Ġl and","u ch","t y","Ġf am","Ġne ar","u ed","Ġbe gan","t ing","Ġli ke","g r","Ġfe at","Ġoff ic","in ed","Ġe ff","Ġun til","ro w","op le","is m","Ġdis c","an ge","Ġb ar","ak ing","Ġh ar","Ġal ong","Ġsch ool","Ġbec ause","Ġo wn","er n","id ed","Ġrele ased","Ġop en","Ġp ort","cc ess","in s","iz ed","Ġcall ed","Ġn ational","Ġpre v","Ġe l","g er","Ġc r","Ġth ough","u c","Ġma j","ist s","Ġwe e","i am","Ġpe ople","u red","st em","Ġy ou","ial ly","u p","Ġin s","Ġg re","ut ion","Ġan n","Ġcl ass","Ġcol le","ment s","Ġmill ion","os ed","Ġj ust","i um","Ġc our","Ġe ver","Ġsy stem","ce pt","Ġbrit ish","ul l","Ġg e","Ã ©","Ġs ince","Ġhe ad","Ġl a","Ġ1 3","Ġs ix","n er","Ġad v","Ġb est","Ġa ut","Ġa round","Ġa ug","ar k","Ġa ward","Ġmaj or","Ġl ife","Ġc or","Ġ $","Ġ if","Ġj u","Ġe ach","Ġsu ccess","ain s","Ġb re","Ġatt ack","Ġse pt","an y","x t","g est","a h","Ġv ar","Ġcharac ter","o ot","Ġu se","Ġa v","Ġsept ember","Ġdesc rib","Ġaug ust","Ġst art","am ed","Ġcon f","r ap","g et","ib le","Ġs ame","Ġro ad","Ġt ri","Ġhe l","on t","i k","Ġe ast","ac ed","Ġfin al","Ġl ine","Ġsupp ort","Ġo cc","Ġo ct","Ġan other","r is","Ġde m","Ġf ive","Ġc are","Ġpubl ic","ain ing","Ġ1 4","Ġp rom","Ġs w","Ġk m","Ġt y","Ġg reat","Ġbu ild","Ġl it","Ġr a","Ġo ld","Ġcon c","el s","Ġaust ral","av ing","Ġ19 5","Ġex t","Ġm y","Ġg l","Ġto ok","Ġc amp","Ġb and","Ġger man","u es","en n","Ġbo ok","Ġare a","Ġm id","Ġh ouse","Ġsm all","o b","ov e","an n","Ġrep ort","Ġ19 3","e p","Ġcons id","Ġcent ury","o ber","Ġt urn","p ed","Ġrece ived","us s","Ġoct ober","Ġcont ro","et s","ant s","iv es","b le","Ġst re","Ġun ivers","ical ly","Ġs k","h ing","Ġ19 1","Ġwh at","Ġd ue","Ġg ames","Ġpart ic","Ġsh ort","Ġl ast","Ġgovern ment","Ġdire ct","il ity","Ġre f","Ġh al","Ġre st","Ġmar ch","at ely","in a","en e","c ess","Ġcomm and","Ġle g","Ġ es","Ġpers on","Ġh ome","g in","Ġ ]","Ġ [","ian s","ore d","Ġj an","in k","Ġw ay","Ġjun e","t le","Ġm ag","r il","Ġsing le","Ġth ird","Ġmar k","Ġgener al","o ver","Ġm en","im e","Ġs qu","Ġt it","iss ion","Ġju ly","Ġch ild","Ġ %","Ġcap t","iv ing","pe ct","Ġnov ember","ur ch","Ġtr ack","Ġde ath","Ġd el","Ġrev iew","as h","Ġm uch","Ġev ent","Ġis land","ra ft","Ġar r","Ġy ork","Ġap ril","u ro","Ġf ur","Ġd am","Ġto p","Ġlar ge","u ary","Ġbatt le","c he","Ġacc ord","Ġp ower","l ish","Ġver s","Ġev en","Ġle ft","Ġde ce","Ġto wn","Ġs oc","ur al","ction s","Ġc ast","ion al",". .","Ġc he","Ġv ide","i ent","Ġall ow","iv ely","Ġinter n","Ġg un","Ġdif fer","Ġmon th","Ġ3 0","id ge","Ġst ar","il t","Ġk ill","Ġp at","Ġst ory","b o","Ġapp ro","Ġv is","a im","m s","Ġfam ily","Ġb ased","Ġpl ace","ag ue","Ġc ur","Ġadd ition","Ġn ow","m ber","Ġv ict","m in","v en","Ġinc re","Ġc al","al es","Ġpar k","Ġex pl","Ġbl ack","if ied","Ġan t","Ġr ight","Ġ. ..","Ġl aw","Ġcomp any","Ġarm y","av y","em pt","ro te","Ġdece mber","Ġhist ory","en g","Ġcl ub","Ġplay ed","Ġ2 5","Ġm or","Ġst orm","b y","Ġaccord ing","Ġp ost","l ing","Ġinclud ed","Ġr iver","p s","Ġn ame","at s","Ġl os","Ġjan uary","Ġw ater","Ġl ed","Ġre d","Ġ19 2","Ġ ir","r ist","og rap","om et","ber t","Ġh and","ag ed","Ġw ind","b all","on y","ap an","Ġw om","Ġw rote","in c","Ġi i","Ġw on","Ġan g","Ġh um","ent ly","er g","Ġres p","Ġj apan","Ġtim es","ag es","Ġst ru","Ġor gan","Ġo pp","Ġv al","i ence","Ġre qu","Ġprev ious","it al","Ġpos ition","Ġwith in","p ort","Ġappe ar","od y","Ġm ake","m ed","Ġdescrib ed","Ġin it","Ġr ad","Ġth ose","Ġe uro","Ġde b","Ġst ill","Ġf ore","Ġch amp","Ġvide o","Ġb ill","Ġf ar","id es","Ġne xt","ot t","Ġl ate","Ġm emb","Ġst and","Ġn amed","om in","ne y","Ġbel ie","Ġb us","Ġam ong","Ġorigin al","Ġrele ase","Ġatt empt","Ġeff ect","p or","Ġfur ther","iv en","Ġre pl","Ġl ist","st er","il ar","Ġle ague","Ġfor ce","Ġver y","Ġd est","Ġte le","Ġpos s","c y","Ġf oot","Ġ x","Ġv iew","Ġis s","is ter","Ġb as","m er","Ġro ute","i od","Ġ rom","Ġre al","a ff","b ru","ent ion","Ġc y","re t","Ġ1 00","Ġcomm un","Ġprodu ction","Ġex per","Ġspec ies","er v","ren ch","n ess","i or","pt ion","Ġmemb ers","ac hed","iv al","Ġconst ru","Ġs ound","Ġpol it","pe nd","Ġwh ite","Ġmil it","Ġform er","Ġch rist","Ġto ur","Ġc oun","Ġf le","Ġfe bru","Ġfebru ary","Ġsim ilar","Ġinf l","ar ch","Ġt ak","Ġ er","an ces","Ġn ort","Ġs old","Ġper iod","ri end","Ġp a","b r","Ġdiv ision","Ġday s","Ġbu ilt","Ġmat ch","Ġpl an","Ġt em","en ces","Ġs ide","Ġn at","c hed","Ġro y","ver s","Ġsu per","Ġpro p","Ġhe ld","Ġeuro pe","p le","Ġy oun","Ġunivers ity","Ġro ck","Ġl ight","Ġf rench","Ġgo od","Ġpo int","Ġc le","ri ed","he n","Ġ201 0","Ġserv ice","Ġs ay","h or","Ġpres ident","Ġloc al","Ġro le","Ġest ab","Ġdes p","Ġm o","au gh","ut ed","ward s","Ġpres ent","Ġe qu","tend ed","Ġor der","Ġ2 1","Ġf re","e c","Ġd et","Ġc ame","rop ical","Ġever y","Ġto t","h y","Ġne ver","Ġc aus","Ġs ol","Ġbe h","h am","Ġh aving","Ġwill iam","Ġwee k","s elf","Ġc ross","oc i","Ġe as","Ġres ult","en se","Ġfe w","Ġs um","f ord","Ġ Â","Ġsu g","ul ation","Ġj e","Ġt ro","Ġt est","Ġass oci","Ġpro f","Ġplay er","Ġch art","s h","Ġse e","a x","Ġt ake","ap p","Ġ200 8","Ġof ten","Ġcomm on","ic es","Ġst at","ard s","Ġhal f","Ġh ur","Ġcare er","Ġ200 9","Ġ2 4","l er","m e","Ġcontin ued","Ġge or","Ġw at","Ġte ch","Ġl ow","ot s","Ġf ire","Ġp ri","Ġcl aim","Ġst y","Ġhist or","c raft","r ing","Ġ201 1","Ġle vel","Ġs ent","Ġm ich","at or","Ġdiffer ent","Ġwith out","Ġp ress","Ġf un","b s","Ġele ct","es tern","es e","Ġdesp ite","at ic","Ġco ver","Ġeng land","Ġ &","olog y","gr am","Ġl ess","Ġm er","Ġcour t","Ġt en","Ġpart y","re ad","a f","Ġconsid ered","Ġcont r","Ġ2 2","op s","Ġe c","g ress","Ġd av","Ġdevelop ment","as ter","le t","Ġch urch","Ġ200 7","Ġar ch","Ġrep res","p ar","Ġl y","Ġt re","Ġn ight","Ġcount ry","v es","Ġcount y","Ġcom b","Ġinfl u","Ġchamp ions","Ġf ield","Ġroy al","Ġsong s","Ġf riend","Ġh y","Ġvers ion","Ġeng lish","Ġmilit ary","Ġmov ed","Ġhigh way","Ġh ig","Ġd on","Ġwrit ten","Ġtr ad","Ġw ant","Ġstr ong","on es","Ġdef e","ro du","c o","v ision","Ġcon v","Ġpro gram","Ġv ol","Ġ201 2","Ġpro te","Ġbec ome","Ġfor ces","Ġl im","Ġm i","Ġan im","Ġlit tle","Ġch ang","al k","s ide","Ġf act","Ġl ost","Ġpro ject","ert ain","c hes","iz e","Ġl ond","Ġintern ational","l ine","Ġbuild ing","Ġ2 3","Ġs on","Ġg iven","Ġm iss","ur s","Ġt ropical","Ġcontro l","Ġlond on","Ġtot al","Ġinv ol","Ġaf f","Ġaut hor","Ġsug gest","el t","Ġor d","Ġre fer","Ġh it","Ġb ur","is on","ut es","Ġph il","Ġ19 0","Ġann oun","Ġv ir","he l","b e","g ed","at ter","Ġl et","Ġl ab","Ġh our","Ġre ad","Ġstre et","al d","Ġimp ort","Ġf ree","im ent","en ed","Ġde cl","iet y","er y","Ġg et","Ġcan ad","Ġh o","Ġe ight","ro y","a i","se qu","Ġv e","Ġv i","Ġr ail","Ġperform ance","qu e","Ġg old","il le","Ġs al","Ġs it","Ġst ation","Ġg ave","Ġear l","Ġw ent","er ing","Ġfin d","Ġrepres ent","ren t","Ġc ir","a e","Ġreturn ed","Ġs omet","ail ed","Ġus ing","Ġbro ad","Ġj ack","Ġne ed","Ġf ather","Ġpubl ished","Ġco ast","Ġprodu ced","Ġhe n","Ġw estern","Ġcomp et","Ġar g","Ġnew s","Ġreport ed","Ġob s","e ad","x im","Ġm ass","Ġh un","Ġpop ular","ab ly","Ġpartic ular","Ġrecord ed","Ġchild ren","a pe","Ġtele vision","Ġind e","Ġ200 6","Ġd u","or ies","Ġst ated","Ġair craft","a ign","Ġspec ial","Ġc ult","am a","Ġship s","Ġinter est","ition s","Ġg round","Ġcamp aign","Ġsh ould","Ġinclud e","Ġl ive","Ġl ove","Ġm aking","Ġ ide","Ġde v","us ed","Ġd ou","d ay","Ġcrit ic","om b","y l","Ġa ge","m it","Ġv o","ie f","Ġfr ont","Ġwom en","um ent","Ġhur ric","Ġcent ral","Ġ2 7","Ġcol l","are n","Ġc op","Ġthrough out","Ġpr im","in ts","Ġup on","Ġ5 0","Ġ2 8","Ġyoun g","Ġon ce","os p","in ess","pl oy","ra w","Ġh om","Ġsu ff","on om","Ġhim self","Ġoffic ial","Ġaustral ia","Ġ201 3","Ġchampions hip","Ġdest roy","Ġtech n","Ġa ud","y ing","Ġdep art","Ġm ot","Ġf ac","Ġr ich","Ġw all","Ġs en","Ġcharac ters","n ed","Ġn on","Ġsou ther","c er","Ġv ill","Ġb all","ens ive","Ġtr av","re st","Ġ4 0","re w","Ġc as","pl ay","al th","Ġh or","Ġf av","Ġse a","Ġplay ers","Ġsqu ad","Ġrel ations","it ive","Ġf t","Ġ2 6","Ġp ra","Ġc am","Ġcir c","Ġinst ead","ed er","Ġt ur","Ġf all","Ġcomm it","Ġsouther n","it her","Ġb ase","Ġtit le","Ġse ven","ak es","Ġj ames","Ġwrit ing","l o","Ġa way","Ġ18 9","Ġc ost","g es","Ġm ad","ac y","Ġbe gin","Ġac ross","Ġf em","Ġint rodu","Ġd ied","Ġrem ained","c om","Ġmonth s","Ġcent er","Ġfor t","Ġsign ific","Ġdevelop ed","Ġc e","Ġgr and","Ġprom ot","d om","Ġf ull","Ġh all","Ġpolit ical","Ġlo ok","Ġm ount","Ġvar ious","ri es","Ġman ag","Ġf if","Ġmod ern","Ġhurric ane","Ġw ood","u ck","Ġr ace","Ġto o","r ation","Ġm c","Ġp ut","Ġa ver","en cy","Ġh ill","f ic","Ġh ol","Ġn et","Ġh am","Ġ ill","Ġc at","Ġf ight","Ġcon d","Ġh on","Ġoff ice","her n","ist ed","Ġb ig","Ġp al","in ted","Ġh ard","Ġb ow","m ost","a el","Ġwor ks","Ġf elt","e f","Ġare as","Ġs il","Ġnot ed","k ed","Ġind ust","ort s","Ġameric a","Ġp it","Ġevent ually","Ġr uss","Ġsty le","er c","Ġannoun ced","Ġcre ated","Ġmil es","Ġre ached","Ġbro ther","Ġcolle ge","Ġdisc over","Ġh ot","Ġd i","Ġc ro","Ġconstru ction","Ġjapan ese","Ġst ri","Ġeng ine","m ing","Ġs an","Ġsu n","Ġsuccess ful","Ġnort hern","Ġh old","Ġ200 5","Ġm al","Ġb ody","Ġse en","Ġp ain","Ġse le","Ġhe avy","Ġstru ct","is ing","c ast","Ġc ut","ĠâĢ Ļ","Ġag re","Ġfollow ed","Ġ2 9","Ġr ange","get her","Ġto gether","Ġsy m","f ield","Ġme et","Ġpro t","Ġpro cess","Ġm em","Ġperform ed","Ġc iv","iz ation","it ing","Ġbro wn","Ġser ved","Ġhel p","Ġm ember","Ġact iv","w ork","Ġ201 4","Ġbr idge","Ġkn ow","al ity","Ġgeor ge","Ġm ix","Ġfoot ball","Ġt or","Ġes c","Ġkill ed","Ġm ur","Ġsignific ant","Ġg od","an a","id ence","Ġprof ess","id s","Ġab le","Ġtak en","Ġs aw","c ent","ol ution","Ġestab l","Ġm m","at ure","Ġ ident","Ġimp ro","ric t","ell ing","Ġs at","z e","Ġbec om","Ġa ction","Ġro und","Ġqu e","Ġpo ints","Ġhum an","Ġb orn","Ġdo es","Ġthough t","os s","Ġestabl ished","Ġme an","Ġorigin ally","Ġinv est","i us","b or","Ġth om","d s","Ġaustral ian","Ġg ar","Ġsub sequ","Ġg row","av al","Ġen c","ent h","Ġother s","Ġst age","am ent","en ced","Ġb ri","ir l","Ġent ire","Ġappe ared","ress ion","ar a","Ġ !","Ġs n","Ġdav id","Ġloc ated","Ġdirect or","c il","Ġsur v","Ġre du","Ġfeat ures","ct or","Ġd en","r ay","et t","Ġv oc","o x","Ġcre w","o on","i ers","Ġcomm ission","g round","Ġbus iness","Ġstart ed","ric k","Ġplay ing","Ġaf ric","Ġp ot","b ur","av es","Ġm other","od es","l ess","Ġcaus ed","ough t","Ġdec ided","Ġciv il","Ġcrit ics","y n","ress ed","ri pt","Ġking dom","Ġfe et","Ġ ur","Ġr ather","Ġr ank","at ors","s hip","Ġfour th","Ġm ater","Ġf ell","Ġp en","Ġre b","Ġre se","Ġin form","Ġec onom","d en","Ġbeh ind","Ġinde pend","Ġform ed","Ġs ite","og n","Ġmag az","Ġadd ed","Ã ¡","Ġfle et","Ġimport ant","Ġc ase","Ġb i","m a","Ġ18 8","Ġso on","g g","Ġp red","amp le","ree k","Ġcom ment","iv id","ate g","Ġj ud","Ġm art","w ood","rough t","Ġ3 1","Ġeas tern","c ing","Ġdam age","Ġit al","Ġed uc","Ġpop ulation","Ġcomple ted","Ġgre en","ad es","Ġgun s","Ġm ult","Ġal most","Ġs am","Ġne g","Ġse x","he ad","d le","Ġpe ak","Ġr u","ac es","Ġex ec","Ġcl ose","Ġc up","in ation","Ġto m","Ġinter v","Ġl ang","em y","Ġind ian","Ġj our","at a","Ġinit ially","Ġaward s","Ġreg ion","Ġlos s","Ġin j","Ġt reat","l in","one y","way s","Ġocc ur","Ġ200 4","it ar","Ġopen ed","Ġl ack","Ġc reat","Ġsoc ial","Ġh ost","g o","ap s","Ġpr act","Ġmich ael","Ġpro ble","Ġsc re","Ġg irl","Ġrelations hip","Ġ18 6","Ġind ivid","Ġp ur","ce ed","Ġf a","Ġre n","Ġf und","t o","Ġu l","Ġl ou","em ents","Ġs us","Ġlead ing","Ġty p","c her","Ġwee ks","Ġtrad ition","h ic","Ġ201 5","Ġwork ing","Ġrad io","Ġb ay","Ġse par","in o","Ġcl os","Ġwork ed","Ġfr ance","Ġdif fic","Ġcur rent","Ġdiffic ult","Ġs our","Ġn ar","Ġpre m","Ġrecord ing","Ġsec ret","ul a","Ġto wards","Ġacc om","Ġa le","Ġro om","Ġcon n","med i","Ġapp o","Ġb omb","Ġm el","k i","Ġb al","Ġm ac","Ġcoun cil","Ġla un","Ġun ion","Ġsc ene","Ġr ain","um b","ris on","ist ic","im es","Ġr ap","Ġgo al","Ġw id","ic a","as ing","Ġres pect","Ġrep ubl","Ġres ul","Ġhen ry","ign ed","Ġqu ick","an ch","Ġn orm","Ġre ve","Ġro bert","Ġbre ak","k y","Ġmater ial","Ġn avy","Ġrecord s","Ġac cept","et h","Ġv ot","Ġtr aining","Ġwas hing","Ġle ast","Ġsc ored","Ġ200 0","pe c","Ġprov ided","Ġre ach","Ġwant ed","Ġm ust","Ġe y","Ġf ig","Ġtro ops","Ġb rought","Ġaver age","he st","Ġbr ig","Ġd ut","Ġsp ace","Ġrec ogn","bo ard","Ġfeat ured","Ġear th","id ing","olog ical","ow s","Ġc ru","Ġ5 00","os ition","Ġcol on","Ġe ither","Ġn omin","Ġqu ar","Ġ18 7","Ġpro per","Ġf oc","Ġallow ed","Ġang el","Ġro b","ect ed","Ġp ast","Ġest im","Ġf ut","Ġt ar","Ġf eder","Ġw ife","am s","Ġvict ory","Ġstud io","Ġpl aced","Ġgener ally","Ġav ail","Ġwashing ton","Ġin n","Ġr ul","if f","a ut","Ġch o","Ġpr iv","Ġcy cl","he re","ic o","Ġa ch","Ġrun s","Ġph ys","Ġex ample","Ġd ark","a ur","Ġev ents","Ġmagaz ine","Ġch ief","Ġbatt al","m p","Ġd er","Ġrepubl ic","Ġl eng","Ġbo ard","Ġsum mer","ant ic","v ille","Ġins p","Ġpa ul","Ġst aff","Ġc red","Ġ200 3","Ġpartic ip","ent ial","Ġw il","Ġd ro","Ġjo ined","Ġdesign ed","Ġsquad ron","Ġun c","Ġgr ad","u el","Ġsur f","Ġhour s","Ġreg ular","Ġsp an","Ġp ie","i ke","Ġmid dle","Ġem ploy","Ġd an","Ġqu est","Ġspe ed","Ġn ine","Ġsh ot","Ġoper ation","Ġcon du","v ing","Ġth reat","Ġopen ing","ell s","Ġmed ia","k a","Ġbelie ved","Ġrel ig","ud e","m en","Ġ3 5","Ġsc ore","Ġreg ard","Ġcom e","Ġc ou","an ks","Ġwind s","Ġo x","Ġb ir","t im","Ġm ary","Ġfl ight","Ġtrans port","ap er","Ġrepl aced","u gh","Ġm ph","h an","Ġpri or","Ġst one","Ġsc en","ict ion","Ġinf ant","Ġp ay","Ġb en","Ġb er","im in","Ġde ter","or ing","Ġem p","Ġse qu","Ġcapt ain","Ġpol ice","Ġinvol ved","Ġst op","Ġeurope an","ific ation","Ġlang u","Ġmin utes","er ous","Ġearl ier","f all","w est","Ġfin ished","Ġrese arch","Ġsoc iety","as ion","al ed","Ġh op","h a","Ġcont rib","ut ive","Ġleng th","Ġposs ible","Ġsay ing","Ġind ic","o ff","Ġrom an","ag o","l ic","Ġim medi","Ġcomm erc","Ġch ange","Ġn y","re g","Ġp il","Ġt rib","Ġassoci ation","Ġke ep","Ġad min","Ġrem ov","Ġlar gest","Ġat l","Ġhig hest","Ġparticular ly","Ġl ower","Ġbo y","Ġfilm s","Ġbegin ning","Ġb ad","Ġf ly","Ġsc ott","Ġex ist","Ġke y","Ġad m","Ġavail able","ish ing","Ġresp ons","Ġper cent","Ġpl at","Ġvir gin","Ġfor ced","pe cted","Ġse ction","Ġass ist","Ġ200 1","Ġbet ter","w er","Ġwe ak","Ġach ie","Ġdis p","Ġu k","h ib","Ġout side","Ġde al","ann ed","Ġt aking","Ġant i","Ġle ar","m ar","Ġme as","Ġchar les","Ġcommit te","ar ing","Ġhe art","ograp hy","Ġgr ant","Ġnov el","Ġthom as","ĠÂ °","Ġmain t","Ġturn ed","Ġincre ased","Ġend ed","ip p","Ġre ason","Ġun its","o f","em s","id a","Ġfe el","ok e","Ġcommun ity","Ġreview s","Ġcal if","s el","as es","Ġac ad","Ġn in","Ġfut ure","Ġpass ed","Ġpra ised","op h","Ġcalif orn","he ast","Ġmov e","Ġh ous","Ġgo ing","Ġbe at","Ġp an","Ġ200 2","Ġab ove","Ġm cc","Ġaddition al","Ġte x","Ġappear ance","i ation","ke y","Ġph ot","Ġth us","Ġgu itar","f or","s u","Ġb ird","act ion","i os","Ġty pe","ad ed","Ġcanad a","it or","Ġp s","st r","Ġli k","Ġen ough","Ġlit er","Ġcast le","Ġinfant ry","ers hip","Ġord ered","Ġl ake","Ġsm ith","Ġpl ot","Ġd augh","Ġprevious ly","Ġp un","Ġl at","t r","Ġperson al","oc r","Ġsign ed","Ġmus ical","e y","Ġmin or","n al","Ġd oc","Ġter rit","Ġrich ard","t t","st on","Ġale x","Ġele ments","Ġinst it","Ġright s","Ġmark et","ar ily","Ġd ig","Ġp ac","Ġthe at","Ġvi ol","Ġcaliforn ia","Ġab s","us h","pp ed","Ġpos itive","ag on","m y","Ġpro b","Ġcrit ical","Ġde ad","fer ence","Ġpart s","Ġh a","Ġacc ess","Ġf ood","Ġl ord","Ġback ground","Ġg ive","ers on","Ġl ines","pp er","g en","Ġb at","Ġtrav el","Ġp ow","Ġm oney","Ġfem ale","s en","Ġsp ent","Ġbe g","Ġover all","Ġto ld","it z","Ġpr inc","ct s","Ġsub ject","i que","il ities","cl us","Ġsc ient","Ġt ax","Ġm ic","Ġdire cted","Ġfl ood","u ation","Ġbl ue","b ack","Ġcommitte e","u ter","Ġvict or","ell ed","Ġinterv iew","Ġf ailed","Ġde ep","Ġ199 0","Ġp et","Ġ6 0","n el","Ġd omin","Ġch ap","Ġc orn","Ġsqu are","Ġrequ ired","Ġpo or","Ġdeb ut","Ġgroup s","ren g","m on","Ġ4 5","Ġm ach","Ġgerman y","g a","Ġcle ar","Ġh app","Ġk il","Ġbroad cast","Ġob ject","b ers","s c","n es","Ġter m","Ġ Ã","Ġdist rict","Ġconst it","Ġpe ter","Ġro ll","en ing","Ġex c","Ġen v","Ġan al","Ġits elf","Ġhe alth","um e","Ġind ia","Ġchrist ian","Ġbattal ion","Ġev idence","Ġsomet imes","Ġw al","Ġste p","is l","Ġfr ank","ib ility","Ġpr ison","Ġb ank","ber g","Ġocc up","Ġrece ption","Ġcontr act","Ġ18 5","Ġele ction","Ġinvest ig","Ġcommerc ial","Ġas ked","Ġst ars","Ġtrans fer","Ġex cept","ĠÂ £","Ġ ?","read y","Ġl u","Ġdef end","st and","er ved","Ġpar l","i i","Ġz e","Ġst reng","ab ility","Ġl iving","Ġadmin ist","Ġo ur","ay s","Ġs ov","Ġwh ose","Ġme x","ed y","ak er","ap t","g ar","on se","Ġnat ural","Ġstud y","air s","Ġcomple te","Ġal ready","Ġclaim ed","on na","Ġgovern or","Ġappro xim","Ġcl im","re am","Ġch ic","Ġbe y","Ġsov iet","Ġfl or","Ġintrodu ced","Ġfre qu","ig an","Ġwh om","Ġfore st","Ġmin ister","Ġth ink","Ġus ually","Ġam b","Ġb urn","Ġwom an","Ġmus e","Ġstud ents","en ue","w or","Ġeduc ation","Ġquick ly","ac ted","Ġide a","b c","Ġlim ited","Ġb ud","Ġw ild","Ġb ul","Ġr h","Ġfr anc","Ġan c","Ġm ight","Ġgu ard","Ġeffect s","Ġmov ement","Ġconc ern","Ġ3 2","Ġresp onse","Ġprev ent","Ġl ib","Ġsy n","Ġiss ue","Ġc ertain","Ġcommand er","Ġcent re","Ġsl ow","Ġg ro","Ġque en","at ory","Ġ197 0","Ġpl ant","Ġsurf ace","Ġpol ic","Ġy our","Ġs elf","Ġl ay","Ġt un","Ġdepart ment","ain t","Ġfif th","Ġarr ived","Ġes pec","b our","Ġ198 0","Ġs and","Ġh osp","Ġbrit ain","Ġf ace","Ġespec ially","Ġdec ision","Ġserv ices","p r","se c","erg y","Ġf er","Ġoper ations","Ġvill age","Ġteam s","Ġvo ice","Ġl ie","Ġparl iam","t ies","Ġstruct ure","Ġbo x","Ġshow s","Ġr ac","Ġr an","um p","Ġg ard","and ed","Ġcon gress","Ġmuse um","Ġindust ry","Ġw alk","Ġlar ger","b a","Ġf est","Ġwrit er","Ġsc ience","Ġly ric","Ġbecom ing","Ġrem aining","Ġestim ated","Ġl atter","Ġepis odes","Ġrem ain","Ġdefe ated","Ġ -","Ġcar ried","f l","Ġhe av","Ġparliam ent","Ġg ot","is es","Ġmult ip","w h","Ġul tim","Ġd raw","Ġnet work","Ġdisc uss","ar ies","o or","p re","Ġo l","Ġpress ure","Ġbl ood","Ġ199 9","Ġpro gress","Ġsur round","Ġfl ag","ul ly","ir on","Ġscen es","Ġc m","Ġconsid er","Ġbri ef","it es","d e","Ġle aving","Ġrun ning","Ġchang es","ul f","Ġac qu","Ġvirgin ia","Ġc and","Ġje w","Ġcomple t","Ġm as","ess ion","Ġ3 6","Ġn aval","por ary","Ġd om","r or","Ġsuggest ed","ou th","Ġent ered","Ġnear ly","v al","Ġ8 0","Ġdep ression","or ial","in ing","Ġquar ter","Ġappo inted","Ġwin ning","Ġinflu ence","Ġd ate","Ġapproxim ately","if t","Ġf ail","Ġch all","Ġtw ent","Ġs ize","Ġro s","Ġem b","Ġcap ital","Ġlead er","Ġlangu age","Ġf ant","er ve","Ġshort ly","Ġisland s","Ġreg iment","Ġestab lish","Ġemp ire","Ġsc ript","Ġfeder al","Ġfav or","Ġmet h","Ġequ ip","Ġcour se","Ġscre en","Ġto day","Ġth r","t a","Ġjack son","Ġfin ally","an ia","Ġb ra","ch ange","Ġu pper","Ġw ide","and er","Ġtrack s","Ġun l","Ġm ission","Ġcan n","Ġo ly","Ġlou is","Ġdestroy ed","Ġprop osed","Ġdaugh ter","Ġp urch","ul ated","Ġhig her","Ġoly mp","Ġw ing","Ġprodu cer","Ġmanag er","bur g","Ġarr ang","Ġspan ish","k ing","Ġcor ps","ab or","Ġl ad","Ġexper ience","Ġnat ure","Ġv an","Ġdist rib","Ġ7 5","Ġc er","Ġenv iron","Ġprinc ip","Ġhor se","Ġprov ide","Ġsubsequ ently","Ġbrig ade","Ġbatt les","id ents","Ġrail way","Ġprofess ional","i res","Ġal tern","mit ted","Ġdis s","ens ion","Ġcomp ared","Ġbre ed","is er","o id","Ġp aren","Ġcomple x","Ġcon cept","Ġhe ro","Ġin tended","Ġem erg","Ġimmedi ately","Ġmar ried","Ġdem ocr","ines e","Ġa w","Ġ196 0","Ġpriv ate","Ġ18 4","Ġf ans","Ġsa f","Ġce le","Ġtem per","Ġjour nal","Ġ3 00","Ġp ict","Ġsupport ed","Ã Ń","n s","Ġagre ed","Ġst ay","Ġsp ir","Ġent ertain","Ġsh oot","Ġint ens","all ed","Ġcomp an","Ġb ord","Ġd one","Ġm r","Ġed ward","Ġarch it","Ġmod el","Ġfeat ure","Ġincre asing","Ġinit ial","g y","Ġaward ed","Ġli ber","Ġg i","ri a","Ġwe ap","Ġdis play","Ġchic ago","Ġb or","Ġarchit ect","Ġch inese","Ġwhe ther","Ġhel ped","Ġrel ated","Ġleg isl","Ġpl anned","Ġc ard","d own","Ġbook s","Ġoffic er","Ġim m","ch ing","Ġ199 8","ap h","Ġsold iers","Ġm om","Ġcre ate","Ġbr ing","Ġlong er","Ġtr ade","Ã ¶","Ġart ic","u k","he m","Ġf air","Ġmon t","Ġhe re","Ġw it","at ively","Ġatt r","Ġp le","ore s","Ġc ause","Ġk ore","th ing","Ġg al","Ġcapt ured","te en","Ġval ley","Ġpl ans","Ġy et","Ġir on","Ġbuild ings","Ġcons erv","Ġcol or","om m","b an","n y","Ġun it","Ġfor ward","Ġbl ock","in ct","Ġchang ed","Ġcon clud","Ġ q","Ġwin ter","Ġwith d","Ġp enn","Ġco ach","as y","Ġassoci ated","Ġsub st","Ġfriend s","Ġd ance","che ster","Ġsomet hing","Ġoffic ers","Ġinst r","Ġsp ring","i en","Ġrem ains","Ġmost ly","sel ves","Ġpac ific","Ġsing les","Ġ3 3","Ġbill board","Ġse v","ab it","Ġjohn son","Ġthem selves","Ġstand ard","Ġr at","Ġ7 0","ron ic","Ġtar get","Ġcount ries","Ġlyric s","om s","Ġex am","Ġmix ed","Ġprob ably","k en","ri age","Ġre ally","Ġmeth od","h l","Ġex tended","w ell","Ġr ay","Ġmov ing","Ġp u","Ġnum erous","Ġfin anc","Ġf it","Ġat tend","Ã ¼","en a","Ġinform ation","Ġport ray","Ġcont em","le g","Ġcop ies","Ġal ways","Ġrequ est","Ġn ation","Ġvis it","Ġsc ot","Ġloc ation","Ġgo als","Ġc a","Ġo ce","is ions","Ġr id","Ġindivid ual","Ġbir th","Ġs ales","Ġc it","Ġfoc us","Ġ199 7","r ated","r d","Ġiss ued","Ġcoun ter","Ġstat us","Ġm ess","Ġle ave","Ġen ergy","Ġatl antic","Ġinclud es","Ġart ist","and on","ol ic","il i","Ġt as","Ġcon ference","Ġ3 7","Ġsuff ered","Ġj im","Ġm ale","c an","Ġsing er","Ġv ia","Ġadm ir","Ġtr aff","Ġhosp ital","Ġt al","Ġimp act","and s","Ġflor ida","Ġmart in","Ġed ition","Ġproble ms","Ġalbum s","Ġb ene","Ġma xim","Ġmeet ing","Ġter min","h ood","Ġdou ble","Ġg all","Ġlik ely","Ġch ina","Ġincre ase","Ġcar ry","Ġass emb","Ġremov ed","Ġappro ach","Ġindepend ent","b ury","Ġcele br","Ġmov ie","Ġb ond","b ed","Ġd og","Ġtex as","Ġrev olution","p an","Ġinsp ired","Ġfore ign","at ives","ch an","Ġr ang","Ġref le","o le","Ġm aster","Ġter ms","Ġprim ary","Ġc reek","Ġd v","Ġmajor ity","land s","Ġs ir","Ġcomp os","Ġk ind","Ġa st","Ġoff ered","Ġw a","Ġ ice","Ġinter se","Ġcons ist","Ġtak es","Ġqu al","Ġmin ute","v in","Ġve hic","ograp h","Ġt ons","is c","ve y","Ġst ad","ail y","Ġen s","Ġdr um","ous ly","Ġad op","it er","Ġattack s","oun ted","Ġs ar","Ġu t","Ġf ox","Ġentertain ment","Ġm akes","Ġconf ir","Ġ ign","Ġwor d","Ġcomp osed","Ġdam aged","Ġo il","Ġcomb at","Ġra ised","Ġ18 3","Ġcanad ian","Ġrank ed","Ġenviron ment","ound s","Ġafric a","et ic","Ġpre c","Ġconc ert","Ġl og","ic ted","Ġcar ol","Ã ³","ac hes","Ġcycl one","Ġsh ar","Ġw rest","he t","Ġd aily","Ġlet ter","Ġu nd","Ġappe ars","Ġfight ing","Ġsele cted","Ġmount ain","l ight","Ġreve aled","Ġdiscover ed","Ġc ateg","o o","Ġsim p","Ġtr ain","Ġmet al","Ġact ive","Ġdeter m","Ġruss ian","Ġer a","Ġde g","if y","Ġ9 0","uc le","Ġmor ning","ail s","Ġins ide","Ġsp orts","Ġcond itions","un g","Ġtwent y","Ġk ent","al and","Ġdem on","Ġun able","Ġsch ol","Ġlaun ched","ar i","ur ies","Ġgre ater","er a","um ed","Ġrespect ively","st e","Ġw r","Ġv en","Ġt v","Ġsc hed","Ġwho le","Ġ199 5","Ġnum bers","Ġiss ues","Ġneed ed","Ġs ister","Ġsmall er","Ġbel ow","Ġangel es","Ġo s","Ġinc or","e e","Ġth ir","Ġl ived","Ġconn ect","ad o","Ġadv ance","Ġto uch","Ġcont ains","Ġ3 4","ut h","Ġy ard","Ġattempt ed","Ġsl ight","Ġattack ed","Ġtradition al","l or","Ġy ards","Ġsh own","ri ption","z z","Ġb ed","Ġst ra","Ġcult ure","Ġoccur red","Ġnews p","Ġrelig ious","um ents","a j","Ġp ick","Ġc art","u als","us e","Ġn ick","Ġii i","Ġ3 8","Ġsil ver","ag ing","Ġre in","i est","Ġdefe at","Ġr ing","Ġc ab","Ġto urn","ort un","j oy","Ġrec over","Ġact or","Ġann ual","Ġlar g","an ced","e ch","Ġr are","Ġele cted","Ġfest ival","Ġ iv","Ġ201 6","Ġpe ace","Ġrefer red","Ġ199 6","augh t","Ġ195 0","Ġconst ant","ne w","Ġre form","Ġb on","iz ing","u ing","ct ing","Ġfranc is","Ġm ind","Ġne igh","Ġd ra","ri al","ur ity","am b","Ġb ab","ol k","ver t","Ġj ose","Ġaud ience","Ġschool s","Ġthem e","Ġs av","Ġresul ted","Ġlarg ely","Ġps y","ri an","Ġass igned","Ġmag n","Ġcover ed","Ġpr ince","as c","Ġr is","Ġoce an","en ant","Ġat h","Ġd ar","Ġf ast","Ġd un","Ġexp ress","Ġl ink","Ġital ian","Ġvar iety","Ġlist ed","Ġcolle ction","Ġpur p","u ated","Ġb an","Ġ199 4","Ġgu est","Ġgl ob","Ġcompet ition","h old","y a","Ġc ath","Ġn ames","Ġas h","m i","Ġear ned","Ġstad ium","Ġcontro vers","Ġex pected","l s","Ġcomment ed","Ġh aw","ter ed","Ġs out","it ude","Ġstart ing","Ġrap id","Ġcl osed","ã ĥ","qu ar","Ġperform ances","Ġatt ention","Ġn ucle","Ġdoc ument","Ġquest ion","Ġim per","Ġent er","Ġair port","Ġg iving","Ġmich igan","ent al","Ġleg al","Ġacc ount","Ġref used","Ġv iet","Ġext re","Ġm ir","Ġeconom ic","Ġf igh","Ġk ar","Ġre pe","Ġc row","Ġch am","i j","Ġc ust","oun ts","Ġcomp l","Ġgreat est","Ġwat ers","Ġset t","ap ed","Ġen joy","pl es","Ġelect ric","Ġto wer","Ġw ales","ut ions","Ġab ility","Ġser ious","Ġdire ction","nd ing","Ġst ories","Ġnot es","Ġn ative","Ġd ie","Ġh und","Ġprom in","Ġ194 0","Ġdecl ared","Ġr ate","Ġm un","Ġme ant","Ġmat ches","Ġst an","Ġvoc als","br idge","Ġth ings","Ġo d","Ġp oll","pt ed","Ġsp l","Ġ4 9","Ġ18 0","b re","Ġhund red","is her","Ġm ention","Ġh us","Ġab andon","Ġlevel s","u f","Ġwor ds","Ġs we","u ff","Ġk h","Ġnear by","g l","im s","Ġch ann","on a","Ġmar riage","Ġprodu ce","Ġte xt","Ġdo ctor","Ġne cess","Ġconstit ution","k er","Ġc ry","Ġpract ice","Ġdef ense","Ġpre p","Ġconstru cted","Ġf ill","Ġem per","w in","Ġsour ce","od ies","ol s","Ġl ot","Ġfant asy","i ences","Ġ4 1","ic ient","Ġ199 2","Ġcand id","w ide","Ġm att","p ass","ro ad","g s","Ġdv d","Ġvoc al","Ġsepar ate","Ġhigh ly","r am","Ġlab or","Ġ ess","ic ated","Ġme ans","Ġe th","Ġfar m","Ġwrit ers","et te","Ġro w","um n","Ġmed ical","it ation","Ġsp ot","Ġze aland","Ġcontro ll","Ġexec utive","g ing","Ġl es","Ġex hib","Ġdirect ly","ish op","Ġposition s","Ġultim ately","Ġp urs","ell ow","Ġobs erv","Ġd a","Ġnorth west","Ġwe ather","p ing","Ġs le","Ġcontin ue","Ġpresent ed","Ġredu ced","Ġeff ort","k in","Ġafric an","m as","Ġmex ico","Ġc ub","Ġmultip le","Ġadmir al","Ġj er","Ġb ound","Ġ4 00","Ġche m","w rit","Å į","Ġfl ow","Ġeff orts","Ġbr ad","Ġdis m","ib ly","Ġanim als","Ġme chan","Ġform ation","Ġd yn","Ġ193 0","Ġhous es","Ġlie ut","Ġch ris","d ing","Ġstr ateg","og ue","Ġset tle","b and","Ġtri ed","r ical","Ġl in","Ġg as","Ġmem orial","Ġat tended","Ġ5 5","k n","Ġb atter","Ġstud ies","Ġaccept ed","Ġst ating","Ġfinanc ial","Ġw ear","Ġpar al","Ġt alk","Ġru le","Ġlib r","Ġmad onna","v ement","ac her","d on","Ġp air","Ġse em","Ġspec ific","Ġsym b","l a","Ġde pend","ri e","Ġ199 3","Ġbo b","Ġ199 1","Ġo h","Ġhon or","Ġadv ent","Ġincor por","tr ack","ri er","is ation","Ġend ing","Ġbeg ins","Ġth ick","Ġs aint","Ġcer em","Ġrec omm","Ġin ch","Ġorgan ization","Ġ17 9","Ġr am","Ġpil ot","Ä ĩ","an es","Ġl if","Ġtr ue","Ġtheat re","Ġtraff ic","ru ction","Ġs ides","Ġen emy","Ġcas es","Ġscot land","Ġj ones","Ġro ugh","ill ery","Ġdr ive","Ġar rest","n ers","h ouse","Ġ ire","re y","Ġb ell","Ġp ack","op er","Ġfly ing","Ġl uc","Ġm ob","Ġrespons ible","Ġconf l","Ġey e","Ġman aged","Ġp ath","Ġform s","Ġw ound","Ġmean ing","Ġ +","Ġus es","Ġar ab","Ġresult ing","Ġg reek","Ġk enn","Ġ3 9","Ġtourn ament","Ġke pt","Ġsound track","Ġlieut enant","Ġacad emy","Ġdro pped","Ġprot est","Ġshow ed","Ġro se","Ġauthor ity","Ġpolic y","Ġed ge","Ġb ost","Ġm os","Ġpr ime","Ġ18 2","Ġqu ality","un e","Ġstru gg","Ġ4 8","Ġemper or","Ġexp ed","Ġ4 2","Ġf at","Ġw ick","Ġart illery","Ġap art","Ġcomb ined","Ġh ors","cl aim","Ġd ru","Ġbo at","ceed ed","Ġact ing","u it","Ġd ed","Ġfound ed","Ġsecret ary","Ġe ll","Ġspir it","Ġcontin ues","Ġtri al","Ġmark ed","Ġadminist ration","ad a","Ġinc hes","Ġproper ty","ip s","Ġwilliam s","Ġb it","Ġsystem s","Ġenc oun","Ġsubsequ ent","Ġprop os","n am","Ġart ists","er o","Ġcontem porary","Ġ18 1","Ġattempt s","Ġse arch","e x","Ġext r","Ġterrit ory","Ġpar is","gy pt","i ated","Ġd raft","Ġnort heast","u ge","Ġste am","Ġre ar","Ġcompan ies","t hel","Ġpot ential","Ġmar sh","Ġper f","Ġpres ence","Ġmet res","Ġview ers","Ġplan et","ic ip","Ġallow ing","an i","Ġth ous","Ġstud ios","Ġsix th","ul ations","Ġpre par","Ġrec ent","Ġsupp l","Ġsc ale","Ġ194 2","Ġco al","Ġofficial s","Ġcondu cted","k et","Ġbeh av","j e","Ġe gypt","Ġm u","th ur","Ġob t","Ġse g","Ġjo b","Ġresp ond","Ġpie ce","Ġdig ital","Ġfilm ing","Ġhy d","Ġdef ence","Ġmach ine","Ġle e","Ġhead quar","Ġcontr ast","o e","Ġam ount","Ġtem ple","ol f","Ġtransfer red","Ġcoll abor","stand ing","Ġlat in","Ġparen ts","Ġy ellow","ing u","Ġsc oring","Ġopp ortun","Ġ ic","Ġmaxim um","Ġsen ior","r ain","Ġcor por","Ġfig ure","Ġcom ing","Ġstep hen","Ġdis e","Ġ6 5","Ġs ac","Ġall ied","en ge","Ġbe aut","Ġfeat uring","in em","Ġtor ped","Ġthere fore","Ġprim arily","c le","Ġ4 7","Ġrel atively","Ġox ford","Ġgeor g","Ġele v","Ġown ed","Ġpeak ed","Ġthe ory","Ġbecom es","Ġstud ent","Ġcol d","Ġtit led","Ġjose ph","Ġtorped o","Ġm ort","Ġact ually","ag a","Ġrecomm end","ian ce","Ġport ion","Ġdist ance","Ġbattles hip","Ġc ert","Ġcit iz","Ġconclud ed","ers ey","Ġst ock","Ġbost on","Ġcon ver","Ġprem i","Ġman chester","Ġm ut","Ġt on","Ġinv asion","Ġsit uation","Ġstreng th","Ġwrit e","Ġb ass","Ġch air","Ġhar rison","or ter","Ġpsy ch","Ġtrans l","Ġje ff","os h","Ġbro ke","Ġfun ction","Ġsh are","Ġobs erved","Ġs elling","Ġphys ical","Ġsec urity","Ġalong side","Ġcommun ic","aren t","Ġdist inct","c a","Ġt ree","Ġsw ed","ent ed","Ġplay s","Ġperson nel","Ġresul ts","Ġconc ent","Ġ4 6","Ġl iver","Ġ5 2","Ġdiv ided","Ġsour ces","ste in","Ġd oll","ist ics","Ġpa id","Ġsecond s","Ġres ist","Ġcall ing","it a","Ġc ities","Ġr ating","Ġ194 4","Ġslight ly","in i","Ġbord er","Ġshe ll","Ġin h","Ġreturn ing","Ġpower ful","Ġcol umb","Ġf red","Ġmanag ement","Ġcont est","Ġar ts","Ġre ject","Ġhistor ian","Ġo tt","Ġhistor ical","Ġ6 4","Ġh an","Ġimper ial","Ġmin im","Ġon to","Ġsu st","Ġa ctions","Ġ4 3","Ġel se","Ġm ile","Ġv ess","Ġplat form","Ġad j","am ing","Ġf ear","Ġnot hing","Ġbird s","id er","Ġbe ach","Ġk g","Ġfre ed","Ġinflu enced","Ġo w","Ġactiv ity","Ġcan c","Ġinn ings","ct ive","ast ic","Ġf an","Ġtr ust","il s","un t","Ġ4 4","Ġsu c","Ġres idents","Ġath let","Ġcom edy","ell ig","for ce","Ġb bc","Ġpo et","Ġdesign ated","Ġpromot ed","os aur","Ġnomin ated","Ġpass ing","Ġres c","Ġcult ural","Ġro d","Ġcro wn","m ond","Ġcomplet ely","st one","Ġcro at","Ġconfl ict","p o","Ġl ane","Ġm is","Ġproble m","Ġav enue","Ġl ov","Ġor che","Ġwe ight","Ġhe ight","Ġmain ly","Ġsub s","ph y","Ġsex ual","Ġtr ail","a ult","Ġstru ck","Ġchart s","ist ry","Ġarm s","ic ed","Ġs ought","Ġrepl ac","Ġp aper","Ġro t","Ġ192 0","Ġhand s","Ġenc our","Ġanc ient","Ġs ense","Ġ194 5","Ġseason s","nd s","Ġwe bs","Ġcont ent","le ment","Ġ194 1","Ġvar i","Ġ15 0","Ġdou b","Ġp ul","Ġcon sec","Ġfe ed","Ġwar s","z a","Ġf ish","Ġchar ge","Ġim age","Ġreach ing","wh ile","Ġspe ct","ill s","Ġfell ow","Ġweap ons","y er","z y","Ġital y","Ġc ell","Ġinstr ument","ian o","ol ved","Ġd ang","Ġameric ans","Ġchann el","Ġwid ely","Ġm it","Ġfav our","ac ts","Ġmed al","Ġg il","Ġs r","Ġr y","Ġbase ball","Ġappear ances","Ġh abit","Ġal one","Ġint ellig","Ġem ot","ur a","Ġj ersey","qu es","Ġconfir med","i ber","Ġf res","Ġk r","Ġg ained","Ġshe l","yl v","Ġg ra","Ġbey ond","Ġf iction","Ġire land","Ġcho ice","ad el","Ġbrother s","Ġjo in","Ġmur der","ro ll","Ġre ign","ot a","Ġold er","r ative","Ġb ru","Ġele ment","Ġpro ved","Ġste el","Ġvers ions","Ġanal ys","Ġc rick","Ġlibr ary","Ġcar l","ul ed","Ġheadquar ters","Ġfl oor","or ation","Ġexpl ained","Ġsay s","m ans","c ers","Ġoff er","Ġa head","Ġs ens","om an","Ġal t","al ing","Ġexp ans","kn own","Ġneg ot","u le","Ġd w","Ġser ve","Ġrain fall","Ġ198 9","b on","Ġcaus ing","t own","Ġcom es","Ġspe ech","Ġs ant","Ġ194 3","Ġhot el","Ġvictor ia","Ġo pt","ic an","Ġchar l","Ġsu it","Ġrec on","d y","Ġrequ ire","Ġf al","Ġ5 1","Ġexp ressed","Ġcath olic","Ġequip ment","Ġwork ers","Ġspl it","Ġhors es","Ġartic le","Ġapp arent","et y","a res","Ġroad s","Ġreport s","e es","Ġgrow th","Ġp ap","Ġpromin ent","Ġoff ensive","Ġocc asion","Ġbr anch","Ġg ross","Ġdr ama","Ġadv anced","Ġbow l","Ġexper iment","anc y","Ġcapt ure","Ġident ified","Ġoffic ially","ou red","Ġset ting","Ġhus band","Ġworld wide","Ġarm ed","uf act","g u","us ion","Ġpat tern","Ġso ft","Ġcateg ory","Ġsn ow","igh th","Ġsur re","Ġman ufact","Ġt ells","Ġheav ily","Ġres erve","Ġsen ate","Ġb ott","Ġjust ice","Ġsp ort","Ġmat ter","Ġcomp uter","Ġrepresent ed","Ġext ra","i Äĩ","Ġtre es","Ġactiv ities","Ġesc ape","ir ing","Ġsp read","m ark","Ġcrick et","Ġun f","Ġpl aces","Ġmean while","Ġtreat ment","Ġad apt","Ġpie ces","b it","Ġle aves","Ġ Î","Ġt ay","b i","Ġact ress","Ġlead ers","Ġfig ures","Ġj ul","Ġav oid","Ġf ired","Ġwh y","Ġinj ury","Ġbelie ve","Ġto ward","ub e","Ġdu ke","Ġagre ement","Ġsupp ly","Ġexped ition","Ġdut ch","Ġl ives","ylv ania","w here","ab eth","Ġun known","Ġill ust","Ġdo ing","Ġan th","Ġcas ual","Ġal bert","Ġd ata","Ġcou ple","Ġkil omet","Ġunl ike","Ġpr in","Ġim ag","Ġel iz","Ġla id","Ġed itor","Ġstri ke","Ġcons isted","Ġp in","Ġdeb uted","h ire","ess ions","Ġd in","ac ity","Ġwall s","our s","ad s","p ool","Ġr i","Ġm ig","Ġd ream","Ġa ired","Ġ id","Ġb art","Ġarg ued","us hed","Ġop in","Ġst ations","Ġwat ch","Ġtyp ically","Ġopp osition","m ore","Ġsever e","Ġsp in","Ġmom ent","Ġst ore","Ġrefer ence","Ġm ounted","os en","Ġhom er","il es","Ġtw ice","Ġclaim s","Ġn ations","Ġaff ected","Ġpol ish","Ġdesc ription","b n","Ġact ors","Ġc ra","ot y","Ġanim al","Ġas pect","Ġf aced","in son","Ġindust rial","Ġpow ers","Ġ6 00","l ines","Ġem ph","Ġnot able","Ġsu pre","Ġs her","Ġj on","Ġsk y","Ġmaint ained","Ġacc ident","Ġtechn ology","Ġtr ying","Ġprote ction","Ġval ue","el le","g ers","Ġkn ight","Ġvis ited","Ġt able","if ying","Ġord ers","Ġdan iel","Ġcon vers","Ġcritic ized","Ġland ing","Ġcon ne","Ġdel ay","Ġf uel","Ġmot or","u x","Ġcarol ina","Ġbro ken","Ġhol ly","Ġs om","Ġs ail","Ġf ully","em ic","Ġres ident","Ġb a","wor th","Ġgrow ing","Ġch osen","Ġmot ion","oc key","Ġtw el","Ġe t","h ar","ru it","Ġ5 3","Ġ198 7","Ġinstit ute","Ġco oper","oc ks","Ġm ul","Ġscott ish","en ger","Ġlab el","Ġtwel ve","Ġd ur","Ġdemon str","g ian","Ġ198 8","Ġcritic ism","Ġh at","Ġprodu cers","Ġyou th","Ġfrequ ently","Ġcomp ar","ol a","Ġsol o","Ġent r","Ġsev enth","Ġur ban","Ġphil os","Ġt a","Ġjo int","clus ion","Ġcond ition","Ġwound ed","Ġ8 5","Ġland s","ay er","Ġaccom pan","Ġpenn s","Ġm d","Ġv ice","Ġn est","Ġbene f","Ġlook ing","Ġin te","Ġtr a","Ġgold en","Ġnewsp aper","Ġopp os","Ġsurround ing","al a","ag n","Ġbill ion","Ġch or","Ġb ol","Ġindepend ence","Ġdeg ree","Ġle w","Ġcomp osition","ra el","Ġmo on","Ġreg ister","Ġoper ated","Ġbar b","Ġrepublic an","Ġassemb ly","Ġnucle ar","Ġbud get","Ġchamp ion","iz es","ord in","Ġcom ic","Ġperf ect","Ġserv ing","Ġgre w","Ġd ry","Ġcre ation","Ġsout heast","u ous","Ġsimp ly","Ġh ip","Ġfollow s","Ġr ival","Ġinc ident","Ġvot e","Ġlos ing","Ġexpans ion","Ġco ol","Ġfam ous","an o","Ġkill ing","Ġcont ained","Ġris k","u nder","Ġnew ly","Ġag ric","w ise","i as","Ġcont act","Ġb c","m ission","Ġher self","Ġpass es","Ġopp on","Ġand rew","Ġweek ly","Ġend s","Ġindivid uals","Ġc aval","Ġb ac","y le","Ġpro s","Ġchrist mas","ur b","Ġc inem","iv ity","he w","w all","Ġnorm al","Ġapp lic","Ġj ac","Ġ5 4","Ġs in","y r","Ġhe ard","Ġg h","Ġey es","Ġhom es","Ġatt rib","Ġconsec utive","Ã ¨","ot e","Ġwil son","Ġt am","c ul","is ters","Ġemph as","Ġn av","Ġch ronic","Ġtay lor","Ġcross ing","uck y","Ġa er","Ġcann ot","Ġth ing","Ġorche st","Ġwebs ite","Ġmeas ure","Ġnar row","Ġev ac","Ġsupport ing","Ġ198 6","Ġcon sequ","Ġper man","Ġch ose","pt on","ful ly","Ġeliz abeth","ul ts","Ġjo e","Ġopp osed","Ġ9 5","Ġ9 7","il ly","ograp her","Ġsequ ence","Ġalex ander","Ġnot e","Ġ5 6","Ġvol ume","Ġparticip ated","Ġagric ult","Ġpo ly","Ġhistor ic","Ġthem es","Ġv on","Ġw ave","Ġr ise","ce nd","Ġd ub","Ġlead ership","Ġsk in","l am","w ater","r id","Ġadop ted","j o","Ġcolon el","Ġe ld","Ġfres h","Ġcap acity","Ġtr y","pr ise","Ġabandon ed","Ġdise ase","Ġadv ant","Ġh air","anc ing","Ġstand ing","ã Ĥ","est ic","Ġex tend","Ġfilm ed","Ġfam il","Ġdef in","Ġpl ants","Ã ¤","Ġdemocr atic","Ġma x","Ġvis ual","im ens","Ġbas is","Ġstra ight","ut ing","Ġneg ative","Ġpenns ylvania","Ġe gg","Ġde ploy","g reg","Ġp ier","Ġt all","Ġr and","il ed","Ġl ic","Ġfail ure","ter y","Ġcreat ing","Ġchall eng","Ġd rop","Ġgame play","Ġmi ke","Ġapp l","Ġ17 7","Ġregard ed","Ġposs ibly","Ġsu nd","Ġcl in","us es","Ġt ank","k ins","Ġhar ry","Ġar c","Ġtreat y","k o","Ġir ish","Ġl ap","is ers","Ġb odies","Ġpal ace","Ġc ore","Ġse at","Ġdist ingu","Ġtri p","Ġcan al","Ġgirl s","e v","Ġfl u","Ġfound ation","Ġlad y","r ane","Ġle ge","Ġinter change","Ġte nd","Ġk id","Ġsp ain","Ġad ult","Ġmer ch","am m","Ġk ick","Ġparal le","Ġre act","Ġide as","Ġz one","Ġe ag","Ġr idge","Ġret ired","Ġad vert","Ġdism iss","Ġs el","Ġsurre nder","Ġl ind","Ġt ell","Ġw el","Ġp ed","Ġm ist","t v","Ġext ensive","Ġdel iver","Ġde ck","Ġ7 6","ro l","g al","on c","Ġ17 8","az z","ru ct","Ġa id","Ġyoun ger","Ġh ockey","Ġschol ars","Ġro les","Ġexpl os","Ġno b","Ġgard en","Ġd ial","Ġat m","Ġrail road","led ge","Ġbas ket","Ġho pe","Ġanalys is","at o","Ġb ishop","Ġclass ic","Ġa im","Ġfr anch","Ġ193 9","Ġoper a","Ġwor th","Ġg ate","and a","Ġd rew","Ġrepe ated","Ġimpro ved","ul s","Ġachie ved","Ġeconom y","Ġg a","Ġeffect ive","ic ks","Ġb om","Ġsou l","Ġl em","Ġbrief ly","Ġgl ass","Ġb anks","m es","Ġis rael","Ġh ay","Ġp iano","i enced","Ġd ip","Ġsc he","Ġth or","Ġun su","Ġcham ber","ian a","Ġw ed","Ġcurrent ly","or ters","Ġsouth west","Ġt rou","Ġhouse hold","Ġnecess ary","r ich","Ġvehic les","Ġsu d","Ġgrant ed","Ġdef ensive","Ġro of","Ġ6 1","Ġpurp ose","Ġreg ional","Ġf ame","Ġ198 5","Ġturn s","h ol","Ġcitiz ens","Ġreject ed","Ġc aught","Ġar thur","ark ed","Ġorgan ized","Ġ196 8","Ġ6 6","Ġrec ently","Ġtyp es","Ġgen us","Ġkilomet res","Ġf ro","Ġspe ak","Ġk ir","Ġmar ine","Ġprov ince","j a","Ġrece ive","Ġexp anded","Ġcor re","Ġsecond ary","res p","Ġatm osp","Ġauthor ities","Ġflood ing","Ġs ell","Ġcommission ed","Ġon line","Ġr hy","Ġdid n","Ġb le","l ers","Ġbra z","Ġcaval ry","im ents","Ġoh io","st ation","Ġj es","Ġtrans form","Ġfamil ies","on ic","Ġsuccessful ly","Ġperform ing","Ġdiv ers","Ġlet ters","Ġo ri","Ġdeterm ined","Ġfreed om","Ġliter ature","Ġal le","Ġwe b","Ġdescrib es","Ġf ought","Ġag ent","Ġassist ant","Ġwh it","ut ation","Ġhyd ro","Ġtown s","u ate","Å ¡","Ġdr am","Ġsaf ety","Ġpict ure","Ġun us","id ay","adel ph","Ġt ail","Ġ198 4","Ġup gr","Ġgo es","Ġcust om","Ġsing ing","Ġpre fer","i ate","Ġfree way","Ġh orn","um ber","Ġ8 00","Ġacqu ired","ill a","Ġphil adelph","Ġtit les","s et","Ġsuggest s","st ream","Ġcommon ly","Ġplan ning","Ġg ives","ri f","ad ing","ol n","Ġcent uries","al ty","Ġsupre me","Ġv ac","Ġcl ou","ot ed","Ġmic ro","ific ations","Ġmention ed","Ġrev ol","Ġdistrib ution","Ġgeorg ia","Ġ5 7","Ġcam bridge","in n","Ġr on","Ġsched uled","av en","Ġcont ain","Ġtr ains","Ġcontroll ed","o pe","Ġwithd raw","Ġconv ention","Ġaltern ative","Ġ12 0","Ġmy th","Ġprote ct","Ġphiladelph ia","Ġset s","Ġshoot ing","is f","Ġsim ple","Ġco ok","att le","Ġk el","Ġcl ar","h aps","Ġch ance","Ġprincip al","Ġun ique","Ġre action","Ġgr aph","Ġvir t","Ġper haps","Ġregard ing","Ġk a","Ġs ie","Ġf ix","Ġdec re","Ġs s","Ġwrest ling","Ġfind s","Ġ196 7","h i","ou l","Ġwit ness","Ġs ave","Ġmod er","Ġruss ia","Ġsub mar","Ġest ate","e en","Ġcr ime","Ġrul es","Ġfac ilities","um es","Ġk it","Ġ6 2","Ġread ing","Ġarr ival","Ġt ag","am in","Ġscient ific","Ġkore an","Ġdem and","Ġg ain","t ic","Ġsc out","Ġmed ic","Ġs ession","Ġcont aining","Ġex change","Ġa z","Ġpublic ation","Ġaccompan ied","Ġun s","Ġte ach","Ġl is","Ġr ated","Ġt act","Ġnin tend","p a","Ġm outh","Ġpr ice","Ġloc ations","Ġbel ong","Ġfigh ter","Ġr ub","Ġfin ish","Ġtouch down","Ġcerem ony","Ġliver pool","m outh","Ġan ne","Ġbr id","Ġbo ats","Ġm ap","Ġqu ite","Ġsele ction","Ġh its","Ġbro ok","Ġeven ing","Ġnintend o","Ġentire ly","Ġl inc","Ġas ia","Ġc d","Ġm and","un k","Ġconc er","Ġcolumb ia","Ġp y","Ġexist ing","ing ton","Ġfir m","Ġr um","Ġded icated","Ġg ri","Ġcrow d","Ġintens ity","ag an","o ch","Ġsing ap","sh ire","Ġcontrib uted","ru pt","Ġf ash","d a","Ġleg acy","Ġje an","Ġjew ish","Ġbr and","Ġrem ix","Ġgre y","Ġprov ides","Ġpurch ased","et ts","Ġ5 8","Ġcasual ties","Ġk ings","Ġad ap","Ġk en","om a","Ġwind ows","Ġ198 3","Ġbraz il","Ġres emb","Ġp age","ris ing","Ġo k","Ġ7 4","Ġcamp us","ing er","Ġth row","Ġbatter y","Ġa x","k es","ro om","Ġadvant age","ab les","Ġresist ance","Ġprodu ct","in ity","Ġsit es","Ġoccup ied","Ġcare y","Ġbo ys","Ġsingap ore","se y","Ġfrancis co","Ġ196 9","Ġe ighth","resp ond","Ġcor respond","Ġhead s","Ġhold ing","Ġ196 4","Ġbasket ball","Ġg ib","Ġlinc oln","os es","Ġc ode","Ġ7 2","Ġg ulf","Ġb es","Ġpromot ion","Ġstruct ures","Ġbr ight","Ġg ay","Ġel imin","Ġmill er","Ġprote cted","Ġdra wn","Ġreg ions","Ġmer c","Ġres our","Ġn ap","Ġmar c","Ġcoast al","Ġ191 4","Ġcon qu","Ġh ms","Ġg ill","Ġrece iving","Ġsp r","Ġclos ely","f ort","r ons","e ction","Ġplay station","Ġâ Ī","Ġcar s","Ġ191 8","Ġlaw s","Ġdis ney","c ript","Ġjud ge","it led","Ġopportun ity","Ġturn ing","Ġ197 1","Ġ198 2","Ġlew is","Ġgener ation","g n","Ġcall s","Ġcons ists","Ġrough ly","ig er","Ġ197 2","Ġste ve","Ġ196 6","Ġgr ade","Ġ197 9","Ġ5 9","in y","Ġcorn er","Ġdef ined","Ġres erv","Ġact s","Ġand erson","Ġby z","w are","bur gh","w ick","Ġstreng t","Ġsymb ol","Ġj r","Ġbri an","Ġexper ienced","Ġextre m","Ġany thing","Ġneigh bor","Ġt enn","Ġolymp ic","Ġloss es","Ġroll ing","Ġfash ion","Ġtas k","Ġhe at","gar ian","Ġass ault","Ġhy p","ver se","ot ic","oc ated","bo x","Ġbyz ant","Ġsur vey","Ġ196 5","Ġband s","e k","Ġret ire","Ġfoc used","Ġview ed","Ġeng aged","Ġh ind","aw a","u a","Ġpolit ics","Ġrelig ion","Ġintellig ence","Ġ #","Ġprov iding","Ġfl at","man n","r ate","Ġrel ief","Ġdevelop ing","eng ers","Ġ197 5","Ġn hl","Ġ9 9","Ġappe al","Ġse mi","Ġdom estic","Ġunc le","Ġrapid ly","Ġinvestig ation","Ġsh ared","Ġbott om","r ant","Ġw ond","Ġo ak","Ġsh all","Ġm ales","Ġh ired","Ġen l","Ġdis app","Ġwal ter","Ġto w","Ã ¸","Ġholly wood","Ġph ase","Ġmy ster","Ġtemper ature","Ġhigh light","Ġgu y","Ġcred its","Ġan s","Ġger mans","Ġgr am","Ġsol id","Ġmount ains","Ġevery thing","Ġintrodu ction","Ã¡ n","Ġfa ith","Ġlaun ch","Ġmiss ing","Ġrecogn ized","cl es","Ġ197 4","Ġpain ting","if ically","Ġdav is","Ġv ent","Ġjun ior","Ġbelie f","op her","Ġjour ney","Ġh art","Ġ197 3","b ound","Ġappo int","Ġ6 3","Ġhe ll","Ġget ting","Ġis ol","Ġ7 7","he im","Ġg ord","Ġfall s","i at","Ġsubst ant","Ġty ph","Ġprep ared","Ġ7 3","Ġsh ape","act ive","Ġcon ve","ess ed","Ġf olk","Ġrom e","Ġt ick","Ġfranch ise","il ton","en c","Ġk new","Ġser b","Ġth in","Ġopin ion","Ġc ens","Ġn az","Ġglob al","Ġam end","Ġ197 6","Ġsignificant ly","Ġproject s","Ġinterse ction","Ġex act","Ġaut h","Ġappro ved","Ġs ort","Ġl b","t ar","Ġliter ary","Ġadd ing","Ġarch ae","Ġpen ins","Ġhun g","Ġl as","f riend","e per","Ġknow ledge","Ġconf eder","Ġreason s","Ġw ings","w art","Ġwhe el","ograp hic","Ġunsu ccess","Ġra id","Ġs ab","is hes","olog ist","Ġchall enge","Ġplay off","onc Ã©","Ġw ard","if ul","ren ce","Ġmus l","Ġv ic","Ġsy d","em e","er ted","Ġview s","Ġst ages","Ġsettle ment","Ġcab in","ul ate","ach us","Ġpo em","Ġ25 0","Ġesc ort","Ġev olution","em an","Ġcr is","Ġoper ating","Ġstory line","ast y","Ġex erc","ock ed","Ġ6 7","Ġequ al","v a","un te","Ġsh ut","bre ak","Ġintern al","Ġren amed","ed s","l av","Ġex pect","Ġsc ul","Ġrep utation","Ġreb u","Ġbey oncÃ©","Ġsh aped","ir a","ad or","Ġwat ched","Ġnever thel","Ġemploy ed","Ġneverthel ess","Ġs ed","Ġpro ceed","Ġvol unte","Ġbab y","Ġall ies","i ents","Ġpopular ity","Ġaut om","Ġlim it","Ġf ine","Ġinj ured","Ġthir ty","Ġc ape","Ġsh ore","it an","Ġprofess or","Ġhum ans","Ġgu ide","Ġtri ple","Ġfem ales","Ġpain t","Ġb ull","Ġne ut","Ġbl ues","Ġincreasing ly","Ġc ited","Ġkent ucky","Ġhead ed","Ġne ither","hen s","a ver","Ġ194 6","Ġb ern","Ġmod els","Ġwe alth","Ġdecl ined","Ġ198 1","z en","Ġhill s","ap pe","Ġra f","Ġfind ing","Ġconn ected","ant ly","Ġcolle cted","Ġviol ence","Ġ8 2","Ġgr av","Ġdet ails","Ġj am","se e","ar m","ist an","Ġ9 6","Ġ6 8","Ġexist ence","Ġconver ted","Ġd iam","Ġlab our","Ġdep th","Ġsust ained","Ġenjoy ed","ĠâĪ Ĵ","in um","Ġcontrovers y","m od","Ġlear ned","Ġnor way","Ġent ry","ony m","Ġt orn","Ġcons um","Ġ191 7","ak a","Ġim pl","Ġvol can","Ġbr on","n ic","Ġmass achus","Ġolymp ics","re c","Ġo uter","Ġchampionship s","ce ived","Ġappl ied","b l","Ġmassachus etts","Ġsyn t","h r","Ġs ad","Ġv el","Ġa ri","if orm","Ġcr imin","ell a","Ġallow s","Ġcam era","ist ol","Ġinter p","Ġte acher","Ġ8 7","Ġp ear","Ġsw im","Ġway s","Ġocc as","Ġc ells","av a","Ġcl ark","Ġentr ance","Ġappro ached","Ġprem ier","Ġaw are","ap es","Ġar sen","Ġdec ade","Ġcarry ing","Ġeas ily","os is","rop ri","Ġdesign s","Ġtest s","Ġg ree","Ġ16 0","Ġrespond ed","Ġl oy","Ġconf ron","Ġm ine","Ġf oss","Ġdown lo","at ures","Ġg ang","Ġt s","Ġdiscover y","Ġn ic","Ġtechn ical","Ġ194 8","re l","Ġin du","Ġgr ay","Ġpit ch","Ġchair man","Ġbur ied","Ġdut y","Ġh ang","Ġext ension","ps ons","Ġ7 00","om y","Ġconv oy","Ġgrad ually","Ġsa x","Ġsuc ceeded","er al","Ġse ctions","im a","Ä ģ","Ġmay or","Ġspec ifically","Ġbreed ing","Ġh ull","Ġac res","Ġshow ing","Ġprogram s","Ġn as","Ġr aw","un a","Ġj ay","ign ment","Ġh ug","Ġbus h","Ġmun icip","Ġast ron","Ġs ons","Ġdo or","Ġm ode","Ġpri ze","Ġinst all","ain e","Ġstre t","Ġsim psons","Ġle v","t ical","at i","Ġ6 9","Ġit ems","Ġprison ers","Ġex clus","Ġ197 8","Å Ĥ","Ġarrang ed","Ġsh op","Ġn one","Ġcred ited","Ġg one","Ġgen re","Ġlege nd","w a","Ġadd ress","i ro","Ġsimilar ly","Ġviet nam","it ors","Ġu til","Ġ7 8","Ġstat ement","Ġte en","Ġweak ened","Ġse ems","Ġprodu cing","Ġwin ner","Ġaddition ally","Ġc ad","Ġimpro ve","Ġearl iest","Ġpart ies","Ġcry st","Ġland fall","Ġ9 1","Ġros s","c ome","Ġr ural","Ġwar ning","s s","Ġro utes","Ġpresident ial","p ut","Ġthreat ened","Ġpl ac","Ġdiv isions","Ġ191 5","Ġcandid ate","og en","Ġfield s","Ġengine er","Ġret ained","Ġsound s","Ġott oman","Ġin ner","ent ions","Ġcomb ination","Ġbe ar","Ġsyd ney","Ġad am","Ġlast ed","Ġmo ore","Ġprodu cts","Ġsp ok","Ġ197 7","Ġpol and","Ġbr ain","Ġinst ru","n ow","Ġm tv","Ġk im","Ġ9 4","i pe","Ġhe ar","Ġmary land","iss ance","ink ing","Ġsh a","Ġrepl ace","Ġsuppl ies","Ġon es","iv ered","on ia","Ġd ress","Ġchem ical","Ġadap ted","ct ors","m et","Ġinter ior","Ġev il","Ġo t","Ġanim ated","Ġdown town","Ġbas ic","Ġinte gr","el ess","Ġ8 1","Ġpenins ula","Ġafter wards","Ġfr ag","Ġk ur","ath an","Ġground s","Ġeng ines","Ġdel ivered","Ġinsp ir","Ġ9 8","Ġ196 3","Ġag ency","Ġc ul","m ath","Ġspe aking","Ġmag ic","Ġfill ed","Ġmaint ain","Ġmess age","Ġsurv iv","Ġrh odes","Ġcr ash","re ts","Ġcal c","Ġequ ival","Ġstop ped","ol i","Ġent itled","Ġperman ent","Ġaff airs","al y","Ġc ow","Ġ191 6","Ġsupp orters","Ġindic ated","Ġcle an","Ġsus p","Ġclim ate","Ġextrem ely","Ġw ides","Ġarchitect ure","iz ations","Ġengine ering","al i","m un","Ġdeath s","Ġso le","Ġcaus es","Ġaff ect","Ġdiam ond","Ġphil ipp","Ġb ath","us hing","Ġal ien","Ġbu ff","Ġgre g","Ġf ruit","Ġ7 1","Ġsec ure","Ġdru g","ap ped","Ġpropos al","Ġimport ance","Ġrest aur","Ġmar s","Ġreturn s","Ġgord on","Ġmul der","t ime","s p","Ġde leg","le e","Ġsp ons","Ġrat ings","ot hes","Ġtyph oon","os a","Ġkn ots","c ks","Ġt el","Ġstre ets","Ġphil ip","it t","Ġimp lement","Ġac id","Ġhar v","Ġ191 9","Ġcompos er","le ton","Ġ196 2","Ġc hes","em ies","Ġ8 9","Ġp ig","Ġk o","bo ok","Ġman s","Ġt anks","rop ol","ivers ary","Ġsurv ived","Ġcons c","Ġj ur","Ġclass ical","pect ive","Ġb ure","Ġsw it","Ġafter math","Ġir a","Ġdescrib ing","Ġcomp on","Ġrefer ences","Ġcol our","Ġwrit es","bour ne","Ġk at","Ġconv in","Ġgi ant","Ġl l","Ġpr int","cher s","Ġb os","Ġf ict","Ġma h","Ġclass ification","Ġb ought","Ġconcern s","Ġm es","Ġsong writ","Ġho ly","Ġal f","Ġim ages","ol es","ino is","Ġ eric","Ġv ul","Ġfl o","Ġ193 8","Ġrul ed","Ġa ck","Ġr ab","Ġsome one","Ġmed ie","Ġtyp ical","Ġent ering","Ġr ivers","Ġarm or","Ġenvironment al","el a","Ġ8 8","Ġj ane","Ġrem ember","Ġg y","ant e","Ġn a","Ġstud ied","Ġarrest ed","Ġdecl ine","Ġportray ed","ent ially","Ġcru iser","Ġvot ed","Ġpre ced","Ġret reat","m us","Ġunivers e","Ġredu ce","Ġs ale","Ġrec alled","Ġsh r","Ġsc ar","Ġele ven","Ġag o","Ġsie ge","Ġpurch ase","Ġcorpor ation","Ġscul pt","ans as","Ġqu ant","Ġact ual","Ġcap able","Ġmedie val","Ġfeel ing","c op","Ġb ang","Ġacad emic","z er","ak i","ad ow","Ġall iance","Ġown er","Ġobject s","Ġnomin ation","ly ing","Ġal an","Ġcolon ial","Ġliber al","Ġp av","Ġrecogn ition","Ġs essions","Ġdr iving","Ġob l","Ġsuff icient","Ġchap ter","Ġt ony","Ġequip ped","Ġn el","Ġk ong","Ġ13 0","Ġthous ands","Ġoff ers","Ġident ity","Ġhun ting","Ġfund s","Ġhistor ians","Ġpass age","Ġnot ing","Ġmar g","Ġ17 5","Ġcam er","Ġconcern ed","Ġconne ction","Ġann iversary","Ġfin als","Ġ195 6","Ġme ters","Ġb ry","Ġdec ades","Ġdeb ate","Ġcross ed","Ġconsist ing","Ġunder t","Ġad mitted","h us","Ġrecommend ed","Ġprin cess","Ġ7 9","Ġprogram me","Ġpl ate","Ġdet ect","Ġinterest ed","r ight","Ġth under","u ct","Ġinv ited","Ġdip l","Ġg am","in al","ell er","Ġinst alled","Ġdou gl","Ġs ight","Ġk er","Ġad ams","Ġbre aking","Ġconsider able","Ġarsen al","Ġp ound","Ġstart s","Ġunivers al","Ġh ou","Ġj ord","Ġa k","u an","Ġmon ument","Ġestablish ment","Ġcour ts","Ġd ates","Ġcol ony","Ġwar m","Ġdec or","Ġ193 6","Ġmar ia","Ġe at","ak ed","Ġsequ el","o ir","w ich","Ġham ilton","Ġb ou","Ġen emies","Ġsty les","i ques","ack s","Ġchar ged","Ġsim on","Ġdut ies","Ġimpro v","Ġremain der","rane an","Ġve ter","Ġparalle l","he as","p read","ok ed","Ġut c","Ġman ner","Ġtr uth","or a","Ġwides pread","Ġj ump","Ġal leg","Ġread y","Ġsh ield","Ġp ure","Ġ9 2","Ġshar p","Ġnegot i","Ġcommun ist","Ġ9 3","e b","Ġpromot e","Ġpict ures","el and","Ġsal t","Ġconserv ative","il ation","Ġnet her","Ġp ad","Ġ196 1","osaur us","Ġind ones","Ġth ro","Ġcontin uing","Ġb id","Ġ8 4","Ġslow ly","Ġde an","Ġmo le","Ġhe rit","ing ly","ig ation","Ġdepart ure","Ġbehav ior","Ġaspect s","Ġoccasion ally","Ġd iet","Ġclass es","Ġtrans ition","Ġn ba","Ġw we","Ġc os","Ġelect ronic","Ġanim ation","Ġl am","Ġ195 3","Ġarg ent","Ġbeaut iful","Ġresour ces","Ġrom antic","Ġhit ler","il ing","Ġdest ruction","Ġorchest ra","Ġhapp y","Ġrhy th","Ġr ug","Ġkenn edy","Ġwear ing","Ġpost ed","Ġemerg ency","Ġac claim","Ġsund ay","Ġtransport ation","Ġhow ard","Ġassist ance","Ġdisapp o","ak ers","Ġtre as","Ġswe et","Ġsen ator","Ġsuper ior","Ġindian a","Ġr ide","at ch","Ġcar bon","out s","Ġform al","Ġvess els","ion e","Ġle on","Ġocc urs","ak en","as hed","Ġacc ur","het ic","Ġnor we","Ġcert ified","Ġd ated","Ġinc ome","Ġb ot","Ġcred it","Ġmem ory","Ġpop ulations","Ġsc ully","Ġatt ached","Ġ194 7","Ġproper ties","Ġdem ol","Ġanc est","Ġchor us","Ġpass engers","be y","Ġ195 8","Ġconserv ation","Ġsh ots","Ġequival ent","aw are","Ġport ug","Ġmat hem","Ġchap el","Ġold est","Ġinvol ving","Ġtur k","reg on","ic ide","op hy","Ġ191 0","af ter","Ġcirc um","Ġtermin us","Ġ11 0","Ġ8 6","o ard","Ġtun nel","Ġack now","Ġherit age","Ġc ant","n o","Ġo regon","Ġadvent ure","Ġ195 7","Ġpri est","Ġexp and","Ġsett led","Ġcat ch","Ġr ig","Ġwin s","Ġry an","p ir","vel and","Ġobt ained","Ġp ink","Ġpo pe","Ġbomb ard","Ġsle ep","Ġ193 7","Ġjun ction","Ġf isher","Ġresc ue","Ġdyn asty","Ġcol umn","ic it","Ġacc used","Ġauth ors","Ġfin ishing","Ġwor st","Ġder ived","Ġchar ges","Ġnin th","ag ues","Ġincorpor ated","iv als","Ġreview ers","Ġfavor ite","Ġdougl as","Ġcirc uit","r us","Ġreplac ement","Ġe u","Ġpred e","Ġcris is","Ġcle veland","heas tern","Ġill inois","Ġcommit ted","Ġmiss ions","Ġhost ed","he red","Ġpre y","Ġsw ord","Ġmov es","Ġ <","Ġbel t","Ġseg ment","w an","et ime","Ġreb ell","Ġbring ing","Ġvehic le","b ar","Ġshe ar","Ġgr ass","Ġsupp osed","Ġaud io","Ġand y","Ġl enn","are t","Ġass umed","Ġmed iter","Ġden ied","Ġ195 9","Ġwee ke","Ġstan ley","in ary","ĠâĢ Ŀ","Ġinterp ret","w estern","Ġcirc ulation","Ġroom s","Ġclub s","Ġrec re","Ġrepresent atives","Ġjord an","o es","Ġunus ual","Ġun p","Ġd ens","Ġthe ater","Ġfict ional","Ġmediter ranean","Ġmusic ians","Ġcommand ed","j i","Ġstrong ly","Ġro ger","Ġke vin","Ġsee ing","Ġbeat les","el ine","agon ist","Ġout standing","Ġbeg un","Ġinter cept","Ġdep ut","Ġmex ican","Ġcomplet ion","Ġcon te","Ġsurv iving","Ġbru ce","Ġcharacter istics","r an","Ġde em","Ġ195 5","Ġbr istol","Ġmaterial s","Ġr if","Ġ195 4","Ġreal ity","Ġsol ar","ĠâĢ ľ","Ġcat hed","Ġg ust","Ġis bn","Ġnorwe gian","Ġalle ged","ic ian","Ġpers u","Ġatt or","Ġmon arch","Ġcost s","o oth","Ġm ol","Ġwick ets","Ġexcept ion","Ġdes cend","Ġl anc","Ġt ied","Ġposs ibility","Ġmethod s","Ġs ailed","Ġw et","Ġrespons ibility","bor ne","wor ks","Ġh az","Ġrecon st","Ġb ah","Ġv ision","Ġpra ise","Ġpass enger","Ġevery one","Ġcan cer","Ġdr iven","Ġfor d","Ġag gress","le ts","st ate","Ġoppos ite","am i","Ġdiffer ences","ag er","Ġer u","Ġcar rier","Ġrepresent ative","Ġmiss ed","Ġint ention","Ġatmosp here","Ġsche me","Ġhabit at","Ġlis a","Ġkore a","Ġbu y","u v","we ight","Ġthere after","Ġdes ire","Ġv oy","Ġv ary","c on","ĠÃ Ĺ","Ġrecover ed","Ġother wise","Ġmass ive","ch ar","Ġor ange","or gan","ar ian","Ġthr one","ont o","Ġfund ing","Ġwr ong","Ġplat inum","Ġn ich","b urn","Ġdr agon","Ġstrateg y","Ġattrib uted","Ġrein force","it able","Ġwar ri","Ġph ill","Ġserv es","uc ks","erg ed","Ġs ke","Ġstay ed","Ġsh if","Ġtw in","Ġdis appe","Ġ8 3","Ġemerg ed","Ġretire ment","Ġeffect ively","Ġcommun ities","Ġclass ified","Ġ195 2","Ġmor ris","Ġl un","Ġpun k","Ġout break","Ġtown ship","Ġ ille","Ġmin istry","Ġc eme","Ġad ults","Ġweap on","al f","Ġab oard","Ġrob inson","Ġin se","Ġaccom mod","Ġmor gan","els h","Ġmob ile","Ġregular ly","e z","Ġcross es","Ġnorm an","Ġdiss ip","b ell","re ll","az a","Ġdocument ary","Ġele ctions","Ġnel son","Ġto ll","Ġacc ounts","Ġpart n","Ġpremi ere","Ġl ies","Ġhaw ai","ri ers","Ġunder ground","Ġfall ing","Ġstrengt hen","Ġ193 3","Ġcirc le","Ġwond er","Ġple as","Ġste ad","Ġattr acted","Ġc rop","Ġne ck","Ġch a","Ġinspir ation","Ġst ood","ism s","Ġsubmar ine","Ġp ir","Ġform ing","Ġtri als","Ġsat isf","Ġ17 6","ens es","os lav","Ġang le","Ġfact or","Ġr aces","Ġrac ing","Ġcrimin al","Ġpre t","Ġcl a","Ġpar ks","Ġmov ements","Ġl ith","Ġcomm em","Ġre new","Ġj enn","so le","Ġadv is","ret t","Ġly n","Ġinj uries","Ġvot es","Ġbattleship s","pp ing","Ġbatt ing","Ġimm ig","Ġs id","Ġan ton","Ġp ull","Ġd or","Ġneed s","an th","Ġra ise","Ġm ck","ab led","ok ing","Ġ193 5","Ġcondu ct","Ġsepar ated","Ġswed en","2 0","Ġpat rick","Ġrel ative","Ġall en","Ġgar rison","Ġprede cess","Ġch ain","Ġphot ograph","Ġsud den","Ġw y","Ġ194 9","Ġrec ru","Ġsh ark","Ġpubl isher","Ġ195 1","Ġw elsh","Ġear n","Ġp ale","Ġb ag","id den","Ġtem porary","Ġn om","Ġque ens","ut s","Ġrem n","Ġpl ane","Ġdes ert","Ġsym ph","Ġfl ank","Ġdifficult y","a ug","Ġor b","Ġdistingu ished","Ġe ch","Ġpart ner","b ing","Ġseem ed","Ġport s","Ġrequest ed","Ġdelay ed","Ġhe m","te enth","Ġus s","Ġbar r","Ġtor onto","Ġfac ility","Ġs oph","Ġdep ict","Ġrest ored","Ġsurround ed","Ġeld er","Ġg ets","Ġstand ards","Ġmatt hew","Ġegg s","Ã³ n","Ġat om","Ġsc r","og y","Ġcur t","Ġbyzant ine","com ing","Ġhop ed","im ate","Ġo m","Ġhar m","Ġclaim ing","Ġelse where","Ġbrid ges","Ġnether lands","Ġse nd","Ġsh ir","Ġchild hood","Ġh in","Ġmet ropol","Ġt u","Ġpen alty","Ġconve ction","Ġam az","Ġreview er","ab il","Ġmur d","r ad","oy d","Ġtemper atures","or al","Ġfr ame","Ġintern et","Ġme ets","Ġal i","Ġstand s","Ġr ud","Ġconvin ced","Ġk iss","Ġag es","Ġexam ples","Ġ ere","Ġira q","Ġgreat ly","Ġmoder ate","Ġjew s","Ġcathed ral","Ġloc k","Ġpubl ishing","Ġjac ob","Ġw olf","r ations","Ġj azz","Ġdang erous","Ġinvol vement","Ġcy cle","Ġpain ted","Ġapp ropri","Ġeas y","Ġt ub","Ġy e","Ġr ick","y ard","Ġwood en","Ġaccom pl","Ġdr ag","Ġr it","Ġal co","Ġ19 00","o z","Ġadapt ation","Ġsat ell","Ġwr ight","Ġhundred s","Ġsp oke","Ġtri es","Ġattr act","Ġlear n","ile y","Ġimmedi ate","Ġfl ed","Ġrecord ings","Ġa h","Ġar n","Ġany one","Ġsum m","Ġexc ell","p son","Ġle af","Ġpar ish","ert o","Ġtechn iques","Ġche ck","Ġstri p","Ġd od","Ġbure au","Ġco in","Ġsal v","w ar","im et","Ġappear ing","Ġlear ning","wh at","Ġsynt hes","ut her","b ro","Ġass ass","Ġencour aged","re ck","om ot","Ġsome what","ber ts","Ġsuff ering","Ġch ur","Ġarm en","Ġsaf e","Ġdis pl","Ġmeas ures","Ġpro hib","Ġ ip","Ġcroat ian","Ġpoet ry","Ġgraph ics","Ġins ur","Ġve get","ag ement","Ġpat ri","Ġruss ell","b ra","Ġp el","Ġlegisl ation","Ġbe ars","Ġdeterm ine","Ġjournal ist","Ġdismiss ed","Ġhor ror","Ġthom pson","Ġus a","Ġt an","se x","Ġd ating","Ġh ub","go ing","Ġis lam","Ġfl ash","Ġinterest s","Ġens ure","Ġfac ing","Ġh ud","Ġhe nd","Ġp ak","form ula","Ġwhere as","Ġattempt ing","Ġmar gin","Ġnick n","Ġf u","Ġg or","Ġabs or","Ġup d","Ġkel ly","Ġfigh ters","iv a","Ġ0 6","Ġbu ck","Ġn fl","Ġfit ted","Ġcar ter","Ġk l","Ġhold s","ag re","Ġcommon we","Ġthous and","Ġt ip","ig g","Ġtro phy","Ġstar red","Ġpu erto","b ody","Ġby pass","Ġattack ing","Ġdep os","Ġformer ly","Ġg ent","Ġsc rap","Ġvis ible","Ġcommonwe alth","el d","Ġquest ions","Ġclos er","Ġextre me","Ġcon clusion","Ġbig gest","enc ies","Ġspe ars","i ant","Ġb ats","Ġmet e","app ing","Ġabs ence","itz er","Ġw es","igh ter","Ã ±","Ġprodu ctions","Ġhun garian","Ġinflu ences","Ġmod ified","Ġn iel","f e","Ġpro sec","Ġrep rodu","Ġdeem ed","Ġhon our","re al","Ġbat man","Ġcl oth","Ġinstr uments","Ġl ion","Ġover se","Ġdipl om","Ġ191 3","Ġpremi ered","Ġapparent ly","n ight","Ġpark er","Ġcontrovers ial","Ġbron ze","it o","Ġland ed","Ġland sc","Ġlabor atory","al o","Ġsc and","Ġnov els","Ġhar ris","Ġhar bor","Ġnar rative","á »","Ġmur ray","Ġlong est","Ġdistrib uted","Ġd re","Ġg ather","Ġ192 7","Ġterrit ories","re te","Ġlead s","Ġloc omot","Ġoper ate","Ġ192 6","Ġgall ery","il a","Ġrest oration","Ġfil es","Ġunder stand","ame ter","Ġvict ims","Ġal ph","Ġattor ney","Ġarrang ement","Ġtr ained","Ġjo y","Ġdisc ip","Ġla ure","Ġcreat ive","Ġacknow led","ch ang","Ġrhyth m","iv an","Ġ193 4","Ġ192 1","Ġclou d","Ġvisit ors","Ġst or","Ġun iform","Ġmain stream","Ġunsuccess ful","Ġm amm","Ġweeke nd","Ġsubst it","v is","Ġrele ases","Ġconc ur","Ġref uge","Ġs or","Ġse es","Ġrepresent ing","ow a","Ġbelie ves","Ġdyn am","Ġd na","Ġk w","Ġex cess","Ġdep icted","Ġinflu ential","Ġber lin","Ġres olution","Ġown ers","Ġco ins","Ġli qu","Ġbas in","ent ional","ag u","ic i","Ġex it","Ġlook ed","Ġdomin ated","Ġ0 8","ap ers","Ġ9 00","han na","Ġhou ston","Ġra af","d d","aw s","Ġy an","Ġsec ured","Ġchur ches","ix on","Ġvide os","Ä į","Ġsant a","Ġw ol","el er","t z","che n","Ġw ag","Ġfin n","Ġnot ably","ro it","Ġy ug","Ġinform ed","Ġcom ics","Ġ191 2","Ġexp os","Ġcast ing","Ġwat ching","Ġleg s","ill ing","p any","Ġre un","Ġdr iver","Ġgi ants","Ġl od","Ġind ians","Ġoffic es","us ing","ay a","Ġceme tery","t ure","Ġro berts","Ġswed ish","Ġdeploy ed","Ġh ut","Ġlangu ages","at ically","Ġimp oss","Ġguard ian","Ġsimp son","Ġter ror","Ġrelationship s","Ġbehav i","ost er","ult ane","Ġ193 2","Ġt one","Ġd ick","Ġsim ultane","Ġrese ar","Ġneigh bour","Ġhous ing","ill ed","e enth","v ens","Ġd ies","as ka","Ġh u","Ġâ Ĥ","Ġhe aring","Ġdev ice","Ġtest ing","ac ent","Ġt ie","Ġoppon ents","Ġsk ills","Ġcabin et","Ġmete or","Ġdi agn","Ġc ov","ic ation","Ġk ne","Ġachie ve","Ġpre gn","Ġb h","ap se","Ġwar ner","Ġoper ational","Ġab d","Ġc ock","Ġinc om","Ġdet ail","Ġs ang","Ġdrum s","Ġfred er","Ġimp ressed","Ġgener ated","ruct ure","Ġint ense","Ġemot ional","Ġj ason","Ġ0 9","Ġl iz","Ġfact ors","Ġreported ly","Ġmain ten","r ig","Ġdial ogue","l i","Ġag ents","Ġhapp ened","Ġa u","Ġb apt","Ġmainten ance","tern al","Ġwind ow","Ġdownlo ad","Ġcommem or","f are","Ġa y","Ġre nder","ious ly","Ġn bc","Ġyug oslav","Ġform at","Ġsuccess or","Ġagricult ural","Ġanth ony","Ġfir ing","Ġfoot age","Ġemploy ees","Ġexper iences","Ġm ud","Ġsat ur","Ġsom ers","Ġab bey","art s","Ġtre k","ol ph","Ġcl ay","Ġr ising","oty pe","Ġg aga","Ġdet roit","t w","Ġf ishing","ud es","c i","Ġcroat ia","Ġl ose","m ate","Ġsu re","Ġte eth","Ġdefend ed","Ġnegoti ations","Ġc u","Ġlow est","Ġscient ists","Ġb un","ac he","f ire","Ġz ero","Ġra j","Ġrevolution ary","Ġ192 9","Ġst em","i h","ic ial","Ġexec uted","Ġbel g","Ġar k","Ġk u","Ġ191 1","Ġc od","Ġf ried","Ġmed ium","Ġdiscuss ed","Ġcolle ct","Ġgil bert","ct ic","Ġperson ality","Ġfe ud","Ġ14 0","Ġnorm ally","Ġrec ur","Ġtre ated","Ġse as","ig en","n oon","ain ts","Ġs ic","Ġent ers","Ġport ra","ann y","Ġtrib ute","Ġas ian","Ġafter noon","Ġinter state","Ġt enth","Ġsym pt","Ġste wart","Ġlo b","Ġrad ar","Ġd j","Ġres ign","Ġ193 1","Ġdraw ing","Ġ192 2","Ġclin ton","Ġresident ial","ach ment","Ġcar ib","Ġmel bourne","ont in","Ġstorm s","3 0","Ġfle w","Ġjes us","Ġres igned","Ġaccom pany","Ġgood s","Ġc her","Ġdiffer ence","Ġvess el","Ġadv oc","Ġdet ailed","ili ar","Ġeth nic","Ġinh abit","Ġtorn ado","Ġb reat","Ġbo il","o is","Ġorigin s","Ġag ed","Ġev ans","Ġform ally","Ġpo inted","Ġbud d","Ġniel sen","Ġpartn ership","Ġtechn ique","Ġmilit ia","Ġreve als","Ġprevent ed","Ġsy nd","Ġinn ov","Ġprefer red","Ġlo op","Ġgl ac","Ġx box","p et","Ġp ushed","Ġst able","Ġdirect ors","Ġtem por","Ġh uge","o en","Ġkeep ing","Ġfor b","Ġarr iving","Ġannoun ce","Ġapp rec","Ġexp osed","Ġ0 5","ar f","Ġorgan izations","Ġisol ated","Ġinstit ution","Ġneighbor hood","Ġs isters","or ous","Ġatl ant","n i","Ġsubstant ial","Ġdist urb","s k","Ġpart ly","Ġhand ed","Ġsev ent","Ġmet ro","Ġmom ents","Ġfor ty","Ġmusl im","Ġmarsh all","Ġlink ed","Ġfound er","Ġsam uel","ot es","Ġturk ish","in er","Ġox y","Ġp hen","l ie","Ġimp rison","Ġent hus","Ġsar ah","Ġdepart ed","Ġanal y","Ġm ack","Ġh ans","re es","Ġher ald","Ġcontin ental","Ġdesign er","Ġfact ory","ver e","Ġaust ria","Ġcomp lic","m ad","Ġcorre ct","ro se","Ġcolor ado","Ġsus pend","Ġlenn on","Ġex isted","Ġass ess","Ġfrequ ent","Ġp ione","Ġman h","Ġme g","Ġfif teen","Ġdram atic","Ġgree ce","Ġimposs ible","olog ists","Ġperiod s","be an","Ġrank ing","Ġinstrument al","Ġb enn","Ġpro ced","Ġav o","Ġext ent","Ġwed ding","Ġmor al","Ġoccup ation","Ġbal tim","Ġparticip ate","Ġconcer ts","Ġcat al","s a","ģ Ħ","Ġsym p","Ġinst ance","Ġ17 0","Ġpat rol","Ġin her","Ġlo ad","Ġbaltim ore","Ġsh ock","rom e","im b","ol is","Ġsee king","Ġinit i","m at","le v","ust ed","Ġarm ament","Ġcru isers","Ġschol ar","ind er","Ġapp le","Ġant icip","st ic","Ġal ter","Ġmal ays","Ġdeput y","Ġspec imens","Ġgr ace","Ġm ail","Ġtr u","Ġt aught","Ġtur b","ull ivan","Ġa qu","Ġhel ic","Ġver se","Ġfin ale","Ġgh ost","ly n","Ġsee k","mus ic","Ġimp ress","Ġf ab","d ie","Ġ ern","Ġman us","Ġhun t","Ġrare ly","Ġg ates","Ġse m","Ġrep air","Ġsm ooth","Ġamend ment","Ġnewsp apers","Ġcreat or","Ġfriend ly","Ġspe nding","Ġd ave","f r","ar n","Ġupgr aded","Ġal ab","Ġmetropol itan","Ġgen e","Ġobs er","Ġdi ameter","Ġdoes n","Ġwithd rew","Ġd ir","Ġrel ie","g ate","Ġare na","Ġabs ol","Ġprec ip","Ġch ase","co pe","m al","Ġp ip","Ġdiv or","Ġ192 8","Ġst ro","Ġpo ison","id ae","Ġtim ber","Ġlist en","Ġn ag","Ġunc ertain","Ġexhib ition","Ġco vers","Ġpick ed","Ġencoun tered","iam i","Ġmathem at","Ġfreder ick","Ġper mission","r as","Ġp ounds","ill er","Ġjo ining","Ġle ct","ob i","Ġch anc","Ġb oss","um in","Ġref ere","b oy","ic ians","Ġcoll aps","Ġdifficult ies","Ġpolic ies","Ġr ates","Ġchang ing","Ġsched ule","Ġmar io","Ġsk ull","Ġsomers et","Ġpl us","Ġlegisl ature","Ġg ab","Ġcons ult","Ġ192 5","Ġin aug","Ġmiss iss","Ġmult i","Ġan na","Ġsu icide","Ġc ous","Ġpart ially","se a","Ġ189 0","Ġin qu","bor ough","Ġan ch","Ġrest rict","Ġtur rets","Ġmerch ant","s ki","Ġadv ice","ĠÃ ¦","Ġs ank","an ium","Ġang lo","Ġfeder ation","Ġover s","Ġbomb ers","Ġathlet ic","Ġm iami","ar ia","che ll","Ġse ed","Ġr ic","Ġpil ots","Ġlo an","Ġdis aster","Ġfr an","Ġrest ric","Ġadj acent","Ġtravel ed","Ġse ctor","Ġref ers","Ġg ap","Ġse attle","Ġcom ments","c ol","Ġmin es","Ġ192 4","Ġrebell ion","Ġbenef it","ol as","Ġag ree","Ġaff air","Ġw aves","Ġd al","Ġpre f","Ġexpl o","Ġsold ier","Ġphilos ophy","Ġse ats","Ġgard ens","Ġpl ain","Ġsign s","Ã© e","Ġpro port","Ġk al","Ġmar ry","Ġwor ship","ames e","Ġpit ched","Ġminim um","Ġ ian","Ġ0 7","Ġsh akes","Ġcritic ised","Ġeag le","Ġi owa","Ġme at","Ġmunicip al","Ġph r","Ġco ordin","t i","Ġs i","Ġbas es","Ġalab ama","Ġso il","Ġnap ole","es is","st ers","Ġaustral ians","Ġdestroy ers","i ot","Ġprom pted","Ġcompet e","Ġstrugg le","Ġmin t","Ġrem ove","ger y","Ġmiss ou","Ġrep r","Ġp c","Ġsur prise","Ġsw ift","Ġd anc","Ġover l","us al","Ġindic ate","Ġwh il","att an","Ġhelic op","Ġcoll apse","Ġ ion","Ġr av","p ower","in ction","Ġcommunic ation","Ġneut ral","Ġcarib bean","ust er","Ġmedic ine","Ġcharl ie","Ġspirit ual","Ġmanus cript","Ġfor cing","Ġlaw rence","Ġcap it","Ġdesign ation","Ġstr ing","Ġhal o","Ġinde ed","Ġgro wn","Ġmin nes","Ġsatell ite","Ġbro s","Ġarm ored","Ġ192 3","Ġparen t","Ġbl ow","Ġenter prise","en h","Ġpow ered","p ie","Ġwalk er","atter ed","Ġg at","Ġcop y","Ġteach ing","Ġpaint ings","Ġwhil st","g i","Ġstre am","Ġcollabor ation","is d","Ġu m","n ings","Ġc iting","Ġsurviv ors","Ġrestaur ant","Ġyan ke","Ġval ues","Ġelect ron","Ġprot agonist","g as","Ġw reck","Ġfif ty","Ġk han","Ġmarket ing","Ġy or","Ġbr anc","Ġposs ession","Ġcover ing","Ġappoint ment","Ġhar bour","m ont","Ġdescrib e","Ġround s","Ġappro val","es h","Ġprov inc","Ġencoun ter","Ġnaz i","ore n","Ġcandid ates","Ġtrav elled","asc ar","Ġdepend ing","Ġj en","Ġman e","Ġform ula","ik a","Ġpret ty","m ates","r um","Ġchar ter","Ġunder standing","Ġab b","Ġpo ems","Ġbal ance","Ġfort ress","Ġrec onna","Ġdisp ute","Ġbr ill","Ġhung ary","Ġp ine","Ġor bit","Ġoxy gen","Ġvict ories","Ġben j","ime ter","Ġcy l","Ġdoll ars","m o","Ġm all","Ġprom pt","Ġlist ing","Ġsit uated","Ġbow ling","Ġdisplay ed","Ġp ic","Ġbattal ions","Ġvill ages","Ġartic les","Ġminim al","Ġd im","cept ion","Ġpo le","Ġchrist opher","ic ate","l an","Ġsurv ive","Ġviol ent","Ġw ake","Ġf el","Ġbelg ium","Ġh amp","Ġrug by","Ġlegisl ative","Ġreconna issance","Ġearth qu","Ġc ot","Ġal ive","Ġser ial","Ġo ption","Ġd ock","Ġfem in","Ġass isted","Ġclos ing","Ġt elling","Ġdeg rees","Ġplayoff s","Ġ0 1","Ġpublic ations","Ġn am","Ġcar go","Ġforest s","Ġdie go","Ġpro l","Ġdif f","Ġsoft ware","Ġd ancing","Ġinter pre","Ġamong st","Ġfun eral","Ġhelp ing","Ġgu il","Ġsympt oms","Ġmar ks","Ġcolon ies","Ġshakes pe","Ġelimin ated","Ġtom b","Ġact ed","Ġj ar","Ġas ks","od ore","Ġbr un","Ġmon ster","Ġsug ar","Ġrid ers","Ġsk i","Ġadminist rative","n ie","Ġ *","Ġn ad","Ġpurp oses","ph one","Ġdr ivers","Ġalf red","Ġdis l","an na","Ġm ys","Ġ190 8","vel t","Ġmic hel","Ġcircum st","Ġpr on","Ġrep airs","Ġ190 5","Ġcomp ilation","Ġsim pl","Ġtrou ble","Ġoccas ions","Ġfat al","Ġmississ ipp","Ġ190 9","Ġbenj amin","Ġm ason","Ġro ose","Ġbl ind","Ġconc rete","ort ed","Ġj ok","Ġstat ue","Ã §","Ġh ong","Ġro ut","Ġalco hol","Ġin land","Ġminnes ota","Ġviet n","Ġcr us","Ġvietn amese","Ġl ists","Ġinter act","Ġattend ance","Ġcann on","at us","Ġpres erved","Ġprepar ation","Ġan ime","Ġpublic ly","Ġhor iz","Ġgram my","Ġcon sole","Ġbusiness es","ru pted","in als","Ġm ental","Ġste vens","Ġmanh attan","Ġpo ol","le man","Ġab ilities","Ġvo iced","Ġt ang","Ġs ick","Ġorgan isation","Ġcommunic ations","Ġ10 5","Ġwid er","n g","Ġp ant","Ġdefe ating","Ġill ness","Ġ12 5","Ġhighway s","f ted","Ġr amp","Ġarg ument","for ced","ograph ical","Ġfrank lin","um an","e ing","Ġto uring","Ġ0 4","Ġel abor","j an","Ġsign al","Ġam mun","Ġj et","Ġres umed","Ġroose velt","Ġk ansas","Ġv s","ud a","Ġres idence","Ġ190 7","Ġpre l","Ġcompet ed","Ġbelie ving","Ġintens ified","iv ated","ag en","Ġs as","Ġsur ge","ather ine","Ġammun ition","Ġal ignment","op es","Ġcrew s","Ġco ff","Ġarch b","Ġexc av","Ġthink ing","Ġ16 4","Ġflight s","Ġdoll ar","Ġcount ies","Ġair borne","Ġback ing","Ġport land","Ġfall en","Ġoppon ent","Ġstrateg ic","oun ced","Ġunder st","Ġdoc uments","ac le","ish ment","Ġsign ing","Ġsubject s","Ġr ib","Ġn it","Ġn ash","Ġdel iber","Ġam ate","i able","Ġin g","Ġus d","Ġass ists","Ġwalk ing","Ġfriend ship","Ġwill ing","Ġaud iences","d in","Ġaltern ate","Ġus ual","Ġcerem on","Ġbi ographer","Ġphilipp ines","Ġsuit able","Ġs ib","Ġgen etic","Ġinterest ing","Ġst u","or ph","Ġdoub t","Ġengine ers","Ġr ush","Ġno ble","Ġatom ic","Ġmississipp i","Ġ188 0","ens ions","Ġfeel ings","Ġab ol","Ġsp ar","Ġrad ical","Ġsatur day","Ġ16 5","Ġch and","Ġwar ren","Ġloy al","Ġprovinc ial","Ġpe ters","Ġgu ards","Ġtrib es","Ġd c","Ġunder w","Ġsub mitted","Ġpercent age","Ġcomple ting","Ġwa iting","Ġwood s","à ¤","Ġown ership","Ġexplos ion","Ġco b","Ġfun ctions","Ġadop t","Ġbeh alf","Ġt ab","it ated","Ġchar ity","Ġalex and","don ald","Ġas king","Ġaut obi","iven ess","Ġho ok","ut or","Ġp or","Ġdis ord","Ġt ast","Ġs ullivan","Ġr ip","Ġv inc","Ġgu er","Ġpol ar","Ġtenn es","Ġret ail","Ġart istic","Ġcamp bell","Ġshakespe are","Ġev olved","Ġst ick","od s","Ġhin du","d ale","Ġcinem a","Ġchronic le","Ġle x","Ġfr ust","Ġtarget s","Ġfal se","Ġrev enue","Ġw ire","if er","Ġste ven","Ġob v","Ġqu ad","Ġt ed","Ġfr ig","Ġche st","Ġrem ark","Ġregister ed","Ġbirth day","Ġastron om","c ular","Ġl akes","onym ous","Ġsuspend ed","Ġc ass","Ġr ice","Ġcart oon","ad er","Ġho le","s es","Ġg oth","Ġne p","Ġfavor able","Ġd imens","Ġmov ies","ig e","Ġrel uct","Ġj osh","Ġk in","Ġcivil ian","Ġluc as","ã ģ","Ġbeaut y","Ġpoor ly","Ġbor ough","ic ts","Ġprov ision","Ġhead ing","Ġguil ty","1 0","Ġp ok","f ather","pec ies","Ġegypt ian","Ä ĥ","Ġreplac ing","Ġh ob","Ġfor th","est on","Ġcom fort","Ġli ked","Ġp ace","Ġp up","Ġmus h","ot o","Ġrec ip","Ġcl iff","Ġarm ies","Ġarm our","Ġide al","Ġ187 0","Ġshell s","Ġaim ed","Ġqu iet","Ġoff ering","Ġsol ution","Ġmeas ured","ine a","Ġmissou ri","Ġtennes see","Ġbound ary","Ġj os","Ġeng agement","Ġclear ly","Ġpros pect","Ġacc eler","Ġret rie","Ġlouis iana","Ġmarg aret","Ġro cks","Ġ190 6","in ations","Ġexp ensive","s ky","Ġtempor arily","p es","Ë Ī","Ġpal est","l ah","Ġrecogn ised","Ġ36 0","Ġmont real","Ġsimultane ously","Ġship ping","Ġ190 4","Ġg ear","Ġfil ed","Ġes p","ze ch","Ġvul ner","Ġsequ ences","u able","Ġbehavi our","Ġb rick","Ġav iation","Ġsub t","Ġremn ants","Ġbut ter","Ġgr an","Ġb illy","Ġrepres ents","Ġgal ax","Ġstor age","Ġbl ocks","Ġagricult ure","Ġc raw","Ġmon aster","c rib","Ġw ore","c el","Ġcons pir","Ġread ers","Ġess ential","Ġconte xt","Ġf ra","wn ed","Ġw ants","Ġsav ed","Ġto x","Ġcover age","Ġst ores","o h","Ġmit chell","Ġer r","Ġtal ent","Ġam ph","Ġsk et","Ġcompar ison","Ġco inc","Ġmin ing","Ġpattern s","i ac","Ġc zech","Ġcanc elled","Ġpar s","Ġph one","Ġph oen","Ġkir k","Ġprop ag","Ġas ide","Ġsur gery","Ġt ight","Ġ0 3","Ġpers pective","Ġsuggest ing","Ġinstit utions","Ġoverse as","Ġc oc","ri x","Ġcontin u","Ġf aster","Ġspot ted","Ġ il","Ġthir teen","Ġfam iliar","Ġgra ham","Ġmat ters","Ġrefle cted","Ġmane u","Ġwas n","Ġpract ices","Ġcontrib utions","Ġrebu ilt","Ġnot ice","Ġb are","Ġf urn","Ġprote in","iss ions","Ġdog s","Ġless er","yl an","Ġfast est","m n","l ife","Ġthe r","or i","Ġcar n","Ġhun ter","Ġglob e","Ġfurther more","Ġpred omin","Ġsh adow","Ġdestroy er","Ġpul led","Ġver tical","Ġapplic ation","n et","Ġarchb ishop","r ator","Ġr anks","Ġcryst al","Ġesc aped","r im","Ġro ots","Ġflag ship","Ġbad ly","Ġari z","Ġol iv","Ġdru gs","Ġst rict","Ġsum mit","Ġsubs pecies","y on","st orm","Ġfor g","un es","Ġam ounts","Ġjo bs","Ġs ult","c ar","Ġlack ed","Ġcub a","r ants","Ġs q","Ġdro ve","Ġc ave","Ġex clud","Ġall music","Ġdec ides","Ġint elle","Ġsl aves","Ġpan el","Ġbom bs","Ġem pt","Ġconfeder ate","Ġo sc","Ġarg ues","Ġwick et","Ġintelle ct","th a","Ġbul k","Ġto ky","Ġun ex","Ġsub ur","Ġport ions","Ġtri ang","vere ign","ks hire","Ġind ies","Ġso vereign","Ġaut umn","Ġcontrol s","os ing","art ney","Ġexp ression","Ġsquad rons","Ġquarter back","Ġm l","Ġsp ider","Ġsever ely","Ġinhabit ants","Ġear ning","Ġstri king","Ġbi ography","ur ally","Ġpr inted","Ġstar ring","Ġt ort","Ġdistinct ive","Ġtam il","Ġwar ship","Ġcre st","Ġto y","Ġcond em","Ġamb ass","Ġt ack","Ġmain land","Ġpers ian","Ġguitar ist","Ġs ony","Ġfer ry","Ġobserv ations","Ġst ern","Ġariz ona","Ġf o","Ġch ick","Ġcor on","Ġgod d","Ġbon us","Ġrestric ted","Ġt ale","Ġw ish","Ġmar ie","Ġcharacter ized","Ã º","Ġor th","Ġv ast","Ġconstitution al","Ġst ere","Ġplan ets","l ings","ur er","Ġexcell ent","Ġ11 5","Ġrang ing","Ġcl ock","Ġliber ty","Ġb ald","Ġd ylan","Ġvis iting","i y","Ġspe nd","iet ies","Ġcommand ing","Ġsit ting","Ġfl ower","c ru","Ġj ury","Ġrev ival","Ġphen om","Ġdefin ition","Ġpear l","ro g","Ġn ik","Ġfix ed","Ġcur ren","Ġm ik","Ġr ings","Ġwil hel","Ġwa it","Ġv ib","Ġpl ut","ath y","id ency","Ġmeet ings","Ġl t","Ġnomin ations","Ġt iss","Ġw ine","Ġhol iday","Ġth rew","Ġexpl ain","Ġexpl ains","Ġbomb ing","Ġathlet es","Ġultim ate","Ġs ig","Ġdomin ant","ol id","Ġcar riers","Ġstat istics","Ġdemonstr ated","Ġamate ur","Ġac ou","f ish","Ġok lah","Ġille gal","Ġt ig","Ġb one","Ġarr ive","Ġbroad way","e qu","Ġd y","og a","Ġdang er","Ġmultip l","Ġeduc ational","Ġparliament ary","un ction","Ġart ific","r act","Ġp ill","Ġaust rian","Ġmar vel","Ġfound ing","Ġmet all","v o","Ġh idden","Ġy ield","Ġmr s","Ġma ur","Ġsw itzer","Ġtick et","ow ed","Ġd ust","Ġfore cast","Ġro ok"]}}