{"version":"1.0","truncation":null,"padding":null,"added_tokens":[{"id":0,"special":true,"content":"[PAD]","single_word":false,"lstrip":false,"rstrip":false,"normalized":false},{"id":1,"special":true,"content":"[CLS]","single_word":false,"lstrip":false,"rstrip":false,"normalized":false},{"id":2,"special":true,"content":"[SEP]","single_word":false,"lstrip":false,"rstrip":false,"normalized":false},{"id":3,"special":true,"content":"[EOS]","single_word":false,"lstrip":false,"rstrip":false,"normalized":false},{"id":4,"special":true,"content":"[UNK]","single_word":false,"lstrip":false,"rstrip":false,"normalized":false},{"id":5,"special":true,"content":"[MASK]","single_word":false,"lstrip":false,"rstrip":false,"normalized":false}],"normalizer":{"type":"Sequence","normalizers":[{"type":"NFKD"},{"type":"Lowercase"}]},"pre_tokenizer":{"type":"Sequence","pretokenizers":[{"type":"Whitespace"},{"type":"Digits","individual_digits":false}]},"post_processor":{"type":"TemplateProcessing","single":[{"SpecialToken":{"id":"[CLS]","type_id":0}},{"Sequence":{"id":"A","type_id":0}},{"SpecialToken":{"id":"[EOS]","type_id":0}}],"pair":[{"SpecialToken":{"id":"[CLS]","type_id":0}},{"Sequence":{"id":"A","type_id":0}},{"SpecialToken":{"id":"[SEP]","type_id":0}},{"Sequence":{"id":"B","type_id":1}},{"SpecialToken":{"id":"[EOS]","type_id":1}}],"special_tokens":{"[CLS]":{"id":"[CLS]","ids":[1],"tokens":["[CLS]"]},"[EOS]":{"id":"[EOS]","ids":[3],"tokens":["[EOS]"]},"[SEP]":{"id":"[SEP]","ids":[2],"tokens":["[SEP]"]}}},"decoder":{"type":"BPEDecoder","suffix":"</w>"},"model":{"dropout":null,"unk_token":"[UNK]","continuing_subword_prefix":null,"end_of_word_suffix":null,"fuse_unk":false,"vocab":{"[PAD]":0,"[CLS]":1,"[SEP]":2,"[EOS]":3,"[UNK]":4,"[MASK]":5,"!":6,"\"":7,"#":8,"$":9,"%":10,"&":11,"'":12,"(":13,")":14,"*":15,"+":16,",":17,"-":18,".":19,"/":20,"0":21,"1":22,"2":23,"3":24,"4":25,"5":26,"6":27,"7":28,"8":29,"9":30,":":31,";":32,"<":33,"=":34,">":35,"?":36,"@":37,"[":38,"\\":39,"]":40,"^":41,"_":42,"`":43,"a":44,"b":45,"c":46,"d":47,"e":48,"f":49,"g":50,"h":51,"i":52,"j":53,"k":54,"l":55,"m":56,"n":57,"o":58,"p":59,"q":60,"r":61,"s":62,"t":63,"u":64,"v":65,"w":66,"x":67,"y":68,"z":69,"{":70,"|":71,"}":72,"~":73,"":74,"":75,"":76,"":77,"":78,"":79,"¡":80,"¢":81,"£":82,"¤":83,"¥":84,"§":85,"©":86,"«":87,"­":88,"®":89,"°":90,"±":91,"¶":92,"·":93,"»":94,"¿":95,"×":96,"ß":97,"æ":98,"ð":99,"÷":100,"ø":101,"þ":102,"đ":103,"ħ":104,"ı":105,"ĸ":106,"ł":107,"ŋ":108,"œ":109,"ŧ":110,"ƀ":111,"ƈ":112,"ƍ":113,"ƒ":114,"ƙ":115,"ƛ":116,"ƣ":117,"ƥ":118,"ƭ":119,"ƿ":120,"ǀ":121,"ǁ":122,"ǂ":123,"ǃ":124,"ǝ":125,"ȝ":126,"ȷ":127,"ȼ":128,"ɉ":129,"ɐ":130,"ɑ":131,"ɒ":132,"ɓ":133,"ɔ":134,"ɕ":135,"ɖ":136,"ɗ":137,"ɘ":138,"ə":139,"ɚ":140,"ɛ":141,"ɜ":142,"ɞ":143,"ɟ":144,"ɠ":145,"ɡ":146,"ɢ":147,"ɣ":148,"ɤ":149,"ɥ":150,"ɦ":151,"ɧ":152,"ɨ":153,"ɪ":154,"ɫ":155,"ɬ":156,"ɭ":157,"ɮ":158,"ɯ":159,"ɰ":160,"ɱ":161,"ɲ":162,"ɳ":163,"ɴ":164,"ɵ":165,"ɶ":166,"ɷ":167,"ɸ":168,"ɹ":169,"ɺ":170,"ɻ":171,"ɽ":172,"ɾ":173,"ʀ":174,"ʁ":175,"ʂ":176,"ʃ":177,"ʄ":178,"ʇ":179,"ʈ":180,"ʉ":181,"ʊ":182,"ʋ":183,"ʌ":184,"ʍ":185,"ʎ":186,"ʏ":187,"ʐ":188,"ʑ":189,"ʒ":190,"ʔ":191,"ʕ":192,"ʖ":193,"ʗ":194,"ʘ":195,"ʙ":196,"ʛ":197,"ʝ":198,"ʞ":199,"ʟ":200,"ʠ":201,"ʡ":202,"ʢ":203,"ʹ":204,"ʻ":205,"ʼ":206,"ʽ":207,"ʾ":208,"ʿ":209,"ˀ":210,"ˁ":211,"ˆ":212,"ˇ":213,"ˈ":214,"ˌ":215,"ː":216,"ˑ":217,"˔":218,"˕":219,"˖":220,"˞":221,"˥":222,"˦":223,"˧":224,"˨":225,"˩":226,"̀":227,"́":228,"̂":229,"̃":230,"̄":231,"̆":232,"̇":233,"̈":234,"̉":235,"̊":236,"̋":237,"̌":238,"̍":239,"̏":240,"̐":241,"̑":242,"̓":243,"̔":244,"̖":245,"̗":246,"̚":247,"̛":248,"̝":249,"̞":250,"̟":251,"̠":252,"̣":253,"̤":254,"̥":255,"̦":256,"̧":257,"̨":258,"̩":259,"̪":260,"̬":261,"̮":262,"̯":263,"̰":264,"̱":265,"̲":266,"̳":267,"̸":268,"̺":269,"̽":270,"͂":271,"ͅ":272,"͌":273,"͍":274,"͘":275,"͜":276,"͡":277,"α":278,"β":279,"γ":280,"δ":281,"ε":282,"ζ":283,"η":284,"θ":285,"ι":286,"κ":287,"λ":288,"μ":289,"ν":290,"ξ":291,"ο":292,"π":293,"ρ":294,"ς":295,"σ":296,"τ":297,"υ":298,"φ":299,"χ":300,"ψ":301,"ω":302,"ϝ":303,"ϟ":304,"а":305,"б":306,"в":307,"г":308,"д":309,"е":310,"ж":311,"з":312,"и":313,"к":314,"л":315,"м":316,"н":317,"о":318,"п":319,"р":320,"с":321,"т":322,"у":323,"ф":324,"х":325,"ц":326,"ч":327,"ш":328,"щ":329,"ъ":330,"ы":331,"ь":332,"э":333,"ю":334,"я":335,"ђ":336,"є":337,"і":338,"ј":339,"љ":340,"њ":341,"ћ":342,"ѡ":343,"ѣ":344,"ѥ":345,"ѧ":346,"ѯ":347,"ѹ":348,"҆":349,"ғ":350,"қ":351,"ү":352,"ҳ":353,"ҷ":354,"ө":355,"ӷ":356,"ա":357,"բ":358,"գ":359,"դ":360,"ե":361,"զ":362,"է":363,"ը":364,"թ":365,"ժ":366,"ի":367,"լ":368,"խ":369,"ծ":370,"կ":371,"հ":372,"ձ":373,"ղ":374,"ճ":375,"մ":376,"յ":377,"ն":378,"շ":379,"ո":380,"չ":381,"պ":382,"ջ":383,"ռ":384,"ս":385,"վ":386,"տ":387,"ր":388,"ց":389,"ւ":390,"փ":391,"ք":392,"օ":393,"֤":394,"֫":395,"ְ":396,"ֱ":397,"ֲ":398,"ֳ":399,"ִ":400,"ֵ":401,"ֶ":402,"ַ":403,"ָ":404,"ֹ":405,"ֻ":406,"ּ":407,"ֽ":408,"ֿ":409,"ׁ":410,"ׂ":411,"א":412,"ב":413,"ג":414,"ד":415,"ה":416,"ו":417,"ז":418,"ח":419,"ט":420,"י":421,"ך":422,"כ":423,"ל":424,"ם":425,"מ":426,"ן":427,"נ":428,"ס":429,"ע":430,"ף":431,"פ":432,"ץ":433,"צ":434,"ק":435,"ר":436,"ש":437,"ת":438,"ױ":439,"׳":440,"،":441,"ء":442,"ا":443,"ب":444,"ة":445,"ت":446,"ث":447,"ج":448,"ح":449,"خ":450,"د":451,"ذ":452,"ر":453,"ز":454,"س":455,"ش":456,"ص":457,"ض":458,"ط":459,"ظ":460,"ع":461,"غ":462,"ـ":463,"ف":464,"ق":465,"ك":466,"ل":467,"م":468,"ن":469,"ه":470,"و":471,"ى":472,"ي":473,"ً":474,"ٌ":475,"ٍ":476,"َ":477,"ُ":478,"ِ":479,"ّ":480,"ْ":481,"ٓ":482,"ٔ":483,"ٕ":484,"١":485,"٧":486,"ٰ":487,"پ":488,"چ":489,"ڈ":490,"ڠ":491,"ک":492,"ڬ":493,"گ":494,"ں":495,"ھ":496,"ہ":497,"ی":498,"ۍ":499,"ے":500,"ە":501,"ܐ":502,"ܒ":503,"ܔ":504,"ܕ":505,"ܗ":506,"ܘ":507,"ܙ":508,"ܚ":509,"ܛ":510,"ܝ":511,"ܠ":512,"ܡ":513,"ܢ":514,"ܣ":515,"ܥ":516,"ܦ":517,"ܪ":518,"ܬ":519,"ܲ":520,"ܵ":521,"ܼ":522,"݂":523,"ँ":524,"ं":525,"ः":526,"अ":527,"आ":528,"इ":529,"ई":530,"उ":531,"ऋ":532,"ए":533,"ऐ":534,"औ":535,"क":536,"ख":537,"ग":538,"घ":539,"ङ":540,"च":541,"छ":542,"ज":543,"ञ":544,"ट":545,"ठ":546,"ड":547,"ण":548,"त":549,"थ":550,"द":551,"ध":552,"न":553,"प":554,"फ":555,"ब":556,"भ":557,"म":558,"य":559,"र":560,"ल":561,"व":562,"श":563,"ष":564,"स":565,"ह":566,"़":567,"ऽ":568,"ा":569,"ि":570,"ी":571,"ु":572,"ू":573,"ृ":574,"ॆ":575,"े":576,"ै":577,"ॉ":578,"ॊ":579,"ो":580,"ौ":581,"्":582,"ॐ":583,"।":584,"॥":585,"१":586,"२":587,"३":588,"ং":589,"অ":590,"আ":591,"ই":592,"এ":593,"ক":594,"খ":595,"গ":596,"ঙ":597,"চ":598,"জ":599,"ট":600,"ড":601,"ঢ":602,"ণ":603,"ত":604,"থ":605,"দ":606,"ন":607,"প":608,"ব":609,"ভ":610,"ম":611,"য":612,"র":613,"ল":614,"শ":615,"ষ":616,"স":617,"হ":618,"়":619,"া":620,"ি":621,"ী":622,"ু":623,"ূ":624,"ে":625,"ৈ":626,"্":627,"ৰ":628,"ਂ":629,"ਅ":630,"ਉ":631,"ਖ":632,"ਘ":633,"ਜ":634,"ਝ":635,"ਦ":636,"ਲ":637,"ਵ":638,"ਸ":639,"ਹ":640,"਼":641,"ਾ":642,"ਿ":643,"ੁ":644,"ੇ":645,"ੰ":646,"ੱ":647,"ખ":648,"ફ":649,"બ":650,"ર":651,"લ":652,"સ":653,"ા":654,"ો":655,"ପ":656,"ର":657,"ୀ":658,"ୁ":659,"ஃ":660,"அ":661,"ஆ":662,"இ":663,"ஈ":664,"எ":665,"ஒ":666,"க":667,"ங":668,"ச":669,"ட":670,"ண":671,"த":672,"ந":673,"ன":674,"ப":675,"ம":676,"ய":677,"ர":678,"ற":679,"ல":680,"ள":681,"ழ":682,"வ":683,"ஸ":684,"ா":685,"ி":686,"ீ":687,"ு":688,"ூ":689,"ெ":690,"ே":691,"ை":692,"்":693,"ం":694,"క":695,"ఖ":696,"గ":697,"జ":698,"ట":699,"ఠ":700,"డ":701,"త":702,"థ":703,"ద":704,"న":705,"ప":706,"బ":707,"భ":708,"మ":709,"య":710,"ర":711,"ల":712,"వ":713,"ష":714,"స":715,"ా":716,"ి":717,"ీ":718,"ు":719,"ె":720,"ో":721,"్":722,"ౖ":723,"ಂ":724,"ಃ":725,"ಕ":726,"ಖ":727,"ಗ":728,"ಚ":729,"ಟ":730,"ಠ":731,"ಡ":732,"ತ":733,"ದ":734,"ನ":735,"ಪ":736,"ಬ":737,"ಭ":738,"ಮ":739,"ಯ":740,"ರ":741,"ಱ":742,"ಲ":743,"ಳ":744,"ವ":745,"ಶ":746,"ಸ":747,"ಹ":748,"ಾ":749,"ಿ":750,"ು":751,"ೂ":752,"ೆ":753,"್":754,"ೕ":755,"ೞ":756,"അ":757,"ങ":758,"ദ":759,"ന":760,"പ":761,"മ":762,"യ":763,"ര":764,"ള":765,"വ":766,"ശ":767,"സ":768,"ഹ":769,"ാ":770,"ി":771,"്":772,"අ":773,"එ":774,"ක":775,"ග":776,"ජ":777,"ත":778,"ධ":779,"න":780,"ප":781,"ම":782,"ය":783,"ර":784,"ල":785,"ව":786,"ශ":787,"හ":788,"ළ":789,"්":790,"ා":791,"ැ":792,"ි":793,"ු":794,"ෙ":795,"ก":796,"ข":797,"ค":798,"ฆ":799,"ง":800,"จ":801,"ฉ":802,"ช":803,"ซ":804,"ญ":805,"ฎ":806,"ฏ":807,"ฐ":808,"ฑ":809,"ณ":810,"ด":811,"ต":812,"ถ":813,"ท":814,"ธ":815,"น":816,"บ":817,"ป":818,"ผ":819,"ฝ":820,"พ":821,"ฟ":822,"ภ":823,"ม":824,"ย":825,"ร":826,"ฤ":827,"ล":828,"ว":829,"ศ":830,"ษ":831,"ส":832,"ห":833,"ฬ":834,"อ":835,"ฮ":836,"ะ":837,"ั":838,"า":839,"ิ":840,"ี":841,"ึ":842,"ื":843,"ุ":844,"ู":845,"฿":846,"เ":847,"แ":848,"โ":849,"ใ":850,"ไ":851,"็":852,"่":853,"้":854,"๊":855,"์":856,"ํ":857,"་":858,"།":859,"ཀ":860,"ཁ":861,"ག":862,"ང":863,"ཆ":864,"ཇ":865,"ཐ":866,"ད":867,"ན":868,"པ":869,"བ":870,"མ":871,"ཙ":872,"ཚ":873,"ཛ":874,"འ":875,"ཡ":876,"ར":877,"ལ":878,"ས":879,"ཧ":880,"ི":881,"ུ":882,"ེ":883,"ོ":884,"ྟ":885,"ྡ":886,"ྣ":887,"ྤ":888,"ྥ":889,"ྱ":890,"ྲ":891,"က":892,"ဂ":893,"င":894,"စ":895,"ဆ":896,"ဇ":897,"တ":898,"န":899,"ပ":900,"ဗ":901,"ဘ":902,"မ":903,"ယ":904,"ရ":905,"လ":906,"ဝ":907,"ဟ":908,"အ":909,"ာ":910,"ိ":911,"ီ":912,"ု":913,"ူ":914,"ဲ":915,"း":916,"္":917,"်":918,"ျ":919,"ြ":920,"ွ":921,"ှ":922,"၁":923,"၂":924,"၇":925,"၈":926,"ა":927,"ბ":928,"გ":929,"დ":930,"ე":931,"ვ":932,"ზ":933,"თ":934,"ი":935,"კ":936,"ლ":937,"მ":938,"ნ":939,"ო":940,"პ":941,"ჟ":942,"რ":943,"ს":944,"ტ":945,"უ":946,"ფ":947,"ქ":948,"ღ":949,"ყ":950,"შ":951,"ჩ":952,"ც":953,"ძ":954,"წ":955,"ჭ":956,"ხ":957,"ჯ":958,"ჰ":959,"ჱ":960,"ჲ":961,"ჳ":962,"ჴ":963,"ჵ":964,"ჶ":965,"ჷ":966,"ჸ":967,"ჹ":968,"ჺ":969,"჻":970,"ᄀ":971,"ᄁ":972,"ᄂ":973,"ᄃ":974,"ᄄ":975,"ᄅ":976,"ᄆ":977,"ᄇ":978,"ᄈ":979,"ᄉ":980,"ᄊ":981,"ᄋ":982,"ᄌ":983,"ᄎ":984,"ᄏ":985,"ᄐ":986,"ᄑ":987,"ᄒ":988,"ᅡ":989,"ᅢ":990,"ᅣ":991,"ᅥ":992,"ᅦ":993,"ᅧ":994,"ᅨ":995,"ᅩ":996,"ᅪ":997,"ᅫ":998,"ᅬ":999,"ᅭ":1000,"ᅮ":1001,"ᅯ":1002,"ᅱ":1003,"ᅲ":1004,"ᅳ":1005,"ᅴ":1006,"ᅵ":1007,"ᆨ":1008,"ᆫ":1009,"ᆮ":1010,"ᆯ":1011,"ᆰ":1012,"ᆷ":1013,"ᆸ":1014,"ᆺ":1015,"ᆻ":1016,"ᆼ":1017,"ᇂ":1018,"ሀ":1019,"ለ":1020,"ሐ":1021,"ሓ":1022,"ሕ":1023,"መ":1024,"ማ":1025,"ሥ":1026,"ረ":1027,"ር":1028,"ሰ":1029,"ስ":1030,"ቆ":1031,"ቈ":1032,"በ":1033,"ብ":1034,"ቲ":1035,"ታ":1036,"ት":1037,"ነ":1038,"ና":1039,"ን":1040,"ኖ":1041,"አ":1042,"ኢ":1043,"እ":1044,"ከ":1045,"ኲ":1046,"ዕ":1047,"ዘ":1048,"ዛ":1049,"የ":1050,"ያ":1051,"ይ":1052,"ዮ":1053,"ደ":1054,"ድ":1055,"ጅ":1056,"ገ":1057,"ጉ":1058,"ጵ":1059,"ፈ":1060,"ፍ":1061,"፡":1062,"ᏹ":1063,"ᐊ":1064,"ᑲ":1065,"ᒡ":1066,"ᓘ":1067,"ᚢ":1068,"ᚣ":1069,"ᚦ":1070,"ᚨ":1071,"ᚩ":1072,"ᚬ":1073,"ᚱ":1074,"ᚷ":1075,"ᚹ":1076,"ᚺ":1077,"ᚻ":1078,"ᚼ":1079,"ᚾ":1080,"ᛁ":1081,"ᛃ":1082,"ᛄ":1083,"ᛇ":1084,"ᛋ":1085,"ᛏ":1086,"ᛒ":1087,"ᛗ":1088,"ᛚ":1089,"ᛝ":1090,"ᛞ":1091,"ᛟ":1092,"ᛠ":1093,"ក":1094,"ខ":1095,"គ":1096,"ង":1097,"ច":1098,"ឆ":1099,"ជ":1100,"ញ":1101,"ដ":1102,"ឋ":1103,"ណ":1104,"ត":1105,"ថ":1106,"ទ":1107,"ធ":1108,"ន":1109,"ប":1110,"ព":1111,"ភ":1112,"ម":1113,"យ":1114,"រ":1115,"ល":1116,"វ":1117,"ស":1118,"ហ":1119,"អ":1120,"ឥ":1121,"ឪ":1122,"ឫ":1123,"ឯ":1124,"឵":1125,"ា":1126,"ិ":1127,"ី":1128,"ឹ":1129,"ឺ":1130,"ុ":1131,"ូ":1132,"ួ":1133,"ៀ":1134,"េ":1135,"ែ":1136,"ៃ":1137,"ោ":1138,"ៅ":1139,"ំ":1140,"ះ":1141,"ៈ":1142,"៉":1143,"់":1144,"្":1145,"ᠠ":1146,"ᠣ":1147,"ᠨ":1148,"ᠪ":1149,"ᠮ":1150,"ᠯ":1151,"ᠰ":1152,"ᠴ":1153,"ᠵ":1154,"ᠸ":1155,"ᡝ":1156,"ᡠ":1157,"ᡥ":1158,"ᡨ":1159,"ᡳ":1160,"ᡴ":1161,"ᡵ":1162,"ᵻ":1163,"ᵿ":1164,"ᶑ":1165,"᷄":1166,"᷅":1167,"᷆":1168,"᷇":1169,"᷈":1170,"᷉":1171,"᷽":1172,"​":1173,"‌":1174,"‍":1175,"‐":1176,"‒":1177,"–":1178,"—":1179,"―":1180,"‖":1181,"‘":1182,"’":1183,"‚":1184,"‛":1185,"“":1186,"”":1187,"„":1188,"‟":1189,"†":1190,"‡":1191,"•":1192,"‰":1193,"′":1194,"※":1195,"‿":1196,"⁄":1197,"⁊":1198,"⁠":1199,"⁡":1200,"₡":1201,"₣":1202,"₤":1203,"₦":1204,"₧":1205,"₩":1206,"₫":1207,"€":1208,"₱":1209,"₴":1210,"₹":1211,"℞":1212,"℥":1213,"←":1214,"↑":1215,"→":1216,"↓":1217,"↔":1218,"↗":1219,"↘":1220,"↦":1221,"↪":1222,"↵":1223,"⇄":1224,"⇌":1225,"⇒":1226,"⇪":1227,"∀":1228,"∂":1229,"∅":1230,"∆":1231,"∇":1232,"∈":1233,"∊":1234,"∑":1235,"−":1236,"∕":1237,"∖":1238,"∗":1239,"∘":1240,"√":1241,"∝":1242,"∞":1243,"∣":1244,"∩":1245,"∪":1246,"∫":1247,"∴":1248,"∼":1249,"≈":1250,"≡":1251,"≤":1252,"≥":1253,"≪":1254,"≫":1255,"≲":1256,"⊂":1257,"⊕":1258,"⊗":1259,"⊙":1260,"⊞":1261,"⊢":1262,"⊣":1263,"⊥":1264,"⋅":1265,"⋆":1266,"⋯":1267,"⌊":1268,"⌋":1269,"⌘":1270,"─":1271,"█":1272,"▢":1273,"▲":1274,"▼":1275,"○":1276,"●":1277,"◦":1278,"☄":1279,"★":1280,"☆":1281,"☉":1282,"☧":1283,"☫":1284,"☭":1285,"☽":1286,"☾":1287,"♀":1288,"♂":1289,"♄":1290,"♅":1291,"♆":1292,"♇":1293,"♈":1294,"♉":1295,"♠":1296,"♣":1297,"♥":1298,"♦":1299,"♩":1300,"♪":1301,"♭":1302,"♮":1303,"♯":1304,"⚳":1305,"⚴":1306,"⚵":1307,"⛢":1308,"✡":1309,"✱":1310,"❄":1311,"❅":1312,"❆":1313,"❤":1314,"⟦":1315,"⟧":1316,"⟨":1317,"⟩":1318,"⥇":1319,"⩽":1320,"⫶":1321,"ⱱ":1322,"ⲁ":1323,"ⲛ":1324,"ⲥ":1325,"ⲧ":1326,"ⲩ":1327,"ⲫ":1328,"ⲱ":1329,"ⴀ":1330,"ⴂ":1331,"ⴃ":1332,"ⴈ":1333,"ⴌ":1334,"ⴕ":1335,"ⴟ":1336,"ⴰ":1337,"ⴳ":1338,"ⴷ":1339,"ⴻ":1340,"ⴼ":1341,"ⴽ":1342,"ⵃ":1343,"ⵇ":1344,"ⵉ":1345,"ⵍ":1346,"ⵎ":1347,"ⵏ":1348,"ⵓ":1349,"ⵔ":1350,"ⵕ":1351,"ⵖ":1352,"ⵙ":1353,"ⵛ":1354,"ⵜ":1355,"ⵡ":1356,"ⵢ":1357,"ⵣ":1358,"⸨":1359,"⸩":1360,"、":1361,"。":1362,"々":1363,"〈":1364,"〉":1365,"《":1366,"》":1367,"「":1368,"」":1369,"『":1370,"』":1371,"【":1372,"】":1373,"〒":1374,"〜":1375,"あ":1376,"ぃ":1377,"い":1378,"ぅ":1379,"う":1380,"ぇ":1381,"え":1382,"ぉ":1383,"お":1384,"か":1385,"き":1386,"く":1387,"け":1388,"こ":1389,"さ":1390,"し":1391,"す":1392,"せ":1393,"そ":1394,"た":1395,"ち":1396,"っ":1397,"つ":1398,"て":1399,"と":1400,"な":1401,"に":1402,"ぬ":1403,"ね":1404,"の":1405,"は":1406,"ひ":1407,"ふ":1408,"へ":1409,"ほ":1410,"ま":1411,"み":1412,"む":1413,"め":1414,"も":1415,"ゃ":1416,"や":1417,"ゅ":1418,"ゆ":1419,"ょ":1420,"よ":1421,"ら":1422,"り":1423,"る":1424,"れ":1425,"ろ":1426,"わ":1427,"ゑ":1428,"を":1429,"ん":1430,"゙":1431,"゚":1432,"ァ":1433,"ア":1434,"ィ":1435,"イ":1436,"ゥ":1437,"ウ":1438,"ェ":1439,"エ":1440,"ォ":1441,"オ":1442,"カ":1443,"キ":1444,"ク":1445,"ケ":1446,"コ":1447,"サ":1448,"シ":1449,"ス":1450,"セ":1451,"ソ":1452,"タ":1453,"チ":1454,"ッ":1455,"ツ":1456,"テ":1457,"ト":1458,"ナ":1459,"ニ":1460,"ヌ":1461,"ネ":1462,"ノ":1463,"ハ":1464,"ヒ":1465,"フ":1466,"ヘ":1467,"ホ":1468,"マ":1469,"ミ":1470,"ム":1471,"メ":1472,"モ":1473,"ャ":1474,"ヤ":1475,"ュ":1476,"ユ":1477,"ョ":1478,"ヨ":1479,"ラ":1480,"リ":1481,"ル":1482,"レ":1483,"ロ":1484,"ワ":1485,"ヲ":1486,"ン":1487,"ヶ":1488,"・":1489,"ー":1490,"一":1491,"丁":1492,"七":1493,"万":1494,"丈":1495,"三":1496,"上":1497,"下":1498,"不":1499,"与":1500,"丑":1501,"且":1502,"世":1503,"丘":1504,"丙":1505,"东":1506,"丝":1507,"丞":1508,"両":1509,"丨":1510,"个":1511,"中":1512,"丶":1513,"丸":1514,"丹":1515,"为":1516,"主":1517,"丽":1518,"丿":1519,"乃":1520,"久":1521,"么":1522,"义":1523,"之":1524,"乌":1525,"乎":1526,"乐":1527,"乘":1528,"乙":1529,"乚":1530,"乛":1531,"九":1532,"也":1533,"习":1534,"书":1535,"乩":1536,"买":1537,"乱":1538,"乳":1539,"乾":1540,"亀":1541,"亅":1542,"了":1543,"予":1544,"争":1545,"事":1546,"二":1547,"云":1548,"五":1549,"井":1550,"亚":1551,"些":1552,"亜":1553,"亞":1554,"亡":1555,"交":1556,"亦":1557,"亨":1558,"京":1559,"亮":1560,"亰":1561,"人":1562,"什":1563,"仁":1564,"仇":1565,"今":1566,"介":1567,"仔":1568,"仕":1569,"他":1570,"付":1571,"仙":1572,"代":1573,"令":1574,"以":1575,"仪":1576,"们":1577,"仮":1578,"仰":1579,"仲":1580,"件":1581,"任":1582,"份":1583,"伊":1584,"伏":1585,"伐":1586,"休":1587,"会":1588,"伝":1589,"伟":1590,"传":1591,"伪":1592,"伯":1593,"伴":1594,"伸":1595,"似":1596,"佃":1597,"但":1598,"位":1599,"住":1600,"佐":1601,"佑":1602,"体":1603,"何":1604,"余":1605,"佛":1606,"作":1607,"你":1608,"佳":1609,"併":1610,"使":1611,"來":1612,"例":1613,"侍":1614,"侗":1615,"供":1616,"依":1617,"侠":1618,"侨":1619,"侬":1620,"侯":1621,"係":1622,"促":1623,"俄":1624,"俊":1625,"保":1626,"信":1627,"俭":1628,"修":1629,"俱":1630,"俳":1631,"倉":1632,"個":1633,"們":1634,"候":1635,"借":1636,"倪":1637,"倫":1638,"倭":1639,"偃":1640,"假":1641,"偏":1642,"健":1643,"側":1644,"偵":1645,"偽":1646,"傀":1647,"傅":1648,"傑":1649,"傘":1650,"備":1651,"催":1652,"傭":1653,"傳":1654,"傷":1655,"像":1656,"僑":1657,"僕":1658,"僧":1659,"儀":1660,"億":1661,"儒":1662,"儚":1663,"儡":1664,"優":1665,"儿":1666,"允":1667,"元":1668,"充":1669,"兆":1670,"先":1671,"光":1672,"克":1673,"免":1674,"兒":1675,"兔":1676,"兜":1677,"入":1678,"內":1679,"全":1680,"兩":1681,"八":1682,"公":1683,"六":1684,"兰":1685,"共":1686,"关":1687,"兵":1688,"其":1689,"具":1690,"典":1691,"养":1692,"冀":1693,"内":1694,"円":1695,"冉":1696,"册":1697,"再":1698,"冒":1699,"写":1700,"军":1701,"冠":1702,"冥":1703,"冫":1704,"冬":1705,"冯":1706,"决":1707,"冴":1708,"冶":1709,"冷":1710,"净":1711,"准":1712,"凌":1713,"凤":1714,"処":1715,"凪":1716,"凯":1717,"凰":1718,"凱":1719,"凶":1720,"凹":1721,"出":1722,"刀":1723,"刃":1724,"分":1725,"切":1726,"刊":1727,"划":1728,"列":1729,"刘":1730,"初":1731,"判":1732,"別":1733,"利":1734,"别":1735,"到":1736,"制":1737,"刷":1738,"券":1739,"刹":1740,"刺":1741,"刻":1742,"則":1743,"前":1744,"剑":1745,"剛":1746,"剣":1747,"剧":1748,"剩":1749,"副":1750,"割":1751,"創":1752,"劃":1753,"劇":1754,"劉":1755,"劍":1756,"力":1757,"办":1758,"功":1759,"加":1760,"劣":1761,"动":1762,"助":1763,"劳":1764,"勃":1765,"勅":1766,"勇":1767,"勒":1768,"動":1769,"勘":1770,"務":1771,"勝":1772,"勞":1773,"勢":1774,"勳":1775,"勾":1776,"包":1777,"化":1778,"北":1779,"匠":1780,"匹":1781,"区":1782,"医":1783,"區":1784,"十":1785,"千":1786,"升":1787,"午":1788,"半":1789,"华":1790,"协":1791,"卐":1792,"卒":1793,"卓":1794,"協":1795,"单":1796,"卖":1797,"南":1798,"博":1799,"卜":1800,"占":1801,"卡":1802,"卢":1803,"卦":1804,"卫":1805,"印":1806,"危":1807,"即":1808,"却":1809,"卸":1810,"卿":1811,"厂":1812,"厄":1813,"历":1814,"厘":1815,"厚":1816,"原":1817,"厥":1818,"厦":1819,"厩":1820,"去":1821,"县":1822,"参":1823,"參":1824,"叉":1825,"及":1826,"友":1827,"双":1828,"反":1829,"収":1830,"发":1831,"叔":1832,"取":1833,"受":1834,"变":1835,"叛":1836,"叠":1837,"叡":1838,"叢":1839,"口":1840,"古":1841,"句":1842,"只":1843,"叫":1844,"召":1845,"可":1846,"台":1847,"史":1848,"右":1849,"叶":1850,"号":1851,"司":1852,"合":1853,"吉":1854,"同":1855,"名":1856,"后":1857,"向":1858,"吕":1859,"君":1860,"吞":1861,"吟":1862,"吧":1863,"启":1864,"吳":1865,"吴":1866,"吸":1867,"吹":1868,"吾":1869,"呂":1870,"呉":1871,"告":1872,"周":1873,"呪":1874,"味":1875,"呼":1876,"命":1877,"咆":1878,"和":1879,"咖":1880,"咙":1881,"咫":1882,"咲":1883,"咸":1884,"哀":1885,"品":1886,"哈":1887,"哉":1888,"响":1889,"員":1890,"哥":1891,"哮":1892,"哲":1893,"唄":1894,"唐":1895,"唯":1896,"唱":1897,"商":1898,"問":1899,"啓":1900,"啟":1901,"啡":1902,"善":1903,"喇":1904,"喋":1905,"喚":1906,"喜":1907,"喝":1908,"喬":1909,"嘉":1910,"嘘":1911,"噛":1912,"器":1913,"嚣":1914,"嚴":1915,"囁":1916,"囂":1917,"囃":1918,"囚":1919,"四":1920,"回":1921,"因":1922,"团":1923,"団":1924,"図":1925,"国":1926,"图":1927,"圈":1928,"國":1929,"圍":1930,"圏":1931,"園":1932,"圓":1933,"圖":1934,"土":1935,"圣":1936,"圧":1937,"在":1938,"地":1939,"圻":1940,"坂":1941,"均":1942,"坊":1943,"坑":1944,"块":1945,"坚":1946,"坝":1947,"坡":1948,"坤":1949,"坪":1950,"型":1951,"垣":1952,"城":1953,"埔":1954,"域":1955,"執":1956,"培":1957,"基":1958,"堀":1959,"堂":1960,"堅":1961,"堆":1962,"堡":1963,"堤":1964,"堯":1965,"報":1966,"場":1967,"塊":1968,"塔":1969,"塘":1970,"塚":1971,"塞":1972,"塩":1973,"填":1974,"塵":1975,"境":1976,"墓":1977,"墙":1978,"增":1979,"壁":1980,"壌":1981,"壓":1982,"壟":1983,"壤":1984,"士":1985,"壬":1986,"壮":1987,"壯":1988,"声":1989,"壱":1990,"売":1991,"壳":1992,"壷":1993,"壽":1994,"处":1995,"备":1996,"変":1997,"复":1998,"夏":1999,"夕":2000,"外":2001,"多":2002,"夜":2003,"够":2004,"夢":2005,"夤":2006,"大":2007,"天":2008,"太":2009,"夫":2010,"央":2011,"失":2012,"头":2013,"夷":2014,"奇":2015,"奈":2016,"奉":2017,"奎":2018,"奏":2019,"奐":2020,"契":2021,"奔":2022,"套":2023,"奥":2024,"奧":2025,"奪":2026,"女":2027,"奴":2028,"好":2029,"如":2030,"妃":2031,"妇":2032,"妍":2033,"妖":2034,"妙":2035,"妮":2036,"妹":2037,"妻":2038,"姉":2039,"姊":2040,"始":2041,"姑":2042,"委":2043,"姚":2044,"姥":2045,"姦":2046,"姫":2047,"姬":2048,"姿":2049,"威":2050,"娘":2051,"娜":2052,"婁":2053,"婆":2054,"婚":2055,"婷":2056,"嫁":2057,"嬢":2058,"嬴":2059,"子":2060,"孔":2061,"字":2062,"存":2063,"孙":2064,"孛":2065,"孝":2066,"孟":2067,"季":2068,"孤":2069,"学":2070,"孩":2071,"孫":2072,"孵":2073,"學":2074,"宁":2075,"宅":2076,"宇":2077,"守":2078,"安":2079,"宋":2080,"完":2081,"宏":2082,"宗":2083,"官":2084,"宙":2085,"定":2086,"宜":2087,"宝":2088,"实":2089,"実":2090,"客":2091,"宣":2092,"室":2093,"宫":2094,"宮":2095,"宴":2096,"宵":2097,"家":2098,"宸":2099,"容":2100,"宿":2101,"寂":2102,"寄":2103,"密":2104,"寇":2105,"富":2106,"寔":2107,"寗":2108,"寛":2109,"寝":2110,"寞":2111,"察":2112,"寧":2113,"寨":2114,"審":2115,"寬":2116,"寵":2117,"寶":2118,"寸":2119,"对":2120,"寺":2121,"寻":2122,"対":2123,"寿":2124,"封":2125,"射":2126,"将":2127,"將":2128,"尉":2129,"尊":2130,"尋":2131,"對":2132,"導":2133,"小":2134,"少":2135,"尔":2136,"尚":2137,"尧":2138,"就":2139,"尸":2140,"尹":2141,"尺":2142,"尼":2143,"尽":2144,"尾":2145,"局":2146,"居":2147,"届":2148,"屋":2149,"屍":2150,"屑":2151,"展":2152,"屠":2153,"層":2154,"屬":2155,"屯":2156,"山":2157,"屿":2158,"岐":2159,"岑":2160,"岚":2161,"岛":2162,"岡":2163,"岩":2164,"岬":2165,"岭":2166,"岳":2167,"岸":2168,"峰":2169,"島":2170,"崇":2171,"崎":2172,"崔":2173,"崖":2174,"嵐":2175,"嶋":2176,"嶺":2177,"嶼":2178,"巂":2179,"巖":2180,"川":2181,"州":2182,"巡":2183,"工":2184,"左":2185,"巨":2186,"巫":2187,"差":2188,"己":2189,"巳":2190,"巴":2191,"巻":2192,"币":2193,"市":2194,"布":2195,"帆":2196,"师":2197,"希":2198,"帕":2199,"帖":2200,"帝":2201,"帥":2202,"带":2203,"師":2204,"帮":2205,"帰":2206,"帶":2207,"常":2208,"幕":2209,"幡":2210,"幣":2211,"干":2212,"平":2213,"年":2214,"幸":2215,"幻":2216,"幽":2217,"广":2218,"庁":2219,"広":2220,"庄":2221,"庆":2222,"庇":2223,"序":2224,"库":2225,"底":2226,"庖":2227,"店":2228,"庙":2229,"庚":2230,"府":2231,"度":2232,"座":2233,"庫":2234,"庭":2235,"庵":2236,"康":2237,"廉":2238,"廊":2239,"廖":2240,"廟":2241,"廣":2242,"廬":2243,"延":2244,"廷":2245,"建":2246,"廻":2247,"廿":2248,"开":2249,"弁":2250,"式":2251,"弐":2252,"弓":2253,"弔":2254,"引":2255,"弘":2256,"弟":2257,"张":2258,"弥":2259,"弦":2260,"弧":2261,"弱":2262,"張":2263,"強":2264,"弹":2265,"强":2266,"弾":2267,"彌":2268,"当":2269,"录":2270,"彖":2271,"彙":2272,"形":2273,"彦":2274,"彩":2275,"彪":2276,"彬":2277,"彭":2278,"影":2279,"役":2280,"彼":2281,"征":2282,"径":2283,"待":2284,"律":2285,"後":2286,"徐":2287,"徒":2288,"得":2289,"從":2290,"御":2291,"復":2292,"微":2293,"徳":2294,"德":2295,"徹":2296,"徽":2297,"心":2298,"必":2299,"忍":2300,"志":2301,"忘":2302,"応":2303,"忠":2304,"快":2305,"念":2306,"怀":2307,"怎":2308,"怒":2309,"怖":2310,"思":2311,"怡":2312,"急":2313,"性":2314,"怨":2315,"怪":2316,"总":2317,"恆":2318,"恋":2319,"恐":2320,"恒":2321,"恢":2322,"恥":2323,"恩":2324,"恭":2325,"息":2326,"恵":2327,"恼":2328,"悔":2329,"悟":2330,"悠":2331,"悦":2332,"悪":2333,"悫":2334,"悲":2335,"悼":2336,"情":2337,"惑":2338,"惟":2339,"惠":2340,"惡":2341,"想":2342,"愁":2343,"愍":2344,"意":2345,"愚":2346,"愛":2347,"感":2348,"愽":2349,"慈":2350,"態":2351,"慎":2352,"慧":2353,"慰":2354,"慶":2355,"憂":2356,"憎":2357,"憑":2358,"憲":2359,"憶":2360,"應":2361,"懍":2362,"懷":2363,"戈":2364,"戊":2365,"戎":2366,"成":2367,"我":2368,"战":2369,"戦":2370,"戯":2371,"戰":2372,"戴":2373,"户":2374,"戸":2375,"房":2376,"所":2377,"扁":2378,"扇":2379,"扈":2380,"扉":2381,"手":2382,"才":2383,"打":2384,"托":2385,"扶":2386,"找":2387,"承":2388,"技":2389,"抄":2390,"抓":2391,"投":2392,"抜":2393,"択":2394,"护":2395,"报":2396,"披":2397,"抱":2398,"抵":2399,"担":2400,"拉":2401,"拍":2402,"拏":2403,"拐":2404,"拖":2405,"拘":2406,"招":2407,"拜":2408,"拟":2409,"拥":2410,"括":2411,"拱":2412,"拳":2413,"拾":2414,"持":2415,"挂":2416,"指":2417,"挑":2418,"挥":2419,"振":2420,"据":2421,"捷":2422,"授":2423,"掛":2424,"採":2425,"探":2426,"控":2427,"掲":2428,"描":2429,"提":2430,"揚":2431,"換":2432,"援":2433,"揺":2434,"摂":2435,"摩":2436,"摸":2437,"撃":2438,"撒":2439,"撞":2440,"播":2441,"撲":2442,"操":2443,"攝":2444,"支":2445,"收":2446,"改":2447,"攻":2448,"放":2449,"政":2450,"故":2451,"敏":2452,"救":2453,"教":2454,"敢":2455,"散":2456,"敦":2457,"敬":2458,"数":2459,"敵":2460,"敷":2461,"數":2462,"文":2463,"斉":2464,"斎":2465,"斗":2466,"料":2467,"斜":2468,"斤":2469,"斩":2470,"斬":2471,"断":2472,"斯":2473,"新":2474,"方":2475,"於":2476,"施":2477,"旅":2478,"旋":2479,"族":2480,"旗":2481,"无":2482,"日":2483,"旦":2484,"旧":2485,"早":2486,"旭":2487,"时":2488,"旺":2489,"昂":2490,"昇":2491,"昌":2492,"明":2493,"昏":2494,"易":2495,"昔":2496,"星":2497,"映":2498,"春":2499,"昭":2500,"是":2501,"昼":2502,"時":2503,"晉":2504,"晋":2505,"晒":2506,"普":2507,"景":2508,"晴":2509,"晶":2510,"智":2511,"暁":2512,"暂":2513,"暖":2514,"暗":2515,"暦":2516,"暮":2517,"暴":2518,"曆":2519,"曜":2520,"曦":2521,"曲":2522,"更":2523,"書":2524,"曹":2525,"曼":2526,"曾":2527,"最":2528,"會":2529,"月":2530,"有":2531,"朋":2532,"服":2533,"朏":2534,"朔":2535,"朗":2536,"望":2537,"朝":2538,"期":2539,"朧":2540,"木":2541,"未":2542,"末":2543,"本":2544,"札":2545,"朱":2546,"朴":2547,"朵":2548,"机":2549,"朽":2550,"杀":2551,"杂":2552,"权":2553,"李":2554,"杏":2555,"材":2556,"村":2557,"杖":2558,"杜":2559,"束":2560,"条":2561,"来":2562,"杨":2563,"杯":2564,"東":2565,"杲":2566,"松":2567,"板":2568,"极":2569,"析":2570,"林":2571,"枚":2572,"果":2573,"枝":2574,"枭":2575,"枯":2576,"架":2577,"柆":2578,"柏":2579,"柔":2580,"柚":2581,"柩":2582,"柱":2583,"柳":2584,"柴":2585,"査":2586,"栄":2587,"标":2588,"栈":2589,"树":2590,"栖":2591,"栗":2592,"栞":2593,"校":2594,"株":2595,"样":2596,"核":2597,"根":2598,"格":2599,"栽":2600,"栾":2601,"桀":2602,"桂":2603,"桃":2604,"案":2605,"桎":2606,"桐":2607,"桑":2608,"桓":2609,"桜":2610,"桥":2611,"桧":2612,"梁":2613,"梅":2614,"梏":2615,"梓":2616,"條":2617,"梦":2618,"梨":2619,"梭":2620,"梯":2621,"械":2622,"梵":2623,"梶":2624,"棋":2625,"棍":2626,"棗":2627,"棘":2628,"棚":2629,"棟":2630,"森":2631,"棲":2632,"棵":2633,"棺":2634,"椅":2635,"植":2636,"椎":2637,"椒":2638,"椛":2639,"検":2640,"椰":2641,"椿":2642,"楊":2643,"楚":2644,"楠":2645,"業":2646,"楯":2647,"極":2648,"楼":2649,"楽":2650,"概":2651,"榆":2652,"榊":2653,"榔":2654,"榛":2655,"榮":2656,"榴":2657,"槐":2658,"様":2659,"槤":2660,"槻":2661,"樂":2662,"樉":2663,"樊":2664,"樓":2665,"樗":2666,"標":2667,"樛":2668,"模":2669,"権":2670,"横":2671,"樱":2672,"樸":2673,"樹":2674,"橋":2675,"橘":2676,"橚":2677,"機":2678,"橫":2679,"橿":2680,"檀":2681,"檜":2682,"檳":2683,"檻":2684,"櫓":2685,"櫻":2686,"權":2687,"欒":2688,"欠":2689,"次":2690,"欣":2691,"欲":2692,"欽":2693,"歌":2694,"歓":2695,"歡":2696,"止":2697,"正":2698,"步":2699,"武":2700,"歩":2701,"歪":2702,"歲":2703,"歳":2704,"歴":2705,"歷":2706,"歸":2707,"死":2708,"殊":2709,"残":2710,"段":2711,"殺":2712,"殻":2713,"殿":2714,"毅":2715,"母":2716,"毎":2717,"每":2718,"比":2719,"毕":2720,"毘":2721,"毛":2722,"毫":2723,"毬":2724,"氏":2725,"民":2726,"气":2727,"気":2728,"氣":2729,"水":2730,"氷":2731,"永":2732,"氾":2733,"汇":2734,"汉":2735,"汐":2736,"汗":2737,"汝":2738,"江":2739,"池":2740,"汤":2741,"汪":2742,"汰":2743,"汶":2744,"決":2745,"汽":2746,"沂":2747,"沃":2748,"沈":2749,"沉":2750,"沌":2751,"沐":2752,"沒":2753,"沖":2754,"沙":2755,"沛":2756,"没":2757,"沢":2758,"沫":2759,"河":2760,"沸":2761,"油":2762,"治":2763,"沼":2764,"沽":2765,"泉":2766,"泊":2767,"法":2768,"泗":2769,"泡":2770,"波":2771,"泣":2772,"泥":2773,"注":2774,"泰":2775,"泾":2776,"洁":2777,"洋":2778,"洛":2779,"洞":2780,"津":2781,"洪":2782,"洲":2783,"活":2784,"派":2785,"流":2786,"浅":2787,"浙":2788,"浚":2789,"浜":2790,"浦":2791,"浩":2792,"浪":2793,"浮":2794,"海":2795,"消":2796,"涙":2797,"润":2798,"涵":2799,"涼":2800,"淇":2801,"淑":2802,"淘":2803,"淡":2804,"淨":2805,"深":2806,"淳":2807,"淵":2808,"淹":2809,"添":2810,"清":2811,"渊":2812,"渚":2813,"減":2814,"渠":2815,"渡":2816,"渣":2817,"渥":2818,"渦":2819,"温":2820,"測":2821,"港":2822,"游":2823,"渾":2824,"湊":2825,"湖":2826,"湯":2827,"湾":2828,"満":2829,"源":2830,"準":2831,"溜":2832,"溢":2833,"溪":2834,"溫":2835,"溶":2836,"滅":2837,"滋":2838,"滑":2839,"滨":2840,"滿":2841,"漁":2842,"漂":2843,"漆":2844,"漏":2845,"漠":2846,"漢":2847,"漫":2848,"漳":2849,"漸":2850,"潘":2851,"潜":2852,"潤":2853,"澄":2854,"澤":2855,"澪":2856,"激":2857,"濃":2858,"濞":2859,"濟":2860,"瀛":2861,"瀬":2862,"灣":2863,"火":2864,"灯":2865,"灰":2866,"灵":2867,"灶":2868,"灼":2869,"災":2870,"灾":2871,"炎":2872,"炬":2873,"炮":2874,"炯":2875,"炷":2876,"炸":2877,"点":2878,"為":2879,"炼":2880,"烈":2881,"烏":2882,"烙":2883,"烟":2884,"烦":2885,"烧":2886,"焉":2887,"焔":2888,"無":2889,"焦":2890,"然":2891,"焼":2892,"煌":2893,"煙":2894,"煜":2895,"照":2896,"煩":2897,"煮":2898,"熊":2899,"熔":2900,"熙":2901,"熟":2902,"熱":2903,"燃":2904,"燈":2905,"燕":2906,"營":2907,"爆":2908,"爪":2909,"爭":2910,"爱":2911,"爲":2912,"爵":2913,"父":2914,"爺":2915,"爻":2916,"爽":2917,"爾":2918,"片":2919,"版":2920,"牌":2921,"牙":2922,"牛":2923,"牡":2924,"牢":2925,"牧":2926,"物":2927,"牵":2928,"特":2929,"犖":2930,"犬":2931,"犯":2932,"狀":2933,"狂":2934,"狐":2935,"狗":2936,"狛":2937,"狡":2938,"狩":2939,"独":2940,"狭":2941,"狱":2942,"狸":2943,"狼":2944,"猛":2945,"猩":2946,"猪":2947,"猫":2948,"献":2949,"猿":2950,"獄":2951,"獅":2952,"獣":2953,"獵":2954,"獻":2955,"玄":2956,"玉":2957,"王":2958,"玖":2959,"玩":2960,"玲":2961,"珂":2962,"珍":2963,"珙":2964,"珠":2965,"現":2966,"球":2967,"理":2968,"琦":2969,"琪":2970,"琬":2971,"琮":2972,"琴":2973,"瑋":2974,"瑙":2975,"瑜":2976,"瑞":2977,"瑠":2978,"瑣":2979,"瑪":2980,"瑾":2981,"璉":2982,"環":2983,"璽":2984,"瓊":2985,"瓜":2986,"瓢":2987,"瓦":2988,"瓩":2989,"瓷":2990,"甘":2991,"甜":2992,"生":2993,"產":2994,"産":2995,"用":2996,"甫":2997,"田":2998,"由":2999,"甲":3000,"申":3001,"男":3002,"町":3003,"画":3004,"甽":3005,"界":3006,"畑":3007,"留":3008,"畜":3009,"畢":3010,"略":3011,"番":3012,"畫":3013,"異":3014,"疆":3015,"疾":3016,"病":3017,"症":3018,"痘":3019,"痛":3020,"痴":3021,"瘡":3022,"瘤":3023,"発":3024,"登":3025,"發":3026,"白":3027,"百":3028,"的":3029,"皇":3030,"皙":3031,"皮":3032,"皿":3033,"盆":3034,"盈":3035,"益":3036,"盏":3037,"盐":3038,"监":3039,"盒":3040,"盗":3041,"盘":3042,"盛":3043,"盟":3044,"監":3045,"盤":3046,"盧":3047,"目":3048,"直":3049,"相":3050,"盼":3051,"省":3052,"看":3053,"県":3054,"眞":3055,"真":3056,"眼":3057,"着":3058,"督":3059,"瞬":3060,"瞳":3061,"矢":3062,"知":3063,"矩":3064,"短":3065,"矮":3066,"矯":3067,"石":3068,"砂":3069,"砍":3070,"研":3071,"砖":3072,"砲":3073,"破":3074,"硕":3075,"硝":3076,"硨":3077,"碍":3078,"碗":3079,"碩":3080,"確":3081,"碼":3082,"磁":3083,"磅":3084,"磐":3085,"磨":3086,"磯":3087,"磲":3088,"礁":3089,"礎":3090,"礮":3091,"示":3092,"礼":3093,"社":3094,"祀":3095,"祈":3096,"祐":3097,"祖":3098,"祚":3099,"神":3100,"祠":3101,"祥":3102,"票":3103,"祭":3104,"祺":3105,"祿":3106,"禁":3107,"禄":3108,"禎":3109,"福":3110,"禦":3111,"禮":3112,"禰":3113,"禺":3114,"禾":3115,"秀":3116,"私":3117,"秋":3118,"科":3119,"秒":3120,"秘":3121,"租":3122,"秤":3123,"秦":3124,"移":3125,"程":3126,"稔":3127,"稚":3128,"種":3129,"稲":3130,"稷":3131,"稽":3132,"穂":3133,"穌":3134,"積":3135,"穎":3136,"穗":3137,"穢":3138,"究":3139,"空":3140,"突":3141,"窓":3142,"窗":3143,"窟":3144,"竇":3145,"立":3146,"站":3147,"竜":3148,"章":3149,"童":3150,"端":3151,"竹":3152,"竺":3153,"笑":3154,"笔":3155,"笛":3156,"笠":3157,"符":3158,"笨":3159,"第":3160,"笹":3161,"筆":3162,"等":3163,"筋":3164,"筍":3165,"筐":3166,"筑":3167,"答":3168,"策":3169,"筹":3170,"箇":3171,"箋":3172,"算":3173,"管":3174,"箪":3175,"箭":3176,"箱":3177,"節":3178,"範":3179,"篇":3180,"篋":3181,"篚":3182,"篤":3183,"簡":3184,"簿":3185,"籃":3186,"籌":3187,"籍":3188,"籠":3189,"米":3190,"籵":3191,"粁":3192,"粉":3193,"粍":3194,"粟":3195,"粥":3196,"粨":3197,"精":3198,"糊":3199,"糎":3200,"糖":3201,"糸":3202,"系":3203,"紀":3204,"約":3205,"紅":3206,"紋":3207,"納":3208,"純":3209,"紘":3210,"紙":3211,"級":3212,"素":3213,"紡":3214,"紫":3215,"細":3216,"紹":3217,"紺":3218,"終":3219,"組":3220,"絆":3221,"経":3222,"結":3223,"絡":3224,"給":3225,"統":3226,"絵":3227,"絶":3228,"綁":3229,"經":3230,"継":3231,"続":3232,"綜":3233,"綠":3234,"維":3235,"綯":3236,"綱":3237,"網":3238,"綸":3239,"綺":3240,"綾":3241,"緋":3242,"総":3243,"緑":3244,"緒":3245,"線":3246,"締":3247,"編":3248,"緩":3249,"緬":3250,"緯":3251,"縄":3252,"縊":3253,"縣":3254,"總":3255,"繋":3256,"織":3257,"繹":3258,"繼":3259,"續":3260,"红":3261,"级":3262,"纪":3263,"纯":3264,"纲":3265,"纵":3266,"线":3267,"组":3268,"绅":3269,"细":3270,"终":3271,"绍":3272,"经":3273,"给":3274,"统":3275,"继":3276,"绮":3277,"维":3278,"综":3279,"缽":3280,"网":3281,"罗":3282,"罠":3283,"罪":3284,"置":3285,"罰":3286,"罸":3287,"羅":3288,"羊":3289,"美":3290,"群":3291,"義":3292,"羽":3293,"翁":3294,"習":3295,"翔":3296,"翘":3297,"翠":3298,"翡":3299,"翱":3300,"翹":3301,"翻":3302,"翼":3303,"老":3304,"考":3305,"者":3306,"耆":3307,"而":3308,"耕":3309,"耳":3310,"耶":3311,"耿":3312,"聃":3313,"联":3314,"聖":3315,"聘":3316,"聚":3317,"聞":3318,"聡":3319,"聯":3320,"聰":3321,"聲":3322,"職":3323,"肃":3324,"肉":3325,"肖":3326,"肚":3327,"股":3328,"肥":3329,"肩":3330,"育":3331,"背":3332,"胞":3333,"胠":3334,"胡":3335,"胤":3336,"胴":3337,"胸":3338,"能":3339,"脂":3340,"脇":3341,"脈":3342,"脉":3343,"脚":3344,"脩":3345,"脱":3346,"脳":3347,"腎":3348,"腐":3349,"腰":3350,"腹":3351,"腿":3352,"膀":3353,"膺":3354,"臂":3355,"臘":3356,"臚":3357,"臣":3358,"臨":3359,"自":3360,"臭":3361,"至":3362,"致":3363,"臺":3364,"與":3365,"興":3366,"舍":3367,"舎":3368,"舞":3369,"舟":3370,"航":3371,"船":3372,"艦":3373,"良":3374,"色":3375,"艳":3376,"艶":3377,"艺":3378,"节":3379,"芒":3380,"芙":3381,"芝":3382,"芥":3383,"芦":3384,"芬":3385,"芭":3386,"芮":3387,"芯":3388,"花":3389,"芳":3390,"芸":3391,"芹":3392,"芽":3393,"苏":3394,"苑":3395,"苗":3396,"苣":3397,"若":3398,"英":3399,"苺":3400,"茂":3401,"范":3402,"茅":3403,"茜":3404,"茶":3405,"茸":3406,"草":3407,"荊":3408,"荒":3409,"荔":3410,"荘":3411,"荥":3412,"荪":3413,"荫":3414,"药":3415,"荷":3416,"荻":3417,"荼":3418,"莉":3419,"莊":3420,"莎":3421,"莘":3422,"莞":3423,"莫":3424,"莱":3425,"莲":3426,"莴":3427,"菇":3428,"菉":3429,"菊":3430,"菜":3431,"華":3432,"菱":3433,"菲":3434,"萌":3435,"萍":3436,"萝":3437,"营":3438,"萧":3439,"萨":3440,"萬":3441,"落":3442,"葆":3443,"葉":3444,"著":3445,"葛":3446,"董":3447,"葦":3448,"葫":3449,"葵":3450,"蒙":3451,"蒭":3452,"蒲":3453,"蒼":3454,"蒿":3455,"蓀":3456,"蓑":3457,"蓝":3458,"蓮":3459,"蔡":3460,"蔭":3461,"蔵":3462,"蕃":3463,"蕉":3464,"蕨":3465,"蕩":3466,"蕭":3467,"薇":3468,"薊":3469,"薔":3470,"薙":3471,"薛":3472,"薩":3473,"薫":3474,"薯":3475,"藍":3476,"藏":3477,"藕":3478,"藝":3479,"藤":3480,"藥":3481,"藩":3482,"藻":3483,"蘄":3484,"蘅":3485,"蘇":3486,"蘑":3487,"蘭":3488,"蘿":3489,"虎":3490,"虐":3491,"虔":3492,"處":3493,"虚":3494,"虛":3495,"號":3496,"虫":3497,"虹":3498,"蛇":3499,"蛍":3500,"蛙":3501,"蛭":3502,"蜃":3503,"蜡":3504,"蝉":3505,"蝕":3506,"蝴":3507,"蝶":3508,"融":3509,"螺":3510,"蟲":3511,"蠕":3512,"蠻":3513,"血":3514,"衆":3515,"行":3516,"術":3517,"街":3518,"衙":3519,"衛":3520,"衝":3521,"衡":3522,"衢":3523,"衣":3524,"补":3525,"表":3526,"袁":3527,"袈":3528,"袖":3529,"被":3530,"裁":3531,"裂":3532,"装":3533,"裏":3534,"裔":3535,"裕":3536,"補":3537,"裝":3538,"裟":3539,"裳":3540,"裸":3541,"製":3542,"褒":3543,"襄":3544,"襟":3545,"襲":3546,"西":3547,"要":3548,"覇":3549,"見":3550,"規":3551,"視":3552,"覚":3553,"親":3554,"観":3555,"覺":3556,"觀":3557,"观":3558,"角":3559,"解":3560,"触":3561,"觳":3562,"言":3563,"計":3564,"記":3565,"設":3566,"許":3567,"訳":3568,"証":3569,"詔":3570,"詞":3571,"詠":3572,"試":3573,"詩":3574,"話":3575,"誌":3576,"誐":3577,"誒":3578,"誓":3579,"誕":3580,"誘":3581,"語":3582,"誠":3583,"誡":3584,"誦":3585,"說":3586,"説":3587,"読":3588,"誰":3589,"課":3590,"調":3591,"談":3592,"論":3593,"諭":3594,"諷":3595,"諸":3596,"謀":3597,"謁":3598,"謎":3599,"謙":3600,"講":3601,"謝":3602,"謡":3603,"譌":3604,"識":3605,"譚":3606,"譜":3607,"警":3608,"議":3609,"護":3610,"讀":3611,"變":3612,"讐":3613,"讓":3614,"计":3615,"让":3616,"议":3617,"许":3618,"论":3619,"讼":3620,"诉":3621,"词":3622,"诗":3623,"诚":3624,"话":3625,"语":3626,"诶":3627,"请":3628,"诺":3629,"读":3630,"课":3631,"谁":3632,"谦":3633,"谭":3634,"谷":3635,"豆":3636,"豊":3637,"豌":3638,"豐":3639,"豚":3640,"象":3641,"豪":3642,"豫":3643,"豬":3644,"豹":3645,"貓":3646,"貝":3647,"貞":3648,"負":3649,"財":3650,"貫":3651,"貴":3652,"費":3653,"賀":3654,"資":3655,"賈":3656,"賊":3657,"賓":3658,"賞":3659,"賢":3660,"賦":3661,"質":3662,"購":3663,"贈":3664,"贝":3665,"贞":3666,"财":3667,"贤":3668,"质":3669,"贵":3670,"贺":3671,"贼":3672,"资":3673,"赤":3674,"赭":3675,"走":3676,"赵":3677,"起":3678,"超":3679,"越":3680,"趙":3681,"足":3682,"跆":3683,"跑":3684,"跖":3685,"跟":3686,"跡":3687,"路":3688,"跳":3689,"踊":3690,"踏":3691,"踢":3692,"蹴":3693,"身":3694,"車":3695,"軌":3696,"軍":3697,"軒":3698,"転":3699,"軽":3700,"載":3701,"輔":3702,"輛":3703,"輝":3704,"輪":3705,"輿":3706,"轉":3707,"车":3708,"轩":3709,"转":3710,"辆":3711,"辉":3712,"辛":3713,"辣":3714,"辨":3715,"辭":3716,"辯":3717,"辰":3718,"農":3719,"边":3720,"辺":3721,"辽":3722,"达":3723,"辿":3724,"迄":3725,"迅":3726,"过":3727,"迈":3728,"运":3729,"近":3730,"返":3731,"这":3732,"进":3733,"远":3734,"迦":3735,"迪":3736,"述":3737,"迷":3738,"追":3739,"送":3740,"适":3741,"逆":3742,"选":3743,"這":3744,"通":3745,"造":3746,"逢":3747,"連":3748,"逯":3749,"週":3750,"進":3751,"遁":3752,"遇":3753,"遊":3754,"運":3755,"遍":3756,"過":3757,"道":3758,"達":3759,"遗":3760,"遙":3761,"遜":3762,"遠":3763,"遥":3764,"遮":3765,"選":3766,"遺":3767,"遼":3768,"避":3769,"邁":3770,"還":3771,"邊":3772,"邑":3773,"邓":3774,"那":3775,"邦":3776,"邪":3777,"邱":3778,"邵":3779,"郁":3780,"郊":3781,"郎":3782,"郑":3783,"郛":3784,"郝":3785,"郡":3786,"部":3787,"郭":3788,"郷":3789,"都":3790,"鄧":3791,"鄭":3792,"酈":3793,"酉":3794,"酒":3795,"酔":3796,"酥":3797,"酱":3798,"酷":3799,"酸":3800,"醋":3801,"醒":3802,"醫":3803,"采":3804,"釈":3805,"釋":3806,"里":3807,"重":3808,"野":3809,"量":3810,"金":3811,"釗":3812,"釣":3813,"鈍":3814,"鈴":3815,"鉄":3816,"鉢":3817,"鉦":3818,"鉱":3819,"鉴":3820,"銀":3821,"銃":3822,"銅":3823,"銓":3824,"銖":3825,"銘":3826,"銳":3827,"鋒":3828,"鋪":3829,"鋼":3830,"錄":3831,"錡":3832,"錦":3833,"錬":3834,"録":3835,"鍋":3836,"鍵":3837,"鎖":3838,"鎧":3839,"鎮":3840,"鏡":3841,"鐘":3842,"鐵":3843,"鐸":3844,"鑒":3845,"钊":3846,"钢":3847,"钦":3848,"钱":3849,"铁":3850,"铎":3851,"铜":3852,"铭":3853,"铺":3854,"锡":3855,"键":3856,"镇":3857,"镗":3858,"镜":3859,"長":3860,"长":3861,"門":3862,"閃":3863,"開":3864,"閏":3865,"閒":3866,"間":3867,"関":3868,"閣":3869,"閨":3870,"闇":3871,"闍":3872,"闕":3873,"闘":3874,"關":3875,"门":3876,"问":3877,"闯":3878,"阁":3879,"阪":3880,"防":3881,"阳":3882,"阿":3883,"陀":3884,"附":3885,"际":3886,"陈":3887,"降":3888,"限":3889,"陛":3890,"院":3891,"陣":3892,"除":3893,"陪":3894,"陳":3895,"陵":3896,"陶":3897,"陸":3898,"険":3899,"陽":3900,"隆":3901,"隊":3902,"階":3903,"隔":3904,"隗":3905,"隠":3906,"隣":3907,"隱":3908,"隴":3909,"隸":3910,"隻":3911,"隼":3912,"雀":3913,"雁":3914,"雄":3915,"雅":3916,"集":3917,"雇":3918,"雉":3919,"雎":3920,"雕":3921,"雙":3922,"雛":3923,"雜":3924,"雞":3925,"離":3926,"難":3927,"雨":3928,"雪":3929,"雲":3930,"雳":3931,"零":3932,"雷":3933,"電":3934,"雾":3935,"需":3936,"霆":3937,"震":3938,"霊":3939,"霍":3940,"霖":3941,"霜":3942,"霞":3943,"霧":3944,"霰":3945,"露":3946,"霸":3947,"霹":3948,"靂":3949,"靈":3950,"青":3951,"靖":3952,"静":3953,"非":3954,"靠":3955,"面":3956,"革":3957,"靴":3958,"靼":3959,"鞋":3960,"鞍":3961,"鞠":3962,"韃":3963,"韋":3964,"韓":3965,"韦":3966,"韩":3967,"韭":3968,"音":3969,"韶":3970,"響":3971,"頃":3972,"項":3973,"順":3974,"須":3975,"頌":3976,"頒":3977,"領":3978,"頭":3979,"顆":3980,"題":3981,"額":3982,"顏":3983,"顔":3984,"願":3985,"類":3986,"顯":3987,"项":3988,"顾":3989,"颂":3990,"颊":3991,"颖":3992,"颗":3993,"颜":3994,"風":3995,"颪":3996,"颱":3997,"飄":3998,"风":3999,"飛":4000,"飞":4001,"食":4002,"飯":4003,"飾":4004,"餅":4005,"養":4006,"餓":4007,"館":4008,"饼":4009,"饾":4010,"馆":4011,"馒":4012,"首":4013,"香":4014,"馬":4015,"馮":4016,"駆":4017,"駐":4018,"駒":4019,"駙":4020,"駢":4021,"駿":4022,"騎":4023,"騒":4024,"験":4025,"騭":4026,"騰":4027,"騷":4028,"驁":4029,"驗":4030,"驚":4031,"驤":4032,"马":4033,"驰":4034,"骨":4035,"骸":4036,"髀":4037,"體":4038,"高":4039,"髪":4040,"鬘":4041,"鬥":4042,"鬪":4043,"鬼":4044,"魂":4045,"魄":4046,"魔":4047,"魚":4048,"魯":4049,"鮑":4050,"鮫":4051,"鮮":4052,"鯖":4053,"鯵":4054,"鰐":4055,"鱀":4056,"鱼":4057,"鲁":4058,"鲤":4059,"鳥":4060,"鳩":4061,"鳳":4062,"鳴":4063,"鳶":4064,"鴉":4065,"鴣":4066,"鴨":4067,"鴻":4068,"鵡":4069,"鵩":4070,"鵬":4071,"鶍":4072,"鶴":4073,"鷓":4074,"鷹":4075,"鷺":4076,"鸚":4077,"鸟":4078,"鸡":4079,"鸭":4080,"鸿":4081,"鹅":4082,"鹹":4083,"鹼":4084,"鹽":4085,"鹿":4086,"麗":4087,"麥":4088,"麵":4089,"麻":4090,"麼":4091,"麾":4092,"黃":4093,"黄":4094,"黎":4095,"黑":4096,"黒":4097,"黙":4098,"黛":4099,"黨":4100,"鼉":4101,"鼎":4102,"鼓":4103,"鼠":4104,"鼻":4105,"齉":4106,"齊":4107,"齋":4108,"齐":4109,"龍":4110,"龙":4111,"ꜛ":4112,"ꜜ":4113,"ꜣ":4114,"ꜩ":4115,"ꜫ":4116,"ꜭ":4117,"ꞅ":4118,"ꞎ":4119,"ꞵ":4120,"ꦂ":4121,"ꦠ":4122,"ꦯ":4123,"ꦲ":4124,"ꦸ":4125,"ꭓ":4126,"ꭰ":4127,"ꭳ":4128,"ꭶ":4129,"ꭸ":4130,"ꭹ":4131,"ꮀ":4132,"ꮃ":4133,"ꮉ":4134,"ꮝ":4135,"ꮿ":4136,"️":4137,"︠":4138,"︡":4139,"﻿":4140,"�":4141,"𐀁":4142,"𐀈":4143,"𐀫":4144,"𐎠":4145,"𐎢":4146,"𐎭":4147,"𐎰":4148,"𐎹":4149,"𐎺":4150,"𐎼":4151,"𐏁":4152,"𐭃":4153,"𐭉":4154,"𐭓":4155,"𐭕":4156,"𒀯":4157,"𒀳":4158,"🖕":4159,"th":4160,"in":4161,"the":4162,"an":4163,"er":4164,"on":4165,"ed":4166,"re":4167,"at":4168,"en":4169,"or":4170,"st":4171,"al":4172,"ar":4173,"as":4174,"and":4175,"of":4176,"to":4177,"ing":4178,"is":4179,"es":4180,"it":4181,"ro":4182,"ic":4183,"ou":4184,"le":4185,"ion":4186,"ch":4187,"se":4188,"il":4189,"am":4190,"ent":4191,"ad":4192,"el":4193,"ac":4194,"co":4195,"for":4196,"be":4197,"was":4198,"de":4199,"ur":4200,"un":4201,"ly":4202,"ir":4203,"wh":4204,"im":4205,"-@":4206,"@-@":4207,"iv":4208,"ig":4209,"he":4210,"lo":4211,"ter":4212,"wi":4213,"con":4214,"ay":4215,"ce":4216,"ol":4217,"ver":4218,"with":4219,"id":4220,"ag":4221,"us":4222,"ation":4223,"that":4224,"by":4225,"ct":4226,"te":4227,"no":4228,"su":4229,"ap":4230,"mo":4231,"me":4232,"ne":4233,"sh":4234,"ut":4235,"po":4236,"av":4237,"tr":4238,"com":4239,"19":4240,"ain":4241,"pe":4242,"pro":4243,"ab":4244,"ers":4245,"so":4246,"ul":4247,"pl":4248,"ist":4249,"res":4250,"ere":4251,"00":4252,"all":4253,"rom":4254,"we":4255,"his":4256,"um":4257,"from":4258,"ther":4259,"ge":4260,"cl":4261,"art":4262,"are":4263,"oun":4264,"op":4265,"ill":4266,"ie":4267,"ies":4268,"man":4269,"fe":4270,"ber":4271,"igh":4272,"ke":4273,"ex":4274,"af":4275,"bo":4276,"ate":4277,"ment":4278,"qu":4279,"ts":4280,"ard":4281,"ich":4282,"were":4283,"ast":4284,"ip":4285,"per":4286,"au":4287,"gh":4288,"br":4289,"if":4290,"one":4291,"ho":4292,"ld":4293,"cr":4294,"ated":4295,"ong":4296,"ity":4297,"ame":4298,"end":4299,"ive":4300,"ess":4301,"ted":4302,"str":4303,"had":4304,"ian":4305,"our":4306,"ish":4307,"wn":4308,"pr":4309,"ack":4310,"out":4311,"ve":4312,"up":4313,"ear":4314,"ial":4315,"wor":4316,"which":4317,"der":4318,"but":4319,"por":4320,"do":4321,"ant":4322,"ia":4323,"du":4324,"ine":4325,"ak":4326,"her":4327,"wo":4328,"ud":4329,"act":4330,"cor":4331,"its":4332,"go":4333,"not":4334,"ary":4335,"ass":4336,"ell":4337,"fir":4338,"em":4339,"ical":4340,"ave":4341,"tim":4342,"gr":4343,"low":4344,"bl":4345,"20":4346,"ser":4347,"this":4348,"200":4349,"li":4350,"ach":4351,"mar":4352,"od":4353,"fo":4354,"age":4355,"after":4356,"ight":4357,"aw":4358,"ould":4359,"ree":4360,"first":4361,"new":4362,"ous":4363,"part":4364,"other":4365,"ction":4366,"their":4367,"form":4368,"who":4369,"sp":4370,"ign":4371,"min":4372,"land":4373,"ition":4374,"att":4375,"also":4376,"pres":4377,"gu":4378,"ater":4379,"ound":4380,"ide":4381,"ind":4382,"des":4383,"ire":4384,"play":4385,"fr":4386,"ph":4387,"they":4388,"ib":4389,"comm":4390,"ck":4391,"off":4392,"ure":4393,"two":4394,"ty":4395,"ma":4396,"pre":4397,"cre":4398,"18":4399,"pos":4400,"nor":4401,"she":4402,"comp":4403,"cent":4404,"have":4405,"ally":4406,"dis":4407,"over":4408,"rou":4409,"ile":4410,"jo":4411,"iz":4412,"air":4413,".@":4414,"@.@":4415,"has":4416,"ice":4417,"ev":4418,"ans":4419,"inter":4420,"year":4421,"ence":4422,"dr":4423,"uring":4424,"cont":4425,"been":4426,"ace":4427,"ok":4428,"ied":4429,",@":4430,"@,@":4431,"ough":4432,"201":4433,"mber":4434,"can":4435,"col":4436,"ship":4437,"ren":4438,"ory":4439,"est":4440,"port":4441,"tur":4442,"time":4443,"ite":4444,"mon":4445,"spe":4446,"ade":4447,"ance":4448,"work":4449,"int":4450,"gro":4451,"arr":4452,"when":4453,"ved":4454,"able":4455,"io":4456,"fl":4457,"ely":4458,"sion":4459,"fin":4460,"ep":4461,"incl":4462,"par":4463,"fer":4464,"ced":4465,"ang":4466,"during":4467,"eng":4468,"cord":4469,"sho":4470,"old":4471,"fil":4472,"gen":4473,"ail":4474,"way":4475,"ations":4476,"would":4477,"vel":4478,"into":4479,"him":4480,"most":4481,"more":4482,"oc":4483,"et":4484,"sy":4485,"coun":4486,"ten":4487,"om":4488,"son":4489,"main":4490,"char":4491,"fore":4492,"rough":4493,"war":4494,"some":4495,"sc":4496,"ates":4497,"day":4498,"bec":4499,"amp":4500,"ton":4501,"ase":4502,"ased":4503,"ces":4504,"bet":4505,"ited":4506,"vie":4507,"bu":4508,"reg":4509,"sing":4510,"film":4511,"while":4512,"sou":4513,"used":4514,"und":4515,"pu":4516,"ason":4517,"includ":4518,"game":4519,"pt":4520,"med":4521,"cond":4522,"ric":4523,"ning":4524,"cess":4525,"cted":4526,"les":4527,"ju":4528,"under":4529,"though":4530,"sa":4531,"gan":4532,"there":4533,"only":4534,"than":4535,"sel":4536,"wr":4537,"high":4538,"produ":4539,"king":4540,"fol":4541,"ild":4542,"ious":4543,"ue":4544,"west":4545,"sch":4546,"later":4547,"ors":4548,"ger":4549,"any":4550,"song":4551,"mus":4552,"my":4553,"ix":4554,"bro":4555,"again":4556,"ens":4557,"je":4558,"ann":4559,"ot":4560,"may":4561,"ions":4562,"amer":4563,"cap":4564,"rel":4565,"about":4566,"three":4567,"ween":4568,"ath":4569,"199":4570,"eld":4571,"ick":4572,"vis":4573,"between":4574,"through":4575,"led":4576,"rele":4577,"publ":4578,"ss":4579,"ating":4580,"them":4581,"gre":4582,"follow":4583,"tain":4584,"record":4585,"red":4586,"pol":4587,"ational":4588,"kno":4589,"second":4590,"num":4591,"ele":4592,"ra":4593,"where":4594,"10":4595,"als":4596,"ward":4597,"ict":4598,"sub":4599,"season":4600,"ful":4601,"lar":4602,"ste":4603,"turn":4604,"mat":4605,"car":4606,"cur":4607,"four":4608,"alb":4609,"world":4610,"view":4611,"back":4612,"sur":4613,"well":4614,"men":4615,"ting":4616,"americ":4617,"stru":4618,"la":4619,"spec":4620,"north":4621,"ident":4622,"set":4623,"then":4624,"before":4625,"ered":4626,"mu":4627,"team":4628,"000":4629,"ames":4630,"made":4631,"ters":4632,"writ":4633,"ular":4634,"call":4635,"mer":4636,"many":4637,"will":4638,"such":4639,"ived":4640,"add":4641,"mb":4642,"loc":4643,"cer":4644,"ank":4645,"national":4646,"album":4647,"bel":4648,"17":4649,"sup":4650,"tem":4651,"ings":4652,"cons":4653,"sever":4654,"ished":4655,"gener":4656,"appe":4657,"years":4658,"ta":4659,"ics":4660,"ry":4661,"..":4662,"tro":4663,"15":4664,"mis":4665,"cy":4666,"state":4667,"serv":4668,"howe":4669,"mor":4670,"ins":4671,"mill":4672,"south":4673,"mi":4674,"ific":4675,"show":4676,"both":4677,"ale":4678,"very":4679,"ily":4680,"ents":4681,"however":4682,"epis":4683,"bur":4684,"ped":4685,"rece":4686,"being":4687,"music":4688,"log":4689,"these":4690,"lead":4691,"stud":4692,"series":4693,"az":4694,"batt":4695,"ult":4696,"uary":4697,"against":4698,"sim":4699,"ane":4700,"ments":4701,"ual":4702,"ond":4703,"number":4704,"charac":4705,"ince":4706,"vol":4707,"ub":4708,"hist":4709,"city":4710,"line":4711,"soc":4712,"arch":4713,"ft":4714,"found":4715,"16":4716,"brit":4717,"velop":4718,"iver":4719,"tal":4720,"appear":4721,"12":4722,"cro":4723,"develop":4724,"united":4725,"win":4726,"leg":4727,"ause":4728,"ven":4729,"unt":4730,"became":4731,"down":4732,"ef":4733,"long":4734,"east":4735,"dire":4736,"ob":4737,"mil":4738,"pop":4739,"several":4740,"including":4741,"orig":4742,"lin":4743,"wer":4744,"head":4745,"ca":4746,"oper":4747,"hn":4748,"early":4749,"feat":4750,"bor":4751,"contin":4752,"198":4753,"known":4754,"did":4755,"ms":4756,"stor":4757,"pass":4758,"ode":4759,"ley":4760,"ek":4761,"nam":4762,"tre":4763,"gover":4764,"trans":4765,"dist":4766,"dif":4767,"let":4768,"sul":4769,"like":4770,"origin":4771,"194":4772,"cast":4773,"clo":4774,"fi":4775,"ended":4776,"ii":4777,"pers":4778,"public":4779,"cour":4780,"ons":4781,"bre":4782,"ner":4783,"ative":4784,"try":4785,"suc":4786,"div":4787,"ities":4788,"30":4789,"ange":4790,"ures":4791,"prov":4792,"states":4793,"ise":4794,"episode":4795,"rol":4796,"crit":4797,"group":4798,"john":4799,"jun":4800,"said":4801,"hou":4802,"run":4803,"following":4804,"ird":4805,"cle":4806,"design":4807,"ern":4808,"peri":4809,"could":4810,"sk":4811,"ury":4812,"american":4813,"vo":4814,"own":4815,"fam":4816,"use":4817,"although":4818,"sign":4819,"dec":4820,"called":4821,"del":4822,"14":4823,"roy":4824,"sm":4825,"197":4826,"sed":4827,"cover":4828,"na":4829,"self":4830,"196":4831,"jor":4832,"offic":4833,"near":4834,"ually":4835,"present":4836,"stem":4837,"band":4838,"remain":4839,"descr":4840,"road":4841,"life":4842,"scho":4843,"hy":4844,"ball":4845,"gest":4846,"began":4847,"open":4848,"bar":4849,"13":4850,"sen":4851,"until":4852,"ople":4853,"ash":4854,"released":4855,"along":4856,"aking":4857,"school":4858,"ose":4859,"because":4860,"ided":4861,"just":4862,"ised":4863,"ort":4864,"position":4865,"success":4866,"class":4867,"dep":4868,"ized":4869,"house":4870,"fa":4871,"ital":4872,"ject":4873,"var":4874,"ivers":4875,"come":4876,"people":4877,"you":4878,"austr":4879,"place":4880,"gust":4881,"ron":4882,"less":4883,"ium":4884,"dy":4885,"system":4886,"ling":4887,"ially":4888,"week":4889,"ists":4890,"prev":4891,"hel":4892,"50":4893,"million":4894,"return":4895,"test":4896,"ys":4897,"hal":4898,"british":4899,"cut":4900,"sco":4901,"ham":4902,"tit":4903,"since":4904,"town":4905,"attack":4906,"best":4907,"ier":4908,"around":4909,"six":4910,"major":4911,"award":4912,"book":4913,"sep":4914,"field":4915,"ible":4916,"colle":4917,"lit":4918,"fect":4919,"start":4920,"each":4921,"track":4922,"read":4923,"build":4924,"times":4925,"continu":4926,"eu":4927,"now":4928,"requ":4929,"character":4930,"govern":4931,"ision":4932,"tember":4933,"val":4934,"care":4935,"def":4936,"grap":4937,"xt":4938,"september":4939,"pen":4940,"star":4941,"comple":4942,"same":4943,"august":4944,"har":4945,"took":4946,"anc":4947,"plo":4948,"plac":4949,"stand":4950,"final":4951,"order":4952,"que":4953,"top":4954,"11":4955,"ri":4956,"resul":4957,"another":4958,"five":4959,"ble":4960,"mid":4961,"sl":4962,"km":4963,"den":4964,"what":4965,"ior":4966,"get":4967,"ired":4968,"mal":4969,"camp":4970,"jan":4971,"austral":4972,"aving":4973,"cal":4974,"ress":4975,"area":4976,"fur":4977,"formed":4978,"water":4979,"aim":4980,"tour":4981,"describ":4982,"consid":4983,"rest":4984,"march":4985,"ple":4986,"ves":4987,"ism":4988,"aft":4989,"side":4990,"pat":4991,"gun":4992,"met":4993,"century":4994,"ore":4995,"ks":4996,"mot":4997,"received":4998,"ctor":4999,"fle":5000,"home":5001,"urch":5002,"octo":5003,"due":5004,"pa":5005,"small":5006,"october":5007,"os":5008,"last":5009,"ork":5010,"ord":5011,"ility":5012,"gin":5013,"contr":5014,"person":5015,"even":5016,"ives":5017,"allow":5018,"match":5019,"ically":5020,"games":5021,"power":5022,"chr":5023,"tle":5024,"mag":5025,"partic":5026,"government":5027,"thern":5028,"ians":5029,"adv":5030,"ground":5031,"ked":5032,"ket":5033,"ison":5034,"ately":5035,"york":5036,"command":5037,"ines":5038,"ief":5039,"child":5040,"june":5041,"ina":5042,"ported":5043,"won":5044,"squ":5045,"resp":5046,"single":5047,"third":5048,"general":5049,"ril":5050,"dam":5051,"plan":5052,"force":5053,"company":5054,"25":5055,"july":5056,"point":5057,"wal":5058,"played":5059,"dece":5060,"nove":5061,"ik":5062,"ional":5063,"iving":5064,"ient":5065,"november":5066,"ru":5067,"sequ":5068,"event":5069,"appro":5070,"list":5071,"death":5072,"reach":5073,"review":5074,"sal":5075,"di":5076,"much":5077,"ah":5078,"island":5079,"large":5080,"cas":5081,"short":5082,"lish":5083,"april":5084,"bus":5085,"differ":5086,"organ":5087,"kill":5088,"name":5089,"posed":5090,"battle":5091,"law":5092,"aged":5093,"accord":5094,"ages":5095,"story":5096,"vide":5097,"ained":5098,"rad":5099,"univers":5100,"tt":5101,"left":5102,"family":5103,"nat":5104,"went":5105,"gl":5106,"ively":5107,"ster":5108,"wood":5109,"idge":5110,"month":5111,"hand":5112,"ined":5113,"based":5114,"vir":5115,"inc":5116,"ague":5117,"ude":5118,"production":5119,"sum":5120,"addition":5121,"club":5122,"incre":5123,"far":5124,"ilt":5125,"black":5126,"version":5127,"german":5128,"thor":5129,"poin":5130,"ships":5131,"army":5132,"history":5133,"thing":5134,"avy":5135,"ned":5136,"december":5137,"fic":5138,"bat":5139,"river":5140,"great":5141,"named":5142,"fall":5143,"moved":5144,"issu":5145,"dest":5146,"according":5147,"included":5148,"hum":5149,"poss":5150,"claim":5151,"constru":5152,"rote":5153,"using":5154,"sw":5155,"make":5156,"january":5157,"fort":5158,"195":5159,"gram":5160,"ford":5161,"...":5162,"tak":5163,"wrote":5164,"jap":5165,"polit":5166,"late":5167,"park":5168,"193":5169,"24":5170,"ute":5171,"gy":5172,"euro":5173,"cept":5174,"carr":5175,"hor":5176,"don":5177,"species":5178,"japan":5179,"cho":5180,"flu":5181,"init":5182,"sty":5183,"real":5184,"pical":5185,"ont":5186,"champ":5187,"previous":5188,"video":5189,"ness":5190,"post":5191,"former":5192,"within":5193,"original":5194,"lim":5195,"bill":5196,"still":5197,"ified":5198,"control":5199,"described":5200,"board":5201,"ney":5202,"those":5203,"ution":5204,"fact":5205,"minist":5206,"forman":5207,"ler":5208,"built":5209,"rench":5210,"ba":5211,"next":5212,"vict":5213,"ark":5214,"storm":5215,"commun":5216,"light":5217,"mbers":5218,"put":5219,"performan":5220,"ps":5221,"mc":5222,"rus":5223,"among":5224,"flo":5225,"release":5226,"support":5227,"uc":5228,"further":5229,"bert":5230,"attem":5231,"iven":5232,"league":5233,"pect":5234,"fri":5235,"che":5236,"ants":5237,"ilar":5238,"fac":5239,"lab":5240,"tele":5241,"effect":5242,"foot":5243,"placed":5244,"route":5245,"bas":5246,"fel":5247,"days":5248,"bal":5249,"white":5250,"vision":5251,"held":5252,"ared":5253,"christ":5254,"night":5255,"ival":5256,"sound":5257,"scen":5258,"move":5259,"cus":5260,"stit":5261,"milit":5262,"say":5263,"ured":5264,"half":5265,"ben":5266,"division":5267,"iam":5268,"similar":5269,"augh":5270,"febr":5271,"february":5272,"row":5273,"fire":5274,"sent":5275,"ral":5276,"sold":5277,"period":5278,"22":5279,"action":5280,"vi":5281,"mich":5282,"100":5283,"player":5284,"anim":5285,"rock":5286,"president":5287,"ga":5288,"train":5289,"ny":5290,"church":5291,"round":5292,"blo":5293,"good":5294,"prim":5295,"friend":5296,"cup":5297,"ences":5298,"ow":5299,"europe":5300,"ator":5301,"21":5302,"youn":5303,"station":5304,"wards":5305,"university":5306,"french":5307,"take":5308,"service":5309,"stree":5310,"hur":5311,"gar":5312,"members":5313,"local":5314,"role":5315,"2010":5316,"mit":5317,"estab":5318,"ize":5319,"dro":5320,"came":5321,"moun":5322,"craft":5323,"pot":5324,"fun":5325,"hun":5326,"23":5327,"hol":5328,"equ":5329,"non":5330,"ats":5331,"continued":5332,"tor":5333,"having":5334,"key":5335,"every":5336,"never":5337,"ones":5338,"william":5339,"lan":5340,"soci":5341,"prof":5342,"see":5343,"tech":5344,"ights":5345,"27":5346,"ently":5347,"ha":5348,"ken":5349,"ged":5350,"chang":5351,"40":5352,"chart":5353,"ides":5354,"associ":5355,"often":5356,"sol":5357,"belie":5358,"ending":5359,"ulation":5360,"desp":5361,"histor":5362,"lu":5363,"2008":5364,"28":5365,"court":5366,"ese":5367,"2009":5368,"career":5369,"geor":5370,"logy":5371,"wind":5372,"net":5373,"champion":5374,"wat":5375,"cu":5376,"lat":5377,"26":5378,"2011":5379,"level":5380,"ds":5381,"bridge":5382,"ars":5383,"indu":5384,"different":5385,"ched":5386,"without":5387,"pho":5388,"rich":5389,"once":5390,"seven":5391,"wall":5392,"western":5393,"despite":5394,"ret":5395,"england":5396,"free":5397,"considered":5398,"building":5399,"tropical":5400,"party":5401,"ctions":5402,"pur":5403,"ving":5404,"app":5405,"author":5406,"vent":5407,"dav":5408,"enter":5409,"served":5410,"development":5411,"written":5412,"hold":5413,"2007":5414,"father":5415,"country":5416,"stead":5417,"few":5418,"search":5419,"ural":5420,"prote":5421,"county":5422,"mp":5423,"concer":5424,"influ":5425,"super":5426,"trad":5427,"refer":5428,"royal":5429,"ross":5430,"songs":5431,"moder":5432,"graph":5433,"els":5434,"ices":5435,"english":5436,"military":5437,"highway":5438,"member":5439,"face":5440,"sug":5441,"exp":5442,"given":5443,"phil":5444,"press":5445,"ref":5446,"program":5447,"forces":5448,"dan":5449,"elect":5450,"beh":5451,"scor":5452,"2012":5453,"sit":5454,"ze":5455,"become":5456,"little":5457,"lost":5458,"international":5459,"strong":5460,"lond":5461,"29":5462,"hit":5463,"coast":5464,"aver":5465,"eder":5466,"how":5467,"london":5468,"sto":5469,"total":5470,"invol":5471,"aff":5472,"street":5473,"body":5474,"suggest":5475,"front":5476,"190":5477,"change":5478,"cir":5479,"uk":5480,"announ":5481,"ches":5482,"sun":5483,"sea":5484,"mad":5485,"hour":5486,"iety":5487,"right":5488,"close":5489,"rail":5490,"ery":5491,"away":5492,"gave":5493,"ports":5494,"popular":5495,"terr":5496,"canad":5497,"mass":5498,"published":5499,"decl":5500,"successful":5501,"represent":5502,"sure":5503,"mix":5504,"find":5505,"performance":5506,"ops":5507,"lie":5508,"ards":5509,"project":5510,"gold":5511,"produced":5512,"live":5513,"compe":5514,"tw":5515,"stated":5516,"ipt":5517,"fan":5518,"suf":5519,"returned":5520,"aren":5521,"base":5522,"broad":5523,"children":5524,"iment":5525,"ext":5526,"need":5527,"common":5528,"bs":5529,"fre":5530,"struct":5531,"too":5532,"making":5533,"fail":5534,"san":5535,"hen":5536,"grad":5537,"mur":5538,"love":5539,"quar":5540,"ae":5541,"ink":5542,"reported":5543,"curren":5544,"look":5545,"ington":5546,"xim":5547,"interest":5548,"jack":5549,"recorded":5550,"writing":5551,"ns":5552,"teen":5553,"ably":5554,"particular":5555,"cul":5556,"television":5557,"official":5558,"2006":5559,"dou":5560,"ran":5561,"aign":5562,"special":5563,"aircraft":5564,"ission":5565,"ama":5566,"trav":5567,"cross":5568,"covered":5569,"campaign":5570,"studio":5571,"60":5572,"should":5573,"import":5574,"stat":5575,"include":5576,"gn":5577,"coming":5578,"room":5579,"pal":5580,"stone":5581,"upon":5582,"cru":5583,"direct":5584,"intro":5585,"critic":5586,"central":5587,"women":5588,"style":5589,"arm":5590,"ston":5591,"cum":5592,"hurric":5593,"sex":5594,"van":5595,"destroy":5596,"throughout":5597,"fav":5598,"male":5599,"hill":5600,"anted":5601,"ains":5602,"nal":5603,"vill":5604,"works":5605,"mission":5606,"young":5607,"hard":5608,"sil":5609,"ying":5610,"tar":5611,"depend":5612,"himself":5613,"pit":5614,"australia":5615,"died":5616,"2013":5617,"ws":5618,"construction":5619,"hon":5620,"iness":5621,"wing":5622,"depart":5623,"clear":5624,"commit":5625,"introdu":5626,"characters":5627,"ni":5628,"big":5629,"vest":5630,"ising":5631,"expl":5632,"ges":5633,"eight":5634,"cost":5635,"mel":5636,"mark":5637,"located":5638,"utes":5639,"scr":5640,"players":5641,"cop":5642,"wa":5643,"title":5644,"squad":5645,"189":5646,"developed":5647,"acy":5648,"instead":5649,"southern":5650,"james":5651,"ever":5652,"saw":5653,"race":5654,"sat":5655,"result":5656,"ka":5657,"center":5658,"vil":5659,"alth":5660,"begin":5661,"hall":5662,"across":5663,"grand":5664,"outs":5665,"inv":5666,"ko":5667,"remained":5668,"months":5669,"break":5670,"conne":5671,"ways":5672,"activ":5673,"signific":5674,"pra":5675,"cell":5676,"akes":5677,"modern":5678,"dom":5679,"political":5680,"gress":5681,"taken":5682,"itions":5683,"pan":5684,"various":5685,"ago":5686,"ino":5687,"ither":5688,"bow":5689,"fif":5690,"born":5691,"bul":5692,"hu":5693,"ability":5694,"iers":5695,"hurricane":5696,"experi":5697,"mm":5698,"ances":5699,"seen":5700,"toge":5701,"conf":5702,"aster":5703,"together":5704,"commission":5705,"felt":5706,"formation":5707,"ff":5708,"office":5709,"ey":5710,"ibut":5711,"tic":5712,"stage":5713,"cil":5714,"ls":5715,"hot":5716,"created":5717,"ament":5718,"america":5719,"miles":5720,"erc":5721,"full":5722,"industr":5723,"bed":5724,"areas":5725,"noted":5726,"announced":5727,"eventually":5728,"appeared":5729,"80":5730,"pain":5731,"itor":5732,"ban":5733,"brother":5734,"fight":5735,"george":5736,"reached":5737,"colon":5738,"college":5739,"ming":5740,"rap":5741,"engine":5742,"japanese":5743,"pression":5744,"mir":5745,"mother":5746,"aval":5747,"occur":5748,"northern":5749,"gree":5750,"case":5751,"dre":5752,"gg":5753,"2005":5754,"rain":5755,"sele":5756,"got":5757,"heavy":5758,"abo":5759,"performed":5760,"range":5761,"process":5762,"ring":5763,"points":5764,"civ":5765,"tail":5766,"followed":5767,"meet":5768,"pair":5769,"gir":5770,"sus":5771,"iting":5772,"ization":5773,"sour":5774,"viet":5775,"pted":5776,"bank":5777,"mac":5778,"help":5779,"wide":5780,"2014":5781,"human":5782,"mean":5783,"section":5784,"wash":5785,"atic":5786,"football":5787,"antic":5788,"treat":5789,"cat":5790,"killed":5791,"ties":5792,"profess":5793,"significant":5794,"mph":5795,"idence":5796,"playing":5797,"nes":5798,"debut":5799,"ense":5800,"harr":5801,"termin":5802,"qual":5803,"spr":5804,"green":5805,"brown":5806,"current":5807,"lished":5808,"relation":5809,"thought":5810,"itive":5811,"ption":5812,"whe":5813,"thom":5814,"does":5815,"soon":5816,"ues":5817,"wil":5818,"lines":5819,"established":5820,"tru":5821,"reco":5822,"han":5823,"micha":5824,"pie":5825,"originally":5826,"lower":5827,"vin":5828,"australian":5829,"ought":5830,"subsequ":5831,"voc":5832,"spir":5833,"nel":5834,"thre":5835,"others":5836,"director":5837,"quest":5838,"started":5839,"enced":5840,"dem":5841,"entire":5842,"exe":5843,"david":5844,"cred":5845,"angel":5846,"sci":5847,"70":5848,"mas":5849,"surv":5850,"invest":5851,"tee":5852,"cret":5853,"features":5854,"nine":5855,"econ":5856,"scre":5857,"decided":5858,"econom":5859,"assist":5860,"business":5861,"critics":5862,"aves":5863,"afric":5864,"pred":5865,"feet":5866,"civil":5867,"caused":5868,"loss":5869,"union":5870,"site":5871,"mater":5872,"jud":5873,"iss":5874,"ids":5875,"rather":5876,"fleet":5877,"fourth":5878,"ime":5879,"ample":5880,"opened":5881,"aring":5882,"added":5883,"bc":5884,"rid":5885,"acc":5886,"important":5887,"behind":5888,"independ":5889,"exist":5890,"tra":5891,"jour":5892,"radio":5893,"magaz":5894,"ators":5895,"research":5896,"uses":5897,"mart":5898,"sam":5899,"medi":5900,"educ":5901,"here":5902,"championship":5903,"anti":5904,"ensive":5905,"comment":5906,"impro":5907,"ivid":5908,"guns":5909,"theast":5910,"possible":5911,"population":5912,"fish":5913,"space":5914,"ply":5915,"rought":5916,"leading":5917,"ox":5918,"pract":5919,"eastern":5920,"completed":5921,"damage":5922,"novel":5923,"tom":5924,"logical":5925,"leader":5926,"bay":5927,"almost":5928,"ram":5929,"thus":5930,"peak":5931,"bell":5932,"inst":5933,"working":5934,"worked":5935,"indian":5936,"die":5937,"comb":5938,"region":5939,"ky":5940,"boy":5941,"awards":5942,"initially":5943,"michael":5944,"type":5945,"lack":5946,"inj":5947,"consist":5948,"social":5949,"vic":5950,"kingdom":5951,"2004":5952,"ilo":5953,"cts":5954,"oney":5955,"bey":5956,"lou":5957,"31":5958,"mes":5959,"bio":5960,"bon":5961,"ith":5962,"ius":5963,"mult":5964,"los":5965,"midd":5966,"demo":5967,"proble":5968,"bit":5969,"gal":5970,"forced":5971,"draw":5972,"tradition":5973,"attr":5974,"itar":5975,"alter":5976,"hab":5977,"individ":5978,"ata":5979,"ination":5980,"ceed":5981,"separ":5982,"cult":5983,"vers":5984,"scene":5985,"personal":5986,"laun":5987,"anch":5988,"regular":5989,"weeks":5990,"god":5991,"2015":5992,"box":5993,"france":5994,"respect":5995,"fig":5996,"mary":5997,"operation":5998,"diffic":5999,"hip":6000,"rank":6001,"recording":6002,"towards":6003,"execut":6004,"term":6005,"tained":6006,"ker":6007,"emplo":6008,"35":6009,"ray":6010,"approach":6011,"joined":6012,"compan":6013,"ana":6014,"avail":6015,"ris":6016,"council":6017,"ature":6018,"reve":6019,"ready":6020,"bomb":6021,"attempt":6022,"chief":6023,"wanted":6024,"russ":6025,"tell":6026,"host":6027,"pointed":6028,"mith":6029,"henry":6030,"rul":6031,"material":6032,"ica":6033,"goal":6034,"ping":6035,"aud":6036,"2000":6037,"pac":6038,"allowed":6039,"ency":6040,"training":6041,"records":6042,"navy":6043,"recogn":6044,"fu":6045,"fly":6046,"scored":6047,"least":6048,"nia":6049,"bir":6050,"provided":6051,"shot":6052,"counter":6053,"wife":6054,"quick":6055,"asing":6056,"ax":6057,"emy":6058,"crew":6059,"secret":6060,"brig":6061,"claimed":6062,"fund":6063,"nomin":6064,"earth":6065,"dut":6066,"brought":6067,"average":6068,"past":6069,"labor":6070,"priv":6071,"500":6072,"tempor":6073,"know":6074,"estim":6075,"memor":6076,"featured":6077,"ville":6078,"phys":6079,"bird":6080,"ened":6081,"ager":6082,"corpor":6083,"either":6084,"feder":6085,"asy":6086,"proper":6087,"troops":6088,"stop":6089,"ends":6090,"lap":6091,"redu":6092,"lier":6093,"model":6094,"regard":6095,"summer":6096,"passed":6097,"istic":6098,"keep":6099,"ration":6100,"fut":6101,"defe":6102,"hig":6103,"victory":6104,"bound":6105,"victor":6106,"pay":6107,"aper":6108,"forms":6109,"castle":6110,"runs":6111,"generally":6112,"washington":6113,"must":6114,"cycl":6115,"captain":6116,"span":6117,"ister":6118,"gian":6119,"prison":6120,"yed":6121,"igned":6122,"robert":6123,"bad":6124,"example":6125,"condu":6126,"events":6127,"magazine":6128,"aven":6129,"rac":6130,"beat":6131,"battal":6132,"republic":6133,"leng":6134,"cing":6135,"concl":6136,"ake":6137,"revol":6138,"finished":6139,"dark":6140,"cali":6141,"paul":6142,"hest":6143,"ention":6144,"speed":6145,"xic":6146,"ony":6147,"ai":6148,"spo":6149,"middle":6150,"compl":6151,"ential":6152,"2003":6153,"opening":6154,"aut":6155,"particip":6156,"mun":6157,"ades":6158,"designed":6159,"squadron":6160,"tex":6161,"hours":6162,"certain":6163,"media":6164,"nu":6165,"relig":6166,"188":6167,"lot":6168,"iple":6169,"writer":6170,"parts":6171,"drop":6172,"believed":6173,"police":6174,"nd":6175,"ification":6176,"ering":6177,"90":6178,"bi":6179,"bour":6180,"comes":6181,"taking":6182,"ald":6183,"chest":6184,"suffer":6185,"cou":6186,"indic":6187,"stant":6188,"beginning":6189,"lake":6190,"hop":6191,"winds":6192,"lands":6193,"available":6194,"going":6195,"replaced":6196,"prior":6197,"45":6198,"75":6199,"hous":6200,"186":6201,"jer":6202,"tv":6203,"atl":6204,"distric":6205,"iction":6206,"langu":6207,"roman":6208,"involved":6209,"minutes":6210,"erous":6211,"european":6212,"active":6213,"emp":6214,"plat":6215,"earlier":6216,"sey":6217,"cher":6218,"turned":6219,"da":6220,"heart":6221,"society":6222,"hib":6223,"staff":6224,"length":6225,"ush":6226,"appearance":6227,"saying":6228,"respons":6229,"agre":6230,"commerc":6231,"immedi":6232,"mountain":6233,"lord":6234,"stre":6235,"lik":6236,"ci":6237,"association":6238,"gs":6239,"news":6240,"administ":6241,"largest":6242,"deal":6243,"highest":6244,"particularly":6245,"films":6246,"ida":6247,"scott":6248,"issue":6249,"asked":6250,"smith":6251,"achie":6252,"cks":6253,"meas":6254,"better":6255,"aled":6256,"percent":6257,"virgin":6258,"2001":6259,"typ":6260,"icle":6261,"mou":6262,"lear":6263,"plot":6264,"reason":6265,"daugh":6266,"date":6267,"mach":6268,"graphy":6269,"guard":6270,"outside":6271,"ather":6272,"cam":6273,"native":6274,"tou":6275,"ument":6276,"tries":6277,"units":6278,"promo":6279,"weak":6280,"charles":6281,"fit":6282,"thomas":6283,"infan":6284,"signed":6285,"increased":6286,"va":6287,"anned":6288,"pul":6289,"dig":6290,"feel":6291,"load":6292,"fest":6293,"praised":6294,"reviews":6295,"community":6296,"pressed":6297,"motion":6298,"pected":6299,"governor":6300,"future":6301,"audi":6302,"era":6303,"ateg":6304,"califor":6305,"coach":6306,"ored":6307,"mic":6308,"acad":6309,"ike":6310,"liter":6311,"above":6312,"relationship":6313,"broadcast":6314,"additional":6315,"2002":6316,"ape":6317,"ordered":6318,"enough":6319,"ples":6320,"peter":6321,"natural":6322,"guitar":6323,"usually":6324,"lay":6325,"ried":6326,"agon":6327,"canada":6328,"stra":6329,"complete":6330,"rob":6331,"theat":6332,"acqu":6333,"domin":6334,"anal":6335,"viol":6336,"iding":6337,"give":6338,"infantry":6339,"acted":6340,"standing":6341,"access":6342,"previously":6343,"constit":6344,"capt":6345,"accoun":6346,"dead":6347,"resident":6348,"tax":6349,"rights":6350,"told":6351,"musical":6352,"ayed":6353,"ilities":6354,"ded":6355,"minor":6356,"occup":6357,"chap":6358,"critical":6359,"committee":6360,"richard":6361,"metres":6362,"instit":6363,"elements":6364,"threat":6365,"ener":6366,"defin":6367,"positive":6368,"argu":6369,"imp":6370,"california":6371,"colum":6372,"pec":6373,"emer":6374,"recent":6375,"amoun":6376,"woman":6377,"ases":6378,"explo":6379,"arily":6380,"food":6381,"ference":6382,"lee":6383,"appointed":6384,"word":6385,"asse":6386,"report":6387,"background":6388,"pow":6389,"money":6390,"berg":6391,"travel":6392,"contribut":6393,"difficult":6394,"female":6395,"spent":6396,"blue":6397,"phy":6398,"dev":6399,"iff":6400,"overall":6401,"premi":6402,"alex":6403,"groups":6404,"screen":6405,"imin":6406,"bers":6407,"rup":6408,"photo":6409,"reser":6410,"directed":6411,"flood":6412,"pun":6413,"structure":6414,"frank":6415,"ctive":6416,"perform":6417,"tun":6418,"́n":6419,"nation":6420,"exten":6421,"barr":6422,"interview":6423,"ara":6424,"failed":6425,"1990":6426,"poor":6427,"onto":6428,"lor":6429,"square":6430,"health":6431,"reng":6432,"prob":6433,"prepar":6434,"required":6435,"lad":6436,"hap":6437,"yard":6438,"usion":6439,"fant":6440,"tu":6441,"germany":6442,"len":6443,"appl":6444,"respond":6445,"district":6446,"india":6447,"christian":6448,"limited":6449,"wit":6450,"actions":6451,"itself":6452,"science":6453,"battalion":6454,"zer":6455,"evidence":6456,"sometimes":6457,"card":6458,"frequ":6459,"changes":6460,"tured":6461,"vert":6462,"seem":6463,"deep":6464,"ibility":6465,"introduced":6466,"odes":6467,"rating":6468,"commercial":6469,"reception":6470,"contract":6471,"transfer":6472,"streng":6473,"idea":6474,"election":6475,"course":6476,"investig":6477,"iii":6478,"clim":6479,"except":6480,"turning":6481,"stars":6482,"ultim":6483,"study":6484,"living":6485,"exper":6486,"flight":6487,"lam":6488,"flow":6489,"bud":6490,"score":6491,"muse":6492,"whose":6493,"igan":6494,"burg":6495,"avo":6496,"defeated":6497,"already":6498,"situ":6499,"cit":6500,"approxim":6501,"mexic":6502,"gard":6503,"agree":6504,"onse":6505,"compet":6506,"nar":6507,"flor":6508,"chic":6509,"education":6510,"queen":6511,"ien":6512,"names":6513,"whom":6514,"chester":6515,"bot":6516,"might":6517,"forest":6518,"minister":6519,"changed":6520,"hosp":6521,"worth":6522,"students":6523,"kets":6524,"quickly":6525,"sand":6526,"slow":6527,"erson":6528,"entertain":6529,"transport":6530,"hood":6531,"effects":6532,"hero":6533,"favor":6534,"33":6535,"surface":6536,"ching":6537,"gas":6538,"movement":6539,"tracks":6540,"subject":6541,"response":6542,"prevent":6543,"cm":6544,"cele":6545,"plant":6546,"girl":6547,"commander":6548,"oly":6549,"scenes":6550,"horse":6551,"aining":6552,"your":6553,"moving":6554,"greg":6555,"1970":6556,"decision":6557,"adap":6558,"department":6559,"187":6560,"fifth":6561,"arrived":6562,"agreed":6563,"espec":6564,"centre":6565,"join":6566,"sons":6567,"1980":6568,"britain":6569,"likely":6570,"fair":6571,"related":6572,"especially":6573,"services":6574,"museum":6575,"tho":6576,"teams":6577,"blood":6578,"quarter":6579,"consider":6580,"depression":6581,"trial":6582,"text":6583,"suit":6584,"operations":6585,"nic":6586,"voice":6587,"chan":6588,"village":6589,"tons":6590,"parli":6591,"shows":6592,"object":6593,"iel":6594,"fell":6595,"nings":6596,"wel":6597,"estimated":6598,"industry":6599,"lyric":6600,"larger":6601,"flag":6602,"aint":6603,"becoming":6604,"listed":6605,"size":6606,"cting":6607,"pil":6608,"carried":6609,"36":6610,"docum":6611,"daughter":6612,"latter":6613,"remaining":6614,"discus":6615,"legal":6616,"ll":6617,"establish":6618,"episodes":6619,"parliament":6620,"married":6621,"polic":6622,"cape":6623,"rate":6624,"naval":6625,"glo":6626,"eds":6627,"pressure":6628,"running":6629,"1999":6630,"spring":6631,"37":6632,"winter":6633,"upper":6634,"brief":6635,"surround":6636,"via":6637,"syn":6638,"complet":6639,"cree":6640,"franc":6641,"chall":6642,"cand":6643,"kr":6644,"princ":6645,"leaving":6646,"winning":6647,"entered":6648,"virginia":6649,"atory":6650,"paren":6651,"aging":6652,"sess":6653,"equip":6654,"pose":6655,"temporary":6656,"suggested":6657,"ander":6658,"tural":6659,"secur":6660,"nearly":6661,"prin":6662,"books":6663,"hi":6664,"influence":6665,"approximately":6666,"icted":6667,"occas":6668,"twent":6669,"location":6670,"experience":6671,"capital":6672,"iation":6673,"language":6674,"deb":6675,"shortly":6676,"regiment":6677,"federal":6678,"empire":6679,"islands":6680,"ses":6681,"envir":6682,"today":6683,"forward":6684,"network":6685,"jackson":6686,"finally":6687,"stad":6688,"mixed":6689,"38":6690,"sky":6691,"mr":6692,"grow":6693,"tery":6694,"aries":6695,"detail":6696,"purch":6697,"shire":6698,"err":6699,"louis":6700,"destroyed":6701,"proposed":6702,"meth":6703,"pon":6704,"32":6705,"ging":6706,"bring":6707,"49":6708,"nature":6709,"producer":6710,"manager":6711,"olymp":6712,"ams":6713,"higher":6714,"spanish":6715,"corps":6716,"intended":6717,"master":6718,"environ":6719,"selves":6720,"professional":6721,"create":6722,"pts":6723,"color":6724,"unit":6725,"provide":6726,"subsequently":6727,"captured":6728,"brigade":6729,"iron":6730,"battles":6731,"gue":6732,"railway":6733,"supported":6734,"fully":6735,"ays":6736,"complex":6737,"journal":6738,"democr":6739,"friends":6740,"compared":6741,"fill":6742,"done":6743,"immediately":6744,"ya":6745,"ishing":6746,"temper":6747,"fans":6748,"1960":6749,"block":6750,"actor":6751,"mouth":6752,"private":6753,"expected":6754,"soviet":6755,"inese":6756,"jim":6757,"birth":6758,"scient":6759,"liber":6760,"weap":6761,"py":6762,"planned":6763,"stan":6764,"edward":6765,"agement":6766,"archite":6767,"feature":6768,"initial":6769,"kar":6770,"mig":6771,"increasing":6772,"awarded":6773,"chinese":6774,"aker":6775,"chicago":6776,"closed":6777,"whether":6778,"icles":6779,"helped":6780,"legis":6781,"haw":6782,"acting":6783,"marked":6784,"ado":6785,"ribut":6786,"officer":6787,"fast":6788,"ull":6789,"1998":6790,"jose":6791,"yet":6792,"secut":6793,"trade":6794,"issued":6795,"bury":6796,"soldiers":6797,"arg":6798,"dance":6799,"comed":6800,"longer":6801,"buildings":6802,"sail":6803,"cel":6804,"ye":6805,"prince":6806,"185":6807,"bish":6808,"billboard":6809,"insp":6810,"conserv":6811,"positions":6812,"cause":6813,"rang":6814,"nick":6815,"teach":6816,"acts":6817,"valley":6818,"phen":6819,"plans":6820,"34":6821,"300":6822,"dol":6823,"relat":6824,"intens":6825,"associated":6826,"kore":6827,"instr":6828,"gins":6829,"standard":6830,"something":6831,"distribut":6832,"ipal":6833,"kin":6834,"auto":6835,"officers":6836,"step":6837,"atlantic":6838,"remains":6839,"mostly":6840,"exam":6841,"pacific":6842,"singles":6843,"stic":6844,"trib":6845,"johnson":6846,"defeat":6847,"kilo":6848,"pict":6849,"themselves":6850,"want":6851,"thr":6852,"oce":6853,"demon":6854,"countries":6855,"lyrics":6856,"extended":6857,"oh":6858,"information":6859,"visit":6860,"ender":6861,"probably":6862,"48":6863,"really":6864,"tank":6865,"ona":6866,"traf":6867,"market":6868,"habit":6869,"financ":6870,"dies":6871,"ises":6872,"saur":6873,"anna":6874,"numerous":6875,"ula":6876,"sett":6877,"singer":6878,"china":6879,"repe":6880,"mont":6881,"appears":6882,"awn":6883,"admir":6884,"marine":6885,"portr":6886,"copies":6887,"always":6888,"aught":6889,"scot":6890,"kind":6891,"demand":6892,"request":6893,"mitted":6894,"cham":6895,"affe":6896,"zo":6897,"hus":6898,"issues":6899,"goals":6900,"lock":6901,"individual":6902,"sales":6903,"amed":6904,"thes":6905,"dun":6906,"uni":6907,"rd":6908,"psy":6909,"energy":6910,"1997":6911,"andre":6912,"edge":6913,"conference":6914,"leave":6915,"artist":6916,"congress":6917,"status":6918,"includes":6919,"takes":6920,"andon":6921,"suffered":6922,"neg":6923,"jected":6924,"mess":6925,"sor":6926,"hospital":6927,"maxim":6928,"yards":6929,"weight":6930,"39":6931,"bass":6932,"movie":6933,"expand":6934,"florida":6935,"martin":6936,"edition":6937,"sir":6938,"problems":6939,"inspired":6940,"spl":6941,"albums":6942,"meeting":6943,"drum":6944,"loy":6945,"fighting":6946,"attacks":6947,"47":6948,"spect":6949,"letter":6950,"double":6951,"bond":6952,"script":6953,"wild":6954,"increase":6955,"stock":6956,"confir":6957,"uded":6958,"independent":6959,"removed":6960,"makes":6961,"icket":6962,"celebr":6963,"minute":6964,"metal":6965,"revolution":6966,"creek":6967,"texas":6968,"fox":6969,"forts":6970,"pool":6971,"portion":6972,"method":6973,"refle":6974,"offered":6975,"geo":6976,"foreign":6977,"cruis":6978,"majority":6979,"terms":6980,"primary":6981,"dv":6982,"veh":6983,"words":6984,"sar":6985,"shoot":6986,"impact":6987,"oil":6988,"combat":6989,"restr":6990,"alle":6991,"thur":6992,"males":6993,"adop":6994,"composed":6995,"sell":6996,"discovered":6997,"ift":6998,"dail":6999,"peace":7000,"wis":7001,"culture":7002,"wid":7003,"assigned":7004,"breed":7005,"ranked":7006,"convent":7007,"carol":7008,"entertainment":7009,"giving":7010,"think":7011,"concept":7012,"ena":7013,"smo":7014,"thir":7015,"figh":7016,"damaged":7017,"raised":7018,"environment":7019,"plays":7020,"ously":7021,"canadian":7022,"africa":7023,"ustr":7024,"ication":7025,"shar":7026,"categ":7027,"cere":7028,"selected":7029,"daily":7030,"miss":7031,"wrest":7032,"cyclone":7033,"sof":7034,"sports":7035,"ask":7036,"techno":7037,"revealed":7038,"ost":7039,"ja":7040,"necess":7041,"za":7042,"morning":7043,"promis":7044,"rated":7045,"schol":7046,"mob":7047,"marri":7048,"kent":7049,"ners":7050,"elled":7051,"conditions":7052,"piece":7053,"russian":7054,"uck":7055,"heav":7056,"chair":7057,"architect":7058,"inside":7059,"twenty":7060,"46":7061,"manu":7062,"lived":7063,"attacked":7064,"swe":7065,"notes":7066,"constructed":7067,"ocean":7068,"unable":7069,"sched":7070,"launched":7071,"uries":7072,"onna":7073,"northeast":7074,"bob":7075,"greater":7076,"safe":7077,"houses":7078,"respectively":7079,"writers":7080,"whole":7081,"confl":7082,"sister":7083,"gely":7084,"evol":7085,"pet":7086,"needed":7087,"ski":7088,"ioned":7089,"1995":7090,"numbers":7091,"below":7092,"gall":7093,"traditional":7094,"stein":7095,"smaller":7096,"angeles":7097,"wish":7098,"boat":7099,"cepted":7100,"icated":7101,"electric":7102,"francis":7103,"advance":7104,"religious":7105,"contains":7106,"ordin":7107,"attempted":7108,"bol":7109,"shown":7110,"gradu":7111,"occurred":7112,"newsp":7113,"wound":7114,"famil":7115,"improve":7116,"inch":7117,"rose":7118,"ov":7119,"festival":7120,"gam":7121,"elected":7122,"distin":7123,"annual":7124,"rare":7125,"rein":7126,"tower":7127,"collection":7128,"2016":7129,"chem":7130,"guest":7131,"1996":7132,"referred":7133,"1950":7134,"lon":7135,"silver":7136,"olic":7137,"produce":7138,"neigh":7139,"izing":7140,"dar":7141,"gate":7142,"anced":7143,"amount":7144,"crow":7145,"replace":7146,"ira":7147,"render":7148,"theme":7149,"cab":7150,"schools":7151,"italian":7152,"ify":7153,"audience":7154,"stom":7155,"resulted":7156,"tion":7157,"largely":7158,"constant":7159,"cath":7160,"uals":7161,"kept":7162,"arts":7163,"economic":7164,"jac":7165,"slight":7166,"aust":7167,"verse":7168,"tournam":7169,"contro":7170,"variety":7171,"sumed":7172,"earned":7173,"stream":7174,"1994":7175,"competition":7176,"starting":7177,"prime":7178,"ech":7179,"philip":7180,"bia":7181,"stadium":7182,"scul":7183,"document":7184,"commented":7185,"sec":7186,"55":7187,"attention":7188,"rapid":7189,"performances":7190,"protest":7191,"zeal":7192,"quarters":7193,"camer":7194,"ssing":7195,"extre":7196,"michigan":7197,"install":7198,"trail":7199,"180":7200,"refused":7201,"atest":7202,"sexual":7203,"pic":7204,"traffic":7205,"stories":7206,"enjo":7207,"greatest":7208,"penn":7209,"adel":7210,"imper":7211,"beth":7212,"wales":7213,"ening":7214,"things":7215,"direction":7216,"declared":7217,"matches":7218,"focus":7219,"serious":7220,"iption":7221,"marriage":7222,"drew":7223,"ume":7224,"ti":7225,"defense":7226,"1940":7227,"promin":7228,"path":7229,"meant":7230,"cry":7231,"inner":7232,"touch":7233,"rit":7234,"ug":7235,"vocals":7236,"ki":7237,"vey":7238,"concert":7239,"hundr":7240,"uss":7241,"44":7242,"abandon":7243,"weather":7244,"chann":7245,"doctor":7246,"levels":7247,"shi":7248,"chron":7249,"apo":7250,"aware":7251,"murder":7252,"wol":7253,"pret":7254,"nearby":7255,"cases":7256,"resist":7257,"fal":7258,"lane":7259,"practice":7260,"organization":7261,"northwest":7262,"marsh":7263,"itory":7264,"aur":7265,"uter":7266,"windo":7267,"emper":7268,"gil":7269,"uten":7270,"ibly":7271,"pin":7272,"ips":7273,"mile":7274,"determin":7275,"medical":7276,"source":7277,"farm":7278,"fantasy":7279,"beach":7280,"dvd":7281,"eye":7282,"sides":7283,"candid":7284,"rio":7285,"1992":7286,"admiral":7287,"sn":7288,"incorpor":7289,"vocal":7290,"spot":7291,"invas":7292,"favour":7293,"lis":7294,"grant":7295,"separate":7296,"systems":7297,"65":7298,"highly":7299,"settle":7300,"birds":7301,"continue":7302,"means":7303,"arab":7304,"syl":7305,"pack":7306,"pick":7307,"ulated":7308,"southeast":7309,"rule":7310,"charge":7311,"rick":7312,"honor":7313,"ump":7314,"mechan":7315,"observ":7316,"iest":7317,"prop":7318,"mod":7319,"zealand":7320,"jam":7321,"rey":7322,"specific":7323,"executive":7324,"exhib":7325,"directly":7326,"bishop":7327,"ultimately":7328,"nest":7329,"kes":7330,"og":7331,"burn":7332,"passing":7333,"ding":7334,"reduced":7335,"mexico":7336,"presented":7337,"drive":7338,"african":7339,"sav":7340,"effort":7341,"libr":7342,"theatre":7343,"multiple":7344,"sive":7345,"coal":7346,"brad":7347,"attended":7348,"tried":7349,"yel":7350,"efforts":7351,"memorial":7352,"chris":7353,"animals":7354,"bled":7355,"1930":7356,"symb":7357,"advent":7358,"serve":7359,"quality":7360,"hl":7361,"mut":7362,"wealth":7363,"studies":7364,"stating":7365,"lic":7366,"allied":7367,"responsible":7368,"function":7369,"accepted":7370,"lieuten":7371,"financial":7372,"border":7373,"progress":7374,"madonna":7375,"mand":7376,"incident":7377,"400":7378,"1993":7379,"1991":7380,"ceremon":7381,"restor":7382,"creation":7383,"sole":7384,"itation":7385,"founded":7386,"begins":7387,"setting":7388,"true":7389,"bes":7390,"saint":7391,"enemy":7392,"ems":7393,"thick":7394,"nov":7395,"happ":7396,"agu":7397,"95":7398,"scale":7399,"yer":7400,"scotland":7401,"meaning":7402,"eth":7403,"jones":7404,"possess":7405,"dor":7406,"write":7407,"zz":7408,"planet":7409,"airport":7410,"arrest":7411,"illery":7412,"managed":7413,"flying":7414,"parents":7415,"advis":7416,"42":7417,"paid":7418,"fat":7419,"companies":7420,"roads":7421,"activity":7422,"iance":7423,"thro":7424,"fellow":7425,"iate":7426,"painting":7427,"greek":7428,"arms":7429,"resulting":7430,"tournament":7431,"excl":7432,"ficient":7433,"thous":7434,"cub":7435,"broke":7436,"dropped":7437,"mul":7438,"titled":7439,"folk":7440,"lieutenant":7441,"academy":7442,"showed":7443,"urban":7444,"eigh":7445,"41":7446,"simp":7447,"allowing":7448,"enn":7449,"authority":7450,"policy":7451,"combined":7452,"secretary":7453,"emperor":7454,"armed":7455,"plane":7456,"exped":7457,"resol":7458,"thin":7459,"strugg":7460,"rum":7461,"artillery":7462,"ert":7463,"mind":7464,"ceeded":7465,"administration":7466,"williams":7467,"continues":7468,"ku":7469,"inches":7470,"spirit":7471,"passeng":7472,"slo":7473,"rev":7474,"ali":7475,"kings":7476,"property":7477,"solo":7478,"colour":7479,"subsequent":7480,"matic":7481,"artists":7482,"calling":7483,"contemporary":7484,"attempts":7485,"content":7486,"ulf":7487,"isation":7488,"territory":7489,"rot":7490,"accept":7491,"grade":7492,"account":7493,"cold":7494,"cities":7495,"ites":7496,"selling":7497,"rush":7498,"machine":7499,"behav":7500,"oth":7501,"pilot":7502,"aga":7503,"potential":7504,"image":7505,"presence":7506,"ito":7507,"viewers":7508,"voy":7509,"divided":7510,"studios":7511,"tree":7512,"sixth":7513,"thousand":7514,"sequence":7515,"egy":7516,"officials":7517,"conducted":7518,"1942":7519,"ody":7520,"digital":7521,"78":7522,"yan":7523,"maintain":7524,"sac":7525,"tam":7526,"job":7527,"repair":7528,"propos":7529,"contrast":7530,"map":7531,"dome":7532,"filming":7533,"figure":7534,"elle":7535,"defence":7536,"portun":7537,"hat":7538,"temple":7539,"opportun":7540,"recomm":7541,"bles":7542,"owned":7543,"collabor":7544,"latin":7545,"twel":7546,"transferred":7547,"wed":7548,"scoring":7549,"mond":7550,"senior":7551,"maximum":7552,"ada":7553,"hors":7554,"sin":7555,"brand":7556,"wise":7557,"pedo":7558,"demonstr":7559,"ications":7560,"beaut":7561,"featuring":7562,"seconds":7563,"therefore":7564,"primarily":7565,"security":7566,"faced":7567,"patter":7568,"strength":7569,"oxford":7570,"relatively":7571,"theory":7572,"student":7573,"peaked":7574,"actors":7575,"apart":7576,"yellow":7577,"arthur":7578,"dise":7579,"torpedo":7580,"becomes":7581,"accident":7582,"76":7583,"pi":7584,"kel":7585,"starr":7586,"actually":7587,"joseph":7588,"cert":7589,"distance":7590,"physical":7591,"management":7592,"mann":7593,"battleship":7594,"hair":7595,"concluded":7596,"citiz":7597,"boston":7598,"ano":7599,"share":7600,"draft":7601,"table":7602,"conver":7603,"une":7604,"manchester":7605,"shell":7606,"invasion":7607,"sions":7608,"observed":7609,"harrison":7610,"situation":7611,"suppl":7612,"sr":7613,"contest":7614,"alleg":7615,"armor":7616,"brid":7617,"prise":7618,"gi":7619,"affair":7620,"egypt":7621,"43":7622,"sust":7623,"identified":7624,"alongside":7625,"swed":7626,"results":7627,"liver":7628,"concent":7629,"personnel":7630,"rical":7631,"alone":7632,"ressed":7633,"extr":7634,"benef":7635,"sources":7636,"paper":7637,"arent":7638,"1944":7639,"istics":7640,"stay":7641,"slightly":7642,"express":7643,"tan":7644,"inte":7645,"returning":7646,"owner":7647,"historical":7648,"missed":7649,"dog":7650,"agreement":7651,"85":7652,"150":7653,"kg":7654,"pian":7655,"historian":7656,"chi":7657,"cultural":7658,"kir":7659,"push":7660,"paris":7661,"versions":7662,"types":7663,"crash":7664,"minim":7665,"imperial":7666,"else":7667,"ari":7668,"atives":7669,"vessel":7670,"influenced":7671,"appoint":7672,"nothing":7673,"bbc":7674,"freed":7675,"orders":7676,"places":7677,"struck":7678,"soundtrack":7679,"innings":7680,"core":7681,"custom":7682,"nominated":7683,"isions":7684,"completely":7685,"stal":7686,"nit":7687,"drawn":7688,"confirmed":7689,"leon":7690,"athlet":7691,"oso":7692,"residents":7693,"ellig":7694,"promoted":7695,"comedy":7696,"designated":7697,"door":7698,"crown":7699,"commissioned":7700,"attend":7701,"gill":7702,"iced":7703,"metro":7704,"preser":7705,"exc":7706,"intellig":7707,"croat":7708,"si":7709,"conflict":7710,"gets":7711,"shel":7712,"astic":7713,"avenue":7714,"capture":7715,"sense":7716,"powerful":7717,"mainly":7718,"foc":7719,"iza":7720,"wy":7721,"floor":7722,"waters":7723,"charts":7724,"orche":7725,"atom":7726,"sought":7727,"shap":7728,"prec":7729,"seasons":7730,"1920":7731,"encour":7732,"opin":7733,"stephen":7734,"justice":7735,"ancient":7736,"1945":7737,"achieve":7738,"cers":7739,"1941":7740,"64":7741,"husband":7742,"offer":7743,"canal":7744,"electron":7745,"reaching":7746,"explained":7747,"older":7748,"fiction":7749,"italy":7750,"asia":7751,"mine":7752,"appearances":7753,"anger":7754,"ato":7755,"weapons":7756,"cine":7757,"supply":7758,"channel":7759,"poly":7760,"iated":7761,"growth":7762,"looking":7763,"steam":7764,"ridge":7765,"americans":7766,"pap":7767,"instrument":7768,"rho":7769,"ulations":7770,"successfully":7771,"widely":7772,"acu":7773,"medal":7774,"proved":7775,"gained":7776,"officially":7777,"watch":7778,"pieces":7779,"dete":7780,"baseball":7781,"rhy":7782,"assa":7783,"workers":7784,"ets":7785,"yu":7786,"duke":7787,"jersey":7788,"negot":7789,"offensive":7790,"otto":7791,"99":7792,"sher":7793,"sid":7794,"swit":7795,"choice":7796,"rear":7797,"steel":7798,"beyond":7799,"gary":7800,"mast":7801,"brothers":7802,"ireland":7803,"mounted":7804,"horses":7805,"question":7806,"aid":7807,"ological":7808,"anne":7809,"fix":7810,"eas":7811,"reign":7812,"imag":7813,"rat":7814,"endo":7815,"organized":7816,"doing":7817,"element":7818,"library":7819,"vania":7820,"headquarters":7821,"izes":7822,"ahead":7823,"says":7824,"normal":7825,"legisl":7826,"affected":7827,"ider":7828,"expans":7829,"branch":7830,"partner":7831,"capac":7832,"1989":7833,"rainfall":7834,"rome":7835,"speech":7836,"cool":7837,"causing":7838,"moon":7839,"bodies":7840,"bowl":7841,"1943":7842,"hotel":7843,"victoria":7844,"visited":7845,"theless":7846,"represented":7847,"laid":7848,"techni":7849,"expressed":7850,"assemb":7851,"fred":7852,"leaders":7853,"ji":7854,"require":7855,"sle":7856,"article":7857,"vote":7858,"catholic":7859,"matter":7860,"aer":7861,"split":7862,"famous":7863,"escape":7864,"equipment":7865,"apparent":7866,"roll":7867,"broken":7868,"fired":7869,"store":7870,"strike":7871,"reports":7872,"snow":7873,"computer":7874,"ita":7875,"ami":7876,"prominent":7877,"600":7878,"jul":7879,"drama":7880,"nations":7881,"advanced":7882,"avoid":7883,"bush":7884,"advant":7885,"analys":7886,"narr":7887,"nav":7888,"skill":7889,"tay":7890,"worldwide":7891,"claims":7892,"tells":7893,"technology":7894,"manufact":7895,"bart":7896,"category":7897,"defend":7898,"sport":7899,"treatment":7900,"experiment":7901,"77":7902,"occasion":7903,"dur":7904,"usual":7905,"leaves":7906,"senate":7907,"reserve":7908,"heavily":7909,"uled":7910,"spread":7911,"trees":7912,"lyn":7913,"graphic":7914,"activities":7915,"ung":7916,"dutch":7917,"mn":7918,"disco":7919,"condition":7920,"gment":7921,"zy":7922,"extra":7923,"powers":7924,"meanwhile":7925,"why":7926,"figures":7927,"unknown":7928,"ories":7929,"actress":7930,"editor":7931,"trip":7932,"shore":7933,"ifying":7934,"hands":7935,"historic":7936,"walls":7937,"plement":7938,"lb":7939,"toward":7940,"believe":7941,"lind":7942,"injury":7943,"aired":7944,"sie":7945,"stations":7946,"landing":7947,"passes":7948,"brook":7949,"arrange":7950,"lives":7951,"expedition":7952,"symbol":7953,"data":7954,"motor":7955,"currently":7956,"zone":7957,"anta":7958,"golden":7959,"casual":7960,"dream":7961,"unlike":7962,"illustr":7963,"homer":7964,"ckey":7965,"crossing":7966,"awa":7967,"alo":7968,"necessary":7969,"uel":7970,"challeng":7971,"von":7972,"consisted":7973,"typically":7974,"micro":7975,"attach":7976,"debuted":7977,"bru":7978,"web":7979,"phone":7980,"dry":7981,"feed":7982,"rise":7983,"none":7984,"uments":7985,"ledge":7986,"bach":7987,"ror":7988,"ini":7989,"heads":7990,"severe":7991,"bra":7992,"66":7993,"wave":7994,"rect":7995,"heard":7996,"couple":7997,"glass":7998,"argued":7999,"eliza":8000,"frequently":8001,"cricket":8002,"aling":8003,"opposed":8004,"composition":8005,"industrial":8006,"gia":8007,"opposition":8008,"reference":8009,"yo":8010,"formula":8011,"value":8012,"polish":8013,"twice":8014,"hear":8015,"finish":8016,"animal":8017,"ingu":8018,"description":8019,"fine":8020,"aspect":8021,"wart":8022,"ounds":8023,"sphere":8024,"protection":8025,"maintained":8026,"advert":8027,"supre":8028,"notable":8029,"cked":8030,"trying":8031,"phas":8032,"vice":8033,"chor":8034,"problem":8035,"mist":8036,"operated":8037,"iverse":8038,"fuel":8039,"criticized":8040,"moment":8041,"note":8042,"growing":8043,"adapt":8044,"compar":8045,"holly":8046,"carolina":8047,"joint":8048,"gers":8049,"fru":8050,"transl":8051,"discover":8052,"strip":8053,"cha":8054,"chosen":8055,"ibe":8056,"bil":8057,"pursu":8058,"label":8059,"institute":8060,"apped":8061,"1987":8062,"webs":8063,"mount":8064,"kick":8065,"arc":8066,"twelve":8067,"scottish":8068,"plants":8069,"1988":8070,"classic":8071,"entr":8072,"rolling":8073,"iet":8074,"producers":8075,"wounded":8076,"comic":8077,"max":8078,"integr":8079,"seventh":8080,"philoso":8081,"assembly":8082,"dated":8083,"zen":8084,"inson":8085,"grew":8086,"youth":8087,"cart":8088,"96":8089,"imen":8090,"stood":8091,"consecut":8092,"newspaper":8093,"fare":8094,"multi":8095,"billion":8096,"sites":8097,"caval":8098,"surrounding":8099,"degree":8100,"independence":8101,"nuclear":8102,"phia":8103,"atures":8104,"rival":8105,"rand":8106,"republican":8107,"deck":8108,"fields":8109,"voted":8110,"risk":8111,"oppos":8112,"bid":8113,"hay":8114,"rael":8115,"vot":8116,"serving":8117,"boats":8118,"jay":8119,"lev":8120,"mem":8121,"banks":8122,"istan":8123,"teenth":8124,"simply":8125,"joe":8126,"roof":8127,"perfect":8128,"fresh":8129,"bac":8130,"ros":8131,"losing":8132,"weekly":8133,"elev":8134,"follows":8135,"killing":8136,"expansion":8137,"contained":8138,"ota":8139,"circ":8140,"agric":8141,"ome":8142,"regarded":8143,"christmas":8144,"ares":8145,"kee":8146,"honour":8147,"shop":8148,"herself":8149,"oppon":8150,"newly":8151,"hr":8152,"emphas":8153,"spin":8154,"individuals":8155,"cock":8156,"elling":8157,"hydro":8158,"sens":8159,"pennsyl":8160,"pier":8161,"reven":8162,"raid":8163,"continent":8164,"52":8165,"happen":8166,"homes":8167,"eyes":8168,"consecutive":8169,"franch":8170,"tric":8171,"throw":8172,"holds":8173,"measure":8174,"nan":8175,"yl":8176,"wilson":8177,"conce":8178,"gor":8179,"mentioned":8180,"hart":8181,"taylor":8182,"ec":8183,"jes":8184,"creating":8185,"volume":8186,"sections":8187,"56":8188,"chose":8189,"rod":8190,"website":8191,"cannot":8192,"collap":8193,"perman":8194,"ulty":8195,"ils":8196,"1986":8197,"supporting":8198,"sets":8199,"hope":8200,"visual":8201,"lady":8202,"kid":8203,"capacity":8204,"encounter":8205,"goes":8206,"boys":8207,"anged":8208,"alexander":8209,"analysis":8210,"nas":8211,"participated":8212,"themes":8213,"paralle":8214,"adopted":8215,"seas":8216,"democratic":8217,"leadership":8218,"colonel":8219,"filmed":8220,"calls":8221,"warr":8222,"bron":8223,"abandoned":8224,"genus":8225,"disease":8226,"basis":8227,"gain":8228,"negative":8229,"kn":8230,"girls":8231,"mate":8232,"aly":8233,"possibly":8234,"equal":8235,"contact":8236,"pine":8237,"ancing":8238,"pennsylvania":8239,"aded":8240,"purpose":8241,"seat":8242,"disc":8243,"freedom":8244,"rif":8245,"meters":8246,"anda":8247,"58":8248,"brian":8249,"mike":8250,"failure":8251,"tag":8252,"gameplay":8253,"irish":8254,"judge":8255,"straight":8256,"iled":8257,"adult":8258,"session":8259,"sche":8260,"wick":8261,"treaty":8262,"egg":8263,"palace":8264,"rooms":8265,"98":8266,"constitution":8267,"iations":8268,"distingu":8269,"lying":8270,"logist":8271,"foundation":8272,"principal":8273,"merch":8274,"interchange":8275,"garden":8276,"basket":8277,"harry":8278,"spain":8279,"kins":8280,"iana":8281,"southwest":8282,"ideas":8283,"sem":8284,"wars":8285,"fro":8286,"corn":8287,"retired":8288,"extensive":8289,"pel":8290,"glas":8291,"surrender":8292,"kit":8293,"struction":8294,"deliver":8295,"occupied":8296,"dial":8297,"soul":8298,"improved":8299,"dip":8300,"hockey":8301,"agent":8302,"page":8303,"speak":8304,"generation":8305,"witness":8306,"younger":8307,"roles":8308,"suppor":8309,"chamber":8310,"coll":8311,"borough":8312,"evacu":8313,"ctic":8314,"budget":8315,"asc":8316,"vised":8317,"opera":8318,"1939":8319,"titles":8320,"count":8321,"trou":8322,"dollar":8323,"repeated":8324,"md":8325,"achieved":8326,"cd":8327,"kh":8328,"ola":8329,"economy":8330,"print":8331,"online":8332,"israel":8333,"atmo":8334,"jeff":8335,"families":8336,"piano":8337,"elizabeth":8338,"effective":8339,"province":8340,"nie":8341,"techn":8342,"briefly":8343,"ura":8344,"51":8345,"simple":8346,"braz":8347,"tered":8348,"clou":8349,"eleven":8350,"territor":8351,"regional":8352,"ques":8353,"granted":8354,"turns":8355,"gather":8356,"experienced":8357,"shor":8358,"determined":8359,"firm":8360,"junction":8361,"vehicles":8362,"burgh":8363,"slav":8364,"defensive":8365,"advantage":8366,"í":8367,"holding":8368,"fame":8369,"1985":8370,"anth":8371,"trust":8372,"caught":8373,"rejected":8374,"tall":8375,"adow":8376,"flat":8377,"tact":8378,"1968":8379,"fighter":8380,"dram":8381,"recently":8382,"baby":8383,"controlled":8384,"scar":8385,"attribut":8386,"grav":8387,"kilometres":8388,"secondary":8389,"expanded":8390,"performing":8391,"gives":8392,"lum":8393,"ots":8394,"flooding":8395,"sufficient":8396,"nis":8397,"receive":8398,"academ":8399,"tel":8400,"letters":8401,"authorities":8402,"lers":8403,"motional":8404,"din":8405,"didn":8406,"iring":8407,"ohio":8408,"cavalry":8409,"crimin":8410,"soft":8411,"assistant":8412,"literature":8413,"cook":8414,"fought":8415,"commonly":8416,"credited":8417,"ria":8418,"describes":8419,"acquired":8420,"tend":8421,"iments":8422,"1984":8423,"safety":8424,"picture":8425,"ador":8426,"singing":8427,"regarding":8428,"wan":8429,"protected":8430,"narrow":8431,"accompan":8432,"math":8433,"prefer":8434,"scheduled":8435,"utions":8436,"freeway":8437,"philadel":8438,"criticism":8439,"planning":8440,"suggests":8441,"ires":8442,"towns":8443,"clark":8444,"800":8445,"shooting":8446,"centuries":8447,"alty":8448,"supreme":8449,"jen":8450,"bing":8451,"iday":8452,"crime":8453,"code":8454,"locations":8455,"cambridge":8456,"agan":8457,"ifications":8458,"iar":8459,"falls":8460,"georgia":8461,"ults":8462,"convention":8463,"recon":8464,"reading":8465,"height":8466,"connected":8467,"whit":8468,"contain":8469,"reput":8470,"decre":8471,"distribution":8472,"withdraw":8473,"elder":8474,"alternative":8475,"iful":8476,"88":8477,"haps":8478,"reaction":8479,"protect":8480,"gulf":8481,"victim":8482,"scientific":8483,"accompanied":8484,"philadelphia":8485,"lif":8486,"poe":8487,"chance":8488,"campus":8489,"120":8490,"ligh":8491,"anton":8492,"cars":8493,"bands":8494,"unique":8495,"perhaps":8496,"attle":8497,"apol":8498,"existing":8499,"save":8500,"wrestling":8501,"escor":8502,"1967":8503,"finds":8504,"gency":8505,"inth":8506,"russia":8507,"estate":8508,"nint":8509,"lau":8510,"iter":8511,"price":8512,"rules":8513,"facilities":8514,"wic":8515,"quite":8516,"97":8517,"garr":8518,"arrival":8519,"moral":8520,"sis":8521,"recru":8522,"laws":8523,"exchange":8524,"korean":8525,"trains":8526,"insu":8527,"containing":8528,"publication":8529,"las":8530,"forming":8531,"domestic":8532,"approved":8533,"selection":8534,"belong":8535,"ottoman":8536,"jr":8537,"touchdown":8538,"evening":8539,"ceremony":8540,"liverpool":8541,"regist":8542,"headed":8543,"nintendo":8544,"repl":8545,"ivity":8546,"carry":8547,"rout":8548,"scholar":8549,"fash":8550,"product":8551,"cruiser":8552,"hits":8553,"chen":8554,"entry":8555,"bou":8556,"entirely":8557,"inde":8558,"miller":8559,"structures":8560,"herit":8561,"poll":8562,"columbia":8563,"target":8564,"andrew":8565,"launch":8566,"dedicated":8567,"intensity":8568,"borne":8569,"grey":8570,"purchased":8571,"proto":8572,"publish":8573,"jean":8574,"contributed":8575,"53":8576,"singap":8577,"lincol":8578,"allows":8579,"legacy":8580,"gay":8581,"jewish":8582,"57":8583,"provides":8584,"wheel":8585,"oak":8586,"casualties":8587,"filled":8588,"1983":8589,"brazil":8590,"satis":8591,"employed":8592,"windows":8593,"prising":8594,"gone":8595,"battery":8596,"cens":8597,"prepared":8598,"missing":8599,"engaged":8600,"rh":8601,"faith":8602,"resistance":8603,"happy":8604,"carey":8605,"ella":8606,"wright":8607,"francisco":8608,"1969":8609,"aces":8610,"regions":8611,"viewed":8612,"eighth":8613,"singapore":8614,"aka":8615,"correspond":8616,"basketball":8617,"det":8618,"1964":8619,"conve":8620,"nik":8621,"bourne":8622,"lincoln":8623,"azz":8624,"preced":8625,"guy":8626,"istol":8627,"placing":8628,"ivan":8629,"promotion":8630,"resour":8631,"pitch":8632,"elimin":8633,"satur":8634,"hms":8635,"heim":8636,"54":8637,"coastal":8638,"rence":8639,"raf":8640,"cles":8641,"daniel":8642,"dale":8643,"introduction":8644,"mam":8645,"iant":8646,"1914":8647,"defined":8648,"rig":8649,"ias":8650,"focused":8651,"walter":8652,"liest":8653,"views":8654,"1918":8655,"charged":8656,"receiving":8657,"isol":8658,"corner":8659,"closely":8660,"playstation":8661,"disney":8662,"bath":8663,"aste":8664,"evil":8665,"belief":8666,"opportunity":8667,"anderson":8668,"allies":8669,"cris":8670,"lav":8671,"display":8672,"lewis":8673,"1971":8674,"1982":8675,"abs":8676,"mol":8677,"stu":8678,"ero":8679,"steve":8680,"roughly":8681,"link":8682,"consists":8683,"1966":8684,"1972":8685,"1979":8686,"consul":8687,"byz":8688,"losses":8689,"iny":8690,"getting":8691,"hundred":8692,"decor":8693,"formal":8694,"naz":8695,"railroad":8696,"armour":8697,"alan":8698,"intelligence":8699,"remo":8700,"68":8701,"neighbor":8702,"anything":8703,"inspir":8704,"iles":8705,"desc":8706,"adding":8707,"resc":8708,"mobile":8709,"ios":8710,"olympic":8711,"marks":8712,"premier":8713,"ology":8714,"kat":8715,"relations":8716,"garian":8717,"religion":8718,"hired":8719,"byzant":8720,"gene":8721,"task":8722,"illa":8723,"1965":8724,"bottom":8725,"iger":8726,"ounder":8727,"sud":8728,"patrol":8729,"appre":8730,"recognized":8731,"bun":8732,"retire":8733,"lun":8734,"rub":8735,"politics":8736,"franchise":8737,"chemical":8738,"providing":8739,"phase":8740,"developing":8741,"mud":8742,"nast":8743,"relief":8744,"semi":8745,"1975":8746,"appeal":8747,"kim":8748,"nhl":8749,"guide":8750,"shared":8751,"walk":8752,"investigation":8753,"fron":8754,"rapidly":8755,"94":8756,"sab":8757,"credits":8758,"enge":8759,"shape":8760,"cler":8761,"earl":8762,"solid":8763,"rons":8764,"hollywood":8765,"plate":8766,"myster":8767,"temperature":8768,"professor":8769,"germans":8770,"ogue":8771,"everything":8772,"hang":8773,"achu":8774,"gang":8775,"involve":8776,"settlement":8777,"bright":8778,"1974":8779,"davis":8780,"kentuck":8781,"tz":8782,"junior":8783,"journey":8784,"pir":8785,"1973":8786,"cited":8787,"ads":8788,"specif":8789,"archae":8790,"isb":8791,"operating":8792,"popularity":8793,"knew":8794,"shaped":8795,"ctors":8796,"global":8797,"breeding":8798,"portray":8799,"67":8800,"mode":8801,"stro":8802,"1976":8803,"opinion":8804,"rever":8805,"mayor":8806,"significantly":8807,"projects":8808,"intersection":8809,"knowledge":8810,"clean":8811,"mountains":8812,"beyonce":8813,"literary":8814,"ables":8815,"adam":8816,"injured":8817,"evolution":8818,"roc":8819,"heat":8820,"250":8821,"fear":8822,"stages":8823,"assault":8824,"escap":8825,"raw":8826,"cot":8827,"confeder":8828,"reasons":8829,"challenge":8830,"skin":8831,"ilton":8832,"playoff":8833,"substant":8834,"sounds":8835,"87":8836,"missions":8837,"gord":8838,"volcan":8839,"treated":8840,"lies":8841,"platform":8842,"eag":8843,"photograph":8844,"kur":8845,"poem":8846,"orient":8847,"distinct":8848,"grounds":8849,"divisions":8850,"employ":8851,"acres":8852,"bear":8853,"peninsu":8854,"muslim":8855,"grapher":8856,"accur":8857,"160":8858,"arranged":8859,"breaking":8860,"humans":8861,"rupt":8862,"exerc":8863,"storyline":8864,"ule":8865,"stable":8866,"ene":8867,"violence":8868,"existence":8869,"stret":8870,"labour":8871,"strate":8872,"unte":8873,"hills":8874,"internal":8875,"renamed":8876,"cells":8877,"astron":8878,"watched":8879,"statement":8880,"thirty":8881,"chairman":8882,"syd":8883,"reputation":8884,"collected":8885,"invent":8886,"beyoncé":8887,"exact":8888,"genet":8889,"proceed":8890,"nevertheless":8891,"expect":8892,"volunte":8893,"donald":8894,"itude":8895,"limit":8896,"finding":8897,"wings":8898,"swim":8899,"poet":8900,"genre":8901,"combination":8902,"females":8903,"models":8904,"outer":8905,"blues":8906,"extrem":8907,"ients":8908,"symp":8909,"increasingly":8910,"dates":8911,"kentucky":8912,"capable":8913,"59":8914,"61":8915,"neither":8916,"bin":8917,"1946":8918,"converted":8919,"abilities":8920,"typical":8921,"declined":8922,"1981":8923,"neut":8924,"buried":8925,"diam":8926,"gent":8927,"typho":8928,"details":8929,"foss":8930,"itz":8931,"camera":8932,"setts":8933,"ala":8934,"virt":8935,"sustained":8936,"depth":8937,"itled":8938,"enjoyed":8939,"tests":8940,"learned":8941,"versy":8942,"producing":8943,"nut":8944,"controversy":8945,"matt":8946,"applied":8947,"1917":8948,"norway":8949,"dd":8950,"massachu":8951,"arsen":8952,"gray":8953,"cking":8954,"iro":8955,"inum":8956,"jon":8957,"olympics":8958,"mole":8959,"brain":8960,"mers":8961,"championships":8962,"triple":8963,"massachusetts":8964,"bis":8965,"graded":8966,"torn":8967,"warm":8968,"bling":8969,"advoc":8970,"approached":8971,"ride":8972,"pear":8973,"entrance":8974,"technical":8975,"hell":8976,"carrying":8977,"decade":8978,"easily":8979,"designs":8980,"responded":8981,"tren":8982,"usa":8983,"extension":8984,"93":8985,"frag":8986,"download":8987,"discovery":8988,"62":8989,"onic":8990,"sters":8991,"1948":8992,"beautiful":8993,"sects":8994,"duty":8995,"udes":8996,"secure":8997,"crowd":8998,"programs":8999,"nate":9000,"gradually":9001,"winner":9002,"succeeded":9003,"ole":9004,"asser":9005,"specifically":9006,"classical":9007,"munic":9008,"prize":9009,"showing":9010,"simpsons":9011,"vul":9012,"sax":9013,"nich":9014,"assess":9015,"finals":9016,"dub":9017,"credit":9018,"items":9019,"exclus":9020,"ales":9021,"prisoners":9022,"1978":9023,"72":9024,"vietnam":9025,"ignment":9026,"similarly":9027,"rab":9028,"talk":9029,"cies":9030,"clar":9031,"legend":9032,"700":9033,"weakened":9034,"indicated":9035,"fruit":9036,"gres":9037,"seems":9038,"constitut":9039,"products":9040,"additionally":9041,"terior":9042,"earliest":9043,"parties":9044,"carbon":9045,"lasted":9046,"municipal":9047,"warning":9048,"mtv":9049,"rural":9050,"presidential":9051,"ruled":9052,"routes":9053,"cruisers":9054,"threatened":9055,"1915":9056,"animated":9057,"employe":9058,"reform":9059,"gle":9060,"candidate":9061,"engineer":9062,"eco":9063,"pup":9064,"92":9065,"bian":9066,"bt":9067,"retained":9068,"cooper":9069,"gross":9070,"dang":9071,"omy":9072,"sydney":9073,"writes":9074,"hugh":9075,"fashion":9076,"compo":9077,"1977":9078,"gol":9079,"superi":9080,"poland":9081,"circu":9082,"giant":9083,"moore":9084,"icks":9085,"acid":9086,"presents":9087,"valu":9088,"styles":9089,"saurus":9090,"maryland":9091,"peninsula":9092,"issance":9093,"supplies":9094,"ette":9095,"basic":9096,"explor":9097,"sort":9098,"adapted":9099,"ivered":9100,"agency":9101,"ols":9102,"diplo":9103,"remix":9104,"interior":9105,"storms":9106,"climate":9107,"magic":9108,"aki":9109,"cycle":9110,"champions":9111,"speaking":9112,"tony":9113,"pleas":9114,"afterwards":9115,"infl":9116,"seeing":9117,"delivered":9118,"rebell":9119,"andy":9120,"engines":9121,"shadow":9122,"landfall":9123,"administr":9124,"consequ":9125,"1963":9126,"dynast":9127,"nur":9128,"̈r":9129,"interested":9130,"63":9131,"trig":9132,"stopped":9133,"alien":9134,"downtown":9135,"copy":9136,"rhodes":9137,"surviv":9138,"message":9139,"architecture":9140,"hanna":9141,"drug":9142,"equival":9143,"engineering":9144,"convin":9145,"entitled":9146,"fing":9147,"wre":9148,"1916":9149,"permanent":9150,"cancell":9151,"affairs":9152,"bure":9153,"hamp":9154,"supporters":9155,"gordon":9156,"settled":9157,"citizens":9158,"asian":9159,"extremely":9160,"pig":9161,"tip":9162,"wich":9163,"dean":9164,"̈n":9165,"isms":9166,"icts":9167,"affect":9168,"izations":9169,"iser":9170,"wides":9171,"jur":9172,"sip":9173,"survey":9174,"images":9175,"causes":9176,"diamond":9177,"wonder":9178,"aria":9179,"agen":9180,"deaths":9181,"importance":9182,"kong":9183,"proposal":9184,"seek":9185,"enem":9186,"restaur":9187,"deleg":9188,"returns":9189,"mulder":9190,"á":9191,"holy":9192,"91":9193,"spar":9194,"inet":9195,"ieval":9196,"implement":9197,"1919":9198,"knots":9199,"classification":9200,"streets":9201,"rian":9202,"correct":9203,"medit":9204,"ratings":9205,"typhoon":9206,"composer":9207,"asks":9208,"medic":9209,"hull":9210,"ento":9211,"appropr":9212,"mous":9213,"classified":9214,"albert":9215,"1962":9216,"retain":9217,"bran":9218,"colonial":9219,"modif":9220,"competit":9221,"acre":9222,"entering":9223,"bringing":9224,"iversary":9225,"tanks":9226,"survived":9227,"antly":9228,"adams":9229,"jane":9230,"obl":9231,"compon":9232,"shield":9233,"aftermath":9234,"omin":9235,"bag":9236,"oto":9237,"controvers":9238,"strateg":9239,"offers":9240,"describing":9241,"eat":9242,"references":9243,"fict":9244,"urb":9245,"umes":9246,"eral":9247,"studied":9248,"connection":9249,"iber":9250,"catch":9251,"bought":9252,"incorporated":9253,"leaf":9254,"concerns":9255,"sale":9256,"1938":9257,"argent":9258,"arrested":9259,"someone":9260,"remember":9261,"environmental":9262,"rivers":9263,"lights":9264,"chapel":9265,"circum":9266,"sessions":9267,"shots":9268,"biography":9269,"grass":9270,"decline":9271,"portrayed":9272,"installed":9273,"universe":9274,"entially":9275,"concerned":9276,"purchase":9277,"alliance":9278,"pure":9279,"hunting":9280,"angle":9281,"universal":9282,"ulate":9283,"reduce":9284,"retr":9285,"recalled":9286,"corporation":9287,"feeling":9288,"harmon":9289,"onia":9290,"audio":9291,"nomination":9292,"siege":9293,"actual":9294,"130":9295,"maria":9296,"ario":9297,"starts":9298,"crim":9299,"ansas":9300,"academic":9301,"medieval":9302,"liberal":9303,"spons":9304,"mono":9305,"ić":9306,"crossed":9307,"81":9308,"equipped":9309,"objects":9310,"invited":9311,"recognition":9312,"driving":9313,"chapter":9314,"historians":9315,"establishment":9316,"thousands":9317,"identity":9318,"funds":9319,"passage":9320,"noting":9321,"thunder":9322,"anniversary":9323,"1956":9324,"hypo":9325,"debate":9326,"decades":9327,"consisting":9328,"79":9329,"89":9330,"recommended":9331,"tes":9332,"admitted":9333,"simon":9334,"princess":9335,"appointment":9336,"ili":9337,"programme":9338,"veter":9339,"truth":9340,"frame":9341,"considerable":9342,"opt":9343,"arsenal":9344,"ware":9345,"86":9346,"ining":9347,"aints":9348,"lion":9349,"psycho":9350,"leton":9351,"posted":9352,"charges":9353,"anean":9354,"colony":9355,"haz":9356,"visible":9357,"enemies":9358,"pav":9359,"1936":9360,"hamilton":9361,"kan":9362,"navig":9363,"sequel":9364,"ille":9365,"74":9366,"rhyth":9367,"claiming":9368,"pread":9369,"continuing":9370,"remainder":9371,"duties":9372,"conservative":9373,"lets":9374,"monument":9375,"mak":9376,"thesis":9377,"utc":9378,"bern":9379,"manner":9380,"ez":9381,"circle":9382,"widespread":9383,"classes":9384,"behavior":9385,"communist":9386,"dal":9387,"flank":9388,"promote":9389,"hut":9390,"iva":9391,"willing":9392,"kenned":9393,"noon":9394,"pictures":9395,"82":9396,"kal":9397,"1961":9398,"nether":9399,"electronic":9400,"tie":9401,"bee":9402,"indones":9403,"animation":9404,"wins":9405,"slowly":9406,"nba":9407,"interpret":9408,"departure":9409,"aspects":9410,"looked":9411,"inton":9412,"occasionally":9413,"shu":9414,"flash":9415,"transition":9416,"attached":9417,"romantic":9418,"knight":9419,"athen":9420,"populations":9421,"dio":9422,"twin":9423,"inity":9424,"belt":9425,"110":9426,"ugu":9427,"wwe":9428,"shut":9429,"1953":9430,"buff":9431,"address":9432,"bang":9433,"owners":9434,"resources":9435,"sic":9436,"reli":9437,"parallel":9438,"hitler":9439,"icit":9440,"continental":9441,"ilation":9442,"destruction":9443,"norman":9444,"orchestra":9445,"rebel":9446,"wearing":9447,"arn":9448,"kennedy":9449,"treas":9450,"emergency":9451,"theater":9452,"senator":9453,"graphics":9454,"factory":9455,"sunday":9456,"howard":9457,"transportation":9458,"vac":9459,"assistance":9460,"isa":9461,"alco":9462,"jordan":9463,"shaw":9464,"certified":9465,"apping":9466,"indiana":9467,"superior":9468,"parish":9469,"clubs":9470,"vessels":9471,"liked":9472,"occurs":9473,"inal":9474,"shark":9475,"quant":9476,"diag":9477,"weigh":9478,"crete":9479,"aked":9480,"norwe":9481,"icate":9482,"income":9483,"covering":9484,"isted":9485,"memory":9486,"aux":9487,"demol":9488,"scully":9489,"wers":9490,"tunnel":9491,"vit":9492,"69":9493,"1947":9494,"fighters":9495,"adventure":9496,"uan":9497,"sculpt":9498,"acknow":9499,"amend":9500,"properties":9501,"chorus":9502,"punk":9503,"pc":9504,"norm":9505,"veland":9506,"hann":9507,"inn":9508,"1937":9509,"passengers":9510,"pope":9511,"regon":9512,"conduct":9513,"ders":9514,"priest":9515,"ryan":9516,"cia":9517,"1958":9518,"conservation":9519,"mathem":9520,"intention":9521,"equivalent":9522,"bean":9523,"involving":9524,"prised":9525,"una":9526,"shir":9527,"hend":9528,"oldest":9529,"terminus":9530,"1910":9531,"excell":9532,"rober":9533,"stands":9534,"carl":9535,"heritage":9536,"jum":9537,"1957":9538,"oregon":9539,"allen":9540,"prede":9541,"dick":9542,"possibility":9543,"patrick":9544,"amaz":9545,"ictions":9546,"aret":9547,"obtained":9548,"conv":9549,"committed":9550,"ione":9551,"hone":9552,"fried":9553,"regularly":9554,"cathe":9555,"bombard":9556,"finishing":9557,"rescue":9558,"dynasty":9559,"instru":9560,"accused":9561,"sleep":9562,"enix":9563,"consc":9564,"illino":9565,"agonist":9566,"salt":9567,"derived":9568,"worst":9569,"ninth":9570,"porter":9571,"roger":9572,"agues":9573,"ivals":9574,"reviewers":9575,"favorite":9576,"pink":9577,"segment":9578,"cleveland":9579,"deput":9580,"douglas":9581,"conscious":9582,"apt":9583,"shear":9584,"replacement":9585,"infe":9586,"gon":9587,"pled":9588,"crisis":9589,"infr":9590,"illinois":9591,"aug":9592,"hosted":9593,"generated":9594,"joining":9595,"moves":9596,"mates":9597,"thy":9598,"supposed":9599,"vehicle":9600,"throne":9601,"aboard":9602,"assumed":9603,"factor":9604,"stanley":9605,"gap":9606,"circulation":9607,"marke":9608,"denied":9609,"1959":9610,"mediterr":9611,"appearing":9612,"prot":9613,"aqu":9614,"freder":9615,"representatives":9616,"unusual":9617,"attor":9618,"commanded":9619,"cott":9620,"lect":9621,"auth":9622,"reality":9623,"fictional":9624,"tied":9625,"massive":9626,"solar":9627,"completion":9628,"mediterranean":9629,"nett":9630,"shif":9631,"turk":9632,"keeping":9633,"morgan":9634,"strongly":9635,"bruce":9636,"kevin":9637,"beatles":9638,"vary":9639,"bridges":9640,"begun":9641,"outstanding":9642,"homo":9643,"materials":9644,"responsibility":9645,"circuit":9646,"pole":9647,"1954":9648,"abol":9649,"persu":9650,"surviving":9651,"71":9652,"73":9653,"rates":9654,"thetic":9655,"characteristics":9656,"costs":9657,"1955":9658,"bristol":9659,"deem":9660,"exception":9661,"mexican":9662,"painted":9663,"isbn":9664,"cathedr":9665,"monarch":9666,"norwegian":9667,"scout":9668,"alleged":9669,"abor":9670,"analy":9671,"dragon":9672,"praise":9673,"wickets":9674,"column":9675,"eric":9676,"driven":9677,"pm":9678,"thel":9679,"fold":9680,"methods":9681,"mail":9682,"sailed":9683,"gression":9684,"dynam":9685,"cancer":9686,"representative":9687,"carrier":9688,"aine":9689,"lisa":9690,"erup":9691,"everyone":9692,"passenger":9693,"resem":9694,"funding":9695,"emerged":9696,"politic":9697,"bab":9698,"plus":9699,"legislat":9700,"uct":9701,"84":9702,"opposite":9703,"differences":9704,"scheme":9705,"criminal":9706,"habitat":9707,"atmosphere":9708,"carto":9709,"orange":9710,"attributed":9711,"korea":9712,"weapon":9713,"ras":9714,"thereafter":9715,"recovered":9716,"buy":9717,"somer":9718,"platinum":9719,"neck":9720,"otherwise":9721,"strengthen":9722,"poses":9723,"approv":9724,"phill":9725,"casting":9726,"wrong":9727,"adults":9728,"shed":9729,"strategy":9730,"rug":9731,"stayed":9732,"amy":9733,"insur":9734,"desire":9735,"serves":9736,"marines":9737,"reinforce":9738,"accom":9739,"gus":9740,"ultural":9741,"fled":9742,"atro":9743,"ceme":9744,"pattern":9745,"fitted":9746,"morris":9747,"facing":9748,"1952":9749,"retirement":9750,"communities":9751,"effectively":9752,"pes":9753,"falling":9754,"bone":9755,"murray":9756,"outbreak":9757,"ministry":9758,"robinson":9759,"musicians":9760,"joy":9761,"crosses":9762,"ayer":9763,"é":9764,"stri":9765,"nelson":9766,"dissip":9767,"elections":9768,"documentary":9769,"accounts":9770,"inqu":9771,"unk":9772,"chain":9773,"stall":9774,"quo":9775,"jar":9776,"premiere":9777,"races":9778,"wear":9779,"fran":9780,"underground":9781,"wine":9782,"parks":9783,"1933":9784,"trials":9785,"deplo":9786,"prey":9787,"attracted":9788,"inspiration":9789,"submarine":9790,"aza":9791,"convinced":9792,"batting":9793,"hil":9794,"dating":9795,"gra":9796,"racing":9797,"mck":9798,"fee":9799,"movements":9800,"refu":9801,"pale":9802,"solution":9803,"votes":9804,"commemor":9805,"injuries":9806,"sweet":9807,"battleships":9808,"bie":9809,"immig":9810,"iors":9811,"genes":9812,"rud":9813,"sist":9814,"cip":9815,"raise":9816,"needs":9817,"relative":9818,"beck":9819,"tone":9820,"renew":9821,"abled":9822,"boil":9823,"separated":9824,"sudden":9825,"1935":9826,"sweden":9827,"ensure":9828,"tub":9829,"symph":9830,"enses":9831,"ulture":9832,"1949":9833,"welsh":9834,"garrison":9835,"faces":9836,"predecess":9837,"pak":9838,"sover":9839,"1951":9840,"restored":9841,"matthe":9842,"compos":9843,"queens":9844,"tomb":9845,"pha":9846,"rent":9847,"intense":9848,"difficulty":9849,"remn":9850,"toronto":9851,"measures":9852,"requested":9853,"distinguished":9854,"seemed":9855,"83":9856,"delayed":9857,"uran":9858,"authors":9859,"facility":9860,"dock":9861,"standards":9862,"surrounded":9863,"radar":9864,"puer":9865,"hud":9866,"sees":9867,"byzantine":9868,"send":9869,"hoped":9870,"atus":9871,"absor":9872,"productions":9873,"bast":9874,"consum":9875,"elsewhere":9876,"loco":9877,"netherlands":9878,"childhood":9879,"impressed":9880,"telling":9881,"convection":9882,"divers":9883,"penalty":9884,"apers":9885,"courts":9886,"ique":9887,"reviewer":9888,"satell":9889,"swi":9890,"internet":9891,"publishing":9892,"concern":9893,"sts":9894,"moderate":9895,"temperatures":9896,"jazz":9897,"meets":9898,"examples":9899,"iraq":9900,"blu":9901,"agas":9902,"greatly":9903,"cement":9904,"cathedral":9905,"jews":9906,"obtain":9907,"bears":9908,"astro":9909,"involvement":9910,"wooden":9911,"dangerous":9912,"acks":9913,"hind":9914,"easy":9915,"leads":9916,"legs":9917,"hid":9918,"accompl":9919,"1900":9920,"dimen":9921,"wet":9922,"hans":9923,"assem":9924,"ante":9925,"frequent":9926,"adaptation":9927,"spoke":9928,"coin":9929,"lith":9930,"hundreds":9931,"kelly":9932,"immediate":9933,"eggs":9934,"cad":9935,"recordings":9936,"scholars":9937,"cope":9938,"learn":9939,"hatt":9940,"clay":9941,"anyone":9942,"pregn":9943,"armen":9944,"lose":9945,"assass":9946,"formally":9947,"sight":9948,"comfort":9949,"thomp":9950,"techniques":9951,"firing":9952,"amph":9953,"journalist":9954,"phr":9955,"learning":9956,"bureau":9957,"hes":9958,"encouraged":9959,"somewhat":9960,"hub":9961,"graduate":9962,"stones":9963,"dot":9964,"suffering":9965,"margin":9966,"prohib":9967,"ij":9968,"croatian":9969,"termine":9970,"poetry":9971,"pilo":9972,"oles":9973,"trained":9974,"trophy":9975,"talent":9976,"bos":9977,"russell":9978,"mars":9979,"modified":9980,"legislation":9981,"forcing":9982,"determine":9983,"mete":9984,"powered":9985,"mature":9986,"horror":9987,"rice":9988,"dismissed":9989,"islam":9990,"promise":9991,"thompson":9992,"dish":9993,"orb":9994,"tap":9995,"jet":9996,"vation":9997,"profit":9998,"dna":9999,"aco":10000,"carter":10001,"calcul":10002,"interests":10003,"rav":10004,"steven":10005,"attempting":10006,"whereas":10007,"alcohol":10008,"wig":10009,"veget":10010,"attacking":10011,"nbc":10012,"arrangement":10013,"convoy":10014,"iot":10015,"nfl":10016,"changing":10017,"tha":10018,"ture":10019,"brick":10020,"harbor":10021,"rets":10022,"monitor":10023,"starred":10024,"puerto":10025,"dict":10026,"lod":10027,"berlin":10028,"controversial":10029,"formerly":10030,"pip":10031,"commonwealth":10032,"extreme":10033,"cript":10034,"fab":10035,"questions":10036,"cloud":10037,"impl":10038,"liqu":10039,"closer":10040,"mcc":10041,"register":10042,"township":10043,"biggest":10044,"conclusion":10045,"guardian":10046,"spears":10047,"intent":10048,"absence":10049,"arian":10050,"chel":10051,"oz":10052,"yi":10053,"apple":10054,"hungarian":10055,"grace":10056,"influences":10057,"strik":10058,"nell":10059,"wag":10060,"driver":10061,"wolf":10062,"genetic":10063,"blow":10064,"plain":10065,"harris":10066,"landed":10067,"suic":10068,"1913":10069,"deemed":10070,"bats":10071,"batman":10072,"instruments":10073,"informed":10074,"dee":10075,"scand":10076,"parker":10077,"erce":10078,"files":10079,"extin":10080,"covers":10081,"premiered":10082,"apparently":10083,"amb":10084,"arry":10085,"toms":10086,"landsc":10087,"terror":10088,"laboratory":10089,"armament":10090,"novels":10091,"detach":10092,"loop":10093,"narrative":10094,"depos":10095,"politan":10096,"testing":10097,"distributed":10098,"1926":10099,"oxy":10100,"satisf":10101,"longest":10102,"enters":10103,"1927":10104,"representing":10105,"bronze":10106,"territories":10107,"operate":10108,"watching":10109,"900":10110,"fc":10111,"creative":10112,"niel":10113,"gallery":10114,"normally":10115,"anes":10116,"diet":10117,"restoration":10118,"fishing":10119,"phe":10120,"ameter":10121,"victims":10122,"vs":10123,"hearing":10124,"engage":10125,"mack":10126,"matters":10127,"attorney":10128,"diagno":10129,"embar":10130,"substit":10131,"140":10132,"secured":10133,"uro":10134,"basin":10135,"zero":10136,"gib":10137,"tenance":10138,"1934":10139,"1921":10140,"hole":10141,"mainstream":10142,"visitors":10143,"unsuccessful":10144,"disci":10145,"iley":10146,"finn":10147,"weekend":10148,"hav":10149,"defended":10150,"imet":10151,"aa":10152,"wes":10153,"coins":10154,"releases":10155,"refuge":10156,"believes":10157,"comics":10158,"ouse":10159,"agents":10160,"excess":10161,"resolution":10162,"ancy":10163,"depicted":10164,"influential":10165,"format":10166,"desert":10167,"giants":10168,"printed":10169,"graphical":10170,"houston":10171,"dominated":10172,"fisher":10173,"raaf":10174,"santa":10175,"housing":10176,"trek":10177,"cliff":10178,"videos":10179,"churches":10180,"mitch":10181,"inary":10182,"clip":10183,"ixon":10184,"forth":10185,"indians":10186,"mini":10187,"cous":10188,"founder":10189,"tis":10190,"meteor":10191,"jacob":10192,"notably":10193,"devil":10194,"mani":10195,"exit":10196,"string":10197,"1912":10198,"relationships":10199,"shr":10200,"liz":10201,"dum":10202,"offices":10203,"alab":10204,"merged":10205,"util":10206,"cemetery":10207,"deployed":10208,"chess":10209,"swedish":10210,"roberts":10211,"pill":10212,"languages":10213,"occupation":10214,"neighbour":10215,"simpson":10216,"kne":10217,"goslav":10218,"drums":10219,"aus":10220,"ultane":10221,"skills":10222,"simultane":10223,"1932":10224,"stances":10225,"communication":10226,"glac":10227,"teeth":10228,"ani":10229,"170":10230,"aj":10231,"device":10232,"sad":10233,"remin":10234,"bapt":10235,"cabinet":10236,"opponents":10237,"hin":10238,"mental":10239,"lov":10240,"operational":10241,"warner":10242,"emotional":10243,"pse":10244,"factors":10245,"cant":10246,"jason":10247,"eland":10248,"fis":10249,"saf":10250,"reportedly":10251,"dress":10252,"ternal":10253,"dialogue":10254,"berry":10255,"happened":10256,"maintenance":10257,"scientists":10258,"anthony":10259,"mov":10260,"agricultural":10261,"constitutional":10262,"aska":10263,"successor":10264,"yugoslav":10265,"troit":10266,"abbey":10267,"suitable":10268,"footage":10269,"employees":10270,"inhabit":10271,"lowest":10272,"experiences":10273,"tot":10274,"hook":10275,"cker":10276,"grave":10277,"ieved":10278,"collect":10279,"rell":10280,"gaga":10281,"handed":10282,"thology":10283,"gates":10284,"lt":10285,"timore":10286,"window":10287,"mme":10288,"uous":10289,"rising":10290,"phan":10291,"rip":10292,"detroit":10293,"negotiations":10294,"approval":10295,"expression":10296,"understand":10297,"revolutionary":10298,"croatia":10299,"appreci":10300,"orbit":10301,"aire":10302,"icon":10303,"executed":10304,"1929":10305,"enthus":10306,"1911":10307,"stab":10308,"eler":10309,"raj":10310,"acknowled":10311,"exposed":10312,"medium":10313,"helm":10314,"employment":10315,"spher":10316,"personality":10317,"discussed":10318,"ethnic":10319,"hd":10320,"unes":10321,"technique":10322,"drawing":10323,"substantial":10324,"drag":10325,"portions":10326,"ries":10327,"seed":10328,"logists":10329,"retreat":10330,"christop":10331,"hunt":10332,"pus":10333,"flew":10334,"fatal":10335,"portra":10336,"sper":10337,"afternoon":10338,"tribute":10339,"disput":10340,"lists":10341,"ube":10342,"alum":10343,"interstate":10344,"tenth":10345,"walker":10346,"promp":10347,"resign":10348,"1931":10349,"1922":10350,"clinton":10351,"confess":10352,"residential":10353,"grown":10354,"sted":10355,"xbox":10356,"jesus":10357,"melbourne":10358,"mention":10359,"tornado":10360,"accompany":10361,"resigned":10362,"visions":10363,"detailed":10364,"draf":10365,"difference":10366,"susp":10367,"yd":10368,"existed":10369,"evans":10370,"meter":10371,"goods":10372,"huge":10373,"origins":10374,"nielsen":10375,"organizations":10376,"communications":10377,"kirk":10378,"marshall":10379,"mathemat":10380,"linked":10381,"militia":10382,"bb":10383,"organisation":10384,"reveals":10385,"prevented":10386,"prosecut":10387,"preferred":10388,"innov":10389,"teacher":10390,"eline":10391,"carib":10392,"belg":10393,"pushed":10394,"pike":10395,"balance":10396,"anglo":10397,"stewart":10398,"manus":10399,"listing":10400,"rett":10401,"interpre":10402,"arriving":10403,"sharp":10404,"diver":10405,"dow":10406,"swift":10407,"isolated":10408,"neighborhood":10409,"halo":10410,"favorable":10411,"nad":10412,"closing":10413,"dore":10414,"sisters":10415,"sevent":10416,"forty":10417,"irs":10418,"partly":10419,"moments":10420,"myth":10421,"chase":10422,"hey":10423,"khan":10424,"expo":10425,"stick":10426,"dru":10427,"anticip":10428,"samuel":10429,"kas":10430,"bull":10431,"turkish":10432,"mines":10433,"familiar":10434,"imprison":10435,"sarah":10436,"dramatic":10437,"departed":10438,"stance":10439,"friendly":10440,"imens":10441,"sull":10442,"instrumental":10443,"stron":10444,"understanding":10445,"austria":10446,"ongo":10447,"maid":10448,"budd":10449,"designer":10450,"trum":10451,"marry":10452,"colorado":10453,"mortal":10454,"periods":10455,"pad":10456,"lennon":10457,"usal":10458,"ux":10459,"dir":10460,"fifteen":10461,"pione":10462,"absol":10463,"ordinary":10464,"impossible":10465,"greece":10466,"ranking":10467,"proced":10468,"sugar":10469,"arena":10470,"extent":10471,"wedding":10472,"waves":10473,"concerts":10474,"participate":10475,"dens":10476,"perce":10477,"cole":10478,"diction":10479,"instance":10480,"pines":10481,"malays":10482,"bases":10483,"baltimore":10484,"meat":10485,"seeking":10486,"igen":10487,"ghost":10488,"mato":10489,"deputy":10490,"citing":10491,"locomot":10492,"specimens":10493,"picked":10494,"aro":10495,"hong":10496,"taught":10497,"sullivan":10498,"brun":10499,"spending":10500,"helic":10501,"finale":10502,"chemist":10503,"kon":10504,"woods":10505,"initi":10506,"mpt":10507,"physic":10508,"rows":10509,"pace":10510,"rarely":10511,"pod":10512,"precip":10513,"dave":10514,"amendment":10515,"soil":10516,"deser":10517,"newspapers":10518,"creator":10519,"mario":10520,"diameter":10521,"mble":10522,"metropolitan":10523,"wie":10524,"upgraded":10525,"obser":10526,"ingly":10527,"poison":10528,"afford":10529,"frederick":10530,"withdrew":10531,"pute":10532,"doesn":10533,"false":10534,"guil":10535,"1928":10536,"ultimate":10537,"gau":10538,"alu":10539,"chy":10540,"tran":10541,"anny":10542,"divor":10543,"citizen":10544,"gren":10545,"pent":10546,"mos":10547,"timber":10548,"perspect":10549,"directors":10550,"kyo":10551,"somerset":10552,"uncertain":10553,"exhibition":10554,"encountered":10555,"partially":10556,"humor":10557,"pare":10558,"permission":10559,"pounds":10560,"rescu":10561,"napo":10562,"rach":10563,"gilbert":10564,"iour":10565,"loan":10566,"forests":10567,"sword":10568,"mint":10569,"embr":10570,"difficulties":10571,"barbar":10572,"policies":10573,"schedule":10574,"cs":10575,"1925":10576,"bombers":10577,"spur":10578,"thrill":10579,"smooth":10580,"legislature":10581,"drin":10582,"mississ":10583,"iowa":10584,"armored":10585,"til":10586,"suicide":10587,"inaug":10588,"uted":10589,"nichol":10590,"feud":10591,"1890":10592,"grim":10593,"oft":10594,"coordin":10595,"household":10596,"turrets":10597,"́e":10598,"merchant":10599,"shakes":10600,"pp":10601,"advice":10602,"athletic":10603,"fortress":10604,"aya":10605,"federation":10606,"sank":10607,"aced":10608,"wells":10609,"adjac":10610,"oke":10611,"miami":10612,"violent":10613,"sector":10614,"aggress":10615,"pilots":10616,"disaster":10617,"adjacent":10618,"clin":10619,"pitched":10620,"traveled":10621,"tri":10622,"1924":10623,"refers":10624,"indicate":10625,"seattle":10626,"comments":10627,"luc":10628,"signs":10629,"mour":10630,"rebellion":10631,"guards":10632,"benefit":10633,"seats":10634,"soldier":10635,"philosophy":10636,"baker":10637,"harbour":10638,"alpha":10639,"values":10640,"gardens":10641,"vast":10642,"itim":10643,"eagle":10644,"gery":10645,"compete":10646,"satellite":10647,"minimum":10648,"orchestr":10649,"criticised":10650,"ila":10651,"marg":10652,"prompted":10653,"brill":10654,"lex":10655,"alabama":10656,"yon":10657,"lemur":10658,"fined":10659,"australians":10660,"numbered":10661,"destroyers":10662,"struggle":10663,"atomic":10664,"remove":10665,"tol":10666,"oul":10667,"bak":10668,"surprise":10669,"medicine":10670,"pakistan":10671,"ora":10672,"boss":10673,"helicop":10674,"whil":10675,"rico":10676,"collapse":10677,"marketing":10678,"napoleon":10679,"tale":10680,"nationally":10681,"neutral":10682,"qualified":10683,"caribbean":10684,"charlie":10685,"bai":10686,"expensive":10687,"cos":10688,"pron":10689,"possession":10690,"tin":10691,"lawrence":10692,"bent":10693,"sang":10694,"designation":10695,"horn":10696,"spiritual":10697,"indeed":10698,"eing":10699,"minnes":10700,"scat":10701,"ng":10702,"1923":10703,"enterprise":10704,"bard":10705,"judic":10706,"bic":10707,"teaching":10708,"discipl":10709,"paintings":10710,"oxygen":10711,"mason":10712,"worship":10713,"wait":10714,"hindu":10715,"cester":10716,"whilst":10717,"cannon":10718,"collaboration":10719,"echo":10720,"articles":10721,"fifty":10722,"restaurant":10723,"vig":10724,"protagonist":10725,"clock":10726,"jona":10727,"mund":10728,"wore":10729,"tight":10730,"idae":10731,"pretty":10732,"survivors":10733,"icting":10734,"describe":10735,"rounds":10736,"wake":10737,"nazi":10738,"alive":10739,"buck":10740,"magn":10741,"riders":10742,"aman":10743,"charter":10744,"candidates":10745,"ateur":10746,"travelled":10747,"inland":10748,"crews":10749,"depending":10750,"bros":10751,"assisted":10752,"dancing":10753,"gab":10754,"iary":10755,"hem":10756,"grammy":10757,"reconna":10758,"poems":10759,"inher":10760,"dispute":10761,"hungary":10762,"dollars":10763,"villages":10764,"victories":10765,"eller":10766,"surge":10767,"situated":10768,"displayed":10769,"bowling":10770,"battalions":10771,"minimal":10772,"kiss":10773,"sume":10774,"appropriate":10775,"noble":10776,"survive":10777,"pas":10778,"theo":10779,"tware":10780,"velt":10781,"keeper":10782,"rugby":10783,"belgium":10784,"reconnaissance":10785,"tat":10786,"altar":10787,"iously":10788,"legislative":10789,"flower":10790,"encing":10791,"degre":10792,"serial":10793,"interesting":10794,"earthqu":10795,"promised":10796,"cade":10797,"rib":10798,"clu":10799,"sig":10800,"esh":10801,"behaviour":10802,"restricted":10803,"playoffs":10804,"degrees":10805,"publications":10806,"enjoy":10807,"ima":10808,"diego":10809,"ipts":10810,"uncle":10811,"colonies":10812,"software":10813,"amongst":10814,"benjam":10815,"funeral":10816,"helping":10817,"symptoms":10818,"kw":10819,"provinc":10820,"lip":10821,"eliminated":10822,"gry":10823,"colleg":10824,"shock":10825,"partnership":10826,"monster":10827,"́s":10828,"elo":10829,"montre":10830,"mining":10831,"purposes":10832,"administrative":10833,"christopher":10834,"fers":10835,"sha":10836,"drivers":10837,"ava":10838,"aps":10839,"trian":10840,"1908":10841,"blind":10842,"compilation":10843,"imeter":10844,"repairs":10845,"fallen":10846,"1905":10847,"occasions":10848,"mississip":10849,"1909":10850,"thinking":10851,"trouble":10852,"toll":10853,"voiced":10854,"kam":10855,"roots":10856,"benjamin":10857,"concrete":10858,"essential":10859,"anime":10860,"roose":10861,"jection":10862,"chand":10863,"statue":10864,"munition":10865,"cow":10866,"minnesota":10867,"yam":10868,"gel":10869,"vietnames":10870,"vietnamese":10871,"aws":10872,"loyal":10873,"crystal":10874,"preserved":10875,"console":10876,"horiz":10877,"attendance":10878,"maj":10879,"walking":10880,"matthew":10881,"backs":10882,"functions":10883,"preparation":10884,"publicly":10885,"organised":10886,"manhatt":10887,"oon":10888,"alfred":10889,"heading":10890,"businesses":10891,"rupted":10892,"intensified":10893,"steps":10894,"manhattan":10895,"mall":10896,"keys":10897,"gran":10898,"believing":10899,"highways":10900,"argument":10901,"stern":10902,"wider":10903,"rocks":10904,"alignment":10905,"illness":10906,"defeating":10907,"signal":10908,"stell":10909,"touring":10910,"surve":10911,"lighting":10912,"franklin":10913,"sick":10914,"flights":10915,"competed":10916,"backing":10917,"elabor":10918,"legitim":10919,"kom":10920,"agers":10921,"laho":10922,"amounts":10923,"excav":10924,"resumed":10925,"assum":10926,"affil":10927,"roosevelt":10928,"kansas":10929,"cargo":10930,"arist":10931,"asking":10932,"residence":10933,"inspe":10934,"conqu":10935,"1907":10936,"rings":10937,"itors":10938,"amid":10939,"frig":10940,"consistent":10941,"oy":10942,"therine":10943,"ammunition":10944,"conspir":10945,"vari":10946,"vii":10947,"ske":10948,"nash":10949,"strategic":10950,"airborne":10951,"portland":10952,"counties":10953,"subjects":10954,"opponent":10955,"documents":10956,"signing":10957,"recur":10958,"amateur":10959,"deliber":10960,"ensu":10961,"usd":10962,"acle":10963,"netic":10964,"retail":10965,"assists":10966,"polar":10967,"registered":10968,"submitted":10969,"iso":10970,"audiences":10971,"provincial":10972,"crus":10973,"alternate":10974,"nucle":10975,"warren":10976,"conventional":10977,"cze":10978,"philippines":10979,"quad":10980,"tape":10981,"tested":10982,"fixed":10983,"fires":10984,"doubt":10985,"xx":10986,"1880":10987,"engineers":10988,"astronom":10989,"dogs":10990,"campbell":10991,"otic":10992,"uding":10993,"mississippi":10994,"feelings":10995,"shells":10996,"radical":10997,"shall":10998,"tribes":10999,"ownership":11000,"sau":11001,"pound":11002,"beaten":11003,"percentage":11004,"completing":11005,"laugh":11006,"waiting":11007,"hunter":11008,"explosion":11009,"blocks":11010,"pler":11011,"rix":11012,"charity":11013,"behalf":11014,"cinema":11015,"dwar":11016,"coat":11017,"artistic":11018,"stores":11019,"shakespe":11020,"worn":11021,"globe":11022,"evolved":11023,"tong":11024,"recognised":11025,"dc":11026,"guine":11027,"tennes":11028,"billy":11029,"shakespeare":11030,"dess":11031,"engagement":11032,"boards":11033,"mend":11034,"olds":11035,"beam":11036,"́r":11037,"chronicle":11038,"stair":11039,"targets":11040,"revenue":11041,"lakes":11042,"iner":11043,"rhythm":11044,"kil":11045,"option":11046,"360":11047,"feather":11048,"frustr":11049,"herald":11050,"tig":11051,"dod":11052,"electro":11053,"suspended":11054,"prompt":11055,"impression":11056,"planets":11057,"cartoon":11058,"feld":11059,"movies":11060,"margaret":11061,"goth":11062,"reluct":11063,"lanes":11064,"cular":11065,"ideal":11066,"mush":11067,"missour":11068,"civilian":11069,"beauty":11070,"pher":11071,"craw":11072,"lucas":11073,"jury":11074,"maneu":11075,"poorly":11076,"guilty":11077,"offering":11078,"delay":11079,"egyptian":11080,"threw":11081,"chet":11082,"shak":11083,"inations":11084,"replacing":11085,"filed":11086,"sket":11087,"measured":11088,"faster":11089,"1870":11090,"aimed":11091,"thodo":11092,"armies":11093,"cc":11094,"boundary":11095,"taxon":11096,"quiet":11097,"temporarily":11098,"tennessee":11099,"obv":11100,"slip":11101,"ika":11102,"clearly":11103,"loose":11104,"surgery":11105,"1906":11106,"galax":11107,"visiting":11108,"louisiana":11109,"looks":11110,"ela":11111,"acceler":11112,"butter":11113,"aviation":11114,"shipping":11115,"missouri":11116,"represents":11117,"1904":11118,"montreal":11119,"simultaneously":11120,"vulner":11121,"dw":11122,"sequences":11123,"sung":11124,"ounced":11125,"closure":11126,"storage":11127,"context":11128,"educational":11129,"remnants":11130,"bones":11131,"readers":11132,"thum":11133,"umber":11134,"marie":11135,"kane":11136,"agriculture":11137,"mania":11138,"dino":11139,"protein":11140,"saved":11141,"strict":11142,"palest":11143,"birthday":11144,"metre":11145,"coverage":11146,"recommend":11147,"ariz":11148,"mitchell":11149,"intercept":11150,"institution":11151,"acou":11152,"propag":11153,"aside":11154,"bod":11155,"autum":11156,"patterns":11157,"comparison":11158,"bris":11159,"ache":11160,"amin":11161,"cancelled":11162,"bare":11163,"fossil":11164,"melod":11165,"stev":11166,"spotted":11167,"notice":11168,"wants":11169,"chanc":11170,"loaded":11171,"institutions":11172,"valuable":11173,"overseas":11174,"suggesting":11175,"perspective":11176,"rebuilt":11177,"motions":11178,"check":11179,"practices":11180,"thirteen":11181,"czech":11182,"vas":11183,"itated":11184,"cuba":11185,"reflected":11186,"graham":11187,"lined":11188,"wasn":11189,"whel":11190,"lesser":11191,"altered":11192,"contributions":11193,"application":11194,"eve":11195,"ferry":11196,"clif":11197,"stere":11198,"abc":11199,"sitting":11200,"fastest":11201,"sq":11202,"predomin":11203,"furthermore":11204,"panel":11205,"valid":11206,"destroyer":11207,"vertical":11208,"pulled":11209,"pressing":11210,"ailed":11211,"vous":11212,"icken":11213,"archbishop":11214,"subspecies":11215,"drove":11216,"ranks":11217,"bombing":11218,"isen":11219,"physics":11220,"escaped":11221,"ico":11222,"trium":11223,"exh":11224,"cruc":11225,"badly":11226,"jobs":11227,"cutting":11228,"summit":11229,"adequ":11230,"slave":11231,"drugs":11232,"inno":11233,"intelle":11234,"wicket":11235,"lacked":11236,"punish":11237,"allmusic":11238,"motiv":11239,"decides":11240,"rust":11241,"bulk":11242,"flowers":11243,"08":11244,"slaves":11245,"listen":11246,"argues":11247,"intellect":11248,"tack":11249,"confederate":11250,"autumn":11251,"eign":11252,"adi":11253,"spider":11254,"consol":11255,"mills":11256,"dense":11257,"sak":11258,"ieties":11259,"alber":11260,"illegal":11261,"juris":11262,"tokyo":11263,"rook":11264,"indies":11265,"flagship":11266,"sovereign":11267,"accum":11268,"maur":11269,"controls":11270,"feeding":11271,"squadrons":11272,"striking":11273,"fate":11274,"severely":11275,"founding":11276,"inhabitants":11277,"earning":11278,"characterized":11279,"wayne":11280,"musician":11281,"persian":11282,"immun":11283,"tamil":11284,"starring":11285,"mirror":11286,"distinctive":11287,"morr":11288,"lords":11289,"ambass":11290,"jump":11291,"dall":11292,"condem":11293,"ibed":11294,"mainland":11295,"killer":11296,"bonus":11297,"bah":11298,"abund":11299,"guitarist":11300,"vard":11301,"shift":11302,"dra":11303,"observations":11304,"yield":11305,"lia":11306,"explain":11307,"arizona":11308,"tang":11309,"saturday":11310,"clash":11311,"doors":11312,"dominant":11313,"pension":11314,"retro":11315,"elig":11316,"convers":11317,"oliv":11318,"dylan":11319,"liberty":11320,"ranging":11321,"excellent":11322,"turb":11323,"tempo":11324,"illy":11325,"spend":11326,"sized":11327,"commanding":11328,"descend":11329,"pearl":11330,"definition":11331,"revival":11332,"wen":11333,"phenom":11334,"blin":11335,"pete":11336,"compass":11337,"cultiv":11338,"meetings":11339,"iran":11340,"carriers":11341,"idency":11342,"users":11343,"nominations":11344,"amps":11345,"athletes":11346,"arctic":11347,"faction":11348,"explains":11349,"mercur":11350,"statistics":11351,"honey":11352,"nova":11353,"layer":11354,"parliamentary":11355,"demonstrated":11356,"arrive":11357,"cave":11358,"danger":11359,"sla":11360,"oklaho":11361,"ovic":11362,"broadway":11363,"utical":11364,"09":11365,"artific":11366,"batter":11367,"aerial":11368,"iling":11369,"backed":11370,"skull":11371,"austrian":11372,"marvel":11373,"mrs":11374,"conversion":11375,"hidden":11376,"aig":11377,"altit":11378,"connect":11379,"switzer":11380,"maker":11381,"artwork":11382,"kees":11383,"holiday":11384,"verte":11385,"wool":11386,"prepare":11387,"elector":11388,"mechanical":11389,"interpretation":11390,"northward":11391,"harvey":11392,"murphy":11393,"predicted":11394,"edin":11395,"ré":11396,"duo":11397,"1901":11398,"census":11399,"switzerland":11400,"talking":11401,"pages":11402,"funny":11403,"stig":11404,"hore":11405,"reaches":11406,"experimental":11407,"chal":11408,"peaking":11409,"declar":11410,"mccart":11411,"riding":11412,"bombs":11413,"texts":11414,"barry":11415,"delaware":11416,"considering":11417,"etr":11418,"partial":11419,"fs":11420,"ori":11421,"bald":11422,"115":11423,"coup":11424,"dread":11425,"juan":11426,"towers":11427,"households":11428,"symphony":11429,"disturb":11430,"apartment":11431,"bacter":11432,"oklahoma":11433,"stol":11434,"kids":11435,"westward":11436,"liquid":11437,"feels":11438,"copper":11439,"beats":11440,"impress":11441,"seriously":11442,"attained":11443,"urer":11444,"som":11445,"sony":11446,"audition":11447,"repeatedly":11448,"nag":11449,"wned":11450,"useful":11451,"predecessor":11452,"tales":11453,"swimming":11454,"choose":11455,"nice":11456,"luck":11457,"metall":11458,"paras":11459,"1903":11460,"patron":11461,"oct":11462,"congreg":11463,"1902":11464,"thanks":11465,"virus":11466,"consequently":11467,"circumstances":11468,"practical":11469,"chemistry":11470,"perry":11471,"ati":11472,"dubbed":11473,"sciento":11474,"lithuan":11475,"gé":11476,"compens":11477,"tram":11478,"melody":11479,"delivery":11480,"todd":11481,"lob":11482,"perceived":11483,"spell":11484,"friendship":11485,"electricity":11486,"volcano":11487,"yn":11488,"metric":11489,"papers":11490,"acher":11491,"revolt":11492,"rants":11493,"coron":11494,"gear":11495,"trigger":11496,"glen":11497,"mong":11498,"leslie":11499,"hs":11500,"guar":11501,"madagas":11502,"zoo":11503,"remarked":11504,"oli":11505,"subsid":11506,"mort":11507,"bernard":11508,"proof":11509,"cann":11510,"breath":11511,"nev":11512,"markets":11513,"sunk":11514,"hydrogen":11515,"lang":11516,"ballad":11517,"burns":11518,"tours":11519,"alexand":11520,"improvements":11521,"manga":11522,"accurate":11523,"patt":11524,"renov":11525,"enlisted":11526,"radiation":11527,"tactics":11528,"abu":11529,"turret":11530,"denmark":11531,"keith":11532,"tai":11533,"personally":11534,"jonathan":11535,"adm":11536,"passion":11537,"johnny":11538,"powder":11539,"dinosaur":11540,"acclaim":11541,"persons":11542,"iveness":11543,"atlanta":11544,"airlines":11545,"lac":11546,"inals":11547,"dawn":11548,"theatrical":11549,"landscape":11550,"edwards":11551,"dent":11552,"bene":11553,"execution":11554,"zzle":11555,"tul":11556,"rihanna":11557,"assembled":11558,"intim":11559,"compound":11560,"izz":11561,"ruling":11562,"demands":11563,"sixteen":11564,"strengthened":11565,"lain":11566,"semin":11567,"ghan":11568,"intervent":11569,"travels":11570,"nixon":11571,"iders":11572,"campaigns":11573,"profile":11574,"oblig":11575,"explan":11576,"burial":11577,"ibn":11578,"raising":11579,"kurt":11580,"finger":11581,"gender":11582,"elevation":11583,"dispat":11584,"princi":11585,"illustrated":11586,"dust":11587,"demanded":11588,"apolis":11589,"aggreg":11590,"agger":11591,"atively":11592,"targe":11593,"pitts":11594,"ruption":11595,"nap":11596,"rim":11597,"succession":11598,"daughters":11599,"thal":11600,"cture":11601,"clothing":11602,"strange":11603,"wilhelm":11604,"enna":11605,"hammer":11606,"membership":11607,"canter":11608,"insisted":11609,"waste":11610,"roe":11611,"gentle":11612,"arnold":11613,"mercury":11614,"een":11615,"ruth":11616,"rag":11617,"bust":11618,"burton":11619,"toy":11620,"bearing":11621,"compounds":11622,"extend":11623,"dressed":11624,"glee":11625,"jimmy":11626,"aming":11627,"liner":11628,"settlers":11629,"̈l":11630,"neil":11631,"inge":11632,"colo":11633,"tracy":11634,"phoenix":11635,"dj":11636,"kap":11637,"connecting":11638,"mingham":11639,"madagascar":11640,"adventures":11641,"fewer":11642,"ticket":11643,"edited":11644,"struggled":11645,"tas":11646,"crush":11647,"rebound":11648,"ctr":11649,"stry":11650,"spart":11651,"monte":11652,"prove":11653,"armoured":11654,"ading":11655,"erected":11656,"earn":11657,"demolished":11658,"succeed":11659,"investment":11660,"external":11661,"fourteen":11662,"trading":11663,"compliment":11664,"athe":11665,"twi":11666,"stronger":11667,"masters":11668,"conquest":11669,"decisions":11670,"increases":11671,"rant":11672,"remark":11673,"gaz":11674,"insects":11675,"abd":11676,"warfare":11677,"epic":11678,"yankees":11679,"caa":11680,"removal":11681,"jup":11682,"elli":11683,"cards":11684,"boo":11685,"placement":11686,"objective":11687,"loved":11688,"birmingham":11689,"pursue":11690,"hul":11691,"answer":11692,"sonic":11693,"culmin":11694,"advertising":11695,"pend":11696,"challenged":11697,"stuff":11698,"05":11699,"trench":11700,"venue":11701,"defences":11702,"bobby":11703,"gence":11704,"deterior":11705,"exposure":11706,"cash":11707,"blast":11708,"developers":11709,"obama":11710,"exactly":11711,"fasc":11712,"overwhel":11713,"juven":11714,"sciences":11715,"concentration":11716,"arrangements":11717,"amor":11718,"discovers":11719,"cription":11720,"qualifying":11721,"magazines":11722,"ranges":11723,"defending":11724,"electrical":11725,"esp":11726,"confron":11727,"tna":11728,"105":11729,"cancel":11730,"wealthy":11731,"itis":11732,"select":11733,"quarterback":11734,"carri":11735,"hudson":11736,"isons":11737,"hearts":11738,"approaching":11739,"ais":11740,"exercise":11741,"icke":11742,"chev":11743,"strand":11744,"tent":11745,"boom":11746,"aggressive":11747,"patrio":11748,"dimension":11749,"raids":11750,"craz":11751,"axis":11752,"doctr":11753,"establishing":11754,"itted":11755,"athy":11756,"ontario":11757,"connectic":11758,"commentary":11759,"mccartney":11760,"connecticut":11761,"ó":11762,"gosp":11763,"limits":11764,"hate":11765,"hast":11766,"nered":11767,"acknowledged":11768,"rachel":11769,"chord":11770,"ader":11771,"manor":11772,"centers":11773,"realized":11774,"indicating":11775,"acoustic":11776,"putting":11777,"hir":11778,"harm":11779,"hence":11780,"tab":11781,"evalu":11782,"understood":11783,"architectural":11784,"pam":11785,"burning":11786,"sultan":11787,"lux":11788,"parach":11789,"canterbury":11790,"07":11791,"uma":11792,"vet":11793,"vern":11794,"initiated":11795,"thet":11796,"friday":11797,"supplied":11798,"prises":11799,"morrison":11800,"cav":11801,"mg":11802,"ouver":11803,"tube":11804,"uniform":11805,"06":11806,"ongoing":11807,"stress":11808,"traveling":11809,"slavery":11810,"cass":11811,"trick":11812,"announcement":11813,"improvement":11814,"shorter":11815,"withdrawal":11816,"tooth":11817,"leonard":11818,"unless":11819,"bomber":11820,"celebrated":11821,"precipitation":11822,"theore":11823,"visits":11824,"volumes":11825,"voices":11826,"extratro":11827,"athens":11828,"ua":11829,"stationed":11830,"conven":11831,"evacuated":11832,"wreck":11833,"pruss":11834,"hardy":11835,"dissipated":11836,"extratropical":11837,"survival":11838,"cable":11839,"beau":11840,"permitted":11841,"ifer":11842,"penetr":11843,"preparations":11844,"vertebr":11845,"ott":11846,"justin":11847,"discussion":11848,"stereo":11849,"itary":11850,"youngest":11851,"silent":11852,"stim":11853,"neo":11854,"manuel":11855,"exhaust":11856,"industries":11857,"titan":11858,"debt":11859,"graduated":11860,"hosts":11861,"potter":11862,"translation":11863,"photographs":11864,"grif":11865,"scope":11866,"recovery":11867,"vanc":11868,"ende":11869,"cox":11870,"lus":11871,"iency":11872,"promotional":11873,"currency":11874,"uefa":11875,"crops":11876,"collections":11877,"estimates":11878,"attitude":11879,"tension":11880,"ensis":11881,"troop":11882,"millenn":11883,"horizon":11884,"vancouver":11885,"125":11886,"requires":11887,"strongest":11888,"org":11889,"confront":11890,"voyage":11891,"angered":11892,"originated":11893,"reporter":11894,"350":11895,"trough":11896,"ancers":11897,"tubes":11898,"jupiter":11899,"jama":11900,"marking":11901,"oked":11902,"rolled":11903,"biographer":11904,"onymous":11905,"grove":11906,"cuts":11907,"suspect":11908,"reduc":11909,"aes":11910,"thouse":11911,"shan":11912,"referring":11913,"exclusive":11914,"makers":11915,"guinea":11916,"homel":11917,"expert":11918,"ented":11919,"donated":11920,"mons":11921,"cruise":11922,"wii":11923,"portugu":11924,"devast":11925,"fed":11926,"supplement":11927,"adjust":11928,"mans":11929,"specimen":11930,"signature":11931,"gods":11932,"colleagues":11933,"bench":11934,"luke":11935,"closest":11936,"indicates":11937,"vamp":11938,"ceased":11939,"minority":11940,"southeastern":11941,"mick":11942,"watershed":11943,"xi":11944,"1860":11945,"forecast":11946,"programming":11947,"uranium":11948,"inces":11949,"speaker":11950,"scattered":11951,"drinking":11952,"earthquake":11953,"gments":11954,"phrase":11955,"chin":11956,"clan":11957,"parent":11958,"portuguese":11959,"optim":11960,"emphasis":11961,"density":11962,"shin":11963,"decide":11964,"collins":11965,"sings":11966,"identify":11967,"bradman":11968,"heaven":11969,"attending":11970,"uki":11971,"sharks":11972,"nt":11973,"zig":11974,"æthel":11975,"concentrated":11976,"alice":11977,"panic":11978,"outr":11979,"plum":11980,"merely":11981,"lawyer":11982,"discuss":11983,"gathered":11984,"coinc":11985,"proving":11986,"territorial":11987,"bypass":11988,"collapsed":11989,"topped":11990,"dwight":11991,"spaces":11992,"traditionally":11993,"photography":11994,"coalition":11995,"achievement":11996,"user":11997,"cros":11998,"advertise":11999,"deploy":12000,"governments":12001,"failing":12002,"ncaa":12003,"annually":12004,"provinces":12005,"democrats":12006,"voting":12007,"interpreted":12008,"indigen":12009,"transit":12010,"worthy":12011,"artificial":12012,"flex":12013,"1893":12014,"cousin":12015,"sting":12016,"buffalo":12017,"principles":12018,"spy":12019,"fusion":12020,"continuous":12021,"kis":12022,"tribe":12023,"maya":12024,"frey":12025,"genesis":12026,"1896":12027,"lift":12028,"rena":12029,"kills":12030,"minster":12031,"fleming":12032,"portrait":12033,"publisher":12034,"robin":12035,"hawa":12036,"adier":12037,"competing":12038,"prisoner":12039,"astru":12040,"dual":12041,"victorian":12042,"hide":12043,"prices":12044,"questioned":12045,"predators":12046,"orthodo":12047,"prog":12048,"terrain":12049,"orthodox":12050,"sect":12051,"seized":12052,"oliver":12053,"afghan":12054,"offense":12055,"applications":12056,"hampshire":12057,"beng":12058,"guid":12059,"consolid":12060,"declaration":12061,"terminal":12062,"rangers":12063,"proportion":12064,"veloc":12065,"respective":12066,"accompanying":12067,"edinburgh":12068,"posit":12069,"turner":12070,"salv":12071,"investigate":12072,"conceived":12073,"indigenous":12074,"kor":12075,"reverse":12076,"dak":12077,"craig":12078,"reinforcements":12079,"reed":12080,"talks":12081,"heroes":12082,"portrayal":12083,"hyper":12084,"idal":12085,"universities":12086,"sending":12087,"stops":12088,"fairly":12089,"cotton":12090,"broadcasting":12091,"escort":12092,"toxic":12093,"foster":12094,"1898":12095,"ruler":12096,"ambassador":12097,"tenure":12098,"spoken":12099,"cin":12100,"ulous":12101,"racial":12102,"flooded":12103,"pep":12104,"partis":12105,"flows":12106,"regime":12107,"revenge":12108,"branches":12109,"logies":12110,"till":12111,"reconstruction":12112,"abuse":12113,"profession":12114,"experiments":12115,"vor":12116,"orle":12117,"volunteers":12118,"iac":12119,"courses":12120,"representation":12121,"imetres":12122,"recurring":12123,"beneath":12124,"hitting":12125,"certainly":12126,"enforce":12127,"output":12128,"magnit":12129,"reward":12130,"redes":12131,"supervis":12132,"goddess":12133,"fundament":12134,"apy":12135,"argentina":12136,"contribution":12137,"disband":12138,"yorkshire":12139,"ralph":12140,"enthusi":12141,"hawk":12142,"imagery":12143,"reich":12144,"revised":12145,"handle":12146,"gaming":12147,"lloy":12148,"wire":12149,"nose":12150,"songwriter":12151,"historically":12152,"tender":12153,"companion":12154,"drummer":12155,"commenting":12156,"infrastru":12157,"underwent":12158,"solved":12159,"components":12160,"bren":12161,"mum":12162,"recip":12163,"hammad":12164,"jerry":12165,"christianity":12166,"bind":12167,"grossing":12168,"component":12169,"awak":12170,"destroying":12171,"millennium":12172,"serge":12173,"streak":12174,"reflect":12175,"shallow":12176,"patients":12177,"reduction":12178,"reducing":12179,"alt":12180,"consult":12181,"eno":12182,"memo":12183,"crack":12184,"charted":12185,"1899":12186,"devices":12187,"duration":12188,"replied":12189,"unclear":12190,"carn":12191,"authorized":12192,"ampton":12193,"antonio":12194,"winners":12195,"gaining":12196,"corrid":12197,"ferr":12198,"identical":12199,"balls":12200,"karl":12201,"dim":12202,"uration":12203,"queensland":12204,"approaches":12205,"competitive":12206,"marge":12207,"reveal":12208,"frequency":12209,"kum":12210,"multiplayer":12211,"seventeen":12212,"kle":12213,"mosco":12214,"connections":12215,"pods":12216,"samples":12217,"chronic":12218,"leigh":12219,"finland":12220,"lloyd":12221,"loud":12222,"proposals":12223,"intervention":12224,"nake":12225,"climb":12226,"requirements":12227,"elite":12228,"meg":12229,"distant":12230,"resolved":12231,"embarked":12232,"kol":12233,"arrives":12234,"traded":12235,"anthro":12236,"crop":12237,"surrendered":12238,"characteristic":12239,"lifetime":12240,"urally":12241,"burned":12242,"springs":12243,"translated":12244,"navigation":12245,"mim":12246,"aser":12247,"norfolk":12248,"turkey":12249,"platforms":12250,"thrown":12251,"plaza":12252,"hawaii":12253,"whate":12254,"ista":12255,"romance":12256,"finance":12257,"gif":12258,"itals":12259,"secre":12260,"stevens":12261,"chore":12262,"rider":12263,"researchers":12264,"whatever":12265,"banned":12266,"ores":12267,"efficient":12268,"nicholas":12269,"cket":12270,"praising":12271,"confidence":12272,"crimes":12273,"exclusively":12274,"ieve":12275,"suddenly":12276,"ffield":12277,"wu":12278,"warriors":12279,"1850":12280,"ensed":12281,"belgian":12282,"celebration":12283,"commanders":12284,"hag":12285,"witch":12286,"rebels":12287,"brilliant":12288,"icing":12289,"varied":12290,"districts":12291,"smoke":12292,"moor":12293,"cession":12294,"patient":12295,"ono":12296,"beer":12297,"ifies":12298,"considers":12299,"vincent":12300,"tum":12301,"ww":12302,"elic":12303,"daw":12304,"pard":12305,"resur":12306,"ibilities":12307,"iko":12308,"pairs":12309,"descent":12310,"catherine":12311,"davies":12312,"truck":12313,"emmy":12314,"scientology":12315,"counters":12316,"progressive":12317,"mansion":12318,"prix":12319,"lig":12320,"oo":12321,"shares":12322,"intermedi":12323,"flames":12324,"parody":12325,"screenplay":12326,"darwin":12327,"reactions":12328,"idol":12329,"sailing":12330,"allo":12331,"thorough":12332,"shoulder":12333,"sample":12334,"handled":12335,"taxes":12336,"toured":12337,"villa":12338,"bann":12339,"cof":12340,"reviewed":12341,"significance":12342,"pall":12343,"ths":12344,"rodr":12345,"advised":12346,"pull":12347,"philosoph":12348,"boilers":12349,"seal":12350,"eva":12351,"eless":12352,"bennett":12353,"empty":12354,"guerr":12355,"intersects":12356,"hughes":12357,"vulnerable":12358,"scores":12359,"1897":12360,"lover":12361,"petro":12362,"proceeded":12363,"cribed":12364,"posts":12365,"judges":12366,"gie":12367,"mere":12368,"acles":12369,"presidency":12370,"harvard":12371,"synthes":12372,"construct":12373,"trap":12374,"endor":12375,"opportunities":12376,"decis":12377,"presentation":12378,"sustain":12379,"mare":12380,"bred":12381,"medals":12382,"milk":12383,"cena":12384,"manufacturing":12385,"structural":12386,"marshal":12387,"haven":12388,"jin":12389,"guild":12390,"infrastructure":12391,"bombardment":12392,"wald":12393,"telegraph":12394,"commissioner":12395,"observation":12396,"rivalry":12397,"strikes":12398,"baron":12399,"saxon":12400,"reinforced":12401,"decorated":12402,"nautical":12403,"rocky":12404,"petition":12405,"gift":12406,"vick":12407,"maine":12408,"cleared":12409,"oslo":12410,"swiss":12411,"lighted":12412,"indonesia":12413,"mish":12414,"tiger":12415,"itely":12416,"aber":12417,"explicit":12418,"rally":12419,"thers":12420,"lasting":12421,"twc":12422,"itarian":12423,"kie":12424,"convict":12425,"exceed":12426,"extending":12427,"knights":12428,"stroke":12429,"moscow":12430,"exists":12431,"runner":12432,"cyclones":12433,"cameron":12434,"peters":12435,"transported":12436,"jtwc":12437,"alaska":12438,"tonnes":12439,"realistic":12440,"chancell":12441,"traditions":12442,"cules":12443,"trio":12444,"exile":12445,"protests":12446,"teles":12447,"drain":12448,"ministers":12449,"kate":12450,"drafted":12451,"pittsburgh":12452,"smart":12453,"dit":12454,"drink":12455,"triumph":12456,"04":12457,"bott":12458,"clothes":12459,"mystery":12460,"beating":12461,"random":12462,"pover":12463,"coaches":12464,"geoff":12465,"toler":12466,"absent":12467,"illes":12468,"essentially":12469,"nonetheless":12470,"viii":12471,"usive":12472,"commenced":12473,"airing":12474,"lide":12475,"simpl":12476,"owen":12477,"relatives":12478,"odd":12479,"eleph":12480,"participation":12481,"rivals":12482,"tos":12483,"cats":12484,"terry":12485,"enzy":12486,"maintaining":12487,"eating":12488,"restore":12489,"swing":12490,"breast":12491,"choreo":12492,"edon":12493,"withdrawn":12494,"canyon":12495,"cen":12496,"panzer":12497,"accessible":12498,"wallace":12499,"theories":12500,"relocated":12501,"chad":12502,"colours":12503,"witnesses":12504,"warnings":12505,"soph":12506,"colors":12507,"turnpike":12508,"preparing":12509,"tir":12510,"reforms":12511,"volcanic":12512,"rog":12513,"sap":12514,"root":12515,"logo":12516,"airline":12517,"carries":12518,"writings":12519,"hollow":12520,"mixing":12521,"honours":12522,"inquir":12523,"bold":12524,"ania":12525,"monthly":12526,"microsoft":12527,"mckin":12528,"illo":12529,"tering":12530,"syria":12531,"aide":12532,"eur":12533,"senators":12534,"alam":12535,"displaced":12536,"flies":12537,"archaeological":12538,"amazing":12539,"meteorological":12540,"ighted":12541,"republicans":12542,"fitz":12543,"sculpture":12544,"unexpected":12545,"recept":12546,"1000":12547,"malaysia":12548,"crest":12549,"richmond":12550,"breaks":12551,"interviews":12552,"chile":12553,"organic":12554,"magnitude":12555,"reno":12556,"interaction":12557,"dying":12558,"planes":12559,"concerning":12560,"sham":12561,"sheffield":12562,"villain":12563,"israeli":12564,"blocked":12565,"chambers":12566,"paraly":12567,"dreadn":12568,"sively":12569,"variations":12570,"sega":12571,"mythology":12572,"reader":12573,"lightning":12574,"austin":12575,"aar":12576,"̃o":12577,"patri":12578,"1895":12579,"shifted":12580,"atically":12581,"displays":12582,"worlds":12583,"hurricanes":12584,"mé":12585,"grandfather":12586,"learns":12587,"trend":12588,"sponsored":12589,"dallas":12590,"uton":12591,"enger":12592,"commercially":12593,"jefferson":12594,"judicial":12595,"johnston":12596,"confusion":12597,"arguing":12598,"dinner":12599,"neth":12600,"ulating":12601,"bryan":12602,"desper":12603,"fortun":12604,"parkway":12605,"corporate":12606,"segments":12607,"cyrus":12608,"variation":12609,"chelsea":12610,"phic":12611,"salary":12612,"clarke":12613,"sack":12614,"ibute":12615,"fbi":12616,"imposed":12617,"faculty":12618,"recover":12619,"regiments":12620,"costume":12621,"ō":12622,"inhab":12623,"leo":12624,"heavyweight":12625,"constitu":12626,"mv":12627,"oriented":12628,"unlikely":12629,"circular":12630,"editions":12631,"releg":12632,"funded":12633,"opposing":12634,"oral":12635,"adesh":12636,"sta":12637,"parsons":12638,"suspic":12639,"sexuality":12640,"stretch":12641,"emotion":12642,"inning":12643,"dancers":12644,"usage":12645,"manage":12646,"dat":12647,"angry":12648,"surprised":12649,"ahl":12650,"biological":12651,"adequate":12652,"cattle":12653,"educated":12654,"boulev":12655,"tier":12656,"lak":12657,"vik":12658,"lem":12659,"comfortable":12660,"vital":12661,"armstrong":12662,"manip":12663,"counsel":12664,"courage":12665,"113":12666,"decay":12667,"dres":12668,"commerce":12669,"danish":12670,"examination":12671,"brooks":12672,"gamer":12673,"nels":12674,"sas":12675,"wished":12676,"quit":12677,"diverse":12678,"shops":12679,"landers":12680,"gerald":12681,"tickets":12682,"pert":12683,"susan":12684,"bible":12685,"rp":12686,"convic":12687,"brazilian":12688,"divorce":12689,"snake":12690,"het":12691,"exem":12692,"newton":12693,"stown":12694,"noticed":12695,"steep":12696,"constantin":12697,"ello":12698,"ceded":12699,"asha":12700,"stuart":12701,"laf":12702,"naming":12703,"quebec":12704,"holes":12705,"kaiser":12706,"principle":12707,"jacqu":12708,"sox":12709,"gomer":12710,"organisms":12711,"sporting":12712,"recreation":12713,"cussion":12714,"deeply":12715,"monast":12716,"diplomatic":12717,"avia":12718,"opens":12719,"caes":12720,"ballo":12721,"03":12722,"lag":12723,"canon":12724,"dwell":12725,"craf":12726,"advancing":12727,"bills":12728,"pitcher":12729,"northwestern":12730,"guests":12731,"onica":12732,"inclusion":12733,"civilians":12734,"girlfriend":12735,"ratio":12736,"rifle":12737,"disturbance":12738,"taste":12739,"revel":12740,"ails":12741,"harvest":12742,"crazy":12743,"parachute":12744,"pursuit":12745,"tern":12746,"prosper":12747,"sheep":12748,"proteins":12749,"travelling":12750,"apollo":12751,"stolen":12752,"inated":12753,"whale":12754,"tourism":12755,"gig":12756,"hamlet":12757,"hoping":12758,"mise":12759,"infer":12760,"compre":12761,"berger":12762,"orleans":12763,"kaz":12764,"nh":12765,"claren":12766,"processes":12767,"avian":12768,"fault":12769,"directions":12770,"knee":12771,"twit":12772,"utah":12773,"parad":12774,"camps":12775,"pleased":12776,"settlements":12777,"insurance":12778,"neuro":12779,"plates":12780,"equally":12781,"substitute":12782,"andro":12783,"1861":12784,"zu":12785,"atop":12786,"rar":12787,"tus":12788,"tyler":12789,"potentially":12790,"locally":12791,"harold":12792,"1889":12793,"challenges":12794,"monastery":12795,"carp":12796,"fifa":12797,"cod":12798,"serbian":12799,"knows":12800,"240":12801,"satisfied":12802,"mk":12803,"choir":12804,"peg":12805,"keen":12806,"lodge":12807,"inhib":12808,"delta":12809,"sentence":12810,"columns":12811,"conspiracy":12812,"yout":12813,"ellen":12814,"error":12815,"locked":12816,"benefits":12817,"erie":12818,"evident":12819,"followers":12820,"rookie":12821,"cau":12822,"pense":12823,"integrated":12824,"altitude":12825,"oted":12826,"tut":12827,"peo":12828,"stefan":12829,"muhammad":12830,"dreams":12831,"grams":12832,"explaining":12833,"1894":12834,"larry":12835,"offshore":12836,"statements":12837,"participants":12838,"functional":12839,"peas":12840,"pierre":12841,"extinct":12842,"nights":12843,"addressed":12844,"links":12845,"requiring":12846,"options":12847,"rains":12848,"quot":12849,"spawn":12850,"similarities":12851,"persuaded":12852,"knowing":12853,"tough":12854,"implemented":12855,"jurisdiction":12856,"cbs":12857,"enon":12858,"attract":12859,"golf":12860,"scandal":12861,"boulevard":12862,"ups":12863,"predict":12864,"capturing":12865,"constantine":12866,"accommod":12867,"veteran":12868,"gothic":12869,"operates":12870,"categories":12871,"youtube":12872,"pregnant":12873,"socialist":12874,"documented":12875,"counted":12876,"caster":12877,"1891":12878,"paint":12879,"tune":12880,"schum":12881,"reservo":12882,"farmers":12883,"uto":12884,"devoted":12885,"veterans":12886,"rations":12887,"tide":12888,"ieth":12889,"nn":12890,"onge":12891,"cage":12892,"divine":12893,"anthem":12894,"onet":12895,"prototype":12896,"initiative":12897,"izer":12898,"glor":12899,"accommo":12900,"cence":12901,"booth":12902,"domain":12903,"1800":12904,"forever":12905,"massacre":12906,"nickel":12907,"virtually":12908,"indonesian":12909,"accommodate":12910,"shack":12911,"wildlife":12912,"feared":12913,"disorder":12914,"anarch":12915,"elong":12916,"shah":12917,"persona":12918,"fortune":12919,"owing":12920,"cardiff":12921,"wiscons":12922,"tactical":12923,"gio":12924,"enos":12925,"fork":12926,"1892":12927,"complained":12928,"weakening":12929,"maps":12930,"escorted":12931,"colored":12932,"boundaries":12933,"favourite":12934,"01":12935,"byr":12936,"marc":12937,"borrow":12938,"galaxy":12939,"traver":12940,"rams":12941,"wisconsin":12942,"verses":12943,"ugal":12944,"impressive":12945,"pond":12946,"sym":12947,"studying":12948,"hostile":12949,"switch":12950,"johann":12951,"knocked":12952,"eligible":12953,"threats":12954,"inh":12955,"restrial":12956,"tribut":12957,"trapped":12958,"athle":12959,"grat":12960,"pand":12961,"intr":12962,"dealing":12963,"kyle":12964,"extensively":12965,"orous":12966,"honorary":12967,"manuscript":12968,"upset":12969,"rie":12970,"montgomer":12971,"sean":12972,"danny":12973,"usalem":12974,"gul":12975,"tools":12976,"lotte":12977,"chlor":12978,"relev":12979,"preserve":12980,"islamic":12981,"locate":12982,"hurt":12983,"confident":12984,"gospel":12985,"conflicts":12986,"highlighted":12987,"myself":12988,"midnight":12989,"sentenced":12990,"circul":12991,"spheric":12992,"pez":12993,"rocket":12994,"viewer":12995,"ska":12996,"honors":12997,"macarthur":12998,"jerusalem":12999,"101":13000,"lanc":13001,"laps":13002,"tasked":13003,"flee":13004,"tribune":13005,"velocity":13006,"soap":13007,"housed":13008,"warships":13009,"teammate":13010,"ashes":13011,"rushing":13012,"obvious":13013,"gow":13014,"lington":13015,"tigers":13016,"vy":13017,"remote":13018,"hire":13019,"pum":13020,"boeing":13021,"easter":13022,"hybrid":13023,"refere":13024,"noise":13025,"evacuation":13026,"partners":13027,"lacking":13028,"machin":13029,"politicians":13030,"inherited":13031,"provisions":13032,"formations":13033,"humanity":13034,"1888":13035,"amphib":13036,"abroad":13037,"renewed":13038,"montgomery":13039,"isn":13040,"chop":13041,"regardless":13042,"recruited":13043,"scholarship":13044,"ké":13045,"explore":13046,"sacr":13047,"rescued":13048,"oro":13049,"ican":13050,"barnes":13051,"associate":13052,"defenders":13053,"zac":13054,"darkness":13055,"encounters":13056,"telephone":13057,"dimin":13058,"anatom":13059,"handling":13060,"rogers":13061,"bry":13062,"complicated":13063,"complement":13064,"crashed":13065,"beliefs":13066,"legitimate":13067,"bore":13068,"scots":13069,"sanct":13070,"ayan":13071,"enabled":13072,"prospect":13073,"walks":13074,"baltic":13075,"competitions":13076,"considerably":13077,"pyram":13078,"cure":13079,"receives":13080,"helps":13081,"frontier":13082,"separation":13083,"1885":13084,"02":13085,"ours":13086,"brigadier":13087,"chancellor":13088,"fus":13089,"skir":13090,"detected":13091,"pursued":13092,"elaborate":13093,"mals":13094,"iah":13095,"mixture":13096,"suspension":13097,"throwing":13098,"imprisoned":13099,"observer":13100,"ashore":13101,"chuck":13102,"colm":13103,"breeds":13104,"enor":13105,"accus":13106,"prayer":13107,"dive":13108,"rhe":13109,"trunk":13110,"warned":13111,"garnered":13112,"assessment":13113,"speculation":13114,"tracked":13115,"involves":13116,"bitter":13117,"sinking":13118,"zom":13119,"isle":13120,"grid":13121,"sheet":13122,"promoting":13123,"trailer":13124,"meyer":13125,"enh":13126,"cane":13127,"depicts":13128,"anticipated":13129,"450":13130,"enders":13131,"flour":13132,"rational":13133,"itate":13134,"uprising":13135,"suspected":13136,"rin":13137,"heath":13138,"infin":13139,"unve":13140,"shaft":13141,"dependent":13142,"confirm":13143,"batteries":13144,"rs":13145,"heir":13146,"tea":13147,"magnetic":13148,"mandy":13149,"remembered":13150,"lud":13151,"104":13152,"linear":13153,"distur":13154,"batted":13155,"activated":13156,"auton":13157,"occasional":13158,"lions":13159,"leop":13160,"hopes":13161,"developments":13162,"nato":13163,"arcade":13164,"pirates":13165,"zed":13166,"iceland":13167,"regulations":13168,"mau":13169,"urged":13170,"owed":13171,"thames":13172,"jess":13173,"impac":13174,"burger":13175,"fossils":13176,"compositions":13177,"eventual":13178,"internationally":13179,"μm":13180,"barn":13181,"saturn":13182,"barbara":13183,"220":13184,"nand":13185,"editing":13186,"mood":13187,"flav":13188,"config":13189,"dozen":13190,"slam":13191,"facts":13192,"tissue":13193,"charlotte":13194,"sures":13195,"railways":13196,"boyfriend":13197,"chiat":13198,"castles":13199,"truly":13200,"wiz":13201,"hamas":13202,"metac":13203,"1865":13204,"reagan":13205,"unning":13206,"cardinals":13207,"sherman":13208,"produces":13209,"romney":13210,"barrel":13211,"apply":13212,"molecular":13213,"eli":13214,"lyrical":13215,"rendered":13216,"mechanism":13217,"nancy":13218,"volunteer":13219,"decreased":13220,"pleasure":13221,"consumption":13222,"disappointed":13223,"thereby":13224,"jef":13225,"interven":13226,"chamberlain":13227,"politician":13228,"intellectual":13229,"psychiat":13230,"jere":13231,"nig":13232,"updated":13233,"derby":13234,"smack":13235,"restrictions":13236,"ashi":13237,"directing":13238,"mutual":13239,"inser":13240,"bars":13241,"positively":13242,"pto":13243,"hob":13244,"haul":13245,"customers":13246,"genu":13247,"contracts":13248,"anchor":13249,"insul":13250,"reminis":13251,"occurring":13252,"infection":13253,"helicopter":13254,"112":13255,"upcoming":13256,"spokes":13257,"machines":13258,"estr":13259,"nc":13260,"boun":13261,"isition":13262,"111":13263,"accidentally":13264,"eon":13265,"mammals":13266,"nephe":13267,"sweep":13268,"delegates":13269,"invaded":13270,"iti":13271,"productive":13272,"inger":13273,"portugal":13274,"angular":13275,"southwestern":13276,"widen":13277,"detective":13278,"conversation":13279,"sharing":13280,"constantinople":13281,"holland":13282,"boot":13283,"newcastle":13284,"flesh":13285,"synd":13286,"knock":13287,"license":13288,"airfield":13289,"spee":13290,"mah":13291,"socio":13292,"inaugural":13293,"zim":13294,"inf":13295,"dud":13296,"voters":13297,"ilda":13298,"viewing":13299,"lighter":13300,"bradley":13301,"debris":13302,"corridor":13303,"neur":13304,"lawsuit":13305,"eddie":13306,"arte":13307,"poster":13308,"spit":13309,"genres":13310,"josé":13311,"sheriff":13312,"disputed":13313,"borders":13314,"definitely":13315,"fundamental":13316,"nickname":13317,"gibr":13318,"lich":13319,"christians":13320,"besides":13321,"vine":13322,"versus":13323,"arest":13324,"mounts":13325,"1864":13326,"gibraltar":13327,"prelim":13328,"merced":13329,"obsc":13330,"austro":13331,"easier":13332,"tint":13333,"boost":13334,"particles":13335,"cornwall":13336,"prestig":13337,"lava":13338,"inian":13339,"lé":13340,"elop":13341,"aston":13342,"icester":13343,"grades":13344,"oxid":13345,"memories":13346,"tical":13347,"loading":13348,"mega":13349,"shiva":13350,"guin":13351,"speeds":13352,"rna":13353,"neys":13354,"lett":13355,"bulgar":13356,"detect":13357,"978":13358,"beast":13359,"botan":13360,"heights":13361,"oph":13362,"kenneth":13363,"uters":13364,"feathers":13365,"supports":13366,"murdered":13367,"plains":13368,"crane":13369,"curve":13370,"distinguish":13371,"printing":13372,"asserted":13373,"dioces":13374,"itt":13375,"amen":13376,"avoided":13377,"nant":13378,"malcolm":13379,"flags":13380,"pri":13381,"miner":13382,"mouse":13383,"reporting":13384,"protestant":13385,"progressed":13386,"̣̂":13387,"armenian":13388,"eda":13389,"eastward":13390,"recruit":13391,"oscar":13392,"consequence":13393,"smash":13394,"wartime":13395,"doctrine":13396,"109":13397,"breach":13398,"tourist":13399,"northeastern":13400,"marit":13401,"volt":13402,"threatening":13403,"autobiography":13404,"arose":13405,"cust":13406,"isaac":13407,"ience":13408,"rez":13409,"tensions":13410,"intermediate":13411,"petr":13412,"punishment":13413,"resid":13414,"pedro":13415,"worker":13416,"poles":13417,"cinc":13418,"coy":13419,"exhibit":13420,"convicted":13421,"leicester":13422,"positioned":13423,"depicting":13424,"clouds":13425,"hier":13426,"gotten":13427,"oda":13428,"dani":13429,"paying":13430,"exploration":13431,"thriller":13432,"zie":13433,"touchdowns":13434,"dublin":13435,"annex":13436,"jna":13437,"1862":13438,"mathematics":13439,"peoples":13440,"duck":13441,"vicinity":13442,"warrior":13443,"mala":13444,"krist":13445,"sponsor":13446,"saints":13447,"devon":13448,"dia":13449,"provision":13450,"attraction":13451,"unders":13452,"synthesis":13453,"fm":13454,"modest":13455,"tennis":13456,"hara":13457,"diversity":13458,"removing":13459,"brah":13460,"undertaken":13461,"journalists":13462,"teachers":13463,"dynamic":13464,"emen":13465,"releasing":13466,"dropping":13467,"jaw":13468,"sentiment":13469,"agrees":13470,"reject":13471,"deer":13472,"riel":13473,"motif":13474,"bailey":13475,"bog":13476,"aku":13477,"compat":13478,"beta":13479,"walt":13480,"edmon":13481,"congression":13482,"ignored":13483,"posing":13484,"dwarf":13485,"hoff":13486,"blame":13487,"martial":13488,"constantly":13489,"gravity":13490,"decrease":13491,"nati":13492,"spots":13493,"coaching":13494,"zan":13495,"bé":13496,"abra":13497,"capito":13498,"gur":13499,"pets":13500,"tommy":13501,"clergy":13502,"decisive":13503,"aneous":13504,"mask":13505,"othy":13506,"predominantly":13507,"parade":13508,"holm":13509,"luft":13510,"rosen":13511,"facil":13512,"expanding":13513,"absorbed":13514,"fon":13515,"anders":13516,"relieved":13517,"enhan":13518,"sacrif":13519,"femin":13520,"eighteen":13521,"cincin":13522,"sacrifice":13523,"gut":13524,"grows":13525,"layers":13526,"churchill":13527,"focuses":13528,"ramp":13529,"tool":13530,"encies":13531,"usher":13532,"serbia":13533,"maritime":13534,"congressional":13535,"nord":13536,"contacted":13537,"scientist":13538,"dolph":13539,"alberta":13540,"zam":13541,"encer":13542,"1840":13543,"dispers":13544,"parking":13545,"generate":13546,"persist":13547,"bum":13548,"oter":13549,"weld":13550,"usions":13551,"prints":13552,"hack":13553,"tte":13554,"disappeared":13555,"caution":13556,"springfield":13557,"ois":13558,"betr":13559,"centered":13560,"joan":13561,"twentieth":13562,"incred":13563,"independently":13564,"barrier":13565,"propaganda":13566,"doctors":13567,"compiled":13568,"accomplish":13569,"critically":13570,"measuring":13571,"taiwan":13572,"possessed":13573,"friedrich":13574,"explanation":13575,"sri":13576,"brut":13577,"creature":13578,"angles":13579,"steady":13580,"nept":13581,"transmission":13582,"couldn":13583,"battlefield":13584,"114":13585,"stability":13586,"sacred":13587,"preliminary":13588,"gale":13589,"muslims":13590,"ao":13591,"jak":13592,"estates":13593,"truste":13594,"focusing":13595,"oma":13596,"monsters":13597,"fielder":13598,"malta":13599,"varying":13600,"canceled":13601,"cents":13602,"metals":13603,"jake":13604,"roster":13605,"dos":13606,"privile":13607,"collaborated":13608,"yugoslavia":13609,"jav":13610,"leted":13611,"inducted":13612,"fitting":13613,"mechanics":13614,"fragment":13615,"enhanced":13616,"emission":13617,"subtropical":13618,"linder":13619,"situations":13620,"celebrate":13621,"wagner":13622,"twitter":13623,"saving":13624,"mant":13625,"actively":13626,"roadway":13627,"summon":13628,"networks":13629,"payment":13630,"locomotives":13631,"khal":13632,"arbit":13633,"clad":13634,"brush":13635,"rays":13636,"incidents":13637,"compreh":13638,"chim":13639,"owski":13640,"drome":13641,"marty":13642,"calculated":13643,"kers":13644,"kru":13645,"stap":13646,"exterior":13647,"herbert":13648,"metap":13649,"shirt":13650,"worse":13651,"consciousness":13652,"aided":13653,"dez":13654,"ido":13655,"vegas":13656,"ocy":13657,"102":13658,"burke":13659,"horr":13660,"117":13661,"submarines":13662,"bullet":13663,"mobil":13664,"xter":13665,"contem":13666,"appeals":13667,"publicity":13668,"swept":13669,"cincinnati":13670,"asi":13671,"plas":13672,"normandy":13673,"fortifications":13674,"targeted":13675,"angelou":13676,"discussing":13677,"ritual":13678,"fabric":13679,"olivia":13680,"afghanistan":13681,"hein":13682,"fract":13683,"width":13684,"percept":13685,"isab":13686,"flown":13687,"browns":13688,"scouting":13689,"viv":13690,"creatures":13691,"surprising":13692,"belle":13693,"hawai":13694,"leeds":13695,"brew":13696,"fungus":13697,"marched":13698,"venture":13699,"madison":13700,"1887":13701,"julian":13702,"preceding":13703,"sten":13704,"acclaimed":13705,"scrap":13706,"migration":13707,"lone":13708,"graves":13709,"confused":13710,"kitchen":13711,"treasury":13712,"centric":13713,"helen":13714,"harsh":13715,"naturally":13716,"holders":13717,"elevated":13718,"eagles":13719,"resignation":13720,"absolute":13721,"ucks":13722,"poké":13723,"compromise":13724,"arguments":13725,"mage":13726,"carriage":13727,"leagues":13728,"managing":13729,"button":13730,"butler":13731,"corre":13732,"corruption":13733,"concepts":13734,"edmund":13735,"mentions":13736,"hok":13737,"quoted":13738,"irect":13739,"conducting":13740,"1863":13741,"gregory":13742,"varies":13743,"brigades":13744,"heimer":13745,"proxim":13746,"taker":13747,"spacecraft":13748,"1886":13749,"bonds":13750,"auded":13751,"smoking":13752,"atmospheric":13753,"akh":13754,"generals":13755,"mushroom":13756,"poverty":13757,"playable":13758,"suggestion":13759,"sailors":13760,"athletics":13761,"nl":13762,"gos":13763,"stored":13764,"bark":13765,"reads":13766,"challenging":13767,"mlb":13768,"orton":13769,"schumacher":13770,"jenn":13771,"spite":13772,"treating":13773,"dennis":13774,"glad":13775,"farmer":13776,"assassination":13777,"brooklyn":13778,"corresponding":13779,"condemned":13780,"stamp":13781,"consideration":13782,"rically":13783,"bye":13784,"clam":13785,"testim":13786,"missile":13787,"gusts":13788,"blacks":13789,"instein":13790,"ambush":13791,"authen":13792,"pride":13793,"blan":13794,"variable":13795,"physically":13796,"reliable":13797,"orchestral":13798,"moist":13799,"pling":13800,"rotation":13801,"chon":13802,"nathan":13803,"princeton":13804,"shelter":13805,"sue":13806,"siles":13807,"examined":13808,"torpedoes":13809,"nasa":13810,"instructions":13811,"anto":13812,"quet":13813,"purple":13814,"preservation":13815,"inhg":13816,"dil":13817,"retreated":13818,"calc":13819,"phosp":13820,"emerging":13821,"ceremonies":13822,"franco":13823,"mckinley":13824,"seeds":13825,"acular":13826,"blamed":13827,"legally":13828,"chiefs":13829,"marath":13830,"participating":13831,"loyalty":13832,"composers":13833,"buddhist":13834,"organis":13835,"steadily":13836,"connects":13837,"zon":13838,"jets":13839,"1884":13840,"fairy":13841,"adopt":13842,"tracking":13843,"bibl":13844,"hubbard":13845,"disbanded":13846,"ocr":13847,"hemis":13848,"sponge":13849,"theaters":13850,"achievements":13851,"idia":13852,"brien":13853,"embass":13854,"barcel":13855,"favored":13856,"maple":13857,"dé":13858,"olia":13859,"effic":13860,"montana":13861,"230":13862,"singers":13863,"promising":13864,"capitol":13865,"disabled":13866,"messages":13867,"agencies":13868,"commitment":13869,"ellis":13870,"vegetation":13871,"distinction":13872,"atra":13873,"curved":13874,"morpho":13875,"natives":13876,"darker":13877,"rik":13878,"themed":13879,"roller":13880,"summar":13881,"apolog":13882,"glasgow":13883,"smackdown":13884,"fights":13885,"therapy":13886,"brings":13887,"intelligent":13888,"sburg":13889,"canucks":13890,"kön":13891,"reserves":13892,"convince":13893,"electoral":13894,"igo":13895,"venues":13896,"biz":13897,"jab":13898,"rebounds":13899,"processing":13900,"solely":13901,"opinions":13902,"ernest":13903,"zh":13904,"olph":13905,"ulum":13906,"radius":13907,"finest":13908,"mysterious":13909,"bce":13910,"cooperation":13911,"nets":13912,"songwriting":13913,"descript":13914,"oxide":13915,"whales":13916,"awareness":13917,"dop":13918,"file":13919,"anor":13920,"celtic":13921,"phillies":13922,"mild":13923,"unity":13924,"guit":13925,"posthum":13926,"walked":13927,"listening":13928,"psychological":13929,"bub":13930,"denver":13931,"farms":13932,"michel":13933,"rounded":13934,"aids":13935,"isles":13936,"furn":13937,"glou":13938,"shopping":13939,"ige":13940,"aba":13941,"strings":13942,"interrupted":13943,"spores":13944,"priority":13945,"indirect":13946,"westminster":13947,"everybody":13948,"theodore":13949,"renaissance":13950,"nol":13951,"percy":13952,"emma":13953,"taxonomy":13954,"bend":13955,"zi":13956,"asp":13957,"depot":13958,"spective":13959,"temples":13960,"routing":13961,"ht":13962,"loch":13963,"shank":13964,"genera":13965,"remake":13966,"1877":13967,"hawks":13968,"pleasant":13969,"dug":13970,"colin":13971,"legion":13972,"welcome":13973,"sensitive":13974,"fragments":13975,"bund":13976,"fluor":13977,"demographic":13978,"yers":13979,"pocket":13980,"1876":13981,"bishops":13982,"nationalist":13983,"prompting":13984,"urity":13985,"confer":13986,"penal":13987,"estimate":13988,"tron":13989,"essay":13990,"marqu":13991,"authentic":13992,"varian":13993,"mercedes":13994,"comparing":13995,"palm":13996,"tintin":13997,"tourists":13998,"spectrum":13999,"ritic":14000,"tort":14001,"counts":14002,"albany":14003,"contrad":14004,"heavier":14005,"nevada":14006,"newfound":14007,"bulgarian":14008,"accomplished":14009,"proclaimed":14010,"quer":14011,"syno":14012,"consistently":14013,"performers":14014,"elementary":14015,"manning":14016,"likewise":14017,"ensemble":14018,"emig":14019,"afterward":14020,"joins":14021,"carlos":14022,"throat":14023,"nitro":14024,"expectations":14025,"virtual":14026,"staged":14027,"searching":14028,"refuses":14029,"frigate":14030,"chains":14031,"brow":14032,"explored":14033,"commentators":14034,"gloucester":14035,"aders":14036,"drake":14037,"planted":14038,"enburg":14039,"signals":14040,"refugees":14041,"ottawa":14042,"oid":14043,"comprising":14044,"commons":14045,"kilometers":14046,"municipality":14047,"consequences":14048,"ukrain":14049,"ladies":14050,"croft":14051,"washed":14052,"discipline":14053,"amal":14054,"outcome":14055,"guad":14056,"variant":14057,"sergeant":14058,"jut":14059,"izers":14060,"transformed":14061,"geography":14062,"fraud":14063,"ibal":14064,"circles":14065,"lifted":14066,"nephew":14067,"hail":14068,"tees":14069,"1830":14070,"depiction":14071,"encompass":14072,"stir":14073,"opined":14074,"introduce":14075,"rese":14076,"arus":14077,"ceo":14078,"banksia":14079,"exercises":14080,"deposits":14081,"pioneer":14082,"rama":14083,"aken":14084,"groo":14085,"wilder":14086,"procedure":14087,"emotions":14088,"kay":14089,"1875":14090,"celebrity":14091,"bread":14092,"executives":14093,"properly":14094,"deliberately":14095,"pokémon":14096,"barcelona":14097,"jol":14098,"qualification":14099,"weakness":14100,"saga":14101,"rehab":14102,"barracks":14103,"reluctant":14104,"blog":14105,"jections":14106,"surpassed":14107,"holder":14108,"keyboard":14109,"michaels":14110,"pix":14111,"ortion":14112,"landmark":14113,"underwater":14114,"catal":14115,"relevant":14116,"milan":14117,"puts":14118,"wheat":14119,"licensed":14120,"tet":14121,"collecting":14122,"routine":14123,"gauge":14124,"widow":14125,"permit":14126,"bride":14127,"contribute":14128,"solve":14129,"shorten":14130,"complimented":14131,"monk":14132,"carved":14133,"chat":14134,"blair":14135,"silence":14136,"loves":14137,"extends":14138,"middles":14139,"gathering":14140,"trim":14141,"josh":14142,"joke":14143,"resort":14144,"ardo":14145,"voys":14146,"latest":14147,"bowled":14148,"diale":14149,"henderson":14150,"750":14151,"unanim":14152,"pla":14153,"atty":14154,"paralymp":14155,"guitars":14156,"onwards":14157,"expressway":14158,"vocalist":14159,"bosnia":14160,"stabil":14161,"mbar":14162,"bloom":14163,"1883":14164,"romanian":14165,"sandy":14166,"fth":14167,"carthy":14168,"logically":14169,"revealing":14170,"1881":14171,"contributing":14172,"iche":14173,"icus":14174,"millions":14175,"funk":14176,"nob":14177,"trin":14178,"argue":14179,"suited":14180,"qualities":14181,"complaints":14182,"habitats":14183,"instrumentation":14184,"ín":14185,"rode":14186,"endors":14187,"ampa":14188,"dimensional":14189,"lings":14190,"populated":14191,"diseases":14192,"cinemato":14193,"stur":14194,"beg":14195,"contempor":14196,"valent":14197,"damaging":14198,"assets":14199,"symbols":14200,"coffee":14201,"cated":14202,"cameo":14203,"lemurs":14204,"eisen":14205,"asa":14206,"shat":14207,"estone":14208,"diving":14209,"flot":14210,"muda":14211,"jumping":14212,"bacteria":14213,"insist":14214,"richardson":14215,"environments":14216,"grossed":14217,"kamp":14218,"liv":14219,"constr":14220,"clause":14221,"specified":14222,"venice":14223,"staying":14224,"weighed":14225,"nun":14226,"nervous":14227,"baptist":14228,"locomotive":14229,"jamaica":14230,"lancash":14231,"bout":14232,"powell":14233,"ferdin":14234,"agreements":14235,"permanently":14236,"paved":14237,"phenomenon":14238,"percussion":14239,"politically":14240,"1869":14241,"belonging":14242,"eb":14243,"lp":14244,"cob":14245,"hears":14246,"cricke":14247,"subordin":14248,"hunters":14249,"economics":14250,"maneuver":14251,"thed":14252,"fever":14253,"rolls":14254,"raymond":14255,"preventing":14256,"duncan":14257,"advisory":14258,"ferdinand":14259,"bever":14260,"improving":14261,"sixty":14262,"calgary":14263,"innocent":14264,"lancashire":14265,"lean":14266,"neath":14267,"frances":14268,"midway":14269,"altern":14270,"acceptance":14271,"bam":14272,"detachment":14273,"neum":14274,"desired":14275,"shipped":14276,"chapters":14277,"eruption":14278,"referee":14279,"č":14280,"wend":14281,"unaware":14282,"judgment":14283,"1866":14284,"kidn":14285,"dispatched":14286,"telescope":14287,"reson":14288,"witnessed":14289,"raven":14290,"xide":14291,"itudes":14292,"ceiling":14293,"veronica":14294,"ensus":14295,"azer":14296,"lessons":14297,"wanting":14298,"retrieved":14299,"nok":14300,"evelop":14301,"patrols":14302,"hypothesis":14303,"colleges":14304,"sympa":14305,"ules":14306,"redevelop":14307,"floyd":14308,"objectives":14309,"switched":14310,"requirement":14311,"sans":14312,"consensus":14313,"blockade":14314,"ee":14315,"unsuccessfully":14316,"libert":14317,"interactions":14318,"wellington":14319,"fantastic":14320,"channels":14321,"lil":14322,"och":14323,"anx":14324,"refr":14325,"grants":14326,"ennial":14327,"consu":14328,"costumes":14329,"nicol":14330,"encourage":14331,"adaptations":14332,"fib":14333,"convert":14334,"blade":14335,"lengths":14336,"oe":14337,"sara":14338,"beit":14339,"trinity":14340,"drill":14341,"angels":14342,"calm":14343,"cubic":14344,"zones":14345,"horns":14346,"vibr":14347,"syndrome":14348,"stripped":14349,"freshman":14350,"publishers":14351,"ijing":14352,"yar":14353,"edges":14354,"accol":14355,"tradem":14356,"allegations":14357,"eccles":14358,"homeless":14359,"dere":14360,"explosive":14361,"immigrants":14362,"crawford":14363,"abundant":14364,"jag":14365,"fringe":14366,"transform":14367,"reservoir":14368,"anka":14369,"belonged":14370,"flanders":14371,"atar":14372,"ipher":14373,"doms":14374,"tasks":14375,"vlad":14376,"chu":14377,"relating":14378,"kett":14379,"glory":14380,"realm":14381,"palestine":14382,"inhabited":14383,"sink":14384,"thening":14385,"landings":14386,"yang":14387,"destiny":14388,"alon":14389,"forget":14390,"olf":14391,"peru":14392,"diary":14393,"digit":14394,"hiro":14395,"paramount":14396,"tucker":14397,"1873":14398,"nicknamed":14399,"congregation":14400,"́l":14401,"unusually":14402,"thoughts":14403,"zel":14404,"rehear":14405,"forbid":14406,"cream":14407,"submerged":14408,"logic":14409,"dudley":14410,"export":14411,"eta":14412,"contrary":14413,"watson":14414,"fischer":14415,"aaron":14416,"outdoor":14417,"antis":14418,"cylinder":14419,"nony":14420,"teenage":14421,"1882":14422,"ecology":14423,"eldest":14424,"obst":14425,"biology":14426,"machinery":14427,"beijing":14428,"1867":14429,"proceedings":14430,"advocate":14431,"naked":14432,"acon":14433,"masses":14434,"nineteenth":14435,"1871":14436,"contested":14437,"crucial":14438,"instruction":14439,"orn":14440,"trips":14441,"bless":14442,"newman":14443,"atern":14444,"overwhelming":14445,"griffin":14446,"foun":14447,"inos":14448,"roth":14449,"ighter":14450,"grain":14451,"democracy":14452,"mano":14453,"topic":14454,"spor":14455,"tables":14456,"kepler":14457,"cripts":14458,"nery":14459,"defenses":14460,"mccarthy":14461,"festivals":14462,"bachel":14463,"advocated":14464,"trilo":14465,"cultures":14466,"horsepower":14467,"116":14468,"̀re":14469,"icity":14470,"malay":14471,"reviewing":14472,"platoon":14473,"manufactured":14474,"aristocr":14475,"pounder":14476,"monuments":14477,"truman":14478,"š":14479,"comprised":14480,"fow":14481,"norse":14482,"storylines":14483,"coaster":14484,"paired":14485,"healthy":14486,"bree":14487,"nobel":14488,"etc":14489,"itunes":14490,"deriv":14491,"guided":14492,"rushed":14493,"athlete":14494,"cay":14495,"utt":14496,"doub":14497,"1878":14498,"lore":14499,"mosque":14500,"triangle":14501,"remarkable":14502,"cis":14503,"quin":14504,"wolver":14505,"nests":14506,"customs":14507,"index":14508,"horizontal":14509,"yes":14510,"iman":14511,"molecules":14512,"turbines":14513,"vampire":14514,"gains":14515,"endangered":14516,"necessarily":14517,"correctly":14518,"gibson":14519,"luftw":14520,"logan":14521,"engaging":14522,"hazard":14523,"unveiled":14524,"nab":14525,"wander":14526,"criter":14527,"eleventh":14528,"archaeo":14529,"chip":14530,"utter":14531,"utely":14532,"illum":14533,"dissolved":14534,"speculated":14535,"averaged":14536,"resemble":14537,"anno":14538,"deals":14539,"speakers":14540,"proud":14541,"undertook":14542,"bigger":14543,"chaos":14544,"diocese":14545,"oval":14546,"literally":14547,"installation":14548,"adri":14549,"pluton":14550,"curtis":14551,"dian":14552,"gum":14553,"adds":14554,"damages":14555,"fluid":14556,"lengthy":14557,"spectators":14558,"jg":14559,"prostit":14560,"synony":14561,"myst":14562,"coastline":14563,"ensuing":14564,"enormous":14565,"distr":14566,"comet":14567,"boarding":14568,"admiralty":14569,"jail":14570,"iper":14571,"anni":14572,"metacritic":14573,"uri":14574,"manages":14575,"iang":14576,"overcome":14577,"interviewed":14578,"editorial":14579,"embassy":14580,"fountain":14581,"incar":14582,"liken":14583,"drif":14584,"discussions":14585,"pé":14586,"marcus":14587,"abad":14588,"coral":14589,"luther":14590,"anonymous":14591,"chant":14592,"plastic":14593,"intact":14594,"lynch":14595,"relied":14596,"sier":14597,"rep":14598,"trace":14599,"hampton":14600,"riff":14601,"riley":14602,"feminist":14603,"fierce":14604,"comparable":14605,"merchand":14606,"honest":14607,"extinction":14608,"luftwaffe":14609,"pd":14610,"thorpe":14611,"wishes":14612,"aph":14613,"proven":14614,"doom":14615,"inef":14616,"assign":14617,"soccer":14618,"destination":14619,"mistake":14620,"stellar":14621,"adrian":14622,"nomine":14623,"bermuda":14624,"lene":14625,"shelley":14626,"insufficient":14627,"tow":14628,"disgu":14629,"advances":14630,"aguil":14631,"trilogy":14632,"marx":14633,"intend":14634,"rah":14635,"patch":14636,"1868":14637,"fen":14638,"screens":14639,"meso":14640,"revived":14641,"aul":14642,"irregular":14643,"battlecruisers":14644,"static":14645,"herb":14646,"sovie":14647,"membr":14648,"proceeds":14649,"instructed":14650,"leather":14651,"ioc":14652,"1872":14653,"reminiscent":14654,"å":14655,"sant":14656,"loo":14657,"cran":14658,"aguilera":14659,"actic":14660,"selena":14661,"acceptable":14662,"floating":14663,"gorge":14664,"lance":14665,"enrolled":14666,"ptic":14667,"successive":14668,"summary":14669,"rulers":14670,"batsman":14671,"serb":14672,"bankrupt":14673,"sacrific":14674,"soviets":14675,"chandler":14676,"coronation":14677,"fears":14678,"intersections":14679,"tribal":14680,"adelaide":14681,"newport":14682,"bourg":14683,"phillips":14684,"vre":14685,"ž":14686,"presum":14687,"tailed":14688,"interference":14689,"highlight":14690,"appealed":14691,"screening":14692,"dakota":14693,"dart":14694,"yok":14695,"monroe":14696,"silk":14697,"slower":14698,"vander":14699,"symme":14700,"rapper":14701,"dealt":14702,"rumors":14703,"repaired":14704,"merchants":14705,"deeper":14706,"ović":14707,"nak":14708,"shine":14709,"mantle":14710,"ichi":14711,"135":14712,"slaugh":14713,"grammar":14714,"riot":14715,"aliens":14716,"termed":14717,"opol":14718,"reless":14719,"attractive":14720,"deployment":14721,"conting":14722,"rend":14723,"package":14724,"210":14725,"wrestle":14726,"quantities":14727,"reef":14728,"gamespot":14729,"macdonald":14730,"biograph":14731,"investigations":14732,"maxwell":14733,"disputes":14734,"barely":14735,"pagan":14736,"escal":14737,"suits":14738,"endar":14739,"annie":14740,"panels":14741,"privately":14742,"maiden":14743,"geoffrey":14744,"hond":14745,"olith":14746,"affir":14747,"brass":14748,"genius":14749,"127":14750,"cardinal":14751,"xy":14752,"rene":14753,"outed":14754,"lease":14755,"coven":14756,"spencer":14757,"renumber":14758,"exhibited":14759,"lunar":14760,"daniels":14761,"uting":14762,"busy":14763,"item":14764,"keley":14765,"curves":14766,"letcher":14767,"topes":14768,"contracted":14769,"thickness":14770,"wives":14771,"cease":14772,"array":14773,"thorn":14774,"catalo":14775,"separately":14776,"automatic":14777,"ust":14778,"ambit":14779,"deton":14780,"surrey":14781,"coloured":14782,"wwf":14783,"inquiry":14784,"imported":14785,"creates":14786,"casino":14787,"twe":14788,"geon":14789,"330":14790,"nobody":14791,"trun":14792,"hog":14793,"assed":14794,"hydr":14795,"essex":14796,"holoc":14797,"abraham":14798,"disliked":14799,"cylind":14800,"lining":14801,"delays":14802,"barrett":14803,"motors":14804,"supporter":14805,"flotilla":14806,"worcester":14807,"custody":14808,"expense":14809,"burst":14810,"magical":14811,"scrat":14812,"plymouth":14813,"redesign":14814,"admit":14815,"manned":14816,"175":14817,"plutonium":14818,"iating":14819,"vish":14820,"prose":14821,"developer":14822,"madrid":14823,"experts":14824,"demanding":14825,"proximity":14826,"refit":14827,"wim":14828,"pray":14829,"underneath":14830,"mortality":14831,"descendants":14832,"cig":14833,"gad":14834,"parod":14835,"protecting":14836,"caliber":14837,"lamb":14838,"hp":14839,"choo":14840,"survivor":14841,"mathematical":14842,"crom":14843,"romans":14844,"fergus":14845,"farming":14846,"limestone":14847,"aires":14848,"mvp":14849,"ruins":14850,"delegation":14851,"pavil":14852,"ltd":14853,"pronounced":14854,"projected":14855,"operator":14856,"ballet":14857,"vienna":14858,"acquire":14859,"captivity":14860,"kinson":14861,"secular":14862,"excessive":14863,"anthropo":14864,"ober":14865,"connor":14866,"blake":14867,"acquisition":14868,"allocated":14869,"pest":14870,"wey":14871,"subur":14872,"mastered":14873,"ampl":14874,"aca":14875,"hurst":14876,"romania":14877,"pyramid":14878,"ipe":14879,"sv":14880,"hung":14881,"associates":14882,"hancock":14883,"floods":14884,"architects":14885,"collision":14886,"florence":14887,"clerk":14888,"invented":14889,"gly":14890,"stam":14891,"monks":14892,"llan":14893,"ornam":14894,"filling":14895,"iph":14896,"janet":14897,"seemingly":14898,"evolutionary":14899,"totally":14900,"bengal":14901,"climbing":14902,"puzz":14903,"maybe":14904,"cabin":14905,"rockets":14906,"convinc":14907,"restaurants":14908,"edmonton":14909,"hale":14910,"itable":14911,"hanging":14912,"spiel":14913,"identification":14914,"floors":14915,"chicken":14916,"biographical":14917,"streams":14918,"tunnels":14919,"jeremy":14920,"ulu":14921,"schem":14922,"lah":14923,"trout":14924,"crowned":14925,"immigration":14926,"baldwin":14927,"jennifer":14928,"leban":14929,"limbs":14930,"arkansas":14931,"reflecting":14932,"hergé":14933,"oming":14934,"fatalities":14935,"enda":14936,"bret":14937,"lifestyle":14938,"ambitious":14939,"ulates":14940,"persecut":14941,"generations":14942,"extraordinary":14943,"preston":14944,"aceous":14945,"1879":14946,"twelfth":14947,"erosion":14948,"lobby":14949,"devi":14950,"jungle":14951,"elim":14952,"garage":14953,"modifications":14954,"censor":14955,"descended":14956,"guarante":14957,"wang":14958,"sut":14959,"defic":14960,"270":14961,"introducing":14962,"enforcement":14963,"sag":14964,"incur":14965,"auction":14966,"aks":14967,"odor":14968,"phal":14969,"discontinued":14970,"muscle":14971,"struggling":14972,"bik":14973,"itan":14974,"perth":14975,"evangel":14976,"lesbian":14977,"scrapped":14978,"savage":14979,"hatch":14980,"pierce":14981,"majest":14982,"cly":14983,"tout":14984,"unfortun":14985,"bowie":14986,"modes":14987,"assignment":14988,"computers":14989,"keeps":14990,"administered":14991,"neighbouring":14992,"yas":14993,"perimeter":14994,"interactive":14995,"laus":14996,"demonstrate":14997,"lest":14998,"imped":14999,"worried":15000,"demonstration":15001,"enthusiastic":15002,"blown":15003,"vich":15004,"porters":15005,"minogue":15006,"contents":15007,"openly":15008,"halted":15009,"torch":15010,"sketch":15011,"mt":15012,"pump":15013,"tany":15014,"suburban":15015,"memorable":15016,"besie":15017,"mccain":15018,"opted":15019,"notor":15020,"subtle":15021,"skinner":15022,"attachment":15023,"appreciated":15024,"regained":15025,"runners":15026,"dirty":15027,"mari":15028,"schu":15029,"kre":15030,"artif":15031,"overs":15032,"turks":15033,"substance":15034,"matched":15035,"circus":15036,"ease":15037,"rely":15038,"hawaiian":15039,"hau":15040,"sadd":15041,"cht":15042,"acer":15043,"operas":15044,"plug":15045,"upgrade":15046,"iki":15047,"scenario":15048,"lancaster":15049,"declaring":15050,"specialized":15051,"elderly":15052,"orbital":15053,"diagnosis":15054,"koreans":15055,"assessed":15056,"banner":15057,"stuck":15058,"skip":15059,"pregnancy":15060,"newfoundland":15061,"traged":15062,"diesel":15063,"monarchy":15064,"phones":15065,"jokes":15066,"mcdonald":15067,"reserved":15068,"phere":15069,"woodland":15070,"ridic":15071,"devot":15072,"isotopes":15073,"pepper":15074,"ambig":15075,"drops":15076,"basement":15077,"errors":15078,"pipe":15079,"scouts":15080,"buses":15081,"apor":15082,"ophy":15083,"regulation":15084,"prohibited":15085,"eman":15086,"gore":15087,"merit":15088,"versely":15089,"reconcil":15090,"maurice":15091,"findings":15092,"laying":15093,"northwestward":15094,"rodrig":15095,"edwin":15096,"igs":15097,"grip":15098,"diagnosed":15099,"merger":15100,"anatomy":15101,"pont":15102,"robot":15103,"compact":15104,"joel":15105,"strengthening":15106,"wyn":15107,"motorway":15108,"wonderful":15109,"infected":15110,"aggregate":15111,"sne":15112,"louise":15113,"boxing":15114,"hower":15115,"cube":15116,"lacks":15117,"applic":15118,"detached":15119,"variants":15120,"sierra":15121,"cres":15122,"hagen":15123,"chances":15124,"whist":15125,"gros":15126,"busch":15127,"alpine":15128,"barber":15129,"boxes":15130,"tina":15131,"hoo":15132,"interfer":15133,"backup":15134,"societies":15135,"invitation":15136,"caroline":15137,"comprehensive":15138,"teammates":15139,"swan":15140,"statist":15141,"rer":15142,"ishi":15143,"odon":15144,"runway":15145,"cheer":15146,"panama":15147,"liberation":15148,"gru":15149,"deciding":15150,"draws":15151,"recognize":15152,"afi":15153,"centres":15154,"collector":15155,"palmer":15156,"nashville":15157,"jas":15158,"́a":15159,"claire":15160,"bachelor":15161,"corners":15162,"dissent":15163,"ronald":15164,"harper":15165,"allegedly":15166,"juvenile":15167,"topo":15168,"bees":15169,"106":15170,"strait":15171,"measurements":15172,"observers":15173,"compensation":15174,"grab":15175,"slides":15176,"layout":15177,"reyn":15178,"bassist":15179,"infant":15180,"modore":15181,"illusion":15182,"epi":15183,"polis":15184,"legends":15185,"edict":15186,"cong":15187,"olive":15188,"progression":15189,"marl":15190,"surfaces":15191,"incomplete":15192,"seasonal":15193,"calvin":15194,"drowned":15195,"consumer":15196,"muzzle":15197,"specialist":15198,"qualify":15199,"spare":15200,"digest":15201,"das":15202,"hiding":15203,"acing":15204,"quinn":15205,"aude":15206,"defender":15207,"freight":15208,"suburbs":15209,"emily":15210,"painter":15211,"cater":15212,"marble":15213,"intern":15214,"moreover":15215,"realizes":15216,"solutions":15217,"emphasized":15218,"diamonds":15219,"speeches":15220,"salis":15221,"doubles":15222,"sophistic":15223,"aches":15224,"consent":15225,"occupy":15226,"eliminate":15227,"reversed":15228,"skeleton":15229,"drainage":15230,"elephant":15231,"guate":15232,"1848":15233,"fins":15234,"scales":15235,"krish":15236,"pushing":15237,"perfectly":15238,"morrow":15239,"whites":15240,"veto":15241,"ignor":15242,"collective":15243,"garfield":15244,"chak":15245,"conjunction":15246,"oll":15247,"gues":15248,"solomon":15249,"integration":15250,"slot":15251,"embarr":15252,"cafe":15253,"securing":15254,"randy":15255,"alert":15256,"lois":15257,"apes":15258,"sufficiently":15259,"pistol":15260,"chick":15261,"ester":15262,"protective":15263,"rape":15264,"exciting":15265,"whip":15266,"gett":15267,"cheap":15268,"welfare":15269,"conception":15270,"cameras":15271,"rifles":15272,"rhodesia":15273,"iat":15274,"tonight":15275,"lessly":15276,"hospitals":15277,"1874":15278,"accuracy":15279,"collegiate":15280,"hism":15281,"thermal":15282,"mahon":15283,"raz":15284,"hardware":15285,"desperate":15286,"dors":15287,"ea":15288,"suburb":15289,"superman":15290,"coupled":15291,"erupt":15292,"ayette":15293,"shre":15294,"endum":15295,"frog":15296,"hemisphere":15297,"spongebob":15298,"lude":15299,"sib":15300,"thrust":15301,"cosmo":15302,"ett":15303,"ashed":15304,"holmes":15305,"treasure":15306,"armenia":15307,"choosing":15308,"kang":15309,"mw":15310,"pau":15311,"robo":15312,"irving":15313,"volunt":15314,"plateau":15315,"auxili":15316,"terrestrial":15317,"propul":15318,"anywhere":15319,"hank":15320,"airplay":15321,"breakthrough":15322,"arabic":15323,"finnish":15324,"oned":15325,"ranch":15326,"illustrations":15327,"rhine":15328,"kip":15329,"stup":15330,"rous":15331,"windsor":15332,"ashley":15333,"michelle":15334,"cluster":15335,"tended":15336,"seth":15337,"shen":15338,"notion":15339,"108":15340,"stepped":15341,"graduating":15342,"competitors":15343,"dimensions":15344,"manual":15345,"murders":15346,"incorporates":15347,"atoms":15348,"frustrated":15349,"jacques":15350,"elines":15351,"unci":15352,"suite":15353,"tense":15354,"void":15355,"wounds":15356,"frozen":15357,"bf":15358,"input":15359,"lindwall":15360,"citizenship":15361,"kun":15362,"urers":15363,"heter":15364,"laz":15365,"missiles":15366,"augustus":15367,"kenny":15368,"bloody":15369,"repeat":15370,"hutch":15371,"glacier":15372,"hect":15373,"drives":15374,"controlling":15375,"scrip":15376,"investigated":15377,"favourable":15378,"negotiated":15379,"nurse":15380,"fid":15381,"hed":15382,"confined":15383,"monkey":15384,"dinosaurs":15385,"organs":15386,"eg":15387,"pour":15388,"berkeley":15389,"martha":15390,"monday":15391,"gregor":15392,"stalin":15393,"pupils":15394,"ethan":15395,"recre":15396,"ctu":15397,"shipyard":15398,"northbound":15399,"mercy":15400,"reasonable":15401,"ranged":15402,"precise":15403,"370":15404,"tiny":15405,"wage":15406,"inous":15407,"reformed":15408,"preach":15409,"preval":15410,"chez":15411,"280":15412,"breakdown":15413,"stanford":15414,"physician":15415,"smu":15416,"icular":15417,"profits":15418,"analog":15419,"lund":15420,"uz":15421,"iano":15422,"sexually":15423,"cuban":15424,"accolades":15425,"presley":15426,"wouldn":15427,"morton":15428,"patent":15429,"grandson":15430,"testimony":15431,"elimination":15432,"aby":15433,"sided":15434,"aler":15435,"sebast":15436,"phylo":15437,"zep":15438,"nearest":15439,"skiing":15440,"helicopters":15441,"nim":15442,"maturity":15443,"summers":15444,"satir":15445,"kot":15446,"sunder":15447,"blaz":15448,"carefully":15449,"maintains":15450,"guadal":15451,"vacc":15452,"oline":15453,"caps":15454,"rowing":15455,"bulgaria":15456,"agic":15457,"delhi":15458,"fortified":15459,"harmony":15460,"enable":15461,"designers":15462,"employee":15463,"boro":15464,"patric":15465,"technologies":15466,"genuine":15467,"fits":15468,"managers":15469,"thood":15470,"sleeping":15471,"dell":15472,"wand":15473,"unofficial":15474,"brood":15475,"statute":15476,"judged":15477,"availability":15478,"raiders":15479,"jennings":15480,"warwick":15481,"rises":15482,"mistaken":15483,"gabriel":15484,"maneuvers":15485,"carpenter":15486,"numer":15487,"submit":15488,"successes":15489,"topics":15490,"crust":15491,"defeats":15492,"hayes":15493,"rept":15494,"enberg":15495,"seiz":15496,"amino":15497,"imir":15498,"duet":15499,"emi":15500,"honored":15501,"1851":15502,"enhance":15503,"cw":15504,"governing":15505,"cheek":15506,"chapman":15507,"absolutely":15508,"dus":15509,"waterline":15510,"immune":15511,"rok":15512,"prosecution":15513,"partisan":15514,"bergen":15515,"duchess":15516,"spike":15517,"bolton":15518,"binding":15519,"brutal":15520,"edgar":15521,"fert":15522,"procedures":15523,"bage":15524,"fond":15525,"disappointment":15526,"iott":15527,"escapes":15528,"stunt":15529,"té":15530,"serbs":15531,"civilization":15532,"hopkins":15533,"tongue":15534,"eclip":15535,"charle":15536,"receiver":15537,"antiqu":15538,"holocaust":15539,"anglic":15540,"inscription":15541,"sprint":15542,"democrat":15543,"neighboring":15544,"guadalcanal":15545,"dign":15546,"oath":15547,"heating":15548,"constell":15549,"annon":15550,"trails":15551,"regret":15552,"103":15553,"innovative":15554,"spawned":15555,"coc":15556,"civic":15557,"traits":15558,"momentum":15559,"dynamics":15560,"anga":15561,"entertaining":15562,"unnamed":15563,"ulted":15564,"respected":15565,"referendum":15566,"combine":15567,
[...]
