[PAD]
[CLS]
[SEP]
[EOS]
[UNK]
[MASK]
!
"
#
$
%
&
'
(
)
*
+
,
-
.
/
0
1
2
3
4
5
6
7
8
9
:
;
<
=
>
?
@
[
\
]
^
_
`
a
b
c
d
e
f
g
h
i
j
k
l
m
n
o
p
q
r
s
t
u
v
w
x
y
z
{
|
}
~






¡
¢
£
¤
¥
§
©
«
­
®
°
±
¶
·
»
¿
×
ß
æ
ð
÷
ø
þ
đ
ħ
ı
ĸ
ł
ŋ
œ
ŧ
ƀ
ƈ
ƍ
ƒ
ƙ
ƛ
ƣ
ƥ
ƭ
ƿ
ǀ
ǁ
ǂ
ǃ
ǝ
ȝ
ȷ
ȼ
ɉ
ɐ
ɑ
ɒ
ɓ
ɔ
ɕ
ɖ
ɗ
ɘ
ə
ɚ
ɛ
ɜ
ɞ
ɟ
ɠ
ɡ
ɢ
ɣ
ɤ
ɥ
ɦ
ɧ
ɨ
ɪ
ɫ
ɬ
ɭ
ɮ
ɯ
ɰ
ɱ
ɲ
ɳ
ɴ
ɵ
ɶ
ɷ
ɸ
ɹ
ɺ
ɻ
ɽ
ɾ
ʀ
ʁ
ʂ
ʃ
ʄ
ʇ
ʈ
ʉ
ʊ
ʋ
ʌ
ʍ
ʎ
ʏ
ʐ
ʑ
ʒ
ʔ
ʕ
ʖ
ʗ
ʘ
ʙ
ʛ
ʝ
ʞ
ʟ
ʠ
ʡ
ʢ
ʹ
ʻ
ʼ
ʽ
ʾ
ʿ
ˀ
ˁ
ˆ
ˇ
ˈ
ˌ
ː
ˑ
˔
˕
˖
˞
˥
˦
˧
˨
˩
̀
́
̂
̃
̄
̆
̇
̈
̉
̊
̋
̌
̍
̏
̐
̑
̓
̔
̖
̗
̚
̛
̝
̞
̟
̠
̣
̤
̥
̦
̧
̨
̩
̪
̬
̮
̯
̰
̱
̲
̳
̸
̺
̽
͂
ͅ
͌
͍
͘
͜
͡
α
β
γ
δ
ε
ζ
η
θ
ι
κ
λ
μ
ν
ξ
ο
π
ρ
ς
σ
τ
υ
φ
χ
ψ
ω
ϝ
ϟ
а
б
в
г
д
е
ж
з
и
к
л
м
н
о
п
р
с
т
у
ф
х
ц
ч
ш
щ
ъ
ы
ь
э
ю
я
ђ
є
і
ј
љ
њ
ћ
ѡ
ѣ
ѥ
ѧ
ѯ
ѹ
҆
ғ
қ
ү
ҳ
ҷ
ө
ӷ
ա
բ
գ
դ
ե
զ
է
ը
թ
ժ
ի
լ
խ
ծ
կ
հ
ձ
ղ
ճ
մ
յ
ն
շ
ո
չ
պ
ջ
ռ
ս
վ
տ
ր
ց
ւ
փ
ք
օ
֤
֫
ְ
ֱ
ֲ
ֳ
ִ
ֵ
ֶ
ַ
ָ
ֹ
ֻ
ּ
ֽ
ֿ
ׁ
ׂ
א
ב
ג
ד
ה
ו
ז
ח
ט
י
ך
כ
ל
ם
מ
ן
נ
ס
ע
ף
פ
ץ
צ
ק
ר
ש
ת
ױ
׳
،
ء
ا
ب
ة
ت
ث
ج
ح
خ
د
ذ
ر
ز
س
ش
ص
ض
ط
ظ
ع
غ
ـ
ف
ق
ك
ل
م
ن
ه
و
ى
ي
ً
ٌ
ٍ
َ
ُ
ِ
ّ
ْ
ٓ
ٔ
ٕ
١
٧
ٰ
پ
چ
ڈ
ڠ
ک
ڬ
گ
ں
ھ
ہ
ی
ۍ
ے
ە
ܐ
ܒ
ܔ
ܕ
ܗ
ܘ
ܙ
ܚ
ܛ
ܝ
ܠ
ܡ
ܢ
ܣ
ܥ
ܦ
ܪ
ܬ
ܲ
ܵ
ܼ
݂
ँ
ं
ः
अ
आ
इ
ई
उ
ऋ
ए
ऐ
औ
क
ख
ग
घ
ङ
च
छ
ज
ञ
ट
ठ
ड
ण
त
थ
द
ध
न
प
फ
ब
भ
म
य
र
ल
व
श
ष
स
ह
़
ऽ
ा
ि
ी
ु
ू
ृ
ॆ
े
ै
ॉ
ॊ
ो
ौ
्
ॐ
।
॥
१
२
३
ং
অ
আ
ই
এ
ক
খ
গ
ঙ
চ
জ
ট
ড
ঢ
ণ
ত
থ
দ
ন
প
ব
ভ
ম
য
র
ল
শ
ষ
স
হ
়
া
ি
ী
ু
ূ
ে
ৈ
্
ৰ
ਂ
ਅ
ਉ
ਖ
ਘ
ਜ
ਝ
ਦ
ਲ
ਵ
ਸ
ਹ
਼
ਾ
ਿ
ੁ
ੇ
ੰ
ੱ
ખ
ફ
બ
ર
લ
સ
ા
ો
ପ
ର
ୀ
ୁ
ஃ
அ
ஆ
இ
ஈ
எ
ஒ
க
ங
ச
ட
ண
த
ந
ன
ப
ம
ய
ர
ற
ல
ள
ழ
வ
ஸ
ா
ி
ீ
ு
ூ
ெ
ே
ை
்
ం
క
ఖ
గ
జ
ట
ఠ
డ
త
థ
ద
న
ప
బ
భ
మ
య
ర
ల
వ
ష
స
ా
ి
ీ
ు
ె
ో
్
ౖ
ಂ
ಃ
ಕ
ಖ
ಗ
ಚ
ಟ
ಠ
ಡ
ತ
ದ
ನ
ಪ
ಬ
ಭ
ಮ
ಯ
ರ
ಱ
ಲ
ಳ
ವ
ಶ
ಸ
ಹ
ಾ
ಿ
ು
ೂ
ೆ
್
ೕ
ೞ
അ
ങ
ദ
ന
പ
മ
യ
ര
ള
വ
ശ
സ
ഹ
ാ
ി
്
අ
එ
ක
ග
ජ
ත
ධ
න
ප
ම
ය
ර
ල
ව
ශ
හ
ළ
්
ා
ැ
ි
ු
ෙ
ก
ข
ค
ฆ
ง
จ
ฉ
ช
ซ
ญ
ฎ
ฏ
ฐ
ฑ
ณ
ด
ต
ถ
ท
ธ
น
บ
ป
ผ
ฝ
พ
ฟ
ภ
ม
ย
ร
ฤ
ล
ว
ศ
ษ
ส
ห
ฬ
อ
ฮ
ะ
ั
า
ิ
ี
ึ
ื
ุ
ู
฿
เ
แ
โ
ใ
ไ
็
่
้
๊
์
ํ
་
།
ཀ
ཁ
ག
ང
ཆ
ཇ
ཐ
ད
ན
པ
བ
མ
ཙ
ཚ
ཛ
འ
ཡ
ར
ལ
ས
ཧ
ི
ུ
ེ
ོ
ྟ
ྡ
ྣ
ྤ
ྥ
ྱ
ྲ
က
ဂ
င
စ
ဆ
ဇ
တ
န
ပ
ဗ
ဘ
မ
ယ
ရ
လ
ဝ
ဟ
အ
ာ
ိ
ီ
ု
ူ
ဲ
း
္
်
ျ
ြ
ွ
ှ
၁
၂
၇
၈
ა
ბ
გ
დ
ე
ვ
ზ
თ
ი
კ
ლ
მ
ნ
ო
პ
ჟ
რ
ს
ტ
უ
ფ
ქ
ღ
ყ
შ
ჩ
ც
ძ
წ
ჭ
ხ
ჯ
ჰ
ჱ
ჲ
ჳ
ჴ
ჵ
ჶ
ჷ
ჸ
ჹ
ჺ
჻
ᄀ
ᄁ
ᄂ
ᄃ
ᄄ
ᄅ
ᄆ
ᄇ
ᄈ
ᄉ
ᄊ
ᄋ
ᄌ
ᄎ
ᄏ
ᄐ
ᄑ
ᄒ
ᅡ
ᅢ
ᅣ
ᅥ
ᅦ
ᅧ
ᅨ
ᅩ
ᅪ
ᅫ
ᅬ
ᅭ
ᅮ
ᅯ
ᅱ
ᅲ
ᅳ
ᅴ
ᅵ
ᆨ
ᆫ
ᆮ
ᆯ
ᆰ
ᆷ
ᆸ
ᆺ
ᆻ
ᆼ
ᇂ
ሀ
ለ
ሐ
ሓ
ሕ
መ
ማ
ሥ
ረ
ር
ሰ
ስ
ቆ
ቈ
በ
ብ
ቲ
ታ
ት
ነ
ና
ን
ኖ
አ
ኢ
እ
ከ
ኲ
ዕ
ዘ
ዛ
የ
ያ
ይ
ዮ
ደ
ድ
ጅ
ገ
ጉ
ጵ
ፈ
ፍ
፡
ᏹ
ᐊ
ᑲ
ᒡ
ᓘ
ᚢ
ᚣ
ᚦ
ᚨ
ᚩ
ᚬ
ᚱ
ᚷ
ᚹ
ᚺ
ᚻ
ᚼ
ᚾ
ᛁ
ᛃ
ᛄ
ᛇ
ᛋ
ᛏ
ᛒ
ᛗ
ᛚ
ᛝ
ᛞ
ᛟ
ᛠ
ក
ខ
គ
ង
ច
ឆ
ជ
ញ
ដ
ឋ
ណ
ត
ថ
ទ
ធ
ន
ប
ព
ភ
ម
យ
រ
ល
វ
ស
ហ
អ
ឥ
ឪ
ឫ
ឯ
឵
ា
ិ
ី
ឹ
ឺ
ុ
ូ
ួ
ៀ
េ
ែ
ៃ
ោ
ៅ
ំ
ះ
ៈ
៉
់
្
ᠠ
ᠣ
ᠨ
ᠪ
ᠮ
ᠯ
ᠰ
ᠴ
ᠵ
ᠸ
ᡝ
ᡠ
ᡥ
ᡨ
ᡳ
ᡴ
ᡵ
ᵻ
ᵿ
ᶑ
᷄
᷅
᷆
᷇
᷈
᷉
᷽
​
‌
‍
‐
‒
–
—
―
‖
‘
’
‚
‛
“
”
„
‟
†
‡
•
‰
′
※
‿
⁄
⁊
⁠
⁡
₡
₣
₤
₦
₧
₩
₫
€
₱
₴
₹
℞
℥
←
↑
→
↓
↔
↗
↘
↦
↪
↵
⇄
⇌
⇒
⇪
∀
∂
∅
∆
∇
∈
∊
∑
−
∕
∖
∗
∘
√
∝
∞
∣
∩
∪
∫
∴
∼
≈
≡
≤
≥
≪
≫
≲
⊂
⊕
⊗
⊙
⊞
⊢
⊣
⊥
⋅
⋆
⋯
⌊
⌋
⌘
─
█
▢
▲
▼
○
●
◦
☄
★
☆
☉
☧
☫
☭
☽
☾
♀
♂
♄
♅
♆
♇
♈
♉
♠
♣
♥
♦
♩
♪
♭
♮
♯
⚳
⚴
⚵
⛢
✡
✱
❄
❅
❆
❤
⟦
⟧
⟨
⟩
⥇
⩽
⫶
ⱱ
ⲁ
ⲛ
ⲥ
ⲧ
ⲩ
ⲫ
ⲱ
ⴀ
ⴂ
ⴃ
ⴈ
ⴌ
ⴕ
ⴟ
ⴰ
ⴳ
ⴷ
ⴻ
ⴼ
ⴽ
ⵃ
ⵇ
ⵉ
ⵍ
ⵎ
ⵏ
ⵓ
ⵔ
ⵕ
ⵖ
ⵙ
ⵛ
ⵜ
ⵡ
ⵢ
ⵣ
⸨
⸩
、
。
々
〈
〉
《
》
「
」
『
』
【
】
〒
〜
あ
ぃ
い
ぅ
う
ぇ
え
ぉ
お
か
き
く
け
こ
さ
し
す
せ
そ
た
ち
っ
つ
て
と
な
に
ぬ
ね
の
は
ひ
ふ
へ
ほ
ま
み
む
め
も
ゃ
や
ゅ
ゆ
ょ
よ
ら
り
る
れ
ろ
わ
ゑ
を
ん
゙
゚
ァ
ア
ィ
イ
ゥ
ウ
ェ
エ
ォ
オ
カ
キ
ク
ケ
コ
サ
シ
ス
セ
ソ
タ
チ
ッ
ツ
テ
ト
ナ
ニ
ヌ
ネ
ノ
ハ
ヒ
フ
ヘ
ホ
マ
ミ
ム
メ
モ
ャ
ヤ
ュ
ユ
ョ
ヨ
ラ
リ
ル
レ
ロ
ワ
ヲ
ン
ヶ
・
ー
一
丁
七
万
丈
三
上
下
不
与
丑
且
世
丘
丙
东
丝
丞
両
丨
个
中
丶
丸
丹
为
主
丽
丿
乃
久
么
义
之
乌
乎
乐
乘
乙
乚
乛
九
也
习
书
乩
买
乱
乳
乾
亀
亅
了
予
争
事
二
云
五
井
亚
些
亜
亞
亡
交
亦
亨
京
亮
亰
人
什
仁
仇
今
介
仔
仕
他
付
仙
代
令
以
仪
们
仮
仰
仲
件
任
份
伊
伏
伐
休
会
伝
伟
传
伪
伯
伴
伸
似
佃
但
位
住
佐
佑
体
何
余
佛
作
你
佳
併
使
來
例
侍
侗
供
依
侠
侨
侬
侯
係
促
俄
俊
保
信
俭
修
俱
俳
倉
個
們
候
借
倪
倫
倭
偃
假
偏
健
側
偵
偽
傀
傅
傑
傘
備
催
傭
傳
傷
像
僑
僕
僧
儀
億
儒
儚
儡
優
儿
允
元
充
兆
先
光
克
免
兒
兔
兜
入
內
全
兩
八
公
六
兰
共
关
兵
其
具
典
养
冀
内
円
冉
册
再
冒
写
军
冠
冥
冫
冬
冯
决
冴
冶
冷
净
准
凌
凤
処
凪
凯
凰
凱
凶
凹
出
刀
刃
分
切
刊
划
列
刘
初
判
別
利
别
到
制
刷
券
刹
刺
刻
則
前
剑
剛
剣
剧
剩
副
割
創
劃
劇
劉
劍
力
办
功
加
劣
动
助
劳
勃
勅
勇
勒
動
勘
務
勝
勞
勢
勳
勾
包
化
北
匠
匹
区
医
區
十
千
升
午
半
华
协
卐
卒
卓
協
单
卖
南
博
卜
占
卡
卢
卦
卫
印
危
即
却
卸
卿
厂
厄
历
厘
厚
原
厥
厦
厩
去
县
参
參
叉
及
友
双
反
収
发
叔
取
受
变
叛
叠
叡
叢
口
古
句
只
叫
召
可
台
史
右
叶
号
司
合
吉
同
名
后
向
吕
君
吞
吟
吧
启
吳
吴
吸
吹
吾
呂
呉
告
周
呪
味
呼
命
咆
和
咖
咙
咫
咲
咸
哀
品
哈
哉
响
員
哥
哮
哲
唄
唐
唯
唱
商
問
啓
啟
啡
善
喇
喋
喚
喜
喝
喬
嘉
嘘
噛
器
嚣
嚴
囁
囂
囃
囚
四
回
因
团
団
図
国
图
圈
國
圍
圏
園
圓
圖
土
圣
圧
在
地
圻
坂
均
坊
坑
块
坚
坝
坡
坤
坪
型
垣
城
埔
域
執
培
基
堀
堂
堅
堆
堡
堤
堯
報
場
塊
塔
塘
塚
塞
塩
填
塵
境
墓
墙
增
壁
壌
壓
壟
壤
士
壬
壮
壯
声
壱
売
壳
壷
壽
处
备
変
复
夏
夕
外
多
夜
够
夢
夤
大
天
太
夫
央
失
头
夷
奇
奈
奉
奎
奏
奐
契
奔
套
奥
奧
奪
女
奴
好
如
妃
妇
妍
妖
妙
妮
妹
妻
姉
姊
始
姑
委
姚
姥
姦
姫
姬
姿
威
娘
娜
婁
婆
婚
婷
嫁
嬢
嬴
子
孔
字
存
孙
孛
孝
孟
季
孤
学
孩
孫
孵
學
宁
宅
宇
守
安
宋
完
宏
宗
官
宙
定
宜
宝
实
実
客
宣
室
宫
宮
宴
宵
家
宸
容
宿
寂
寄
密
寇
富
寔
寗
寛
寝
寞
察
寧
寨
審
寬
寵
寶
寸
对
寺
寻
対
寿
封
射
将
將
尉
尊
尋
對
導
小
少
尔
尚
尧
就
尸
尹
尺
尼
尽
尾
局
居
届
屋
屍
屑
展
屠
層
屬
屯
山
屿
岐
岑
岚
岛
岡
岩
岬
岭
岳
岸
峰
島
崇
崎
崔
崖
嵐
嶋
嶺
嶼
巂
巖
川
州
巡
工
左
巨
巫
差
己
巳
巴
巻
币
市
布
帆
师
希
帕
帖
帝
帥
带
師
帮
帰
帶
常
幕
幡
幣
干
平
年
幸
幻
幽
广
庁
広
庄
庆
庇
序
库
底
庖
店
庙
庚
府
度
座
庫
庭
庵
康
廉
廊
廖
廟
廣
廬
延
廷
建
廻
廿
开
弁
式
弐
弓
弔
引
弘
弟
张
弥
弦
弧
弱
張
強
弹
强
弾
彌
当
录
彖
彙
形
彦
彩
彪
彬
彭
影
役
彼
征
径
待
律
後
徐
徒
得
從
御
復
微
徳
德
徹
徽
心
必
忍
志
忘
応
忠
快
念
怀
怎
怒
怖
思
怡
急
性
怨
怪
总
恆
恋
恐
恒
恢
恥
恩
恭
息
恵
恼
悔
悟
悠
悦
悪
悫
悲
悼
情
惑
惟
惠
惡
想
愁
愍
意
愚
愛
感
愽
慈
態
慎
慧
慰
慶
憂
憎
憑
憲
憶
應
懍
懷
戈
戊
戎
成
我
战
戦
戯
戰
戴
户
戸
房
所
扁
扇
扈
扉
手
才
打
托
扶
找
承
技
抄
抓
投
抜
択
护
报
披
抱
抵
担
拉
拍
拏
拐
拖
拘
招
拜
拟
拥
括
拱
拳
拾
持
挂
指
挑
挥
振
据
捷
授
掛
採
探
控
掲
描
提
揚
換
援
揺
摂
摩
摸
撃
撒
撞
播
撲
操
攝
支
收
改
攻
放
政
故
敏
救
教
敢
散
敦
敬
数
敵
敷
數
文
斉
斎
斗
料
斜
斤
斩
斬
断
斯
新
方
於
施
旅
旋
族
旗
无
日
旦
旧
早
旭
时
旺
昂
昇
昌
明
昏
易
昔
星
映
春
昭
是
昼
時
晉
晋
晒
普
景
晴
晶
智
暁
暂
暖
暗
暦
暮
暴
曆
曜
曦
曲
更
書
曹
曼
曾
最
會
月
有
朋
服
朏
朔
朗
望
朝
期
朧
木
未
末
本
札
朱
朴
朵
机
朽
杀
杂
权
李
杏
材
村
杖
杜
束
条
来
杨
杯
東
杲
松
板
极
析
林
枚
果
枝
枭
枯
架
柆
柏
柔
柚
柩
柱
柳
柴
査
栄
标
栈
树
栖
栗
栞
校
株
样
核
根
格
栽
栾
桀
桂
桃
案
桎
桐
桑
桓
桜
桥
桧
梁
梅
梏
梓
條
梦
梨
梭
梯
械
梵
梶
棋
棍
棗
棘
棚
棟
森
棲
棵
棺
椅
植
椎
椒
椛
検
椰
椿
楊
楚
楠
業
楯
極
楼
楽
概
榆
榊
榔
榛
榮
榴
槐
様
槤
槻
樂
樉
樊
樓
樗
標
樛
模
権
横
樱
樸
樹
橋
橘
橚
機
橫
橿
檀
檜
檳
檻
櫓
櫻
權
欒
欠
次
欣
欲
欽
歌
歓
歡
止
正
步
武
歩
歪
歲
歳
歴
歷
歸
死
殊
残
段
殺
殻
殿
毅
母
毎
每
比
毕
毘
毛
毫
毬
氏
民
气
気
氣
水
氷
永
氾
汇
汉
汐
汗
汝
江
池
汤
汪
汰
汶
決
汽
沂
沃
沈
沉
沌
沐
沒
沖
沙
沛
没
沢
沫
河
沸
油
治
沼
沽
泉
泊
法
泗
泡
波
泣
泥
注
泰
泾
洁
洋
洛
洞
津
洪
洲
活
派
流
浅
浙
浚
浜
浦
浩
浪
浮
海
消
涙
润
涵
涼
淇
淑
淘
淡
淨
深
淳
淵
淹
添
清
渊
渚
減
渠
渡
渣
渥
渦
温
測
港
游
渾
湊
湖
湯
湾
満
源
準
溜
溢
溪
溫
溶
滅
滋
滑
滨
滿
漁
漂
漆
漏
漠
漢
漫
漳
漸
潘
潜
潤
澄
澤
澪
激
濃
濞
濟
瀛
瀬
灣
火
灯
灰
灵
灶
灼
災
灾
炎
炬
炮
炯
炷
炸
点
為
炼
烈
烏
烙
烟
烦
烧
焉
焔
無
焦
然
焼
煌
煙
煜
照
煩
煮
熊
熔
熙
熟
熱
燃
燈
燕
營
爆
爪
爭
爱
爲
爵
父
爺
爻
爽
爾
片
版
牌
牙
牛
牡
牢
牧
物
牵
特
犖
犬
犯
狀
狂
狐
狗
狛
狡
狩
独
狭
狱
狸
狼
猛
猩
猪
猫
献
猿
獄
獅
獣
獵
獻
玄
玉
王
玖
玩
玲
珂
珍
珙
珠
現
球
理
琦
琪
琬
琮
琴
瑋
瑙
瑜
瑞
瑠
瑣
瑪
瑾
璉
環
璽
瓊
瓜
瓢
瓦
瓩
瓷
甘
甜
生
產
産
用
甫
田
由
甲
申
男
町
画
甽
界
畑
留
畜
畢
略
番
畫
異
疆
疾
病
症
痘
痛
痴
瘡
瘤
発
登
發
白
百
的
皇
皙
皮
皿
盆
盈
益
盏
盐
监
盒
盗
盘
盛
盟
監
盤
盧
目
直
相
盼
省
看
県
眞
真
眼
着
督
瞬
瞳
矢
知
矩
短
矮
矯
石
砂
砍
研
砖
砲
破
硕
硝
硨
碍
碗
碩
確
碼
磁
磅
磐
磨
磯
磲
礁
礎
礮
示
礼
社
祀
祈
祐
祖
祚
神
祠
祥
票
祭
祺
祿
禁
禄
禎
福
禦
禮
禰
禺
禾
秀
私
秋
科
秒
秘
租
秤
秦
移
程
稔
稚
種
稲
稷
稽
穂
穌
積
穎
穗
穢
究
空
突
窓
窗
窟
竇
立
站
竜
章
童
端
竹
竺
笑
笔
笛
笠
符
笨
第
笹
筆
等
筋
筍
筐
筑
答
策
筹
箇
箋
算
管
箪
箭
箱
節
範
篇
篋
篚
篤
簡
簿
籃
籌
籍
籠
米
籵
粁
粉
粍
粟
粥
粨
精
糊
糎
糖
糸
系
紀
約
紅
紋
納
純
紘
紙
級
素
紡
紫
細
紹
紺
終
組
絆
経
結
絡
給
統
絵
絶
綁
經
継
続
綜
綠
維
綯
綱
網
綸
綺
綾
緋
総
緑
緒
線
締
編
緩
緬
緯
縄
縊
縣
總
繋
織
繹
繼
續
红
级
纪
纯
纲
纵
线
组
绅
细
终
绍
经
给
统
继
绮
维
综
缽
网
罗
罠
罪
置
罰
罸
羅
羊
美
群
義
羽
翁
習
翔
翘
翠
翡
翱
翹
翻
翼
老
考
者
耆
而
耕
耳
耶
耿
聃
联
聖
聘
聚
聞
聡
聯
聰
聲
職
肃
肉
肖
肚
股
肥
肩
育
背
胞
胠
胡
胤
胴
胸
能
脂
脇
脈
脉
脚
脩
脱
脳
腎
腐
腰
腹
腿
膀
膺
臂
臘
臚
臣
臨
自
臭
至
致
臺
與
興
舍
舎
舞
舟
航
船
艦
良
色
艳
艶
艺
节
芒
芙
芝
芥
芦
芬
芭
芮
芯
花
芳
芸
芹
芽
苏
苑
苗
苣
若
英
苺
茂
范
茅
茜
茶
茸
草
荊
荒
荔
荘
荥
荪
荫
药
荷
荻
荼
莉
莊
莎
莘
莞
莫
莱
莲
莴
菇
菉
菊
菜
華
菱
菲
萌
萍
萝
营
萧
萨
萬
落
葆
葉
著
葛
董
葦
葫
葵
蒙
蒭
蒲
蒼
蒿
蓀
蓑
蓝
蓮
蔡
蔭
蔵
蕃
蕉
蕨
蕩
蕭
薇
薊
薔
薙
薛
薩
薫
薯
藍
藏
藕
藝
藤
藥
藩
藻
蘄
蘅
蘇
蘑
蘭
蘿
虎
虐
虔
處
虚
虛
號
虫
虹
蛇
蛍
蛙
蛭
蜃
蜡
蝉
蝕
蝴
蝶
融
螺
蟲
蠕
蠻
血
衆
行
術
街
衙
衛
衝
衡
衢
衣
补
表
袁
袈
袖
被
裁
裂
装
裏
裔
裕
補
裝
裟
裳
裸
製
褒
襄
襟
襲
西
要
覇
見
規
視
覚
親
観
覺
觀
观
角
解
触
觳
言
計
記
設
許
訳
証
詔
詞
詠
試
詩
話
誌
誐
誒
誓
誕
誘
語
誠
誡
誦
說
説
読
誰
課
調
談
論
諭
諷
諸
謀
謁
謎
謙
講
謝
謡
譌
識
譚
譜
警
議
護
讀
變
讐
讓
计
让
议
许
论
讼
诉
词
诗
诚
话
语
诶
请
诺
读
课
谁
谦
谭
谷
豆
豊
豌
豐
豚
象
豪
豫
豬
豹
貓
貝
貞
負
財
貫
貴
費
賀
資
賈
賊
賓
賞
賢
賦
質
購
贈
贝
贞
财
贤
质
贵
贺
贼
资
赤
赭
走
赵
起
超
越
趙
足
跆
跑
跖
跟
跡
路
跳
踊
踏
踢
蹴
身
車
軌
軍
軒
転
軽
載
輔
輛
輝
輪
輿
轉
车
轩
转
辆
辉
辛
辣
辨
辭
辯
辰
農
边
辺
辽
达
辿
迄
迅
过
迈
运
近
返
这
进
远
迦
迪
述
迷
追
送
适
逆
选
這
通
造
逢
連
逯
週
進
遁
遇
遊
運
遍
過
道
達
遗
遙
遜
遠
遥
遮
選
遺
遼
避
邁
還
邊
邑
邓
那
邦
邪
邱
邵
郁
郊
郎
郑
郛
郝
郡
部
郭
郷
都
鄧
鄭
酈
酉
酒
酔
酥
酱
酷
酸
醋
醒
醫
采
釈
釋
里
重
野
量
金
釗
釣
鈍
鈴
鉄
鉢
鉦
鉱
鉴
銀
銃
銅
銓
銖
銘
銳
鋒
鋪
鋼
錄
錡
錦
錬
録
鍋
鍵
鎖
鎧
鎮
鏡
鐘
鐵
鐸
鑒
钊
钢
钦
钱
铁
铎
铜
铭
铺
锡
键
镇
镗
镜
長
长
門
閃
開
閏
閒
間
関
閣
閨
闇
闍
闕
闘
關
门
问
闯
阁
阪
防
阳
阿
陀
附
际
陈
降
限
陛
院
陣
除
陪
陳
陵
陶
陸
険
陽
隆
隊
階
隔
隗
隠
隣
隱
隴
隸
隻
隼
雀
雁
雄
雅
集
雇
雉
雎
雕
雙
雛
雜
雞
離
難
雨
雪
雲
雳
零
雷
電
雾
需
霆
震
霊
霍
霖
霜
霞
霧
霰
露
霸
霹
靂
靈
青
靖
静
非
靠
面
革
靴
靼
鞋
鞍
鞠
韃
韋
韓
韦
韩
韭
音
韶
響
頃
項
順
須
頌
頒
領
頭
顆
題
額
顏
顔
願
類
顯
项
顾
颂
颊
颖
颗
颜
風
颪
颱
飄
风
飛
飞
食
飯
飾
餅
養
餓
館
饼
饾
馆
馒
首
香
馬
馮
駆
駐
駒
駙
駢
駿
騎
騒
験
騭
騰
騷
驁
驗
驚
驤
马
驰
骨
骸
髀
體
高
髪
鬘
鬥
鬪
鬼
魂
魄
魔
魚
魯
鮑
鮫
鮮
鯖
鯵
鰐
鱀
鱼
鲁
鲤
鳥
鳩
鳳
鳴
鳶
鴉
鴣
鴨
鴻
鵡
鵩
鵬
鶍
鶴
鷓
鷹
鷺
鸚
鸟
鸡
鸭
鸿
鹅
鹹
鹼
鹽
鹿
麗
麥
麵
麻
麼
麾
黃
黄
黎
黑
黒
黙
黛
黨
鼉
鼎
鼓
鼠
鼻
齉
齊
齋
齐
龍
龙
ꜛ
ꜜ
ꜣ
ꜩ
ꜫ
ꜭ
ꞅ
ꞎ
ꞵ
ꦂ
ꦠ
ꦯ
ꦲ
ꦸ
ꭓ
ꭰ
ꭳ
ꭶ
ꭸ
ꭹ
ꮀ
ꮃ
ꮉ
ꮝ
ꮿ
️
︠
︡
﻿
�
𐀁
𐀈
𐀫
𐎠
𐎢
𐎭
𐎰
𐎹
𐎺
𐎼
𐏁
𐭃
𐭉
𐭓
𐭕
𒀯
𒀳
🖕
##y
##s
##e
##r
##m
##o
##p
##t
##a
##c
##h
##n
##i
##g
##l
##d
##u
##k
##b
##j
##z
##v
##̌
##σ
##̔
##́
##τ
##ε
##ρ
##ο
##ς
##ァ
##イ
##ナ
##ル
##フ
##ン
##タ
##シ
##゙
##ー
##x
##̄
##w
##5
##4
##1
##̧
##q
##2
##9
##7
##̃
##8
##f
##̂
##ȷ
##゚
##̉
##̈
##ा
##स
##न
##0
##6
##უ
##რ
##ო
##პ
##ა
##ლ
##ტ
##ი
##3
##þ
##̆
##α
##χ
##υ
##κ
##δ
##ι
##μ
##ν
##œ
##ي
##ف
##æ
##ʒ
##ə
##ˈ
##ː
##̣
##和
##言
##葉
##ხ
##ე
##დ
##ر
##ø
##ʀ
##民
##文
##化
##指
##導
##所
##仲
##о
##л
##т
##ð
##コ
##ハ
##ス
##̛
##蝶
##と
##疾
##風
##ɣ
##ⵎ
##ⵓ
##ⵔ
##ラ
##̊
##ل
##و
##د
##テ
##ɑ
##ɡ
##̇
##̨
##า
##ง
##ห
##焉
##へ
##の
##序
##曲
##块
##比
##萨
##օ
##հ
##ա
##ն
##ե
##ս
##緬
##ា
##ស
##翔
##ь
##ม
##ภ
##ู
##ผ
##ส
##ุ
##ท
##ั
##ศ
##น
##ィ
##ニ
##ク
##מ
##ל
##א
##チ
##ャ
##פ
##ר
##ח
##נ
##ה
##田
##π
##ω
##̀
##ล
##เ
##ป
##ื
##י
##ַ
##ס
##ט
##ָ
##ק
##剑
##翘
##ɛ
##љ
##а
##禎
##暦
##書
##г
##е
##ј
##с
##к
##ו
##ת
##章
##会
##い
##物
##語
##ះ
##ន
##រ
##ោ
##ត
##в
##х
##з
##ב
##͂
##р
##н
##и
##м
##ł
##̦
##め
##ト
##ロ
##ア
##危
##機
##石
##槐
##エ
##แ
##η
##辭
##ɒ
##я
##く
##り
##ひ
##鼻
##熊
##猫
##华
##ᵻ
##ʏ
##ළ
##ි
##ය
##ৰ
##ণ
##し
##र
##ʔ
##ı
##ะ
##ี
##ɪ
##ˌ
##ɔ
##ா
##ர
##ம
##ד
##េ
##ច
##ឪ
##ん
##な
##こ
##野
##ا
##ھ
##θ
##ʊ
##थ
##ू
##薇
##つ
##ほ
##み
##妹
##衡
##都
##尉
##ß
##子
##旗
##đ
##一
##よ
##ु
##प
##ि
##ष
##त
##将
##軍
##ض
##ワ
##ङ
##ल
##ो
##凯
##ʌ
##ŋ
##ム
##黙
##示
##録
##ן
##月
##̋
##マ
##忠
##記
##б
##щ
##β
##̓
##γ
##ɚ
##у
##ч
##ћ
##ق
##ع
##ٔ
##ب
##ط
##ᅡ
##ᆫ
##ᄅ
##ს
##ჱ
##谷
##馬
##池
##鎮
##島
##藩
##ж
##ʁ
##血
##雙
##雄
##臨
##麾
##ʻ
##ォ
##ネ
##ッ
##百
##合
##例
##政
##王
##大
##臣
##议
##ש
##م
##ه
##ة
##霊
##ी
##क
##े
##ɐ
##天
##狗
##補
##生
##淇
##ɤ
##租
##公
##觀
##漢
##ם
##榮
##航
##空
##म
##द
##慶
##要
##為
##你
##活
##朝
##λ
##前
##侨
##中
##学
##خ
##奈
##信
##男
##賞
##受
##作
##品
##展
##ュ
##視
##怪
##奇
##篇
##カ
##郎
##ج
##ّ
##ن
##ц
##リ
##オ
##ケ
##村
##添
##财
##ы
##在
##力
##州
##方
##白
##虎
##泉
##女
##院
##由
##开
##浚
##没
##者
##を
##追
##悼
##平
##祈
##念
##す
##る
##日
##戸
##三
##吟
##ր
##ո
##ւ
##գ
##京
##ヤ
##儡
##術
##高
##व
##礁
##岛
##主
##权
##争
##端
##及
##其
##对
##新
##马
##关
##系
##东
##盟
##发
##的
##影
##响
##は
##ふ
##國
##棟
##远
##朋
##友
##д
##ʾ
##ソ
##ռ
##港
##華
##ዕ
##ቆ
##ብ
##草
##寺
##境
##内
##歌
##さ
##ら
##雪
##見
##に
##ろ
##迄
##川
##耕
##造
##ゥ
##ヘ
##間
##良
##倉
##六
##右
##衛
##門
##常
##長
##ג
##ग
##ག
##ྲ
##ུ
##ལ
##船
##サ
##س
##メ
##き
##せ
##か
##ش
##ہ
##ی
##ಾ
##ಂ
##ಡ
##ು
##ರ
##ಗ
##彩
##云
##ɾ
##絶
##市
##孟
##堅
##龍
##ョ
##ホ
##不
##思
##議
##屋
##̱
##甫
##ゆ
##ェ
##油
##原
##成
##家
##愁
##詩
##美
##安
##毅
##ʕ
##賦
##ြ
##န
##կ
##տ
##ի
##อ
##พ
##ร
##ิ
##ต
##ɜ
##狸
##精
##建
##梅
##う
##َ
##ُ
##米
##ᅮ
##ᄒ
##ᅪ
##ᄌ
##ᅢ
##ᄎ
##ᅥ
##ᆼ
##焦
##れ
##て
##た
##夢
##ヒ
##拉
##光
##ಮ
##ᄐ
##ᅬ
##ʃ
##人
##節
##כ
##祿
##勳
##レ
##ɵ
##惟
##德
##ш
##ᅩ
##ᄉ
##ɟ
##醫
##令
##ك
##ф
##殊
##殿
##鳩
##八
##幡
##煜
##宏
##通
##ウ
##ξ
##ᄇ
##ᄋ
##ᆯ
##山
##戰
##鬪
##ு
##ள
##ி
##ま
##ै
##衣
##邊
##ฟ
##ด
##ɲ
##敏
##全
##仕
##事
##眼
##竜
##宗
##φ
##ྡ
##ོ
##ན
##མ
##督
##教
##堂
##陽
##ツ
##水
##域
##真
##印
##刷
##表
##現
##风
##地
##动
##仪
##弦
##菱
##條
##յ
##ெ
##ட
##ミ
##調
##色
##綺
##想
##э
##っ
##科
##夜
##ɮ
##ქ
##ნ
##极
##图
##晴
##香
##ְ
##ּ
##ִ
##本
##ํ
##ौ
##ँ
##ज
##ت
##ऽ
##ص
##世
##话
##莉
##秀
##輪
##泊
##边
##流
##手
##返
##満
##足
##杯
##幸
##園
##魚
##密
##室
##殺
##件
##怀
##滨
##兔
##牙
##伝
##説
##同
##ղ
##鬼
##封
##尽
##客
##様
##魯
##ɕ
##ـ
##ह
##寶
##ค
##国
##里
##談
##ֲ
##ז
##晶
##あ
##庇
##ʈ
##质
##甜
##य
##ृ
##正
##喚
##獣
##ก
##ษ
##肩
##取
##ِ
##聖
##譚
##қ
##之
##魂
##五
##年
##ち
##キ
##ɨ
##雷
##神
##ⴷ
##ⴰ
##ⵏ
##ⴻ
##級
##モ
##遺
##愚
##叔
##父
##攝
##箱
##海
##冶
##口
##官
##道
##廻
##ز
##春
##ว
##จ
##ฉ
##ย
##ไ
##վ
##զ
##防
##御
##战
##動
##儀
##ʂ
##剣
##竹
##齋
##畫
##譜
##宅
##宫
##依
##体
##群
##ء
##少
##彪
##ᅱ
##ᄃ
##ᅯ
##ᅴ
##ข
##લ
##સ
##ા
##ર
##ᆺ
##ᅵ
##ᄀ
##个
##ช
##ْ
##界
##七
##楽
##府
##ព
##ユ
##賀
##і
##冒
##険
##巳
##њ
##ʎ
##ح
##ث
##花
##煌
##է
##舞
##備
##操
##氏
##身
##投
##け
##ֻ
##先
##継
##網
##羅
##模
##ण
##ħ
##洲
##可
##ල
##杜
##莎
##夫
##臘
##像
##館
##製
##輿
##圖
##転
##セ
##ჳ
##ׁ
##п
##佛
##ా
##స
##台
##突
##描
##習
##校
##片
##吹
##束
##お
##守
##旦
##ʐ
##ֶ
##豪
##条
##路
##ல
##柱
##拘
##留
##營
##盘
##面
##坚
##丞
##相
##式
##焼
##霰
##弾
##貓
##户
##騒
##ც
##ֹ
##ף
##ᆨ
##玄
##昌
##巫
##總
##商
##會
##届
##勅
##銀
##迅
##ं
##ょ
##貞
##法
##ֽ
##ʋ
##牌
##营
##僑
##學
##曦
##囂
##も
##引
##季
##わ
##時
##代
##蒿
##青
##ʿ
##儿
##希
##質
##理
##也
##坂
##宜
##ပ
##င
##ʼ
##ね
##ゃ
##写
##鳥
##庭
##星
##红
##外
##禺
##縣
##ک
##首
##半
##自
##然
##鱀
##豚
##保
##护
##区
##早
##苗
##秋
##え
##ስ
##ታ
##ን
##ቲ
##ኖ
##澤
##ʑ
##भ
##號
##塚
##小
##径
##隸
##ᅳ
##經
##玉
##ฤ
##դ
##着
##太
##鼓
##電
##撃
##舟
##劇
##巨
##孫
##話
##字
##堤
##東
##木
##घ
##南
##漂
##錄
##պ
##津
##غ
##ζ
##ገ
##ድ
##治
##鉴
##應
##襄
##侬
##左
##ɦ
##ɭ
##老
##ע
##艦
##幕
##克
##坡
##図
##散
##歩
##郡
##१
##喜
##گ
##ю
##塔
##士
##多
##泥
##梯
##黄
##憶
##棘
##ஸ
##井
##ฑ
##勢
##型
##戦
##豆
##ฎ
##บ
##ը
##廣
##ք
##ց
##չ
##輔
##硕
##悫
##靖
##鋒
##坊
##そ
##礮
##跖
##号
##塊
##獄
##ដ
##ិ
##連
##丑
##斉
##ু
##ন
##瀬
##ရ
##ု
##တ
##走
##創
##噛
##集
##悟
##融
##া
##ব
##ল
##ী
##গ
##我
##长
##城
##形
##利
##緒
##徒
##誌
##潜
##骨
##重
##極
##ใ
##包
##糖
##林
##铜
##器
##後
##弘
##師
##终
##幻
##歡
##進
##ͅ
##צ
##鳳
##թ
##北
##ɫ
##酒
##遁
##徽
##籃
##茶
##揺
##श
##ⵙ
##ⴼ
##ⴽ
##ψ
##榔
##嶼
##実
##鐘
##ɖ
##沢
##未
##ध
##頒
##蠕
##西
##罠
##楚
##枝
##የ
##ደ
##አ
##փ
##խ
##皇
##帝
##喝
##采
##斗
##賓
##坑
##深
##夷
##志
##頌
##椿
##ழ
##处
##ទ
##架
##棺
##旭
##鱼
##静
##寂
##千
##尋
##隠
##雲
##芳
##巻
##護
##汗
##ᅦ
##ᄆ
##ᅧ
##ٕ
##ذ
##ⵍ
##達
##ɯ
##金
##黨
##ሰ
##経
##ை
##ய
##下
##彦
##琮
##銖
##明
##叡
##智
##梁
##権
##ង
##ᄈ
##英
##解
##決
##经
##总
##養
##線
##坪
##铺
##库
##紅
##度
##尼
##亞
##元
##控
##蘭
##ক
##ত
##ॉ
##ट
##江
##ъ
##岩
##案
##际
##读
##ฐ
##ぅ
##ᆸ
##永
##部
##龙
##恩
##ɻ
##司
##票
##促
##ర
##ి
##ం
##జ
##邦
##探
##偵
##舎
##句
##縄
##茸
##丸
##十
##ೆ
##ೂ
##ೕ
##ಬ
##ܘ
##ܼ
##ܪ
##曜
##卒
##涼
##列
##社
##综
##厦
##遠
##約
##雳
##火
##砲
##丽
##萍
##畑
##姫
##絡
##や
##蛙
##飛
##む
##音
##康
##吉
##祥
##叶
##介
##難
##扇
##土
##産
##ぉ
##使
##選
##唐
##助
##微
##運
##մ
##ฮ
##楯
##望
##知
##车
##立
##迷
##-
##武
##二
##場
##象
##ბ
##ზ
##降
##ɳ
##ֵ
##ំ
##ុ
##福
##笑
##菜
##起
##ং
##দ
##ে
##শ
##լ
##苑
##逢
##ҷ
##ฏ
##ญ
##非
##是
##告
##诉
##ˑ
##秘
##ヨ
##恋
##ณ
##裏
##佐
##ノ
##行
##貴
##將
##範
##召
##鴻
##訳
##脂
##汤
##ៈ
##尾
##鶴
##唱
##陈
##伟
##联
##分
##植
##ゑ
##憎
##荻
##哉
##注
##尊
##祭
##礼
##黒
##陸
##編
##郷
##க
##ᵿ
##漠
##巂
##交
##帖
##培
##养
##纪
##实
##逆
##襲
##陵
##呪
##ᄂ
##々
##菇
##讐
##ែ
##ម
##ូ
##យ
##旋
##律
##ក
##ណ
##ٓ
##清
##吸
##恵
##寿
##გ
##亨
##具
##掛
##ʹ
##ɺ
##蔵
##ᅨ
##ᅭ
##牧
##胴
##勇
##頃
##匹
##技
##盼
##亮
##ץ
##砂
##登
##朗
##洁
##凤
##র
##ভ
##ূ
##ম
##โ
##چ
##ڠ
##辉
##今
##岬
##灯
##顯
##統
##標
##仙
##ǂ
##ச
##懷
##请
##书
##ब
##団
##皿
##敷
##塘
##四
##ܔ
##君
##願
##̤
##斬
##抜
##刀
##斎
##始
##堀
##ʝ
##寔
##組
##以
##上
##落
##傘
##隊
##门
##ᆷ
##ᆻ
##査
##兵
##房
##ˁ
##丁
##堡
##渡
##碼
##頭
##牛
##ɽ
##櫓
##塞
##窓
##出
##版
##能
##彼
##曆
##沼
##酥
##鸡
##景
##完
##制
##ჯ
##鎖
##勃
##拳
##波
##義
##脈
##踊
##腐
##镜
##加
##义
##ಿ
##ದ
##ಸ
##ᒡ
##ᓘ
##ᑲ
##征
##მ
##წ
##ფ
##赤
##壁
##延
##宙
##宮
##烧
##心
##樹
##終
##汉
##滿
##.
##座
##情
##惑
##忘
##街
##穎
##恆
##赭
##բ
##ੱ
##ਲ
##ਾ
##ਹ
##垣
##筍
##株
##耳
##淑
##錬
##ヌ
##ᄏ
##椒
##ភ
##ឹ
##ី
##屠
##町
##ᆮ
##ള
##李
##ེ
##刊
##梭
##佳
##𐭉
##𐭓
##𐭃
##𐭕
##ى
##ظ
##住
##芒
##森
##炎
##ड
##温
##育
##孩
##需
##慧
##溢
##嘉
##ः
##計
##稔
##च
##名
##夏
##溪
##繋
##衢
##桓
##響
##験
##角
##再
##尺
##檻
##ன
##为
##次
##悦
##灣
##鹽
##越
##宝
##侠
##報
##晒
##点
##琦
##ங
##去
##ջ
##ծ
##ఠ
##栽
##最
##嘘
##驤
##绍
##坤
##画
##ܠ
##ܣ
##ྱ
##ི
##愛
##ܡ
##ܬ
##ܐ
##沂
##帥
##叫
##ᛁ
##ึ
##央
##革
##组
##兰
##پ
##九
##霞
##罸
##ʉ
##殻
##灼
##熱
##ီ
##他
##共
##栄
##来
##簡
##籠
##ឫ
##砖
##放
##送
##局
##蕉
##ɸ
##鍵
##თ
##ვ
##ⵣ
##ⵉ
##ⵖ
##ⵜ
##奉
##務
##規
##則
##爱
##息
##声
##特
##別
##帰
##ি
##ঙ
##ซ
##而
##尸
##騎
##乘
##ជ
##ធ
##ប
##滅
##县
##覚
##隣
##定
##典
##禮
##ៅ
##ល
##ៀ
##私
##萬
##វ
##ธ
##祖
##ܕ
##獅
##游
##堆
##填
##區
##监
##篤
##蓝
##达
##紙
##傳
##顏
##协
##筹
##备
##树
##痘
##鋼
##钊
##松
##芙
##ᛠ
##ᚷ
##ᚾ
##ᚩ
##ᚦ
##切
##泾
##翼
##皙
##肃
##ں
##尚
##聞
##健
##壌
##服
##関
##銃
##樸
##開
##泰
##久
##緯
##承
##荼
##犬
##蠻
##师
##莊
##論
##球
##朏
##急
##孵
##更
##近
##意
##鰐
##ぃ
##嵐
##親
##挑
##強
##̮
##′
##湖
##丹
##照
##消
##寞
##咖
##啡
##因
##艳
##史
##協
##奏
##乙
##牢
##譌
##脉
##怒
##打
##ꜜ
##ɬ
##瑙
##勒
##納
##ዘ
##ሐ
##በ
##鉄
##柩
##庆
##河
##ር
##ኢ
##ና
##ይ
##丝
##洞
##郛
##ਿ
##ੰ
##ਘ
##ە
##抱
##є
##贤
##勝
##目
##槤
##飄
##改
##傭
##藤
##僕
##算
##数
##遊
##咲
##雜
##𐀁
##𐀫
##ܝ
##超
##蓀
##ಲ
##ಕ
##ڬ
##枯
##糊
##葆
##湾
##袈
##裟
##闇
##葵
##銳
##熙
##答
##準
##第
##業
##强
##咆
##哮
##芝
##刻
##唄
##വ
##ി
##ശ
##ɹ
##悪
##魔
##桑
##澄
##၂
##၇
##卜
##說
##對
##如
##浦
##孔
##雀
##ǝ
##ძ
##予
##感
##蔭
##穂
##盆
##仔
##細
##救
##軽
##乩
##却
##械
##鎧
##浪
##末
##ᄑ
##峰
##何
##胞
##ማ
##ረ
##持
##贝
##娜
##鳴
##薔
##戯
##那
##ƀ
##柏
##荷
##磨
##命
##ђ
##鋪
##庫
##唯
##独
##ট
##寄
##姦
##釈
##ฝ
##供
##広
##柔
##段
##背
##裝
##ហ
##詞
##芸
##桃
##弱
##甲
##陣
##璉
##跳
##還
##ֱ
##迦
##氣
##占
##源
##果
##弟
##廿
##头
##符
##附
##ለ
##無
##ཛ
##羽
##罪
##虛
##ձ
##復
##魄
##芮
##厥
##拏
##প
##မ
##ွ
##辆
##莘
##ถ
##ฬ
##շ
##孛
##股
##份
##有
##限
##宴
##伯
##爵
##ண
##夕
##锡
##布
##洋
##傅
##絵
##読
##宋
##興
##岳
##ⵛ
##題
##ѧ
##们
##給
##ѡ
##膺
##苺
##摩
##騰
##瑞
##墙
##荘
##菊
##屯
##須
##円
##བ
##映
##變
##键
##螺
##博
##瑜
##ٍ
##椅
##彙
##इ
##磅
##肉
##玲
##薙
##病
##驗
##旅
##初
##வ
##暮
##ぬ
##笠
##鞋
##係
##ई
##复
##格
##后
##研
##究
##ぇ
##閣
##狂
##検
##狼
##乱
##广
##居
##找
##ষ
##板
##寨
##料
##顔
##向
##側
##ှ
##毛
##妮
##闘
##問
##ׂ
##亜
##灰
##派
##紡
##丈
##農
##ತ
##恥
##扉
##莱
##髀
##ಶ
##齐
##ከ
##ነ
##ˀ
##甘
##岭
##役
##ே
##铎
##紀
##劃
##苣
##酷
##位
##词
##藏
##歷
##ᅲ
##茂
##礎
##識
##ថ
##冬
##騷
##珠
##డ
##ో
##బ
##差
##抵
##周
##铭
##选
##ख
##岸
##陛
##悲
##节
##课
##站
##ద
##壽
##翠
##拟
##乌
##贼
##寧
##樂
##孝
##抓
##双
##述
##尧
##麗
##車
##த
##ப
##埔
##ྣ
##己
##看
##办
##潤
##翻
##坝
##铁
##即
##変
##侯
##穌
##靂
##止
##關
##宿
##撒
##期
##母
##盤
##弥
##毬
##芬
##涵
##ɢ
##任
##員
##ѣ
##碍
##震
##壓
##囁
##ဟ
##ာ
##ဝ
##ိ
##ယ
##က
##ے
##进
##誦
##乎
##暖
##燕
##霸
##梦
##抄
##邪
##琬
##芯
##升
##気
##齊
##ⵃ
##ⵡ
##ⵕ
##瘡
##剛
##线
##姉
##ठ
##吞
##瓦
##牡
##丘
##姚
##`
##皮
##粟
##內
##發
##ᚢ
##ᛏ
##ᚨ
##ᛟ
##ᚹ
##汝
##适
##括
##輝
##岡
##军
##ᆰ
##沛
##恭
##謎
##授
##笛
##悠
##蛇
##剧
##弐
##拾
##用
##回
##死
##橋
##雅
##ܒ
##ദ
##ɓ
##箭
##儒
##閃
##藥
##素
##贞
##据
##与
##启
##හ
##槻
##颂
##卿
##艶
##修
##綸
##豊
##蓮
##兩
##嫁
##異
##虹
##崎
##駿
##维
##若
##財
##墓
##富
##থ
##桀
##概
##鐵
##ܗ
##了
##族
##宁
##壷
##宵
##猿
##颊
##耆
##报
##蕨
##廟
##凱
##翁
##番
##入
##管
##饼
##ಭ
##沒
##到
##倫
##漫
##雞
##禾
##童
##姑
##雎
##虔
##裔
##姬
##လ
##ဇ
##语
##统
##时
##跟
##裁
##判
##灵
##万
##历
##似
##申
##刃
##奥
##帆
##艺
##蘅
##辨
##秦
##阪
##增
##霆
##亚
##细
##緩
##徹
##底
##析
##稚
##裕
##残
##衝
##踢
##脚
##県
##浜
##庙
##ᅣ
##鏡
##禄
##爭
##爪
##盒
##材
##వ
##ు
##ల
##閒
##瑠
##根
##穗
##渠
##積
##覺
##হ
##য
##莞
##燃
##ᠣ
##ᡴ
##ᡨ
##ᠪ
##ᡠ
##ᡥ
##ᠠ
##荪
##珍
##药
##割
##@
##献
##爾
##楼
##軒
##俱
##晉
##ꭶ
##ꮃ
##ꮀ
##ꮉ
##怎
##么
##过
##欣
##攻
##略
##卦
##ই
##數
##食
##欠
##直
##ා
##ජ
##ධ
##න
##琴
##绮
##休
##誕
##煙
##來
##ဲ
##弁
##当
##厚
##載
##传
##ゅ
##跡
##札
##ྟ
##勘
##婆
##ɥ
##資
##珙
##ூ
##維
##昭
##忍
##劣
##等
##濞
##両
##盏
##泡
##靈
##古
##週
##沖
##庚
##馆
##課
##綱
##寬
##沉
##鼠
##阳
##ሕ
##ዛ
##紋
##炸
##桧
##侍
##堯
##鞠
##ᠯ
##ᡳ
##借
##哲
##杲
##ֳ
##郁
##岚
##狱
##刘
##亦
##婷
##变
##廷
##斤
##ང
##ት
##ዮ
##ጵ
##ያ
##破
##贵
##ැ
##愍
##圣
##雾
##祺
##狀
##蒲
##零
##ୁ
##ର
##ୀ
##著
##呂
##邁
##ឯ
##厩
##ॊ
##憑
##環
##త
##漁
##從
##敢
##拍
##渦
##筆
##巡
##負
##溜
##ฆ
##芦
##杖
##倭
##兜
##肚
##భ
##ె
##ౖ
##欽
##醒
##嬢
##曾
##问
##ً
##缽
##గ
##మ
##虫
##貫
##ས
##沽
##机
##炯
##ீ
##ර
##ខ
##處
##这
##斯
##好
##ϟ
##运
##紹
##瑣
##邑
##爆
##発
##ֿ
##鷺
##沙
##耶
##汇
##级
##纲
##淹
##'
##俊
##鉢
##荒
##း
##ူ
##ျ
##竺
##ܚ
##凰
##亡
##ѯ
##ү
##栖
##工
##镗
##採
##購
##乃
##裳
##碗
##粥
##歴
##籌
##怖
##ƿ
##无
##淘
##汰
##吳
##ⲩ
##ⲥ
##ⲧ
##ⲁ
##ⲱ
##ⲛ
##屍
##蓑
##ך
##鷹
##٧
##ᡝ
##ᡵ
##ᠴ
##繼
##敦
##必
##稽
##毘
##売
##貝
##罰
##災
##幽
##ෙ
##්
##ව
##霖
##ྥ
##考
##ු
##ප
##些
##脩
##ჲ
##容
##霹
##炮
##横
##蕃
##ੁ
##暴
##騭
##午
##咫
##烏
##振
##鐸
##菉
##崇
##綯
##鷓
##鴣
##润
##総
##簿
##钦
##聃
##ਸ
##爲
##症
##候
##鉦
##ٰ
##対
##応
##宇
##錡
##綾
##臚
##卸
##蒭
##易
##კ
##瓜
##矢
##誡
##設
##確
##謡
##ാ
##ഹ
##晋
##装
##置
##浮
##瓊
##処
##雁
##ᚱ
##壱
##张
##伊
##惠
##詔
##ួ
##踏
##韶
##樉
##庵
##隱
##們
##థ
##屑
##體
##鵬
##琪
##陶
##伴
##証
##卫
##壮
##炼
##層
##崖
##択
##結
##婚
##颜
##歓
##焔
##ⴳ
##ⵇ
##圻
##泣
##蘄
##収
##執
##駒
##味
##迈
##椰
##ᛚ
##फ
##嶺
##痴
##巴
##旺
##溫
##渊
##阁
##鍋
##鹿
##恒
##涙
##ᠰ
##ө
##聲
##髪
##习
##賢
##စ
##丙
##弹
##釗
##祐
##麼
##辰
##賊
##净
##纵
##驰
##奔
##奧
##徳
##続
##階
##滑
##種
##個
##壯
##腎
##爽
##璽
##胡
##遇
##瓢
##箪
##计
##划
##叉
##巖
##蕩
##善
##鵡
##棵
##迪
##妃
##棋
##镇
##漸
##棲
##謀
##朱
##ժ
##省
##狐
##均
##犖
##够
##豐
##失
##廊
##豬
##賈
##仮
##移
##狩
##እ
##ꮝ
##ꮿ
##靼
##咙
##闍
##梨
##減
##瑾
##छ
##遗
##桐
##ɰ
##伏
##威
##奴
##玩
##厂
##郑
##娘
##跆
##臂
##膀
##蝉
##脱
##壳
##箋
##敬
##沫
##岐
##ీ
##న
##観
##測
##准
##伐
##ᅫ
##窟
##性
##ሥ
##ሓ
##ꭸ
##ᏹ
##ᇂ
##侗
##聯
##ਂ
##ਝ
##鮫
##ཁ
##འ
##杀
##卓
##妍
##戎
##副
##鈴
##沌
##才
##诺
##স
##職
##射
##ꦸ
##ꦲ
##ꦂ
##ꦠ
##糸
##医
##ܢ
##喬
##兆
##支
##吾
##禰
##夤
##鈍
##帮
##渣
##程
##ƒ
##ৈ
##খ
##鸿
##̰
##飾
##爺
##楠
##昂
##സ
##獻
##籍
##ⵢ
##轩
##乐
##ሀ
##締
##宣
##鹼
##鲤
##补
##,
##គ
##阿
##给
##燈
##ɞ
##瑋
##२
##嚣
##继
##ಟ
##ճ
##圏
##裂
##誓
##冠
##ᠨ
##ᠵ
##湯
##雇
##瞬
##桜
##參
##蝕
##彬
##ٌ
##鬥
##彌
##颗
##辯
##圓
##駆
##颖
##讀
##蜃
##鼎
##ܲ
##ܵ
##罗
##ყ
##ನ
##碩
##額
##駙
##襟
##შ
##妙
##𐎰
##𐎢
##𐎼
##𐎠
##憲
##縊
##庁
##綜
##翱
##ヶ
##閏
##担
##臺
##詠
##誘
##拐
##烦
##恼
##韓
##彭
##ਜ
##吧
##誠
##與
##豹
##除
##ཡ
##挥
##宸
##ಠ
##闕
##羊
##雕
##撲
##叢
##雉
##態
##箇
##妖
##ந
##匠
##得
##ៃ
##柳
##鸟
##昏
##獵
##暁
##ဘ
##舍
##銓
##權
##ྤ
##杏
##၈
##炬
##豫
##祀
##仇
##讼
##篋
##磲
##淵
##樓
##梓
##滋
##ʽ
##椛
##谦
##筐
##斜
##ॆ
##梏
##ѹ
##ञ
##濃
##步
##禁
##ો
##ખ
##倪
##虐
##鑒
##妇
##弓
##狛
##允
##掲
##店
##付
##喇
##𒀳
##諭
##ኲ
##尔
##标
##奪
##秒
##聚
##硝
##優
##疆
##繹
##委
##橚
##ᛞ
##ᛗ
##ʙ
##施
##瀛
##屿
##决
##肖
##併
##断
##烟
##气
##盗
##ȝ
##瑪
##竇
##矩
##遼
##閨
##ۍ
##珂
##ɘ
##摸
##ɴ
##妻
##观
##录
##ੇ
##ਵ
##币
##冉
##瓷
##ར
##𐎹
##𐎺
##𐏁
##憂
##嶋
##就
##姿
##祠
##!
##烙
##卡
##戈
##麥
##ම
##棍
##笨
##ශ
##鮮
##祚
##柆
##敵
##桥
##屬
##灾
##恢
##援
##只
##ཙ
##亀
##ష
##稷
##驁
##換
##功
##過
##致
##產
##幣
##領
##ര
##ങ
##ᛇ
##ᛋ
##ᚻ
##警
##栗
##泗
##漏
##謝
##拖
##聘
##辿
##煩
##酸
##圧
##歲
##劍
##翹
##察
##衙
##囃
##充
##奐
##托
##ѥ
##策
##券
##靠
##腿
##卖
##棚
th
the
##er
##in
##ed
##on
##nd
##es
##or
##at
##en
##ar
in
of
##an
##al
##it
##ing
##as
and
##is
to
##ic
##ou
##ion
##re
##om
##el
##il
##ec
##ent
##st
##et
##am
##ro
on
##ac
##ad
was
##ur
st
##th
##le
for
##ly
##ol
##ir
wh
as
##ter
##id
@-
@-@
##iv
##ig
re
##ith
##im
##ow
##ay
##ch
be
al
##ut
with
##ation
##ers
that
##ot
##em
it
con
an
by
at
fr
is
he
##us
##ce
ch
##ver
sh
##ul
##est
##os
##and
##ain
19
his
##ag
##av
##um
com
##ere
##ct
su
se
from
pro
##ess
##od
de
##ri
20
##ap
##ist
##ect
##un
##igh
ne
##op
##ill
##ies
##ich
##ber
##ard
##if
##art
or
ar
##ld
##all
ex
pl
were
##ak
##ate
##oc
un
##ab
pr
##pp
le
##ant
sp
##ud
##gh
##ort
##ong
##se
tr
##ated
##ity
##ie
##ive
en
##ame
had
##ish
##ore
##ther
##ack
##ear
##ip
##our
##ast
which
##ge
##ell
##ov
##ough
are
##ian
##ment
af
not
##ial
##ound
##ost
##pt
rec
cl
##ight
##ia
##qu
##ust
wor
##ary
br
##ine
##oun
ad
##cc
##ical
##ave
comp
fir
her
but
##ord
this
200
##out
bo
cont
sc
##ould
inc
tw
##ous
ab
after
int
first
gr
##ions
##so
##ach
res
its
new
##ure
their
am
all
ro
man
one
##ue
##per
per
##ass
##ign
also
##ome
mar
##ub
us
rel
##ok
##oll
##ater
##og
tim
##00
##ide
##age
##ond
they
##orm
ser
##ath
##ire
##ru
two
ag
part
##ry
fe
who
comm
des
##rit
##ans
have
##du
go
bec
##ally
##ff
##pl
##ence
dis
she
app
##ra
18
##end
##ree
##ile
##ance
@.
@.@
we
##ition
year
##own
off
##iz
has
play
##act
##uring
been
##ely
over
201
@,
@,@
im
car
co
##ult
##lud
##ice
##ory
out
##ations
up
##ember
inter
att
ev
##ace
##ke
dec
fin
##ens
##wn
when
##land
pre
##ade
##ib
##pr
time
##eas
nor
other
##ail
during
can
##ount
fl
##urn
includ
ind
##ced
te
##ric
would
sec
##ks
fil
##man
##ward
##one
##we
into
##ang
him
act
bl
##ite
##int
ear
##ates
##ph
war
jo
##ied
##able
##nder
more
bet
char
high
##ited
##ose
cent
form
##amp
film
me
par
##way
##ents
acc
##les
##ces
sou
##ors
el
##aw
##old
##te
##ason
##form
cons
##ings
while
no
mus
##vel
most
##ild
game
##ft
po
there
thr
##port
kn
rem
##ind
##ict
gen
##gr
##ick
ass
##fer
so
##ious
##att
##ake
how
##aus
qu
em
bu
##iss
later
song
produ
again
##gan
only
reg
##rib
##ved
under
work
##ction
##ey
##eld
##ood
##reat
sy
may
them
pe
ret
than
some
##ered
sch
three
##als
about
##ubl
199
##ix
##ween
##ons
between
ph
##ollow
day
air
col
bro
north
through
ma
mon
rev
record
##hip
follow
eng
##ock
##ational
bas
second
##fore
end
li
##rop
##eric
releas
num
ac
##ters
sub
min
pres
sa
##hn
dr
##iew
##orn
alb
season
four
def
au
ep
do
pos
world
americ
##eth
where
cap
before
team
mov
##ral
south
##ular
spec
##ating
##ames
writ
arm
lar
sm
gu
made
##ision
will
##ived
such
pol
sur
000
sing
##ton
album
publ
##son
##atch
##io
##ished
sever
##ever
years
##ained
10
##ode
##itt
##ics
##ros
supp
##red
loc
call
##ery
count
back
show
str
add
inv
gener
both
##let
##ected
##tern
##ual
then
art
##ily
however
epis
used
mill
##ning
rece
batt
##ific
being
##au
these
##ve
well
##ection
##ury
##ep
stud
series
against
##oup
ed
##air
set
##ank
charac
inst
##velop
found
number
##ife
17
##ale
bel
##ement
lead
many
music
##led
sim
##ert
perform
##ten
main
long
op
city
pop
##ane
ter
##az
##ool
##ause
##ince
##oy
develop
##ron
##fl
became
##other
united
met
dire
hist
several
including
##igin
sl
cre
state
brit
mil
early
12
##ise
div
##ower
15
origin
##vern
##ised
ob
198
##ier
trans
did
##its
appear
##ures
dist
##ather
##ork
##ines
nov
194
ext
ste
ship
contin
govern
##olog
pers
##ities
conc
win
##elf
##are
prov
episode
##ley
##til
states
##ross
est
crit
##iet
said
john
##ird
ann
##ful
following
const
##uch
design
group
##ield
cr
exp
16
##eng
could
dif
##ative
return
med
run
##ouse
oper
american
##ought
desc
alth
##der
##ann
bar
##sp
known
##anc
although
##ah
dep
near
direct
aust
any
ger
##ivers
west
##uc
11
sign
serv
##emb
197
har
king
jun
mod
pass
down
196
##ually
land
lo
##ident
fam
##ase
disc
##iver
##iam
##ued
began
red
gre
like
##ern
offic
##ined
eff
until
feat
##row
##ople
##ism
##ject
##ange
##aking
##enn
along
school
because
own
##ided
point
released
rep
port
##ele
open
##ccess
resp
##ty
##ized
imp
called
national
prev
##gin
##els
ju
star
maj
##aph
##ts
##ists
people
##ured
##stem
you
wee
##ially
bre
##ution
##ys
class
adv
##gg
million
##osed
just
##rol
##ium
cour
system
id
13
##ull
british
ever
since
head
six
##ession
best
around
aug
cor
major
award
life
la
##cept
if
var
##up
##ets
##ash
each
success
##ains
attack
sept
##any
av
##xt
##ently
##ments
##ene
coll
character
##ark
##oot
use
arr
september
describ
august
ge
start
##amed
##ont
same
##ible
road
tri
east
##aced
occ
final
14
support
result
oct
another
dem
five
hel
public
##aining
sw
prom
##yp
km
##ended
##ired
build
great
##ik
my
old
austral
camp
##aving
195
gl
##eter
##cl
took
##ues
band
german
##ruct
ra
sk
line
book
area
mid
house
small
##ob
complet
##ted
march
193
##ner
report
consid
##ove
century
##ober
turn
##urch
received
##raft
##und
october
chr
##uss
##ants
stre
rout
univers
##ives
##ically
##ger
191
##ble
##ead
what
games
##app
##thern
partic
due
short
##ison
last
government
##ility
hal
vers
##ins
rest
##ately
ent
##ina
ke
command
match
person
##ored
eu
way
##ians
##ink
june
##oss
mag
home
jan
prot
leg
mark
del
third
general
single
conv
squ
##ting
##ission
july
child
capt
##iving
tit
november
men
##inc
track
death
care
apr
review
much
##ute
event
island
york
reach
##lish
april
##res
fur
top
differ
##ogr
dam
large
##uary
accord
power
even
left
30
cal
soc
town
##ural
cast
##..
vide
intern
##ench
##sc
allow
##ling
##ively
gun
##bo
month
##aim
##idge
kill
##ilt
story
progr
appro
vis
##ats
based
family
place
##ague
cur
now
vict
incre
##ales
expl
park
black
##ms
##bert
##ified
right
##over
spe
...
law
company
army
25
enter
##avy
ele
##empt
conf
december
history
##enc
##ether
club
played
addition
storm
far
according
river
post
included
##by
name
led
january
water
##rote
battle
192
##ention
##ient
##erg
##ograph
hand
##ime
##aged
wind
##ll
##apan
##ball
ii
##side
##eal
wom
wrote
won
ang
##ared
hum
ant
##ony
##ven
japan
times
##min
##ages
organ
opp
##ott
pat
##ience
requ
previous
##sh
val
within
##ract
##ody
make
described
rad
init
##ital
##med
those
deb
bill
still
champ
##na
control
video
next
##erv
##ides
memb
late
stand
##omin
named
##ption
belie
bus
week
original
among
release
further
attempt
repl
##ne
##por
##aff
##ister
list
##iven
league
##ech
##ilar
force
very
effect
100
dest
##ature
poss
foot
view
iss
route
##iod
##bru
##ested
##ior
real
##itions
commun
production
##ps
exper
species
members
##mer
##ret
cy
sound
inf
##ren
##ival
polit
##br
infl
europ
milit
former
christ
ref
auth
##atter
tour
febru
february
tak
similar
mich
elect
white
##ances
sold
period
division
though
repr
days
built
sol
##ences
tem
roy
tele
side
super
pa
arch
plan
held
som
europe
##augh
youn
##ler
university
rock
french
##ented
good
beh
cle
light
##ness
church
2010
fle
say
service
21
typ
president
fre
local
desp
role
estab
help
##ney
##wards
equ
##itch
order
eas
came
##ropical
coun
every
tot
caus
det
sen
cross
having
##oci
never
william
##ipp
begin
few
sum
mo
##ford
##ulation
##uted
mor
##line
mount
##ax
associ
prop
24
player
chart
prof
##ew
##par
2008
often
common
take
##atic
##ices
half
##ards
see
2009
career
hur
geor
continued
##ened
low
##ese
pri
sty
##ength
ten
claim
histor
2011
##ator
level
sent
press
fire
##ruction
different
without
##ck
fun
##thers
##ying
##estern
despite
##omb
22
cover
##ots
england
rom
##ology
##ars
less
court
##ests
comb
##erc
considered
##read
stat
party
##ops
##ried
dav
development
fact
##ves
field
##ring
2007
##iend
repres
tre
don
increas
night
country
county
##ush
influ
champions
##con
##af
tro
##amm
royal
songs
friend
##ones
version
##ittle
english
military
##aster
moved
highway
##lex
colle
written
##essed
ve
position
trad
want
mi
strong
##rodu
##vision
23
2012
vol
lim
become
forces
anim
chang
##alk
lost
bur
international
lond
##ize
son
building
##ches
little
miss
tropical
given
london
##ai
total
sugg
invol
author
##elt
ord
##craft
refer
vi
190
vir
ru
phil
announ
pur
lab
hour
##eder
read
street
project
import
##ald
free
young
##ising
##iety
sel
##que
canad
eight
##ett
aff
##sequ
surv
rail
performance
defe
gold
ly
##irc
get
sal
station
gave
earl
went
find
cop
##ae
returned
du
##bs
##ailed
using
broad
jack
need
published
coast
produced
##ef
hom
##ham
conn
western
compet
arg
##oint
reported
##xim
trav
popular
hun
##ably
particular
recorded
children
cult
mass
##yl
television
2006
larg
##self
##ories
stated
ins
aircraft
##aign
special
ball
##oph
##ama
ships
##ensive
##ington
father
##ency
dev
ground
campaign
##echn
##ged
circ
live
should
let
front
include
too
vo
50
making
rich
27
##iter
critic
28
love
age
##ief
dou
women
hurric
destro
central
##day
throughout
##used
prim
upon
##iment
##co
once
region
##iness
##ploy
suff
test
cas
obs
himself
##ky
official
australia
2013
championship
techn
40
wall
aud
##cess
depart
mot
characters
vill
non
26
##ned
wr
sea
fav
##play
present
##rew
##alth
players
mad
squad
ft
relations
##itive
##vers
hit
sit
ap
##ges
tur
instead
fall
##raw
southern
title
base
##akes
produc
james
writing
seven
away
189
cost
hor
fac
##acy
across
introdu
center
fem
##lo
hall
died
remained
##ense
months
##ams
fort
ir
signific
##ape
developed
cam
enc
grand
promot
full
cond
political
look
various
occur
manag
modern
##ument
fif
##wh
##ple
##unch
hurricane
wood
##utes
hill
##ration
##get
pal
hot
##ither
hon
put
##fic
pra
##itted
aver
hy
fight
race
##field
ill
decl
##ille
office
##ering
big
##isted
##ries
bow
hard
##ael
works
san
##ked
felt
areas
sil
noted
indust
america
eventually
russ
style
born
mer
announced
ho
created
miles
cro
mal
thought
reached
college
hop
##dom
destroy
construction
japanese
stri
engine
bri
sun
successful
northern
tog
hold
29
##ee
2005
nat
##thing
##most
mm
sym
body
seen
pain
heavy
struct
mc
agre
followed
adm
range
##ements
together
meet
mem
##ress
performed
civ
##ization
##iting
brown
served
rh
##ana
##ality
member
activ
2014
##orts
know
bridge
##work
##elling
george
cut
##ug
hen
mix
football
mur
curr
##iction
##enth
##me
que
tor
killed
god
cert
significant
hol
round
##idence
taken
saw
esc
##olution
able
bomb
ident
##ids
impro
##cent
gar
becom
action
##lished
reb
sat
los
human
points
does
wash
pi
mean
##ecut
established
originally
sn
thom
australian
subsequ
grow
others
##tain
##aval
insp
##enced
##irl
entire
appeared
david
##anch
located
director
##rict
features
voc
##yn
##ox
process
crew
##oon
stage
commission
##ara
##ground
business
##bur
started
afric
playing
pot
den
##odes
##ius
expr
##ata
##ray
##aves
caused
decided
civil
critics
##ects
kingdom
word
feet
##ript
rather
rank
##ators
fourth
##ament
31
mater
##gar
fell
##epend
econ
edu
##arch
econom
ur
inform
##ells
behind
independ
formed
site
discover
ital
represent
magaz
added
resear
##cil
fleet
##ogn
important
##ani
research
invest
188
ham
soon
pred
##ample
##reek
comment
##ivid
##ateg
##aur
##den
jud
##emy
##esh
##ows
##be
mart
bi
guns
eastern
##wood
##iers
damage
educ
completed
population
pen
mult
almost
tom
green
sex
neg
peak
##oth
inj
robert
##aces
close
##ination
interv
##aps
lang
key
indian
commit
cup
##omm
##less
jour
initially
awards
##ki
mother
loss
##go
##itar
treat
2004
princ
##ways
er
##ino
scre
opened
lack
case
creat
social
##oney
host
midd
pract
michael
proble
nar
##su
186
girl
relationship
individ
ul
##ceed
radio
fund
##rick
aut
sett
sour
##lin
leading
##ending
weeks
tradition
2015
bay
net
separ
sus
working
clos
##cast
prem
worked
sam
france
diffic
difficult
recording
secret
lou
##ship
towards
##ula
di
appoint
##medi
approach
union
council
##istic
##umb
scene
rain
##ster
##ped
##imes
mac
goal
##asion
wid
##ica
##ena
je
##ma
republ
room
henry
##igned
quick
norm
##head
break
mel
material
2000
records
navy
accept
vot
grad
earth
training
500
least
scored
angel
provided
exc
wanted
must
ey
rob
fig
troops
fa
cru
brought
average
ach
##oring
brig
dut
recogn
##board
featured
##iding
##ological
##osition
colon
either
foc
quar
nomin
redu
187
interest
proper
allowed
tar
##uck
launch
past
estim
cho
feder
##ential
wife
fut
contract
victory
respect
studio
rap
placed
generally
watch
avail
washington
inn
unc
rul
priv
phys
##ka
runs
example
dark
##ze
##ico
events
pet
dro
##osp
magazine
##li
chief
battal
der
republic
paul
board
lu
##to
summer
##antic
ver
##ea
##duct
staff
35
2003
cred
mat
particip
stru
##uel
joined
designed
squadron
##ville
##aper
pan
surf
##ming
hours
wil
regular
esp
employ
speed
nine
shot
operation
##oke
##mp
threat
##iff
opening
come
relig
media
believed
bal
##tim
regard
##gn
length
##anks
cycl
##erous
##ving
mary
ox
flight
transport
##omp
bir
mph
replaced
prior
##aut
ber
scen
winds
infant
pay
quest
stone
##imin
deter
sequ
captain
police
involved
stop
fish
mcc
european
##ification
langu
minutes
earlier
##west
##fall
finished
##ago
conduct
##her
society
news
##ades
##off
contrib
##etic
possible
saying
immedi
##ening
pil
depr
commerc
change
##erson
association
trib
space
keep
middle
##icated
admin
remov
largest
highest
particularly
boy
es
##for
films
bad
fly
scott
beginning
exist
lower
##men
ny
virgin
##ems
##ecutive
available
##anish
uk
##ris
respons
piec
percent
forced
2001
section
assist
plat
##icle
flor
better
roman
##sel
##east
##ev
atl
weak
deal
achie
disp
outside
##anned
taking
lear
program
meas
novel
anti
##reg
charles
committe
##lement
heart
grant
##ography
thomas
turned
increased
##itz
ended
##hib
viol
reason
units
clear
##bor
feel
smith
community
reviews
calif
passed
praised
californ
hous
somet
move
product
##wer
##key
emp
acad
going
2002
beat
above
additional
future
##iation
appearance
##gen
ty
ath
##ios
phot
thus
tex
##itor
guitar
bird
##of
canada
##ude
daugh
##aded
lik
##ga
enough
liter
coach
infantry
##ership
ordered
lake
plot
previously
brother
castle
##gress
ha
personal
##ocr
franc
##arily
signed
musical
minor
account
territ
##rison
richard
market
shar
doc
alex
elements
instit
rights
dig
lat
##tr
##pped
theat
california
##elled
##agon
positive
corn
##ida
60
##ections
prob
##nes
pac
critical
nec
##nal
dead
our
##ference
abs
parts
food
lord
profession
##pper
background
lines
give
travel
pow
female
##rated
impr
reveal
spent
45
poor
overall
term
told
money
##́n
type
##ilities
mach
scient
##ha
ps
tax
directed
flood
##uation
committee
victor
##back
##usion
##berg
deep
blue
cath
interview
failed
1990
hu
##uter
domin
##ased
##nel
required
roll
debut
groups
chap
concert
ren
##ension
germany
happ
broadcast
kil
##ique
##bers
district
##ex
constit
##mar
##ises
env
anal
##ston
itself
health
india
peter
battalion
christian
evidence
sometimes
object
##isl
frank
##ibility
appl
prison
32
185
bank
occup
reception
##omet
election
investig
commercial
asked
transfer
wal
except
##ume
##apt
##ready
##erved
##stand
parl
strength
##ability
living
##edy
administ
sov
##ays
mex
whose
##aker
doct
##eign
natural
study
##ream
##airs
complete
react
already
claimed
governor
##onna
approxim
score
clim
muse
##round
bey
square
soviet
##onse
introduced
frequ
##kn
whom
##igan
amb
minister
think
usually
##onst
burn
woman
##ores
students
##bc
##enue
education
quickly
idea
limited
wild
bud
##ully
chic
##aint
##ites
might
guard
effects
ben
construct
wat
movement
concern
stars
##ii
response
##atory
syn
subject
issue
##eless
commander
nd
centre
slow
tun
queen
lie
lib
##bour
1970
plant
polic
surface
certain
your
anc
lay
department
espec
fifth
arrived
pun
hosp
##ba
1980
pitch
sand
britain
ol
face
especially
fer
decision
services
contr
##ump
##ergy
##wor
gro
meth
operations
kh
village
teams
voice
parliam
self
compl
##oor
structure
box
shows
ot
gard
museum
##anded
impact
industry
walk
larger
writer
science
lyric
fest
ran
becoming
remaining
##mon
estimated
latter
episodes
remain
defeated
cm
ultim
carried
heav
parliament
access
36
multip
establish
network
draw
discuss
##aries
pressure
blood
##ties
##outh
flag
1999
80
mas
surround
##iron
scenes
consider
brief
##ective
leaving
##ulf
running
changes
acqu
bul
virginia
cand
jew
susp
##ror
diss
naval
##ears
sem
##ift
##porary
suggested
entered
##orial
nearly
depression
quarter
appointed
winning
influence
date
approximately
dom
fail
subst
chall
twent
##ania
size
##erve
capital
emb
leader
##inct
language
##ining
fant
got
##ander
shortly
empire
islands
75
script
federal
favor
course
today
jackson
finally
regiment
wide
cann
screen
300
##oms
##change
upper
tracks
mission
princip
oly
louis
amount
##pre
destroyed
proposed
daughter
##anced
##king
aw
current
purch
##ulated
olymp
##ecting
wing
producer
higher
manager
spanish
arrang
corps
##burg
lad
experience
nature
pict
distrib
environ
gi
##oid
horse
provide
subsequently
canc
brigade
battles
##idents
railway
##abor
33
professional
pu
##selves
altern
spir
compared
breed
##iser
complex
iron
##ishing
concept
intended
immediately
emerg
married
184
##inese
democr
1960
private
fans
cer
saf
liber
temper
cele
journal
supported
##ication
mr
mont
agreed
touch
entertain
stay
compan
shoot
intens
archit
##alled
bord
done
edward
##ria
model
feature
imm
jose
increasing
initial
awarded
weap
fiction
##icles
display
##tained
chicago
##val
chinese
whether
helped
related
mu
fair
legisl
planned
card
##down
officer
1998
books
##he
soldiers
##oles
create
someth
van
bring
longer
trade
##ta
penn
here
##atively
color
attract
kar
cause
gal
captured
valley
yet
##teen
plans
buildings
conserv
unit
block
forward
changed
conclud
withd
winter
##icted
##chester
cat
associated
friends
mom
dance
something
kore
70
##gy
officers
instr
##acing
spring
remains
mostly
sev
pacific
singles
ut
ash
##ban
billboard
##aring
##ector
johnson
themselves
standard
##ken
##rupt
##abit
teach
countries
lyrics
bat
mixed
exam
probably
##riage
really
hero
37
method
extended
ca
ray
moving
##ope
numerous
ple
financ
##itting
draft
##umn
sir
oce
information
portray
contem
copies
always
##uit
rid
tas
birth
##ny
nation
scot
location
##can
visit
goals
##asy
admir
##isions
ast
individual
##ych
rat
sales
focus
1997
issued
counter
congress
confl
status
##ands
##olic
leave
energy
includes
atlantic
artist
##andon
cit
conference
suffered
mess
singer
hospital
traff
male
via
00
##well
tal
martin
veh
jim
prec
florida
edition
problems
termin
albums
gall
maxim
meeting
bene
##hood
likely
china
increase
carry
assemb
double
independent
removed
morn
##bury
celebr
bond
movie
kr
##fact
dog
##bed
texas
##ili
##vin
revolution
inspired
foreign
##atives
##ental
rang
master
38
terms
primary
creek
##ously
majority
##isc
##era
lin
compos
kind
dv
##ette
offered
##jected
90
consist
minute
qual
refl
tons
ice
ens
stad
inters
sar
##aily
wa
drum
##lands
adop
attacks
fox
entertainment
makes
die
##oo
##gs
confir
od
takes
oil
183
composed
damaged
raised
##hl
combat
simp
canadian
34
ranked
environment
observ
##ounds
africa
log
carol
intell
cyclone
letter
daily
adult
und
appears
fighting
selected
mountain
##ya
revealed
era
train
categ
discovered
bor
active
metal
determ
wrest
russian
ign
tv
##ify
##ucle
inside
conditions
architect
twenty
kent
unable
launched
##uries
accomp
greater
##urs
##light
mic
morning
##ails
deg
##umed
respectively
incor
dar
##ado
iv
sched
ven
1995
whole
numbers
##ription
issues
iii
needed
sister
smaller
below
angeles
##ste
thir
lived
ali
contains
yard
dun
attempted
slight
attacked
schol
traditional
yards
stra
##ole
shown
bed
gas
newsp
##aught
occurred
##rect
culture
religious
##lor
##uments
pick
##zz
cart
nick
##uals
silver
alle
##aging
sports
cab
defeat
tourn
##ortun
##joy
actor
##aj
annual
ring
experi
rein
constant
##ault
elected
festival
che
##ker
2016
peace
1996
referred
1950
luc
reform
neigh
##izing
francis
mind
##rial
bon
##urity
bab
##oud
asp
##amb
##my
##osph
##vert
sav
audience
theme
schools
##olk
resulted
largely
express
os
assigned
magn
covered
prince
ris
ocean
##ari
##enant
fast
link
##osaur
##rovers
italian
listed
variety
##com
collection
indic
purp
coup
##uated
1994
conflict
pair
glob
competition
eth
names
suggest
earned
stadium
controvers
##quar
recover
##ocks
rd
expected
commented
mun
haw
starting
##itude
dvd
cham
rapid
attention
##aped
closed
performances
nucle
nin
imper
question
prevent
airport
##rian
zeal
michigan
giving
extre
##uk
##use
spl
viet
legal
refused
economic
figh
continu
crow
##bre
49
mir
cust
greatest
waters
##tered
psych
contact
enjoy
ros
electric
tower
wales
ability
serious
direction
notes
disapp
stories
##ipped
native
hund
promin
1940
##asc
declared
rate
meant
forest
matches
stan
vocals
da
##bridge
poll
things
180
41
hundred
mention
abandon
##ples
##yr
levels
##la
##ij
progress
##yan
words
swe
athlet
text
nearby
chann
hus
##ims
fill
##gu
search
marriage
mech
steph
produce
necess
constitution
##de
cry
practice
doctor
farm
defense
constructed
kenn
advance
anth
##iest
##rie
emper
occasion
source
##hold
##odies
lot
##win
fantasy
beach
1992
candid
oh
marsh
##road
vocal
separate
##overs
##wide
highly
labor
##ita
##kin
400
means
##ional
##ging
writers
overs
##ona
medical
spot
##itation
##gl
zealand
55
executive
exhib
##ellow
directly
##ishop
positions
ultimately
northwest
chem
ess
orch
continue
presented
sle
reduced
effort
african
mexico
les
cub
flow
admiral
##ingu
weather
bound
jer
##rey
dyn
dism
efforts
brad
##ibly
animals
formation
defend
1930
mechan
##uct
lieut
houses
strateg
##oper
##band
tried
chris
##rical
path
memorial
attended
batter
studies
inch
accepted
stating
##ogue
lif
financial
crick
talk
##mas
rule
libr
rough
##gian
madonna
perm
##vement
seem
specific
symb
1993
39
bob
1991
42
thick
prep
recomm
advent
incorpor
48
##rier
favour
ending
##isation
begins
scr
prepar
saint
##track
179
cerem
bell
organization
##eck
speech
pilot
theatre
traffic
sides
enemy
cases
scotland
true
##anes
kilomet
multiple
jones
##ero
drive
mos
attend
##illery
##ca
##ersey
chair
pack
flying
mob
##ners
responsible
managed
honor
forms
wound
meaning
##house
uses
arab
cold
##jo
resulting
greek
tournament
kept
##uff
ram
##utions
lieutenant
soundtrack
academy
dropped
showed
diam
##ung
repe
182
##writ
authority
policy
##like
bost
prime
quality
strugg
##olf
hors
row
emperor
##une
wick
exped
artillery
combined
dru
rose
boat
##ceeded
acting
ded
founded
secretary
##cing
trial
continues
administration
spirit
marked
edge
passeng
inches
##cend
property
print
williams
systems
181
encoun
subsequent
propos
chron
artists
contemporary
ll
##nam
attempts
territory
##essions
##iated
##gypt
ni
##thur
northeast
rear
appar
##ada
##ican
companies
suppl
potential
##ires
perf
coal
presence
##za
metres
##ols
viewers
planet
##osh
allowing
##icip
convention
thous
studios
sixth
##ulations
65
##essor
47
recent
scale
##ils
programm
1942
officials
conducted
##ees
##enge
target
egypt
behav
fear
rod
hyd
job
respond
digital
distinct
##ease
filming
fat
machine
seg
headquar
contrast
##ket
transferred
collabor
colour
##standing
latin
lee
parents
yellow
scoring
opportun
bott
maximum
##aming
senior
corpor
figure
coming
##ications
##rain
demonst
##aga
allied
featuring
##inem
beaut
torped
therefore
primarily
mol
relatively
oxford
owned
theory
opt
elev
##ls
peaked
student
becomes
joseph
temple
tru
apart
titled
torpedo
push
mort
actually
wear
piece
hers
46
sac
portion
##orter
distance
64
52
battleship
citiz
concluded
43
stock
boston
##unt
##ips
manchester
invasion
step
harrison
situation
whe
bass
write
bol
jeff
transl
44
ton
broke
function
mut
observed
selling
physical
security
alongside
swed
results
inh
plays
personnel
doll
concent
share
lov
sources
##istics
divided
paid
seconds
resist
calling
rating
cities
1944
##stein
slightly
border
mis
returning
powerful
columb
jersey
##edd
management
ba
tree
##ini
historian
##rawn
arts
kg
historical
ott
sust
imperial
mile
conver
minim
onto
ban
vess
actions
else
crash
platform
nothing
##iced
birds
##ider
influenced
freed
ow
paris
activity
innings
trust
ire
suc
fan
##iance
residents
##anna
comedy
poet
bbc
tend
designated
promoted
nominated
##ns
##astic
ri
passing
resc
cultural
rot
cricket
crown
##oe
appeal
completely
croat
guest
premi
problem
##sen
avenue
lane
weight
height
mainly
sexual
trail
struck
##istry
charts
doub
orchest
##omy
arms
sought
paper
charge
1920
encour
150
hands
sense
1945
seasons
content
webs
1941
subm
ancient
vari
##apped
branch
##rate
pul
feed
equip
##lers
eye
gh
image
reaching
document
merc
sr
##while
spect
##ills
weapons
cell
graph
italy
electron
channel
##olved
dang
medal
##cle
americans
widely
##iano
instrument
##ota
baseball
appearances
habit
harv
wars
intellig
##ura
alone
emot
##cher
confirmed
##ques
##oman
##rative
##phy
gained
##iles
##ylv
##pass
beyond
compar
ec
ireland
choice
liver
##adel
51
join
brothers
murder
steam
reign
older
sport
steel
deliv
element
proved
analys
versions
##iber
library
##uled
headquarters
dw
floor
manu
##lie
entr
explained
##oration
defence
says
offer
ahead
##zy
expans
negot
##known
ta
serve
rainfall
1989
sens
##inn
causing
comes
##ighth
send
sant
1943
hotel
victoria
##ić
##mans
suit
bit
alt
compr
##bon
require
fal
##itness
expressed
catholic
##town
equipment
workers
##ety
article
##ko
roads
reports
growth
pattern
matter
prominent
offensive
gross
drama
surpr
advanced
##cy
pap
##ancy
##yth
capture
identified
officially
setting
husband
snow
soft
##erse
interact
worldwide
armed
il
ce
manufact
category
##icient
dani
tells
heavily
joint
##mark
reserve
senate
rush
justice
surre
computer
catch
represented
dutch
escape
activities
stephen
##iring
spread
extra
##ule
##ube
##ano
places
##rich
meanwhile
adapt
treatment
##bi
pieces
leaves
##yer
clar
tay
actress
trees
leaders
figures
jul
avoid
unf
fired
orb
injury
believe
toward
why
duke
agreement
albert
supply
expedition
##abeth
lives
##ylvania
##where
unknown
illust
doing
casual
data
unlike
crowd
imag
eliz
editor
laid
##emic
strike
carl
golden
adj
##ece
consisted
dream
debuted
##acity
exec
ko
##egr
walls
##ads
shel
din
##ete
aired
mig
argued
opin
##pool
stations
georg
typically
opposition
##osen
severe
600
53
##ached
moment
##don
reference
homer
mounted
85
formula
polish
twice
spin
##esis
finish
photograph
claims
affected
nations
##icks
description
actors
animal
##inson
faced
industrial
powers
jon
store
supre
emph
notable
challeng
maintained
accident
couple
technology
bart
trying
##osoph
protection
value
##lines
barb
knight
convers
fellow
visited
##ifying
orders
horses
tech
##har
pros
summ
criticized
survey
assault
dur
landing
##bn
et
delay
##oul
motor
fuel
##acement
sail
carolina
broken
holly
##gers
hair
##ala
fully
resident
growing
label
mul
##ockey
chosen
motion
md
twel
abb
1987
##intend
institute
cooper
scottish
twelve
1988
criticism
youth
solo
producers
gil
frequently
##stone
seventh
56
condition
philosoph
##yle
wounded
##ola
looking
penns
accompan
##more
vice
sky
newspaper
oppos
sher
billion
surrounding
lands
urban
independence
reinfor
degree
chor
lew
operated
math
composition
##rael
register
##ordin
assembly
##add
nuclear
champion
republican
##izes
54
comic
bc
##agn
serving
moon
grew
dry
##ayer
creation
southeast
simply
##rid
rival
incident
follows
vote
expansion
cool
losing
famous
95
contained
risk
##urb
newly
killing
##lam
christmas
agric
herself
passes
oppon
honour
##wise
andrew
weekly
tel
individuals
caval
ends
experiment
cinem
##ivity
##ends
normal
fresh
jac
split
97
heard
##ici
perfect
emphas
##ocked
attrib
homes
consecutive
wilson
##ja
##ledge
##isters
nav
taylor
crossing
measure
cannot
thing
website
narrow
evac
supporting
##pton
1986
parall
consequ
perman
chose
joe
elizabeth
##fully
opposed
##che
sequence
alexander
volume
##mond
participated
agricult
poly
##worth
bru
historic
themes
##water
rise
von
aer
wave
leadership
dan
worth
rare
adopted
ka
##resp
colonel
eyes
##gend
eld
egg
##í
##ato
capacity
skin
abandoned
disease
advant
##ancing
standing
rac
dub
##iled
filmed
##ote
##rane
famil
tall
defin
max
plants
democratic
visual
basis
straight
negative
177
pennsylvania
##anda
budget
##born
deploy
trip
bowl
pier
##greg
prompt
gri
sund
rand
failure
creating
benef
mike
arc
gameplay
regarded
possibly
dim
tank
column
pin
harry
treaty
irish
##kins
bodies
palace
try
distingu
##under
76
cd
canal
girls
##gal
foundation
kid
lady
interchange
sin
spain
domest
excl
horn
merch
##hire
##uses
legend
61
kick
##illy
ideas
zone
lap
eag
retired
advert
dismiss
surrender
lind
tell
178
mist
extensive
ridge
##isers
seat
##azz
aid
younger
hockey
nob
scholars
franch
roles
explos
garden
basket
dial
atm
railroad
analysis
bishop
classic
1939
opera
##set
drew
repeated
improved
achieved
66
hyp
economy
##eman
##uls
note
aim
effective
patrol
sud
israel
briefly
glass
banks
hay
core
lem
piano
soul
gate
unsu
hope
##orters
chamber
currently
southwest
household
necessary
calc
vehicles
arthur
granted
defensive
purpose
##otyp
1985
rejected
speak
citizens
fame
regional
caught
turns
##arked
sell
organized
1968
##oma
braz
recently
tam
types
kir
genus
kilometres
extr
ped
##aly
marine
province
atmosph
receive
expanded
secondary
synth
##lusion
authorities
flooding
commissioned
flu
##iana
online
didn
##ias
ble
ori
drop
roof
cavalry
##iments
ohio
fro
##eals
57
transform
families
##tv
successfully
performing
letters
determined
freedom
literature
describes
##cel
fought
tail
agent
assistant
##wall
##utation
hydro
800
##ella
safety
unus
picture
##iday
##adelph
1984
##illa
##uate
lic
upgr
goes
custom
singing
prefer
62
freeway
##umber
##iate
acquired
journey
philadelph
titles
suggests
##stream
commonly
planning
gives
##han
##alty
sie
##ym
##elle
centuries
deck
supreme
ron
##ading
##pi
120
##ester
##oted
##ases
##ifications
mentioned
revol
georgia
distribution
spr
ga
cambridge
controlled
vac
scheduled
az
contain
web
withdraw
myth
alternative
mouth
##oln
decre
dip
##pe
protect
philadelphia
depict
sets
shooting
##inger
contest
trains
cook
##attle
##haps
chance
principal
micro
unique
reaction
virt
perhaps
regarding
fix
wrestling
##outs
1967
finds
save
witness
russia
request
submar
estate
integr
crime
extrem
rules
facilities
##umes
gill
kel
demand
tag
specim
arrival
recru
ss
##aven
reading
scientific
korean
session
gain
containing
exchange
##amin
publication
accompanied
rated
dram
tact
lis
nintend
locations
belong
fighter
linc
price
touchdown
58
jenn
ceremony
liverpool
thor
##tar
brid
boats
quite
selection
hits
brook
evening
nintendo
moder
74
entirely
asia
simple
mand
##etts
columbia
##unk
rum
tab
existing
cloud
##shire
firm
##once
dedicated
##aver
intensity
fash
rub
##agan
singap
contributed
ax
##eb
prote
legacy
##pa
jewish
remix
provides
publish
brand
72
purchased
##station
casualties
kings
##hol
adap
grey
page
1983
windows
brazil
resemb
campus
throw
ok
om
battery
##é
##room
advantage
resistance
##inity
carey
sites
##ulate
occupied
boys
francisco
1969
eighth
singapore
##respond
correspond
basketball
table
holding
gib
1964
lincoln
##iences
##oses
whit
gulf
##och
##va
##ü
bron
heads
promotion
structures
trou
gay
elimin
protected
miller
drawn
regions
bright
resour
##eds
nap
59
1914
coastal
1918
code
hms
receiving
disney
closely
tenn
playstation
##laim
cars
conqu
judge
##itled
opportunity
turning
laws
##ompl
##rons
1971
##kes
1982
lewis
bush
generation
calls
consists
roughly
99
1972
##iro
##ua
steve
1979
1966
corner
defined
##onic
reserv
##burgh
acts
##usc
grade
anderson
jr
##fri
schem
byz
brian
symbol
##iny
experienced
##wick
anything
##iger
olympic
losses
rolling
fashion
task
##garian
protest
##fort
##ware
##ocated
sha
##awa
##box
byzant
hem
1965
focused
retire
religion
viewed
engaged
hind
politics
intelligence
providing
63
armour
##eg
relief
developing
1975
hip
nhl
map
77
phase
bands
oak
uncle
rapidly
wond
investigation
ther
shared
bottom
shall
hired
males
semi
enl
##ucky
walter
instruct
hollywood
temperature
73
##mann
highlight
credits
tow
germans
solid
introduction
mountains
rene
everything
tu
faith
missing
recognized
equal
bes
exact
guy
1974
cou
##oster
painting
lb
##ifically
rome
davis
junior
vent
belief
pret
hart
1973
##gun
##bound
hell
han
isol
getting
##een
gord
##gest
falls
substant
typh
prepared
descend
folk
shape
jean
##mouth
tick
franchise
flat
##ilton
knew
##eral
serb
naz
opinion
domestic
cens
1976
significantly
global
thin
##rel
ans
projects
intersection
approved
sort
beyonce
literary
adding
##eed
philipp
penins
67
matt
knowledge
confeder
reasons
##ender
wheel
wings
##eper
##wart
##erted
cris
sab
unsuccess
250
rar
raid
##ologist
challenge
playoff
ward
hung
##iful
##sey
##ava
syd
##iat
autom
archae
vic
shaped
unl
musl
bull
views
stages
settlement
cabin
##achus
poem
escort
evolution
lit
operating
bern
##ira
cra
storyline
exerc
##asty
parallel
ari
mah
82
##ela
##ador
shut
##unte
labour
##break
internal
renamed
scul
reputation
rebu
beyoncé
68
thirty
##itan
mode
watched
96
##istan
neverth
employed
nevertheless
proceed
volunte
87
allies
baby
popularity
fine
limit
injured
gramm
professor
humans
paint
guide
females
##zen
neut
blues
cape
increasingly
cited
##antly
kentucky
headed
towns
torn
neither
heat
1946
consc
models
##ati
wealth
1981
declined
##aka
hills
finding
connected
sculpt
collected
violence
details
uns
ross
sed
existence
converted
depth
sustained
grav
enjoyed
##onym
81
##inum
controversy
learned
bac
norway
entry
1917
consum
connect
ken
impl
##hi
volcan
massachus
olympics
##lav
outer
championships
applied
##istol
massachusetts
crimin
##ients
##iform
allows
##ceived
camera
shr
##ctions
160
swim
gang
ways
cells
clark
nest
##rif
700
approached
entrance
premier
69
##ō
arsen
decade
carrying
##osis
easily
interp
designs
##ropri
tests
responded
gray
loy
confron
extension
downlo
##atures
1948
foss
discovery
technical
91
##rec
ell
chairman
buried
duty
hang
bath
##ima
convoy
gradually
mayor
sax
succeeded
sections
##onia
specifically
##psons
breeding
hull
acres
78
showing
programs
lev
simpsons
raw
astron
ts
##ignment
municip
sons
door
jay
scar
##itors
install
stret
raf
##aine
address
items
prize
prisoners
nich
exclus
1978
shop
purs
nas
pear
arranged
none
credited
gone
genre
triple
similarly
vietnam
util
statement
teen
weakened
seems
winner
producing
additionally
improve
earliest
parties
cryst
landfall
##inal
##una
##come
rural
warning
##ds
##ali
routes
presidential
1915
threatened
divisions
94
candidate
fields
engineer
##put
na
98
retained
##wa
jam
sounds
ottoman
inner
##entions
combination
sydney
##inary
bear
adam
##hr
lasted
##rations
products
##ogen
##wich
spok
1977
##dy
poland
hear
daniel
brain
moore
mtv
kim
##cop
71
##math
maryland
##ping
hugh
##issance
##ek
##inking
replace
ones
supplies
##taining
dress
lock
chemical
adapted
interior
evil
animated
tra
downtown
basic
repair
kur
frag
afterwards
##otic
engines
delivered
lam
inspir
##itage
speaking
grounds
peninsula
1963
cow
agency
89
jes
dele
cul
##rest
filled
maintain
message
##imet
clean
surviv
rhodes
##rence
equival
stopped
entitled
##arm
permanent
affairs
architecture
1916
##bl
indicated
supporters
##rets
climate
extremely
wides
##inton
magic
##izations
engineering
##apes
##leton
mine
causes
cad
##rant
diamond
deaths
fruit
alien
##oli
buff
greg
##aud
secure
88
##ora
importance
proposal
restaur
returns
mulder
ira
gordon
las
deleg
spons
1919
ratings
typhoon
knots
acid
streets
composer
implement
vel
##emies
ak
1962
##book
79
tanks
mans
##iel
##iversary
survived
pig
##tic
classical
##aling
aftermath
describing
switch
compon
references
writes
##bourne
convin
giant
flo
classification
bought
alf
1938
##ropol
concerns
images
songwrit
holy
##time
##inois
##nic
eric
rab
ruled
someone
typical
sale
medie
entering
rivers
armor
environmental
remember
##ingly
studied
##ographic
arrested
decline
portrayed
jane
sharp
##entially
cruiser
drug
vul
voted
preced
##heim
ker
reh
retreat
kat
universe
reduce
recalled
eleven
pit
##aki
ago
##eller
intention
purchase
corporation
##omic
##ansas
actual
quant
92
siege
capable
medieval
feeling
correct
bang
academic
##know
##á
alliance
owner
130
objects
nomination
colonial
liberal
##po
bos
recognition
pav
sessions
driving
chapter
##cer
##adow
equipped
kong
bach
##met
thousands
nel
offers
175
identity
hunting
##eton
funds
historians
passage
camer
princess
noting
concerned
connection
anniversary
finals
1956
meters
decades
subt
debate
crossed
consisting
tony
##icide
flash
recommended
undert
admitted
alan
##ugh
84
pip
##oir
programme
##eline
interested
##encies
thunder
invited
93
##right
dipl
arsenal
sight
installed
dougl
adams
breaking
considerable
pound
starts
universal
jord
margin
##aken
##ishes
##ipping
maria
warm
monument
##eston
establishment
colony
courts
1936
dates
decor
eat
##aked
sequel
hamilton
##str
subs
cu
enemies
styles
##acks
charged
improv
duties
remainder
##ranean
##pread
veter
simon
truth
##iques
##oked
utc
jump
##cement
manner
widespread
shield
negoti
ready
communist
86
promote
pictures
conservative
1961
bure
##ilation
shear
salt
##osaurus
indones
thro
##ram
bid
continuing
##ez
slowly
cos
shore
nether
##aham
##mus
##igation
argent
departure
aspects
behavior
occasionally
classes
transition
diet
ech
##oes
marc
nba
wel
wwe
##iling
animation
electronic
1953
matth
beautiful
resources
plate
romantic
hitler
destruction
orchestra
myst
rhyth
happy
kennedy
wearing
hou
jur
posted
emergency
acclaim
sunday
howard
transportation
assistance
disappoint
##zer
##akers
scout
##apping
treas
pure
senator
superior
ride
indiana
carbon
formal
110
vessels
##uous
leon
occurs
accur
##athan
certified
norwe
pleas
dated
income
##ensions
memory
credit
populations
scully
attached
1947
ancest
demol
properties
##icate
chorus
passengers
1937
##anth
1958
cant
dean
conservation
ryan
##icit
equivalent
gam
shots
portug
mathem
amend
chapel
oldest
involving
turk
##̈n
terminus
1910
desert
##regon
##ione
circum
##oard
heritage
##aware
acknow
tunnel
##after
oregon
1957
adventure
barr
expand
settled
##veland
obtained
wins
sleep
pink
##uing
belt
bombard
junction
rescue
medic
dynasty
accused
authors
finishing
worst
rig
derived
charges
shell
ninth
##agues
collect
incorporated
##anian
##ivals
reviewers
favorite
inher
douglas
circuit
##orney
lenn
##ooth
replacement
crisis
bou
##eastern
cleveland
illinois
##ules
committed
hosted
missions
prey
sword
moves
##etime
segment
rebell
bringing
##ables
vehicle
biograph
grass
audio
supposed
andy
pope
assumed
mediter
1959
denied
##bar
stanley
interpret
##western
circulation
rooms
##ommod
clubs
##ched
recre
representatives
##da
unusual
dens
fit
theater
mediterranean
fictional
musicians
transm
commanded
deem
strongly
roger
kevin
seeing
##ji
beatles
##agonist
##ruption
begun
outstanding
mexican
intercept
deput
completion
surviving
bruce
characteristics
1954
##suit
consult
1955
solar
neighbor
bristol
materials
rif
reality
isbn
gust
norwegian
##ician
cathed
alleged
monarch
persu
attorney
costs
lanc
exception
wickets
##uge
tied
possibility
consp
methods
sailed
ford
responsibility
craft
haz
vision
##borne
philip
nic
reconst
##itable
praise
everyone
passenger
##ami
ku
mes
driven
##erto
##works
83
charl
##rus
opposite
##friend
differences
##state
carrier
representative
cem
missed
##eased
atmosphere
scheme
habitat
lisa
##ager
korea
desire
##weight
thereafter
voy
vary
buy
recovered
otherwise
##aza
massive
##burn
orange
##eted
##char
obl
##onto
##erged
throne
funding
platinum
dragon
strategy
##organ
wrong
attributed
gle
warri
sid
phill
serves
stayed
shif
##arian
twin
emerged
retirement
1952
effectively
communities
morris
##ucks
predec
classified
sweet
##iant
punk
anton
outbreak
township
cancer
ministry
weapon
adults
aboard
##elsh
robinson
##alf
accommod
morgan
mobile
regularly
crosses
norman
dissip
documentary
elections
nelson
accounts
partn
hat
ille
premiere
lith
mck
##bell
hawai
##riers
underground
##́s
1933
circle
falling
dor
wonder
expect
satis
lies
stead
##enses
enterpr
176
attracted
inspiration
crop
##ran
stood
submarine
ah
forming
trials
##isms
mint
wre
##ersed
factor
##oslav
races
racing
angle
criminal
##phone
parks
movements
commem
renew
##pective
##iva
advis
##rupted
lyn
injuries
votes
battleships
##pping
##apers
batting
immig
pull
vert
##ss
needs
raise
1935
separated
sweden
bag
##oking
patrick
##rett
soph
enth
relative
##mo
allen
garrison
1949
chain
symph
sudden
##uting
shark
1951
welsh
earn
##lets
plane
nom
##idden
temporary
queens
remn
flank
difficulty
##mi
dod
wedd
distinguished
partner
seemed
ports
requested
delayed
##eness
##teenth
toronto
facility
##bing
restored
matthew
standards
surrounded
elder
fu
gets
##uts
pir
byzantine
sor
hoped
uss
##imate
claiming
elsewhere
bridges
netherlands
mars
amaz
childhood
metropol
convection
penalty
arn
shir
##aug
reviewer
harm
murd
lor
##abil
divers
frame
##oyd
temperatures
##rell
rud
##ogy
internet
meets
##bro
stands
kiss
convinced
ages
examples
iraq
jordan
greatly
jews
moderate
cathedral
jacob
publishing
jazz
wolf
dangerous
involvement
##urr
##abled
cycle
painted
appropri
gor
##omot
easy
tub
1900
rick
accompl
wooden
##ito
##yd
##yard
alco
##ien
adaptation
wright
satell
hundreds
spoke
immediate
learn
molec
eggs
fled
drag
##rog
##iley
recordings
insur
##path
anyone
##hel
tries
excell
pitt
cha
parish
assass
techniques
toll
strip
##ux
salv
bureau
anne
thomp
##oz
coin
appearing
learning
encouraged
somewh
somewhat
leaf
06
suffering
displ
armen
prohib
measures
croatian
patri
poetry
graphics
veget
##agement
russell
kelly
safe
legislation
mamm
bears
determine
usa
dal
horror
journalist
dismissed
hud
##war
thompson
dating
hub
islam
##going
interests
ensure
hend
facing
pak
whereas
attempting
nickn
absor
upd
fighters
nfl
buck
fitted
carter
depend
##agre
holds
##ras
commonwe
thousand
trophy
weigh
starred
puerto
enfor
wy
bypass
attacking
depos
##body
formerly
##rad
gent
pel
visible
commonwealth
questions
##itzer
closer
##alo
conclusion
biggest
kw
option
spears
theor
bats
mete
absence
extreme
##agu
##ighter
hungarian
productions
influences
modified
##real
neck
##elsen
mitch
reprodu
1913
deemed
alph
batman
##sa
instruments
lion
diplom
apparently
premiered
parker
##mes
controversial
##night
landed
landsc
laboratory
900
scand
novels
##acent
harris
narrative
08
murray
distributed
bronze
##rete
longest
1927
wet
territories
leads
1926
gallery
locomot
operate
##olph
##ila
understand
restoration
trained
hin
stor
files
victims
rhythm
arrangement
enh
discip
creative
acknowled
budd
1934
1921
settle
##vis
unp
visitors
uniform
joy
mainstream
unsuccessful
weekend
substit
releases
refuge
dre
tone
sees
##itter
representing
##chang
believes
dynam
dna
##ares
##eler
excess
finn
depicted
influential
berlin
resolution
owners
coins
liqu
abbey
basin
kl
yan
dominated
exit
harbor
looked
##arn
houston
##hu
##owa
raaf
##ivan
secured
churches
videos
santa
##ixon
wag
notably
##rig
09
yug
informed
andre
comics
1912
tie
wol
casting
##roit
##aya
freder
watching
##gets
##aws
legs
##bra
##illing
reun
driver
giants
lod
indians
offices
clo
cemet
##asions
cemetery
sull
apparent
swedish
deployed
hut
##ture
imposs
languages
guardian
simpson
neighbour
##atically
cov
terror
relationships
behavi
aftern
##ultane
1932
dick
simultane
##iph
cher
housing
##aska
##sk
##illed
##apse
deliver
##vens
hearing
device
testing
dies
opponents
cabinet
meteor
skills
diagn
sad
achieve
pale
pregn
warner
operational
cock
detail
teeth
generated
##ructure
impressed
intense
##coming
jason
drums
liz
factors
reportedly
sang
mainten
dialogue
##osure
agents
surg
happened
emotional
maintenance
bapt
window
##ternal
download
commemor
cod
##fare
render
##iously
nbc
yugoslav
disappear
successor
anthony
agricultural
firing
footage
employees
##lying
experiences
abd
raj
mud
somers
satur
trek
clay
gaga
rising
cloth
##otype
detroit
croatia
fishing
defended
laur
fisher
negotiations
lowest
scientists
##aled
lose
zero
gilbert
sure
1929
revolutionary
##bal
1911
##icial
stem
140
executed
belg
##opes
##lad
ark
fried
medium
discussed
##hanna
gather
personality
##ois
feud
dj
normally
treated
bh
##igen
format
fred
##aints
portra
##esc
enters
christoph
tribute
lob
asian
interstate
afternoon
tenth
sympt
atlant
##arts
um
stewart
1931
radar
05
resign
1922
drawing
apple
##anny
duch
carib
residential
##achment
melbourne
##ontin
storms
jesus
clinton
arrest
flew
resigned
accompany
si
##uv
difference
vessel
advoc
detailed
ethnic
inhabit
tornado
boil
##iliar
goods
ay
aged
origins
evans
formally
pointed
innov
nielsen
##asing
partnership
technique
##cr
militia
reveals
prevented
synd
preferred
trig
loop
xbox
##inces
kal
pushed
stable
prosp
glac
tempor
directors
forb
keeping
huge
##wan
erect
##mun
arriving
apprec
exposed
sic
seas
organizations
isolated
cz
institution
neighborhood
sisters
##orous
##ertain
breath
substantial
disturb
forty
partly
handed
sevent
moments
##oral
muslim
metro
marshall
smooth
linked
##arf
##using
founder
samuel
turkish
mall
forec
##otes
imprison
analy
sarah
benn
departed
##tz
hans
mack
austria
pam
##iner
herald
continental
designer
factory
##rose
enthus
##rees
colorado
insc
##asts
lennon
existed
##olis
fifteen
frequent
pione
170
avo
manh
dramatic
##gas
greece
impossible
##ologists
periods
ranking
instrumental
proced
recip
extent
occupation
wedding
##bit
amph
baltim
##bean
participate
concerts
moral
instance
load
malays
baltimore
catal
shock
armament
aqu
seeking
initi
##usted
cruisers
scholar
##inder
anticip
phen
alter
##roll
deputy
hunt
teamm
specimens
##spec
taught
##ressed
grace
turb
mail
helic
sullivan
finale
verse
ghost
seek
##tw
tan
fab
##oust
##lyn
lun
rarely
##rating
ern
gates
aware
amendment
newspapers
nag
##aria
friendly
creator
oxy
dave
spending
rug
dir
diameter
##osing
goth
rav
upgraded
alab
metropolitan
ye
doesn
withdrew
relie
precip
absol
chase
arena
assess
divor
1928
##enh
poison
listen
timber
tod
exhibition
covers
##idae
picked
encountered
procl
##iami
##eing
mathemat
frederick
lect
permission
chanc
boss
pounds
joining
##umin
##iller
##obi
affair
mario
refere
plus
swift
##icians
07
collaps
multi
difficulties
gab
policies
rates
changing
schedule
skull
somerset
##gi
##boy
legislature
anch
1925
jess
mit
inaug
mississ
cous
suicide
##rh
partially
inqu
1890
##sea
restrict
turrets
napole
##music
##rum
merchant
anna
trend
advice
##anium
sank
##olas
anglo
federation
bombers
##borough
##thy
athletic
miami
##opter
seed
clin
loan
pilots
aggress
hamm
unn
disaster
restric
joh
adjacent
traveled
gap
refers
sector
comments
seattle
1924
rebellion
##ello
margar
agree
pref
explo
holl
waves
plain
param
teacher
philosophy
01
seats
gardens
signs
infr
##aire
proport
harbour
danc
marry
mines
##amese
##eu
pitched
minimum
shakes
criticised
cot
iowa
##tt
municipal
soldier
coordin
meat
bases
alabama
soil
australians
destroyers
prompted
compete
struggle
eagle
remove
missou
bom
surprise
indicate
##oen
whil
##attan
collapse
communication
##inction
manusc
neutral
potter
caribbean
medicine
span
charlie
##power
##uster
overl
lawrence
spiritual
manuscript
##rom
forcing
indeed
bros
string
designation
halo
grown
minnes
satellite
##col
armored
1923
enterprise
blow
powered
##attered
walker
copy
teaching
paintings
whilst
nu
meg
yor
stream
sufficient
collaboration
##isd
restaurant
citing
survivors
##udes
recon
protagonist
values
yanke
fifty
ian
##gate
wreck
marketing
pm
possession
forg
myster
covering
appointment
uncertain
khan
jar
multipl
benefit
tip
##nings
describe
approval
rounds
##ascar
##eland
nazi
ecc
capit
provinc
encounter
candidates
##athers
travelled
depending
pretty
##leman
nam
charter
understanding
fortress
poems
balance
reconna
dispute
hungary
brill
orbit
oxygen
victories
benj
cyl
dollars
listing
situated
##usal
recur
bowling
displayed
pc
##enz
battalions
villages
articles
minimal
hamp
pine
##rates
##imb
##encing
survive
violent
rit
belgium
rugby
##sole
legislative
reconnaissance
earthqu
alive
serial
femin
dock
assisted
closing
telling
sugar
prol
degrees
playoffs
gear
publications
wake
cargo
priest
forests
diego
software
dancing
interpre
amongst
helping
funeral
symptoms
##pan
shakesp
##hed
marks
guil
colonies
clock
ski
eliminated
acted
shakespear
##lus
asks
fel
jok
03
hipp
riders
hypoth
##avery
nad
monster
behaviour
##esses
simpl
administrative
purposes
christopher
##ecraft
##car
##fr
drivers
1908
alfred
##velt
##imeter
pron
tomb
circumst
repairs
1905
compilation
occasions
1909
fatal
mississipp
##atus
benjamin
105
bot
mason
blind
concrete
quiet
04
pars
roose
statue
hong
brun
125
alcohol
inland
sympath
minnesota
vietn
phr
vietnamese
conte
lists
ry
stro
##ses
kin
attendance
##athered
horiz
cannon
preserved
preparation
##lev
publicly
grammy
console
anime
##̈r
organisation
businesses
mental
##inals
stevens
manhattan
sick
pool
abilities
voiced
concurr
communications
tang
##jan
highways
wider
defeating
illness
trouble
sole
franklin
export
argument
dc
bran
touring
elabor
signal
ammun
roosevelt
##orph
##ounced
resumed
##sex
kansas
vs
164
residence
1907
nash
##lan
##acher
competed
believing
intensified
##ivated
surge
##agen
##atherine
archb
ammunition
icon
jet
alignment
crews
coff
excav
thinking
02
##kel
frig
rib
dollar
flights
counties
portland
##uda
airborne
backing
fallen
opponent
spar
strategic
documents
signing
subjects
##fire
##unc
deliber
witch
##icity
amate
usd
165
assists
walking
friendship
dri
##ulating
willing
audiences
alternate
##acle
usual
ceremon
philippines
suitable
sib
genetic
telegr
interesting
##mont
doubt
engineers
scor
##bu
select
1880
ds
rach
atomic
abol
mississippi
##sters
curt
feelings
liv
##point
radical
saturday
##uman
noble
##aste
chand
loyal
provincial
woods
nit
##elli
guards
tribes
sas
percentage
submitted
completing
rever
##emen
waiting
vinc
##iac
101
ownership
explosion
functions
adopt
##́r
##oto
mush
##mat
charity
behalf
##itated
alexand
##donald
asking
autobi
por
##iveness
hook
disord
##ods
guer
polar
tenness
##fe
retail
artistic
campbell
shakespeare
ramp
evolved
##odore
stick
proc
laugh
hindu
##sky
chronicle
cinema
##ader
lex
pole
frust
targets
false
revenue
##utt
##ifer
obv
steven
##dale
pic
quad
registered
remark
wire
butter
##rator
birthday
lakes
suspended
##onymous
rice
cartoon
astronom
hole
josh
favorable
cass
##oga
warren
360
mik
movies
reluct
##rot
civilian
lucas
beauty
poorly
borough
provision
heading
guilty
egyptian
é
replacing
hob
forth
brick
ideal
comfort
liked
pace
##gression
pup
stores
1870
shells
cliff
carp
armies
aimed
##́e
stu
offering
solution
measured
##die
carn
missouri
tennessee
##inea
boundary
ruth
##lec
engagement
clearly
##rod
##fish
acceler
underst
louisiana
rocks
1906
expensive
temporarily
palest
margaret
##kh
asc
aviation
recognised
##ige
1904
montreal
simultaneously
##lah
shipping
execut
filed
vulner
sequences
##uable
chel
fo
gran
remnants
storage
billy
represents
taxon
galax
agriculture
blocks
craw
##ishment
monaster
context
readers
essential
conspir
##wned
wore
wants
saved
##nie
tox
harvey
coverage
recommend
err
##rix
talent
##reh
comparison
mining
115
sket
patterns
coinc
cancelled
phoen
##oming
propag
czech
aside
surgery
institutions
tight
phone
perspective
suggesting
overseas
stern
subspec
faster
wish
##ribed
thirteen
spotted
##essive
familiar
maneu
matters
reflected
kirk
gw
wasn
gene
practices
contributions
graham
rebuilt
##yon
notice
furn
protein
##ctic
empt
##issions
dogs
dy
osc
lesser
fastest
mys
hunter
globe
##fa
underw
##ylan
predomin
application
##iary
furthermore
shadow
##artney
destroyer
pulled
vertical
retrie
##aro
archbishop
ranks
skel
crystal
bah
escaped
oliv
roots
flagship
badly
ariz
satisf
ze
sq
sult
strict
subspecies
jobs
amounts
lacked
cuba
drugs
drove
coc
cave
##life
##estone
allmusic
decides
exclud
##oh
slaves
panel
autumn
mitchell
assert
confederate
marie
argues
bulk
intellect
wicket
stretch
sover
toky
ale
subur
portions
triang
indies
##kshire
sovereign
unex
controls
expression
squadrons
quarterback
spider
severely
inhabitants
earning
tamil
tale
euro
striking
godd
biography
summit
persian
tort
##urally
starring
printed
distinctive
warship
ambass
##roph
condem
tack
mainland
rico
nik
guitarist
sony
orth
173
ferry
observations
bonus
bench
##thel
arizona
bun
##tha
chick
yu
coron
restricted
toy
##unes
characterized
##ih
##father
constitutional
planets
vast
stere
liberty
excellent
##inations
crus
ranging
bald
visiting
dylan
sitting
spend
##ieties
##ucing
commanding
##lings
pearl
jury
lt
##equ
revival
definition
phenom
bra
maur
fixed
pad
rings
##rants
##ova
wilhel
vib
plut
wine
##idency
meetings
fault
nominations
holiday
tiss
threw
explain
explains
bombing
athletes
ultimate
wait
##orship
dominant
##cements
carriers
##ensis
pill
statistics
demonstrated
amateur
acoust
sig
arrive
oklah
illegal
clash
174
broadway
mate
danger
##ni
marvel
educational
parliamentary
##unction
artific
austrian
cruc
bone
##owed
founding
metall
hav
hidden
yield
mrs
switzer
##ski
dust
consol
rook
artwork
grave
coat
northward
prepare
heir
1901
arist
aerial
steps
census
abund
155
switzerland
##storm
flower
murphy
bombs
predicted
talking
tig
beam
terr
vii
check
amy
experimental
declar
##away
peaking
reaches
barry
conversion
dread
slave
delaware
bour
##esth
millimet
predict
ticket
overt
feeding
conscious
lanes
abc
households
##uma
disagre
symphony
ballad
apartment
oklahoma
##uations
chest
accum
ml
crush
innoc
##eled
westward
feels
liquid
##whel
baker
seriously
lon
obtain
backed
repeatedly
useful
membership
audition
predecessor
##onian
swimming
preserv
wells
##ika
considering
choose
kurt
##atched
1903
copper
layer
alleg
##here
##gie
congreg
patron
1902
bones
##́l
bod
consequently
circumstances
##enberg
attained
thanks
prost
perry
lithu
fasc
todd
delivery
##suing
melody
physics
kids
##ante
##mal
##je
memor
revolt
perceived
mong
vig
looks
millenn
##riptions
leslie
##icut
##iders
anat
shaw
madag
berg
blu
##lined
##bec
stones
##umps
pages
##oned
sunk
flowers
##estyle
valuable
bernard
##ding
subsid
hann
improvements
tokyo
comed
remarked
duo
denn
##urer
ask
mini
tactics
retain
compens
engage
denmark
eve
turret
pyr
guar
jonathan
patt
dinosaur
towers
battlec
172
##ridge
promised
personally
airlines
johnny
juan
landscape
battlecru
renov
atlanta
edwards
musician
152
theatrical
dawn
execution
enlisted
airfield
obst
rihanna
hog
wis
##enson
barn
spart
extract
##shore
spa
compound
manga
168
##apolis
demands
ment
sixteen
strengthened
nixon
travels
campaigns
profile
sung
##mingham
qualified
ral
##rim
explan
len
elevation
parent
raising
funny
mechanical
isa
rede
demanded
papers
##inian
illustrated
##bard
arnold
succession
morph
##abs
burns
va
##adi
aggreg
nut
waste
interpretation
pitts
insisted
clothing
##rome
##mith
keith
##ti
ms
##ci
worship
garn
##rows
##low
compounds
jimmy
canter
extend
ruling
electricity
##di
##bird
beats
settlers
mant
##din
baron
mirror
##oons
kam
##asa
orn
##ensively
lying
##grad
dressed
judg
bak
sak
##ghan
phoenix
hood
fewer
gau
##erb
struggled
glee
cash
109
tales
vik
hybr
encl
166
demolished
succeed
erected
patch
persons
ov
##lain
##osa
trading
stronger
fourteen
passion
py
##acked
decisions
increases
riding
shift
paras
insects
cutting
neu
yankees
##odox
tracy
removal
##ugg
external
objective
surpass
mills
birmingham
daughters
pursue
##jection
unre
meter
advertising
culmin
##acre
trench
defences
superst
warfare
burial
##agh
##berts
deterior
mccartney
bobby
developers
lights
obama
163
wayne
exactly
resol
overwhel
killer
concentration
discovers
mercury
comprom
griff
##folk
organised
affect
magazines
fate
##nik
bacter
fossil
buddh
altered
defending
ranges
fis
venue
##xual
hydrogen
wealthy
employment
##lock
ninete
hudson
dall
fold
electrical
gosp
loved
##esty
approaching
##cles
eval
debt
exercise
armoured
adventures
raids
stal
karl
establishing
##ipe
exposure
##enna
investment
commentary
limits
hearts
##zzle
madagascar
ced
tong
rend
profit
rachel
mood
disl
shak
connecticut
jurisd
guarant
##ike
##iable
spur
jup
connecting
aggressive
hence
vanc
epic
aspect
mature
centers
ontar
partial
qualifying
architectural
##eon
##ardo
parach
##etta
##iot
dimension
canterbury
ontario
outd
##tle
friday
morrison
trick
indicating
dwarf
prove
ongoing
exter
maid
edited
markets
gods
determin
traveling
shaft
napoleon
arrangements
isot
extrat
shorter
radiation
announcement
improvement
withdrawal
##aux
sultan
##mund
unless
volumes
celebrated
appropriate
acoustic
stationed
evacuated
##stan
pruss
dissipated
acknowledged
precipitation
extratropical
putting
bomber
##ulous
sciences
slavery
survival
permitted
dict
tap
tube
##ó
preparations
##ifies
discussion
spac
realized
silent
nurs
##rine
youngest
tna
##yll
placing
initiated
dubbed
##caa
##efa
graduated
honey
##anger
kills
cob
mcm
hosts
recovery
photographs
cort
##ouver
cler
voices
hardy
industries
stol
104
translation
graduate
gary
fract
uefa
##itis
##bow
attitude
##uese
climb
synthes
vancouver
requires
strongest
burning
affili
confront
originated
voyage
##anz
##itudes
estimates
vamp
jupiter
##no
harmon
reporter
angl
111
##feld
trium
##amental
referring
350
echo
tubes
trough
knock
conventional
##ori
transit
donated
sonic
exclusive
exha
nerv
##hem
perp
edin
devast
tooth
##hard
endors
expert
tours
supplement
signature
specimen
##gle
truck
##oven
colleagues
closest
##autical
##itively
parody
guinea
minority
pakistan
southeastern
##pled
promotional
axis
bearing
indicates
decide
cord
1860
drinking
earthquake
kap
recall
watershed
scattered
portuguese
rp
manor
visits
bradman
##hous
gren
legit
challenged
attending
luke
density
wool
##ivation
heaven
gathered
alice
lawyer
merely
concentrated
supplied
users
programming
emphasis
collapsed
æthel
identify
cruise
dwight
traditionally
coalition
##opp
overlo
facult
territorial
ncaa
governments
biographer
annually
screenplay
democrats
cotton
##ingham
diff
loud
1893
beng
##uration
indigen
principles
artificial
##adier
smart
achievement
cousin
devil
mend
##anton
photography
sacrif
##imented
troub
fleming
1896
celt
##hamm
fore
publisher
portrait
171
provinces
optim
prisoner
alpha
reflect
##case
prices
predators
127
afghan
offense
oliver
chemistry
hampshire
##otte
##hips
declaration
seized
terrain
edinburgh
accompanying
topped
applications
talks
competing
pond
##haw
failing
fed
turner
reinforcements
indigenous
##agger
##ographical
investigate
veloc
reverse
mosc
maya
uranium
roberts
monte
universities
stuff
portrayal
sending
1898
terminal
tenure
rangers
penet
victorian
chord
broadcasting
gaz
##irm
output
revenge
regime
reconstruction
hug
162
experiments
volunteers
consolid
lac
beneath
161
flooded
certainly
recurring
hitting
##apy
guid
##iar
hatch
dual
##oa
apoll
##iti
sharks
chronic
branches
argentina
##igible
contribution
proclaim
jama
yam
obsc
juven
voting
yorkshire
ceased
lords
ralph
lav
assembled
imagery
ibn
tribe
lip
craig
questioned
songwriter
##ellation
decay
hyper
rio
spaces
strange
texts
neil
orle
historically
pas
masters
drummer
bosn
revised
commenting
bann
virus
impression
infrast
underwent
##owski
dors
conce
jerry
##aks
fi
stops
##rik
christianity
components
spy
destroying
millennium
reward
reorgan
108
cable
serge
reducing
reduction
choir
component
telegraph
stamp
##ception
##ović
replied
devices
unclear
cole
1899
duration
##angel
nice
##ista
ruler
bub
fulf
##atra
##cha
pall
##idal
##ayan
queensland
collins
glen
approaches
consistent
##ologies
bend
induct
identical
intervention
marge
marines
multiplayer
buffalo
ambassador
samples
tough
corrid
patients
lloyd
gaming
##gom
finland
humor
frequency
proposals
##pler
ted
##soft
partis
requirements
redes
arrives
traded
surrendered
rena
sings
chess
##oting
spoken
dak
##ng
169
lifetime
reed
##active
##ensed
supern
mond
##atever
vern
norfolk
howe
platforms
conceived
unw
turkey
hawaii
##itary
plaza
winners
beth
whatever
researchers
wii
rejo
springs
cros
##andy
distant
romance
donald
burton
banned
##ricts
cav
##ycl
representation
nicholas
exclusively
##place
practical
robin
suddenly
chore
connections
pete
conquest
belgian
1850
celebration
crimes
warriors
commanders
##run
##eto
faces
burned
ub
prest
finance
113
collections
rebels
continuous
bennett
resur
##ibilities
varied
catherine
##hen
##illes
##phal
106
##itarian
vincent
districts
lighting
competitive
praising
scientology
indu
mansion
fern
##ecution
flames
gender
invent
confidence
shoulder
reactions
darwin
thorough
guild
speaker
progressive
manif
lux
##hammad
bast
pod
sample
abuse
camps
reviewed
significance
advised
prix
taxes
##iciency
##rov
102
considers
peters
##uras
sailing
boilers
kitch
seal
worn
intersects
translated
hughes
vulnerable
davies
1897
shares
proceeded
dischar
eleph
##acles
presidency
ide
harvard
judges
##ffield
filmm
understood
handled
opportunities
ministers
medals
presentation
##ellor
pairs
##oly
##roc
companion
bind
##iy
gif
##erning
geoff
marshal
manufacturing
numbered
167
bombardment
crops
infrastructure
rivalry
enthusi
phrase
##enburg
fairly
observation
oslo
racial
saxon
nautical
flows
rocky
petition
smoke
stress
swiss
indonesia
foster
##itely
respective
unexp
vital
154
tai
##uating
exceed
descent
grossing
antonio
moscow
peng
cleared
cyclones
mim
proof
transported
jtw
uncon
intermedi
121
commissioner
cameron
jtwc
alg
assum
extending
traditions
knights
rehears
cards
exile
spong
eis
protests
unlik
##strong
pittsburgh
##igs
reinforced
hide
153
mystery
kos
##fc
##olds
drain
skill
structural
kate
toured
reich
scores
##ache
elite
##etheless
extinct
explicit
nonetheless
cuts
tonnes
ip
toler
commenced
drink
characteristic
random
gift
exists
gest
troop
decorated
participation
rivals
terry
kon
boom
relatives
maintaining
tiger
restore
nur
tested
alaska
##aha
navigation
##erce
daw
##berry
withdrawn
##pike
canyon
victim
cosm
cel
mp
##nought
wallace
answer
theories
relocated
convey
##ettes
dil
kane
absent
##ours
clan
guerr
fee
turnpike
reforms
preparing
blo
warnings
senators
eating
kan
airline
honours
bib
pse
microsoft
inquir
hollow
bin
##hum
stef
monthly
##inge
##illo
syria
writings
##atsu
##minster
nord
##icing
##ario
richmond
displaced
##itious
upset
republicans
sculpture
beck
empty
unexpected
##enger
coaches
carries
archaeological
malaysia
heath
manip
interviews
ferr
clothes
nev
tract
